<?xml version="1.0"?>
<opencv_storage>
<cascade>
  <stageType>BOOST</stageType>
  <featureType>HAAR</featureType>
  <height>20</height>
  <width>12</width>
  <stageParams>
    <boostType>GAB</boostType>
    <minHitRate>9.9000000953674316e-01</minHitRate>
    <maxFalseAlarm>1.0000000149011612e-01</maxFalseAlarm>
    <weightTrimRate>9.4999999999999996e-01</weightTrimRate>
    <maxDepth>1</maxDepth>
    <maxWeakCount>100</maxWeakCount></stageParams>
  <featureParams>
    <maxCatCount>0</maxCatCount>
    <featSize>1</featSize>
    <mode>BASIC</mode></featureParams>
  <stageNum>10</stageNum>
  <stages>
    <!-- stage 0 -->
    <_>
      <maxWeakCount>23</maxWeakCount>
      <stageThreshold>-9.3892830610275269e-01</stageThreshold>
      <weakClassifiers>
        <_>
          <internalNodes>
            0 -1 376 -3.1894415616989136e-02</internalNodes>
          <leafValues>
            4.4307690858840942e-01 -6.4875000715255737e-01</leafValues></_>
        <_>
          <internalNodes>
            0 -1 332 -7.7233776450157166e-02</internalNodes>
          <leafValues>
            -6.1120086908340454e-01 4.3704274296760559e-01</leafValues></_>
        <_>
          <internalNodes>
            0 -1 44 -2.5074234232306480e-02</internalNodes>
          <leafValues>
            6.1805236339569092e-01 -2.9948174953460693e-01</leafValues></_>
        <_>
          <internalNodes>
            0 -1 570 -1.0512528568506241e-01</internalNodes>
          <leafValues>
            -9.3470847606658936e-01 1.7476594448089600e-01</leafValues></_>
        <_>
          <internalNodes>
            0 -1 278 5.0944234244525433e-03</internalNodes>
          <leafValues>
            -3.6667698621749878e-01 4.2358806729316711e-01</leafValues></_>
        <_>
          <internalNodes>
            0 -1 189 -6.8274070508778095e-03</internalNodes>
          <leafValues>
            4.7758731245994568e-01 -3.1243053078651428e-01</leafValues></_>
        <_>
          <internalNodes>
            0 -1 344 6.0781929641962051e-03</internalNodes>
          <leafValues>
            -3.4302723407745361e-01 4.2528676986694336e-01</leafValues></_>
        <_>
          <internalNodes>
            0 -1 405 6.2103844247758389e-03</internalNodes>
          <leafValues>
            -3.3844476938247681e-01 3.5403531789779663e-01</leafValues></_>
        <_>
          <internalNodes>
            0 -1 256 -1.4380829036235809e-01</internalNodes>
          <leafValues>
            5.9989559650421143e-01 -1.7819266021251678e-01</leafValues></_>
        <_>
          <internalNodes>
            0 -1 116 8.7911978363990784e-02</internalNodes>
          <leafValues>
            -2.1353591978549957e-01 6.2556833028793335e-01</leafValues></_>
        <_>
          <internalNodes>
            0 -1 246 -2.1220572292804718e-02</internalNodes>
          <leafValues>
            5.1094871759414673e-01 -1.8338027596473694e-01</leafValues></_>
        <_>
          <internalNodes>
            0 -1 397 3.7191674113273621e-02</internalNodes>
          <leafValues>
            -1.7462591826915741e-01 5.8829563856124878e-01</leafValues></_>
        <_>
          <internalNodes>
            0 -1 56 1.9407536834478378e-02</internalNodes>
          <leafValues>
            -1.5335901081562042e-01 6.5308749675750732e-01</leafValues></_>
        <_>
          <internalNodes>
            0 -1 334 -1.4343814551830292e-01</internalNodes>
          <leafValues>
            5.6456488370895386e-01 -1.6421619057655334e-01</leafValues></_>
        <_>
          <internalNodes>
            0 -1 345 1.6239376273006201e-03</internalNodes>
          <leafValues>
            -3.3164957165718079e-01 3.2726770639419556e-01</leafValues></_>
        <_>
          <internalNodes>
            0 -1 242 1.4693262055516243e-02</internalNodes>
          <leafValues>
            -2.8985196352005005e-01 3.6529460549354553e-01</leafValues></_>
        <_>
          <internalNodes>
            0 -1 199 -5.5980724282562733e-03</internalNodes>
          <leafValues>
            3.3132034540176392e-01 -2.9243609309196472e-01</leafValues></_>
        <_>
          <internalNodes>
            0 -1 69 -3.3862113952636719e-02</internalNodes>
          <leafValues>
            5.3570181131362915e-01 -2.0580498874187469e-01</leafValues></_>
        <_>
          <internalNodes>
            0 -1 127 -1.8001697957515717e-01</internalNodes>
          <leafValues>
            -8.9430093765258789e-01 1.0899703949689865e-01</leafValues></_>
        <_>
          <internalNodes>
            0 -1 459 6.9491082103922963e-04</internalNodes>
          <leafValues>
            -3.0986458063125610e-01 3.5734459757804871e-01</leafValues></_>
        <_>
          <internalNodes>
            0 -1 518 -2.7164962142705917e-02</internalNodes>
          <leafValues>
            4.6428325772285461e-01 -1.9785827398300171e-01</leafValues></_>
        <_>
          <internalNodes>
            0 -1 9 2.9874611645936966e-02</internalNodes>
          <leafValues>
            -1.9133445620536804e-01 4.6300533413887024e-01</leafValues></_>
        <_>
          <internalNodes>
            0 -1 26 -2.3934397846460342e-02</internalNodes>
          <leafValues>
            6.0949766635894775e-01 -2.0506803691387177e-01</leafValues></_></weakClassifiers></_>
    <!-- stage 1 -->
    <_>
      <maxWeakCount>37</maxWeakCount>
      <stageThreshold>-8.6808353662490845e-01</stageThreshold>
      <weakClassifiers>
        <_>
          <internalNodes>
            0 -1 373 -7.2419762611389160e-02</internalNodes>
          <leafValues>
            2.5884017348289490e-01 -6.0466623306274414e-01</leafValues></_>
        <_>
          <internalNodes>
            0 -1 17 -1.4068220555782318e-01</internalNodes>
          <leafValues>
            -2.6363539695739746e-01 4.4507986307144165e-01</leafValues></_>
        <_>
          <internalNodes>
            0 -1 329 9.5593705773353577e-03</internalNodes>
          <leafValues>
            -2.1052816510200500e-01 4.7265559434890747e-01</leafValues></_>
        <_>
          <internalNodes>
            0 -1 346 2.6656012050807476e-03</internalNodes>
          <leafValues>
            -3.3256924152374268e-01 2.6626795530319214e-01</leafValues></_>
        <_>
          <internalNodes>
            0 -1 476 -6.0574166476726532e-02</internalNodes>
          <leafValues>
            6.1986911296844482e-01 -1.4736835658550262e-01</leafValues></_>
        <_>
          <internalNodes>
            0 -1 138 -6.5663611888885498e-01</internalNodes>
          <leafValues>
            -7.7192634344100952e-01 1.4743983745574951e-01</leafValues></_>
        <_>
          <internalNodes>
            0 -1 383 -8.6088366806507111e-03</internalNodes>
          <leafValues>
            5.2088677883148193e-01 -1.7146937549114227e-01</leafValues></_>
        <_>
          <internalNodes>
            0 -1 262 -5.8290638029575348e-02</internalNodes>
          <leafValues>
            6.5166634321212769e-01 -1.4642168581485748e-01</leafValues></_>
        <_>
          <internalNodes>
            0 -1 65 1.2522217631340027e-01</internalNodes>
          <leafValues>
            -1.0643871873617172e-01 7.3184710741043091e-01</leafValues></_>
        <_>
          <internalNodes>
            0 -1 228 1.2866097502410412e-02</internalNodes>
          <leafValues>
            -2.8320723772048950e-01 3.1339201331138611e-01</leafValues></_>
        <_>
          <internalNodes>
            0 -1 125 -2.4012294597923756e-03</internalNodes>
          <leafValues>
            2.2709994018077850e-01 -3.3640131354331970e-01</leafValues></_>
        <_>
          <internalNodes>
            0 -1 76 -1.7876109108328819e-02</internalNodes>
          <leafValues>
            -9.1309702396392822e-01 7.6647236943244934e-02</leafValues></_>
        <_>
          <internalNodes>
            0 -1 106 -1.7213802784681320e-02</internalNodes>
          <leafValues>
            -7.8411167860031128e-01 5.2228387445211411e-02</leafValues></_>
        <_>
          <internalNodes>
            0 -1 502 -4.3773330748081207e-02</internalNodes>
          <leafValues>
            4.8385763168334961e-01 -1.3780052959918976e-01</leafValues></_>
        <_>
          <internalNodes>
            0 -1 580 -5.3765224292874336e-03</internalNodes>
          <leafValues>
            -8.4202808141708374e-01 8.9054480195045471e-02</leafValues></_>
        <_>
          <internalNodes>
            0 -1 231 -3.3687166869640350e-02</internalNodes>
          <leafValues>
            5.2906864881515503e-01 -1.3838508725166321e-01</leafValues></_>
        <_>
          <internalNodes>
            0 -1 609 -1.8440465210005641e-03</internalNodes>
          <leafValues>
            -6.1592608690261841e-01 1.1143570393323898e-01</leafValues></_>
        <_>
          <internalNodes>
            0 -1 197 1.3345213606953621e-02</internalNodes>
          <leafValues>
            -1.5033999085426331e-01 4.9745705723762512e-01</leafValues></_>
        <_>
          <internalNodes>
            0 -1 599 -1.7932982882484794e-03</internalNodes>
          <leafValues>
            -6.9737523794174194e-01 1.1153555661439896e-01</leafValues></_>
        <_>
          <internalNodes>
            0 -1 610 1.6217915108427405e-03</internalNodes>
          <leafValues>
            9.1216675937175751e-02 -6.3509202003479004e-01</leafValues></_>
        <_>
          <internalNodes>
            0 -1 362 4.3510934337973595e-03</internalNodes>
          <leafValues>
            -2.0551034808158875e-01 3.4230509400367737e-01</leafValues></_>
        <_>
          <internalNodes>
            0 -1 357 9.5326527953147888e-03</internalNodes>
          <leafValues>
            -2.0806911587715149e-01 3.9562347531318665e-01</leafValues></_>
        <_>
          <internalNodes>
            0 -1 340 4.3609686195850372e-02</internalNodes>
          <leafValues>
            6.8392060697078705e-02 -9.3202573060989380e-01</leafValues></_>
        <_>
          <internalNodes>
            0 -1 91 -3.4241373650729656e-03</internalNodes>
          <leafValues>
            -7.9570311307907104e-01 5.7861447334289551e-02</leafValues></_>
        <_>
          <internalNodes>
            0 -1 46 1.9635811448097229e-01</internalNodes>
          <leafValues>
            -1.4320798218250275e-01 5.2633470296859741e-01</leafValues></_>
        <_>
          <internalNodes>
            0 -1 294 -2.6230474933981895e-02</internalNodes>
          <leafValues>
            4.3092671036720276e-01 -1.5698273479938507e-01</leafValues></_>
        <_>
          <internalNodes>
            0 -1 8 3.1603425741195679e-02</internalNodes>
          <leafValues>
            -1.2351585924625397e-01 4.8928466439247131e-01</leafValues></_>
        <_>
          <internalNodes>
            0 -1 23 3.9788372814655304e-03</internalNodes>
          <leafValues>
            -1.9974212348461151e-01 3.1903856992721558e-01</leafValues></_>
        <_>
          <internalNodes>
            0 -1 435 7.1560919284820557e-02</internalNodes>
          <leafValues>
            -1.6579127311706543e-01 4.0134504437446594e-01</leafValues></_>
        <_>
          <internalNodes>
            0 -1 605 9.9482049699872732e-04</internalNodes>
          <leafValues>
            1.4038850367069244e-01 -4.9933290481567383e-01</leafValues></_>
        <_>
          <internalNodes>
            0 -1 568 -1.0474623180925846e-02</internalNodes>
          <leafValues>
            3.5637760162353516e-01 -1.8782341480255127e-01</leafValues></_>
        <_>
          <internalNodes>
            0 -1 450 1.6464504878968000e-03</internalNodes>
          <leafValues>
            -2.1956832706928253e-01 2.9013660550117493e-01</leafValues></_>
        <_>
          <internalNodes>
            0 -1 275 -2.5463964790105820e-02</internalNodes>
          <leafValues>
            4.5330286026000977e-01 -1.3557502627372742e-01</leafValues></_>
        <_>
          <internalNodes>
            0 -1 579 -6.3115349039435387e-03</internalNodes>
          <leafValues>
            -8.9258635044097900e-01 7.3752060532569885e-02</leafValues></_>
        <_>
          <internalNodes>
            0 -1 36 5.8286944404244423e-03</internalNodes>
          <leafValues>
            -1.7297708988189697e-01 3.6987197399139404e-01</leafValues></_>
        <_>
          <internalNodes>
            0 -1 599 3.6134868860244751e-03</internalNodes>
          <leafValues>
            6.9021113216876984e-02 -8.9372760057449341e-01</leafValues></_>
        <_>
          <internalNodes>
            0 -1 86 1.9527964759618044e-03</internalNodes>
          <leafValues>
            1.2309836596250534e-01 -4.1682854294776917e-01</leafValues></_></weakClassifiers></_>
    <!-- stage 2 -->
    <_>
      <maxWeakCount>44</maxWeakCount>
      <stageThreshold>-8.4428137540817261e-01</stageThreshold>
      <weakClassifiers>
        <_>
          <internalNodes>
            0 -1 384 -7.5639644637703896e-03</internalNodes>
          <leafValues>
            -4.9560722708702087e-01 6.6349208354949951e-01</leafValues></_>
        <_>
          <internalNodes>
            0 -1 140 2.3366022855043411e-02</internalNodes>
          <leafValues>
            -2.5722432136535645e-01 4.8573443293571472e-01</leafValues></_>
        <_>
          <internalNodes>
            0 -1 605 -1.3769611250609159e-03</internalNodes>
          <leafValues>
            -5.8935976028442383e-01 1.7097769677639008e-01</leafValues></_>
        <_>
          <internalNodes>
            0 -1 163 -5.5092298425734043e-03</internalNodes>
          <leafValues>
            -6.7657715082168579e-01 1.4397275447845459e-01</leafValues></_>
        <_>
          <internalNodes>
            0 -1 241 1.3257644139230251e-02</internalNodes>
          <leafValues>
            -3.8457188010215759e-01 2.3890790343284607e-01</leafValues></_>
        <_>
          <internalNodes>
            0 -1 200 -2.0774006843566895e-02</internalNodes>
          <leafValues>
            4.0336361527442932e-01 -1.8303151428699493e-01</leafValues></_>
        <_>
          <internalNodes>
            0 -1 97 -1.2703045504167676e-03</internalNodes>
          <leafValues>
            -5.0156891345977783e-01 1.6994643211364746e-01</leafValues></_>
        <_>
          <internalNodes>
            0 -1 69 -5.1933221518993378e-02</internalNodes>
          <leafValues>
            5.4614621400833130e-01 -1.5084990859031677e-01</leafValues></_>
        <_>
          <internalNodes>
            0 -1 221 -5.0792366266250610e-02</internalNodes>
          <leafValues>
            -3.8272318243980408e-01 1.8042485415935516e-01</leafValues></_>
        <_>
          <internalNodes>
            0 -1 331 -1.7639463767409325e-02</internalNodes>
          <leafValues>
            5.3597879409790039e-01 -1.1764810979366302e-01</leafValues></_>
        <_>
          <internalNodes>
            0 -1 41 2.1042637526988983e-02</internalNodes>
          <leafValues>
            -1.2817402184009552e-01 4.3130955100059509e-01</leafValues></_>
        <_>
          <internalNodes>
            0 -1 70 -5.5924411863088608e-03</internalNodes>
          <leafValues>
            -6.3551616668701172e-01 1.0534144192934036e-01</leafValues></_>
        <_>
          <internalNodes>
            0 -1 542 4.5844502747058868e-03</internalNodes>
          <leafValues>
            -2.0314785838127136e-01 2.9020863771438599e-01</leafValues></_>
        <_>
          <internalNodes>
            0 -1 445 1.2700809165835381e-02</internalNodes>
          <leafValues>
            7.5761742889881134e-02 -7.8430873155593872e-01</leafValues></_>
        <_>
          <internalNodes>
            0 -1 176 1.7324171960353851e-02</internalNodes>
          <leafValues>
            5.6227352470159531e-02 -7.7318370342254639e-01</leafValues></_>
        <_>
          <internalNodes>
            0 -1 204 9.8709044978022575e-03</internalNodes>
          <leafValues>
            -1.2938725948333740e-01 4.5375868678092957e-01</leafValues></_>
        <_>
          <internalNodes>
            0 -1 97 5.6786590721458197e-04</internalNodes>
          <leafValues>
            1.7203444242477417e-01 -3.4548801183700562e-01</leafValues></_>
        <_>
          <internalNodes>
            0 -1 236 3.4839073196053505e-03</internalNodes>
          <leafValues>
            -2.0262792706489563e-01 2.7839446067810059e-01</leafValues></_>
        <_>
          <internalNodes>
            0 -1 590 -9.3357032164931297e-04</internalNodes>
          <leafValues>
            -4.1879415512084961e-01 1.3948410749435425e-01</leafValues></_>
        <_>
          <internalNodes>
            0 -1 524 -8.6030289530754089e-03</internalNodes>
          <leafValues>
            -6.9446712732315063e-01 6.2212761491537094e-02</leafValues></_>
        <_>
          <internalNodes>
            0 -1 292 -7.1372068487107754e-04</internalNodes>
          <leafValues>
            2.3813071846961975e-01 -2.0338906347751617e-01</leafValues></_>
        <_>
          <internalNodes>
            0 -1 255 6.7072259262204170e-03</internalNodes>
          <leafValues>
            -1.8522988259792328e-01 2.9009878635406494e-01</leafValues></_>
        <_>
          <internalNodes>
            0 -1 111 1.4576319372281432e-03</internalNodes>
          <leafValues>
            1.1397316306829453e-01 -4.8687300086021423e-01</leafValues></_>
        <_>
          <internalNodes>
            0 -1 263 1.0819488018751144e-01</internalNodes>
          <leafValues>
            -8.1153623759746552e-02 7.4346321821212769e-01</leafValues></_>
        <_>
          <internalNodes>
            0 -1 575 -3.0910432338714600e-02</internalNodes>
          <leafValues>
            4.3492761254310608e-01 -1.1566037684679031e-01</leafValues></_>
        <_>
          <internalNodes>
            0 -1 574 1.2043591588735580e-02</internalNodes>
          <leafValues>
            -1.5012077987194061e-01 3.7260416150093079e-01</leafValues></_>
        <_>
          <internalNodes>
            0 -1 172 -1.4287526719272137e-03</internalNodes>
          <leafValues>
            -4.4083252549171448e-01 1.2390274554491043e-01</leafValues></_>
        <_>
          <internalNodes>
            0 -1 217 -3.7519198656082153e-01</internalNodes>
          <leafValues>
            -9.9199301004409790e-01 4.5302271842956543e-02</leafValues></_>
        <_>
          <internalNodes>
            0 -1 390 -5.4240833967924118e-02</internalNodes>
          <leafValues>
            7.5324243307113647e-01 -8.4202863276004791e-02</leafValues></_>
        <_>
          <internalNodes>
            0 -1 218 -4.4719703495502472e-02</internalNodes>
          <leafValues>
            2.7370023727416992e-01 -1.8542732298374176e-01</leafValues></_>
        <_>
          <internalNodes>
            0 -1 470 -1.3772021979093552e-02</internalNodes>
          <leafValues>
            -8.9186900854110718e-01 5.2885271608829498e-02</leafValues></_>
        <_>
          <internalNodes>
            0 -1 551 9.1914823278784752e-03</internalNodes>
          <leafValues>
            5.4057888686656952e-02 -6.7015469074249268e-01</leafValues></_>
        <_>
          <internalNodes>
            0 -1 215 -1.1181860230863094e-02</internalNodes>
          <leafValues>
            5.1437461376190186e-01 -9.8624691367149353e-02</leafValues></_>
        <_>
          <internalNodes>
            0 -1 261 -1.7283970117568970e-01</internalNodes>
          <leafValues>
            -5.6665487587451935e-02 8.0119943618774414e-01</leafValues></_>
        <_>
          <internalNodes>
            0 -1 16 9.9641285836696625e-02</internalNodes>
          <leafValues>
            -2.1329453587532043e-01 2.6475954055786133e-01</leafValues></_>
        <_>
          <internalNodes>
            0 -1 409 -5.3813006728887558e-02</internalNodes>
          <leafValues>
            3.8551726937294006e-01 -1.2995907664299011e-01</leafValues></_>
        <_>
          <internalNodes>
            0 -1 244 -7.1704201400279999e-03</internalNodes>
          <leafValues>
            -5.5606585741043091e-01 9.3769833445549011e-02</leafValues></_>
        <_>
          <internalNodes>
            0 -1 557 -8.9946128427982330e-03</internalNodes>
          <leafValues>
            -8.0599617958068848e-01 5.2235148847103119e-02</leafValues></_>
        <_>
          <internalNodes>
            0 -1 355 3.8085430860519409e-03</internalNodes>
          <leafValues>
            -1.4754484593868256e-01 3.5760292410850525e-01</leafValues></_>
        <_>
          <internalNodes>
            0 -1 580 -3.1686115544289351e-03</internalNodes>
          <leafValues>
            -5.8219605684280396e-01 1.0028217732906342e-01</leafValues></_>
        <_>
          <internalNodes>
            0 -1 111 -3.1042406335473061e-03</internalNodes>
          <leafValues>
            -6.4466005563735962e-01 7.0125825703144073e-02</leafValues></_>
        <_>
          <internalNodes>
            0 -1 193 -5.0911121070384979e-02</internalNodes>
          <leafValues>
            4.1502571105957031e-01 -1.3374131917953491e-01</leafValues></_>
        <_>
          <internalNodes>
            0 -1 20 -2.3534553125500679e-02</internalNodes>
          <leafValues>
            5.4596203565597534e-01 -1.1305195093154907e-01</leafValues></_>
        <_>
          <internalNodes>
            0 -1 58 1.6268023848533630e-01</internalNodes>
          <leafValues>
            -9.1991230845451355e-02 6.0766655206680298e-01</leafValues></_></weakClassifiers></_>
    <!-- stage 3 -->
    <_>
      <maxWeakCount>60</maxWeakCount>
      <stageThreshold>-7.4694561958312988e-01</stageThreshold>
      <weakClassifiers>
        <_>
          <internalNodes>
            0 -1 419 -3.9152003824710846e-02</internalNodes>
          <leafValues>
            1.7647059261798859e-01 -5.3115361928939819e-01</leafValues></_>
        <_>
          <internalNodes>
            0 -1 105 -2.9086738824844360e-01</internalNodes>
          <leafValues>
            6.1294269561767578e-01 -1.5503780543804169e-01</leafValues></_>
        <_>
          <internalNodes>
            0 -1 212 1.0098151862621307e-02</internalNodes>
          <leafValues>
            -2.5712767243385315e-01 3.0853179097175598e-01</leafValues></_>
        <_>
          <internalNodes>
            0 -1 198 -1.6623143106698990e-02</internalNodes>
          <leafValues>
            4.7329029440879822e-01 -1.1209180951118469e-01</leafValues></_>
        <_>
          <internalNodes>
            0 -1 80 1.1998208938166499e-03</internalNodes>
          <leafValues>
            1.4113923907279968e-01 -4.7355782985687256e-01</leafValues></_>
        <_>
          <internalNodes>
            0 -1 80 -2.8984800446778536e-03</internalNodes>
          <leafValues>
            -6.9679641723632813e-01 9.8871342837810516e-02</leafValues></_>
        <_>
          <internalNodes>
            0 -1 133 -7.3818162083625793e-02</internalNodes>
          <leafValues>
            7.5185000896453857e-01 -7.1739889681339264e-02</leafValues></_>
        <_>
          <internalNodes>
            0 -1 57 -8.2683619111776352e-03</internalNodes>
          <leafValues>
            -8.0411469936370850e-01 7.8459776937961578e-02</leafValues></_>
        <_>
          <internalNodes>
            0 -1 412 -3.5913046449422836e-02</internalNodes>
          <leafValues>
            -6.9561892747879028e-01 7.9496130347251892e-02</leafValues></_>
        <_>
          <internalNodes>
            0 -1 268 -1.9578021019697189e-02</internalNodes>
          <leafValues>
            5.5398565530776978e-01 -1.1839211732149124e-01</leafValues></_>
        <_>
          <internalNodes>
            0 -1 208 5.6872121989727020e-02</internalNodes>
          <leafValues>
            -8.0855041742324829e-02 5.9262663125991821e-01</leafValues></_>
        <_>
          <internalNodes>
            0 -1 516 -9.6871573477983475e-03</internalNodes>
          <leafValues>
            -9.1940003633499146e-01 5.7128030806779861e-02</leafValues></_>
        <_>
          <internalNodes>
            0 -1 99 -2.1918097045272589e-03</internalNodes>
          <leafValues>
            -6.7945325374603271e-01 6.4203135669231415e-02</leafValues></_>
        <_>
          <internalNodes>
            0 -1 354 -1.4212233945727348e-03</internalNodes>
          <leafValues>
            2.0183707773685455e-01 -2.4346807599067688e-01</leafValues></_>
        <_>
          <internalNodes>
            0 -1 606 1.2437837431207299e-03</internalNodes>
          <leafValues>
            9.7840793430805206e-02 -4.9822825193405151e-01</leafValues></_>
        <_>
          <internalNodes>
            0 -1 606 -1.1660024756565690e-03</internalNodes>
          <leafValues>
            -4.4805008172988892e-01 9.3442738056182861e-02</leafValues></_>
        <_>
          <internalNodes>
            0 -1 67 2.6433303952217102e-02</internalNodes>
          <leafValues>
            -7.2368137538433075e-02 6.1970722675323486e-01</leafValues></_>
        <_>
          <internalNodes>
            0 -1 573 -2.4016575887799263e-02</internalNodes>
          <leafValues>
            4.4047552347183228e-01 -9.2747800052165985e-02</leafValues></_>
        <_>
          <internalNodes>
            0 -1 572 -2.7656784281134605e-02</internalNodes>
          <leafValues>
            6.6478151082992554e-01 -7.2158105671405792e-02</leafValues></_>
        <_>
          <internalNodes>
            0 -1 530 -2.9395639430731535e-03</internalNodes>
          <leafValues>
            4.2970111966133118e-01 -9.4968207180500031e-02</leafValues></_>
        <_>
          <internalNodes>
            0 -1 602 -3.5784221254289150e-03</internalNodes>
          <leafValues>
            -8.4222233295440674e-01 5.4337922483682632e-02</leafValues></_>
        <_>
          <internalNodes>
            0 -1 529 7.5855534523725510e-03</internalNodes>
          <leafValues>
            5.4872594773769379e-02 -6.0577660799026489e-01</leafValues></_>
        <_>
          <internalNodes>
            0 -1 121 -1.2095373123884201e-02</internalNodes>
          <leafValues>
            -5.5201377719640732e-02 9.6263396739959717e-01</leafValues></_>
        <_>
          <internalNodes>
            0 -1 501 3.5806838423013687e-02</internalNodes>
          <leafValues>
            -1.1425431072711945e-01 3.7160852551460266e-01</leafValues></_>
        <_>
          <internalNodes>
            0 -1 454 3.1608343124389648e-03</internalNodes>
          <leafValues>
            -1.0933784395456314e-01 3.2334983348846436e-01</leafValues></_>
        <_>
          <internalNodes>
            0 -1 473 -5.1625436171889305e-03</internalNodes>
          <leafValues>
            -5.6934827566146851e-01 6.8007923662662506e-02</leafValues></_>
        <_>
          <internalNodes>
            0 -1 85 -4.1333967819809914e-03</internalNodes>
          <leafValues>
            -8.0549097061157227e-01 3.7404429167509079e-02</leafValues></_>
        <_>
          <internalNodes>
            0 -1 250 2.1330115851014853e-03</internalNodes>
          <leafValues>
            -1.7576120793819427e-01 2.1284560859203339e-01</leafValues></_>
        <_>
          <internalNodes>
            0 -1 197 1.9321925938129425e-02</internalNodes>
          <leafValues>
            -7.6748445630073547e-02 4.5475900173187256e-01</leafValues></_>
        <_>
          <internalNodes>
            0 -1 422 -4.4364328496158123e-03</internalNodes>
          <leafValues>
            3.4217306971549988e-01 -1.0458710789680481e-01</leafValues></_>
        <_>
          <internalNodes>
            0 -1 555 -8.8858753442764282e-03</internalNodes>
          <leafValues>
            -8.3740150928497314e-01 4.6387411653995514e-02</leafValues></_>
        <_>
          <internalNodes>
            0 -1 277 -1.4535596966743469e-01</internalNodes>
          <leafValues>
            2.9953819513320923e-01 -1.3060806691646576e-01</leafValues></_>
        <_>
          <internalNodes>
            0 -1 188 2.1877493709325790e-03</internalNodes>
          <leafValues>
            -1.4081555604934692e-01 2.8816649317741394e-01</leafValues></_>
        <_>
          <internalNodes>
            0 -1 530 8.2599068991839886e-04</internalNodes>
          <leafValues>
            -1.2593400478363037e-01 3.2765984535217285e-01</leafValues></_>
        <_>
          <internalNodes>
            0 -1 404 -2.3426493629813194e-02</internalNodes>
          <leafValues>
            -7.3375028371810913e-01 5.1409084349870682e-02</leafValues></_>
        <_>
          <internalNodes>
            0 -1 539 -8.6906235665082932e-03</internalNodes>
          <leafValues>
            -4.8842433840036392e-02 9.2047768831253052e-01</leafValues></_>
        <_>
          <internalNodes>
            0 -1 549 -1.0250616818666458e-02</internalNodes>
          <leafValues>
            1.1935511231422424e-01 -4.0229961276054382e-01</leafValues></_>
        <_>
          <internalNodes>
            0 -1 321 -4.2210365645587444e-03</internalNodes>
          <leafValues>
            -6.3927352428436279e-02 7.5243246555328369e-01</leafValues></_>
        <_>
          <internalNodes>
            0 -1 11 -1.3425467908382416e-01</internalNodes>
          <leafValues>
            3.4232610464096069e-01 -1.0814858973026276e-01</leafValues></_>
        <_>
          <internalNodes>
            0 -1 392 2.2274563089013100e-02</internalNodes>
          <leafValues>
            4.5424848794937134e-02 -7.9091733694076538e-01</leafValues></_>
        <_>
          <internalNodes>
            0 -1 136 1.6644399613142014e-02</internalNodes>
          <leafValues>
            -1.0195288062095642e-01 4.1255185008049011e-01</leafValues></_>
        <_>
          <internalNodes>
            0 -1 12 1.5154222026467323e-02</internalNodes>
          <leafValues>
            -9.1719791293144226e-02 3.8071635365486145e-01</leafValues></_>
        <_>
          <internalNodes>
            0 -1 118 -2.6673399843275547e-03</internalNodes>
          <leafValues>
            -4.5287448167800903e-01 8.1103332340717316e-02</leafValues></_>
        <_>
          <internalNodes>
            0 -1 45 -8.2389703020453453e-03</internalNodes>
          <leafValues>
            -4.9759605526924133e-01 6.6363982856273651e-02</leafValues></_>
        <_>
          <internalNodes>
            0 -1 157 -2.9704044573009014e-03</internalNodes>
          <leafValues>
            -6.7646878957748413e-01 5.6217391043901443e-02</leafValues></_>
        <_>
          <internalNodes>
            0 -1 488 -2.1125404164195061e-03</internalNodes>
          <leafValues>
            3.4963205456733704e-01 -1.1736911535263062e-01</leafValues></_>
        <_>
          <internalNodes>
            0 -1 486 -3.0927756801247597e-02</internalNodes>
          <leafValues>
            -6.6818016767501831e-01 5.8277308940887451e-02</leafValues></_>
        <_>
          <internalNodes>
            0 -1 378 -4.4339317828416824e-02</internalNodes>
          <leafValues>
            6.6554021835327148e-01 -6.6882677376270294e-02</leafValues></_>
        <_>
          <internalNodes>
            0 -1 600 -7.5399456545710564e-04</internalNodes>
          <leafValues>
            -3.4573403000831604e-01 1.2173026055097580e-01</leafValues></_>
        <_>
          <internalNodes>
            0 -1 341 -1.5751030296087265e-02</internalNodes>
          <leafValues>
            5.2506750822067261e-01 -7.5936570763587952e-02</leafValues></_>
        <_>
          <internalNodes>
            0 -1 488 1.4444720000028610e-03</internalNodes>
          <leafValues>
            -1.0498224943876266e-01 3.2857230305671692e-01</leafValues></_>
        <_>
          <internalNodes>
            0 -1 196 -1.3986759586259723e-03</internalNodes>
          <leafValues>
            -3.0388209223747253e-01 1.1630975455045700e-01</leafValues></_>
        <_>
          <internalNodes>
            0 -1 363 -9.6111521124839783e-03</internalNodes>
          <leafValues>
            6.7374564707279205e-02 -5.6139749288558960e-01</leafValues></_>
        <_>
          <internalNodes>
            0 -1 423 -4.2785920202732086e-02</internalNodes>
          <leafValues>
            -6.2567524611949921e-02 7.2828906774520874e-01</leafValues></_>
        <_>
          <internalNodes>
            0 -1 436 3.0376898124814034e-02</internalNodes>
          <leafValues>
            -1.6169965267181396e-01 2.8808930516242981e-01</leafValues></_>
        <_>
          <internalNodes>
            0 -1 499 2.6849213987588882e-02</internalNodes>
          <leafValues>
            6.1411719769239426e-02 -7.4906897544860840e-01</leafValues></_>
        <_>
          <internalNodes>
            0 -1 117 -5.8554578572511673e-02</internalNodes>
          <leafValues>
            3.1474426388740540e-01 -1.2741166353225708e-01</leafValues></_>
        <_>
          <internalNodes>
            0 -1 108 -2.5065746158361435e-03</internalNodes>
          <leafValues>
            -4.3455934524536133e-01 9.2258848249912262e-02</leafValues></_>
        <_>
          <internalNodes>
            0 -1 424 -3.7785241147503257e-04</internalNodes>
          <leafValues>
            -2.2412125766277313e-01 1.5380279719829559e-01</leafValues></_>
        <_>
          <internalNodes>
            0 -1 220 1.4568276237696409e-03</internalNodes>
          <leafValues>
            -1.0987481474876404e-01 3.1802764534950256e-01</leafValues></_></weakClassifiers></_>
    <!-- stage 4 -->
    <_>
      <maxWeakCount>62</maxWeakCount>
      <stageThreshold>-7.4648302793502808e-01</stageThreshold>
      <weakClassifiers>
        <_>
          <internalNodes>
            0 -1 270 -1.2754224240779877e-02</internalNodes>
          <leafValues>
            8.0971661955118179e-03 -6.0063391923904419e-01</leafValues></_>
        <_>
          <internalNodes>
            0 -1 481 -1.0804763063788414e-02</internalNodes>
          <leafValues>
            3.1684318184852600e-01 -3.1497740745544434e-01</leafValues></_>
        <_>
          <internalNodes>
            0 -1 353 -3.0683674849569798e-03</internalNodes>
          <leafValues>
            3.0570337176322937e-01 -2.3264543712139130e-01</leafValues></_>
        <_>
          <internalNodes>
            0 -1 182 2.2184189874678850e-03</internalNodes>
          <leafValues>
            -1.8045032024383545e-01 3.2257434725761414e-01</leafValues></_>
        <_>
          <internalNodes>
            0 -1 428 -9.3657732009887695e-02</internalNodes>
          <leafValues>
            3.9491736888885498e-01 -1.2885735929012299e-01</leafValues></_>
        <_>
          <internalNodes>
            0 -1 320 -1.0644589550793171e-02</internalNodes>
          <leafValues>
            4.2319980263710022e-01 -1.0247977823019028e-01</leafValues></_>
        <_>
          <internalNodes>
            0 -1 310 -1.2088008224964142e-03</internalNodes>
          <leafValues>
            3.4322944283485413e-01 -1.4378859102725983e-01</leafValues></_>
        <_>
          <internalNodes>
            0 -1 160 -1.3172581791877747e-01</internalNodes>
          <leafValues>
            -9.0632474422454834e-01 7.9964451491832733e-02</leafValues></_>
        <_>
          <internalNodes>
            0 -1 152 8.0278329551219940e-03</internalNodes>
          <leafValues>
            -3.9400374889373779e-01 1.1098958551883698e-01</leafValues></_>
        <_>
          <internalNodes>
            0 -1 177 2.2847726941108704e-03</internalNodes>
          <leafValues>
            -1.5576425194740295e-01 2.6961693167686462e-01</leafValues></_>
        <_>
          <internalNodes>
            0 -1 316 -3.8600540719926357e-03</internalNodes>
          <leafValues>
            3.2895725965499878e-01 -1.4996363222599030e-01</leafValues></_>
        <_>
          <internalNodes>
            0 -1 63 5.1460694521665573e-03</internalNodes>
          <leafValues>
            -1.6935615241527557e-01 2.7853611111640930e-01</leafValues></_>
        <_>
          <internalNodes>
            0 -1 271 8.9632440358400345e-04</internalNodes>
          <leafValues>
            -1.5523985028266907e-01 2.7738919854164124e-01</leafValues></_>
        <_>
          <internalNodes>
            0 -1 505 -1.0127367451786995e-02</internalNodes>
          <leafValues>
            4.1842249035835266e-01 -1.0451282560825348e-01</leafValues></_>
        <_>
          <internalNodes>
            0 -1 132 -3.3756259828805923e-02</internalNodes>
          <leafValues>
            5.5013132095336914e-01 -6.8785443902015686e-02</leafValues></_>
        <_>
          <internalNodes>
            0 -1 191 -1.0332810878753662e-01</internalNodes>
          <leafValues>
            -7.0383477210998535e-01 5.7868730276823044e-02</leafValues></_>
        <_>
          <internalNodes>
            0 -1 200 9.4567378982901573e-03</internalNodes>
          <leafValues>
            -8.7387934327125549e-02 4.4306597113609314e-01</leafValues></_>
        <_>
          <internalNodes>
            0 -1 125 -6.5639298409223557e-03</internalNodes>
          <leafValues>
            1.7182807624340057e-01 -2.8858464956283569e-01</leafValues></_>
        <_>
          <internalNodes>
            0 -1 560 -2.1002918947488070e-04</internalNodes>
          <leafValues>
            -2.0222763717174530e-01 1.8581299483776093e-01</leafValues></_>
        <_>
          <internalNodes>
            0 -1 611 -6.5007321536540985e-03</internalNodes>
          <leafValues>
            -7.6228195428848267e-01 5.1907557994127274e-02</leafValues></_>
        <_>
          <internalNodes>
            0 -1 251 -1.6166246496140957e-03</internalNodes>
          <leafValues>
            3.6087161302566528e-01 -1.1953859776258469e-01</leafValues></_>
        <_>
          <internalNodes>
            0 -1 543 -2.6289023458957672e-02</internalNodes>
          <leafValues>
            4.6368724107742310e-01 -7.7404707670211792e-02</leafValues></_>
        <_>
          <internalNodes>
            0 -1 112 -7.7888631494715810e-04</internalNodes>
          <leafValues>
            -3.8474318385124207e-01 1.1106590926647186e-01</leafValues></_>
        <_>
          <internalNodes>
            0 -1 248 6.7223152145743370e-03</internalNodes>
          <leafValues>
            -9.7698204219341278e-02 3.9849951863288879e-01</leafValues></_>
        <_>
          <internalNodes>
            0 -1 153 2.5263297557830811e-01</internalNodes>
          <leafValues>
            -1.4365515112876892e-01 2.6829567551612854e-01</leafValues></_>
        <_>
          <internalNodes>
            0 -1 2 8.9021362364292145e-03</internalNodes>
          <leafValues>
            -1.4005590975284576e-01 3.0968007445335388e-01</leafValues></_>
        <_>
          <internalNodes>
            0 -1 401 5.1530142081901431e-04</internalNodes>
          <leafValues>
            -1.6418443620204926e-01 2.2954237461090088e-01</leafValues></_>
        <_>
          <internalNodes>
            0 -1 507 1.2825683224946260e-03</internalNodes>
          <leafValues>
            -1.8292132019996643e-01 1.9847027957439423e-01</leafValues></_>
        <_>
          <internalNodes>
            0 -1 569 2.7133349794894457e-03</internalNodes>
          <leafValues>
            -8.2715965807437897e-02 4.6547234058380127e-01</leafValues></_>
        <_>
          <internalNodes>
            0 -1 408 -4.1969418525695801e-03</internalNodes>
          <leafValues>
            2.4832424521446228e-01 -1.5225249528884888e-01</leafValues></_>
        <_>
          <internalNodes>
            0 -1 210 4.5951205492019653e-01</internalNodes>
          <leafValues>
            -8.5974104702472687e-02 5.5583453178405762e-01</leafValues></_>
        <_>
          <internalNodes>
            0 -1 578 -2.3222668096423149e-02</internalNodes>
          <leafValues>
            3.6085477471351624e-01 -1.1364349722862244e-01</leafValues></_>
        <_>
          <internalNodes>
            0 -1 482 -7.4368612840771675e-03</internalNodes>
          <leafValues>
            4.0093612670898438e-01 -1.0102616995573044e-01</leafValues></_>
        <_>
          <internalNodes>
            0 -1 266 9.0299304574728012e-03</internalNodes>
          <leafValues>
            6.7410133779048920e-02 -5.5619013309478760e-01</leafValues></_>
        <_>
          <internalNodes>
            0 -1 30 -3.7488427013158798e-02</internalNodes>
          <leafValues>
            4.3426254391670227e-01 -8.8702820241451263e-02</leafValues></_>
        <_>
          <internalNodes>
            0 -1 87 1.0228272527456284e-02</internalNodes>
          <leafValues>
            7.3388583958148956e-02 -5.4164588451385498e-01</leafValues></_>
        <_>
          <internalNodes>
            0 -1 389 4.5645125210285187e-03</internalNodes>
          <leafValues>
            -1.9122546911239624e-01 1.8343916535377502e-01</leafValues></_>
        <_>
          <internalNodes>
            0 -1 384 -1.4521183911710978e-03</internalNodes>
          <leafValues>
            -4.9777712672948837e-02 7.3407423496246338e-01</leafValues></_>
        <_>
          <internalNodes>
            0 -1 310 1.2582102790474892e-03</internalNodes>
          <leafValues>
            -1.0604684799909592e-01 3.0327963829040527e-01</leafValues></_>
        <_>
          <internalNodes>
            0 -1 371 3.8631446659564972e-03</internalNodes>
          <leafValues>
            -1.0908892005681992e-01 2.8916355967521667e-01</leafValues></_>
        <_>
          <internalNodes>
            0 -1 586 -4.3294830247759819e-03</internalNodes>
          <leafValues>
            -5.7120931148529053e-01 6.5314084291458130e-02</leafValues></_>
        <_>
          <internalNodes>
            0 -1 234 2.2995874285697937e-02</internalNodes>
          <leafValues>
            4.4613074511289597e-02 -6.0399681329727173e-01</leafValues></_>
        <_>
          <internalNodes>
            0 -1 126 -2.4057384580373764e-03</internalNodes>
          <leafValues>
            3.8589283823966980e-01 -9.0603150427341461e-02</leafValues></_>
        <_>
          <internalNodes>
            0 -1 288 3.7759882980026305e-04</internalNodes>
          <leafValues>
            -1.6529087722301483e-01 2.0752102136611938e-01</leafValues></_>
        <_>
          <internalNodes>
            0 -1 360 4.1294852271676064e-03</internalNodes>
          <leafValues>
            -1.3062432408332825e-01 2.4592974781990051e-01</leafValues></_>
        <_>
          <internalNodes>
            0 -1 213 -2.1013919264078140e-02</internalNodes>
          <leafValues>
            -7.7447956800460815e-01 4.4271748512983322e-02</leafValues></_>
        <_>
          <internalNodes>
            0 -1 608 9.9118091166019440e-03</internalNodes>
          <leafValues>
            4.6243995428085327e-02 -5.9647721052169800e-01</leafValues></_>
        <_>
          <internalNodes>
            0 -1 508 1.1842305772006512e-02</internalNodes>
          <leafValues>
            2.5445964187383652e-02 -8.6468547582626343e-01</leafValues></_>
        <_>
          <internalNodes>
            0 -1 337 2.0153594668954611e-03</internalNodes>
          <leafValues>
            -1.0944143682718277e-01 2.9708784818649292e-01</leafValues></_>
        <_>
          <internalNodes>
            0 -1 474 -1.2434674426913261e-03</internalNodes>
          <leafValues>
            2.5140607357025146e-01 -1.2628638744354248e-01</leafValues></_>
        <_>
          <internalNodes>
            0 -1 421 1.8587261438369751e-02</internalNodes>
          <leafValues>
            -7.2276964783668518e-02 4.8898276686668396e-01</leafValues></_>
        <_>
          <internalNodes>
            0 -1 379 -1.1220838874578476e-02</internalNodes>
          <leafValues>
            2.4293613433837891e-01 -1.3228629529476166e-01</leafValues></_>
        <_>
          <internalNodes>
            0 -1 103 -2.1761469542980194e-01</internalNodes>
          <leafValues>
            5.0113242864608765e-01 -6.7305944859981537e-02</leafValues></_>
        <_>
          <internalNodes>
            0 -1 475 5.6888654828071594e-02</internalNodes>
          <leafValues>
            -1.2691219151020050e-01 3.0008569359779358e-01</leafValues></_>
        <_>
          <internalNodes>
            0 -1 571 -5.2277259528636932e-03</internalNodes>
          <leafValues>
            3.9391091465950012e-01 -8.3052955567836761e-02</leafValues></_>
        <_>
          <internalNodes>
            0 -1 245 3.1194798648357391e-03</internalNodes>
          <leafValues>
            -1.2744867801666260e-01 2.5002056360244751e-01</leafValues></_>
        <_>
          <internalNodes>
            0 -1 305 -2.8431283310055733e-02</internalNodes>
          <leafValues>
            -3.5715144872665405e-01 8.8752448558807373e-02</leafValues></_>
        <_>
          <internalNodes>
            0 -1 139 1.3720488548278809e-01</internalNodes>
          <leafValues>
            -1.3130460679531097e-01 2.6647526025772095e-01</leafValues></_>
        <_>
          <internalNodes>
            0 -1 146 -2.0271791145205498e-03</internalNodes>
          <leafValues>
            2.0482093095779419e-01 -1.9522865116596222e-01</leafValues></_>
        <_>
          <internalNodes>
            0 -1 85 1.6246358864009380e-03</internalNodes>
          <leafValues>
            7.2644568979740143e-02 -4.7697040438652039e-01</leafValues></_>
        <_>
          <internalNodes>
            0 -1 315 1.3407891616225243e-02</internalNodes>
          <leafValues>
            4.8786040395498276e-02 -6.0402560234069824e-01</leafValues></_>
        <_>
          <internalNodes>
            0 -1 240 1.9826367497444153e-02</internalNodes>
          <leafValues>
            -8.3496920764446259e-02 4.3390506505966187e-01</leafValues></_></weakClassifiers></_>
    <!-- stage 5 -->
    <_>
      <maxWeakCount>81</maxWeakCount>
      <stageThreshold>-7.0646649599075317e-01</stageThreshold>
      <weakClassifiers>
        <_>
          <internalNodes>
            0 -1 565 -4.1992150247097015e-02</internalNodes>
          <leafValues>
            4.0000000596046448e-01 -4.0882351994514465e-01</leafValues></_>
        <_>
          <internalNodes>
            0 -1 201 -2.0776560530066490e-02</internalNodes>
          <leafValues>
            2.4357080459594727e-01 -2.3634321987628937e-01</leafValues></_>
        <_>
          <internalNodes>
            0 -1 14 1.7142411321401596e-02</internalNodes>
          <leafValues>
            -1.4753660559654236e-01 3.0635386705398560e-01</leafValues></_>
        <_>
          <internalNodes>
            0 -1 391 -7.6166763901710510e-02</internalNodes>
          <leafValues>
            -4.4169652462005615e-01 8.9121013879776001e-02</leafValues></_>
        <_>
          <internalNodes>
            0 -1 356 -6.6585922613739967e-03</internalNodes>
          <leafValues>
            3.7805333733558655e-01 -8.8428027927875519e-02</leafValues></_>
        <_>
          <internalNodes>
            0 -1 171 -1.6575062274932861e-01</internalNodes>
          <leafValues>
            -4.8379841446876526e-01 7.4364177882671356e-02</leafValues></_>
        <_>
          <internalNodes>
            0 -1 529 -9.9297827109694481e-03</internalNodes>
          <leafValues>
            -6.9763344526290894e-01 5.9749152511358261e-02</leafValues></_>
        <_>
          <internalNodes>
            0 -1 273 -7.8733395785093307e-03</internalNodes>
          <leafValues>
            -6.0949232429265976e-02 6.5516245365142822e-01</leafValues></_>
        <_>
          <internalNodes>
            0 -1 591 2.7014638762921095e-03</internalNodes>
          <leafValues>
            6.5761536359786987e-02 -5.3863495588302612e-01</leafValues></_>
        <_>
          <internalNodes>
            0 -1 513 3.9774406701326370e-02</internalNodes>
          <leafValues>
            -1.0298793017864227e-01 3.4381699562072754e-01</leafValues></_>
        <_>
          <internalNodes>
            0 -1 295 -1.0233980417251587e-01</internalNodes>
          <leafValues>
            3.9124926924705505e-01 -8.5836671292781830e-02</leafValues></_>
        <_>
          <internalNodes>
            0 -1 294 9.7788855433464050e-02</internalNodes>
          <leafValues>
            -7.0677742362022400e-02 5.2727359533309937e-01</leafValues></_>
        <_>
          <internalNodes>
            0 -1 37 3.2274436205625534e-02</internalNodes>
          <leafValues>
            -5.7676203548908234e-02 4.9837630987167358e-01</leafValues></_>
        <_>
          <internalNodes>
            0 -1 243 9.0021023061126471e-04</internalNodes>
          <leafValues>
            -2.6980620622634888e-01 1.2833790481090546e-01</leafValues></_>
        <_>
          <internalNodes>
            0 -1 180 -3.3398225903511047e-02</internalNodes>
          <leafValues>
            -7.7747911214828491e-01 4.2483486235141754e-02</leafValues></_>
        <_>
          <internalNodes>
            0 -1 119 2.1977047435939312e-03</internalNodes>
          <leafValues>
            4.8627484589815140e-02 -5.7180333137512207e-01</leafValues></_>
        <_>
          <internalNodes>
            0 -1 185 6.0611721128225327e-03</internalNodes>
          <leafValues>
            -9.7651392221450806e-02 3.4300023317337036e-01</leafValues></_>
        <_>
          <internalNodes>
            0 -1 32 2.3210480809211731e-02</internalNodes>
          <leafValues>
            -1.7399302124977112e-01 1.7424389719963074e-01</leafValues></_>
        <_>
          <internalNodes>
            0 -1 304 2.3900917172431946e-01</internalNodes>
          <leafValues>
            -5.4920755326747894e-02 6.1161071062088013e-01</leafValues></_>
        <_>
          <internalNodes>
            0 -1 118 6.4986909274011850e-04</internalNodes>
          <leafValues>
            9.7715422511100769e-02 -3.3204960823059082e-01</leafValues></_>
        <_>
          <internalNodes>
            0 -1 148 -1.5005352906882763e-03</internalNodes>
          <leafValues>
            1.9565910100936890e-01 -1.5962608158588409e-01</leafValues></_>
        <_>
          <internalNodes>
            0 -1 365 -3.3084124326705933e-01</internalNodes>
          <leafValues>
            7.9734784364700317e-01 -3.5935916006565094e-02</leafValues></_>
        <_>
          <internalNodes>
            0 -1 136 -1.3209383934736252e-02</internalNodes>
          <leafValues>
            3.3578693866729736e-01 -8.9048102498054504e-02</leafValues></_>
        <_>
          <internalNodes>
            0 -1 13 1.6645796597003937e-02</internalNodes>
          <leafValues>
            -9.3660302460193634e-02 3.2088702917098999e-01</leafValues></_>
        <_>
          <internalNodes>
            0 -1 88 4.0080891922116280e-03</internalNodes>
          <leafValues>
            4.9281612038612366e-02 -6.0328823328018188e-01</leafValues></_>
        <_>
          <internalNodes>
            0 -1 85 -7.3845894075930119e-04</internalNodes>
          <leafValues>
            -3.0968412756919861e-01 9.8231129348278046e-02</leafValues></_>
        <_>
          <internalNodes>
            0 -1 308 -4.0627472102642059e-02</internalNodes>
          <leafValues>
            -6.3650834560394287e-01 4.4242043048143387e-02</leafValues></_>
        <_>
          <internalNodes>
            0 -1 447 -3.9355296641588211e-02</internalNodes>
          <leafValues>
            -4.2278620600700378e-01 7.4009209871292114e-02</leafValues></_>
        <_>
          <internalNodes>
            0 -1 115 6.4364142715930939e-02</internalNodes>
          <leafValues>
            -8.0048069357872009e-02 4.2144045233726501e-01</leafValues></_>
        <_>
          <internalNodes>
            0 -1 548 9.0935276821255684e-03</internalNodes>
          <leafValues>
            5.1742307841777802e-02 -7.1868324279785156e-01</leafValues></_>
        <_>
          <internalNodes>
            0 -1 556 -9.4924485892988741e-05</internalNodes>
          <leafValues>
            1.4671978354454041e-01 -2.0160572230815887e-01</leafValues></_>
        <_>
          <internalNodes>
            0 -1 351 3.5897642374038696e-02</internalNodes>
          <leafValues>
            3.3855725079774857e-02 -8.0781131982803345e-01</leafValues></_>
        <_>
          <internalNodes>
            0 -1 124 -4.6427566558122635e-02</internalNodes>
          <leafValues>
            -5.9500944614410400e-01 4.3881218880414963e-02</leafValues></_>
        <_>
          <internalNodes>
            0 -1 521 8.1521188840270042e-03</internalNodes>
          <leafValues>
            -6.6090233623981476e-02 5.5990618467330933e-01</leafValues></_>
        <_>
          <internalNodes>
            0 -1 192 -4.8825759440660477e-02</internalNodes>
          <leafValues>
            4.1184183955192566e-01 -7.6063401997089386e-02</leafValues></_>
        <_>
          <internalNodes>
            0 -1 3 3.1440194696187973e-02</internalNodes>
          <leafValues>
            -8.4960900247097015e-02 3.7727451324462891e-01</leafValues></_>
        <_>
          <internalNodes>
            0 -1 609 1.0161080863326788e-03</internalNodes>
          <leafValues>
            8.5876703262329102e-02 -3.6064070463180542e-01</leafValues></_>
        <_>
          <internalNodes>
            0 -1 523 -9.5006618648767471e-03</internalNodes>
          <leafValues>
            -8.8939613103866577e-01 2.7572486549615860e-02</leafValues></_>
        <_>
          <internalNodes>
            0 -1 583 1.8074322491884232e-02</internalNodes>
          <leafValues>
            -5.7127397507429123e-02 5.7027715444564819e-01</leafValues></_>
        <_>
          <internalNodes>
            0 -1 584 -5.2509794477373362e-04</internalNodes>
          <leafValues>
            -1.9272051751613617e-01 1.4885747432708740e-01</leafValues></_>
        <_>
          <internalNodes>
            0 -1 93 -1.3718489790335298e-03</internalNodes>
          <leafValues>
            -3.5348724573850632e-02 9.2921519279479980e-01</leafValues></_>
        <_>
          <internalNodes>
            0 -1 410 -1.4497935771942139e-01</internalNodes>
          <leafValues>
            7.4004882574081421e-01 -2.7767047286033630e-02</leafValues></_>
        <_>
          <internalNodes>
            0 -1 165 3.4102434292435646e-03</internalNodes>
          <leafValues>
            6.4926810562610626e-02 -4.4611564278602600e-01</leafValues></_>
        <_>
          <internalNodes>
            0 -1 494 -2.2257509408518672e-04</internalNodes>
          <leafValues>
            -1.6325742006301880e-01 1.5952335298061371e-01</leafValues></_>
        <_>
          <internalNodes>
            0 -1 444 1.8562696874141693e-02</internalNodes>
          <leafValues>
            5.2194777876138687e-02 -5.6447672843933105e-01</leafValues></_>
        <_>
          <internalNodes>
            0 -1 582 -2.6328183710575104e-02</internalNodes>
          <leafValues>
            5.8654767274856567e-01 -5.3601767867803574e-02</leafValues></_>
        <_>
          <internalNodes>
            0 -1 596 5.0197662785649300e-03</internalNodes>
          <leafValues>
            3.8897607475519180e-02 -8.8531255722045898e-01</leafValues></_>
        <_>
          <internalNodes>
            0 -1 467 2.1898329257965088e-02</internalNodes>
          <leafValues>
            -1.3691844046115875e-01 2.2894053161144257e-01</leafValues></_>
        <_>
          <internalNodes>
            0 -1 393 -4.8489961773157120e-03</internalNodes>
          <leafValues>
            2.7627316117286682e-01 -1.1208687722682953e-01</leafValues></_>
        <_>
          <internalNodes>
            0 -1 604 -8.9582835789769888e-04</internalNodes>
          <leafValues>
            -3.3940640091896057e-01 9.8516978323459625e-02</leafValues></_>
        <_>
          <internalNodes>
            0 -1 430 -2.3544171825051308e-02</internalNodes>
          <leafValues>
            -5.9749150276184082e-01 4.6255603432655334e-02</leafValues></_>
        <_>
          <internalNodes>
            0 -1 53 1.7136798123829067e-04</internalNodes>
          <leafValues>
            -1.6842049360275269e-01 1.4950631558895111e-01</leafValues></_>
        <_>
          <internalNodes>
            0 -1 205 1.0836514411494136e-03</internalNodes>
          <leafValues>
            -1.7975617945194244e-01 1.5115469694137573e-01</leafValues></_>
        <_>
          <internalNodes>
            0 -1 369 -1.7917198128998280e-03</internalNodes>
          <leafValues>
            2.9561117291450500e-01 -9.3754932284355164e-02</leafValues></_>
        <_>
          <internalNodes>
            0 -1 489 1.2130847200751305e-02</internalNodes>
          <leafValues>
            4.1586399078369141e-02 -6.5773111581802368e-01</leafValues></_>
        <_>
          <internalNodes>
            0 -1 211 5.8580553531646729e-01</internalNodes>
          <leafValues>
            -5.3820718079805374e-02 5.8565205335617065e-01</leafValues></_>
        <_>
          <internalNodes>
            0 -1 485 8.5870549082756042e-04</internalNodes>
          <leafValues>
            -9.2807509005069733e-02 2.7117720246315002e-01</leafValues></_>
        <_>
          <internalNodes>
            0 -1 600 -3.1090951524674892e-03</internalNodes>
          <leafValues>
            -6.8294715881347656e-01 3.8124088197946548e-02</leafValues></_>
        <_>
          <internalNodes>
            0 -1 503 -1.8352168798446655e-01</internalNodes>
          <leafValues>
            5.3233850002288818e-01 -5.8185700327157974e-02</leafValues></_>
        <_>
          <internalNodes>
            0 -1 398 7.5164111331105232e-04</internalNodes>
          <leafValues>
            -1.8926182389259338e-01 1.5640868246555328e-01</leafValues></_>
        <_>
          <internalNodes>
            0 -1 457 -1.7692727968096733e-02</internalNodes>
          <leafValues>
            3.1336805224418640e-01 -8.4227748215198517e-02</leafValues></_>
        <_>
          <internalNodes>
            0 -1 347 -1.6951758414506912e-02</internalNodes>
          <leafValues>
            -5.7426840066909790e-01 4.6797312796115875e-02</leafValues></_>
        <_>
          <internalNodes>
            0 -1 437 -1.3385264575481415e-01</internalNodes>
          <leafValues>
            3.7466463446617126e-01 -7.1026407182216644e-02</leafValues></_>
        <_>
          <internalNodes>
            0 -1 598 -2.2531598806381226e-03</internalNodes>
          <leafValues>
            -4.9978908896446228e-01 5.4008193314075470e-02</leafValues></_>
        <_>
          <internalNodes>
            0 -1 100 1.6502112848684192e-03</internalNodes>
          <leafValues>
            9.3361645936965942e-02 -2.7612277865409851e-01</leafValues></_>
        <_>
          <internalNodes>
            0 -1 522 7.4257284402847290e-02</internalNodes>
          <leafValues>
            -3.5315204411745071e-02 7.5385552644729614e-01</leafValues></_>
        <_>
          <internalNodes>
            0 -1 589 -2.7477443218231201e-03</internalNodes>
          <leafValues>
            -3.9647042751312256e-01 7.6067924499511719e-02</leafValues></_>
        <_>
          <internalNodes>
            0 -1 434 -1.8538121366873384e-03</internalNodes>
          <leafValues>
            1.7685244977474213e-01 -1.4084944128990173e-01</leafValues></_>
        <_>
          <internalNodes>
            0 -1 151 1.1808731406927109e-01</internalNodes>
          <leafValues>
            -1.3996277749538422e-01 2.0833240449428558e-01</leafValues></_>
        <_>
          <internalNodes>
            0 -1 170 1.3409963808953762e-02</internalNodes>
          <leafValues>
            -8.2064174115657806e-02 3.2184991240501404e-01</leafValues></_>
        <_>
          <internalNodes>
            0 -1 166 -1.2201745994389057e-03</internalNodes>
          <leafValues>
            1.8628425896167755e-01 -1.4356230199337006e-01</leafValues></_>
        <_>
          <internalNodes>
            0 -1 156 -7.1779959835112095e-03</internalNodes>
          <leafValues>
            -8.0523794889450073e-01 3.2860700041055679e-02</leafValues></_>
        <_>
          <internalNodes>
            0 -1 22 -1.2462450191378593e-02</internalNodes>
          <leafValues>
            5.0167375802993774e-01 -5.6072730571031570e-02</leafValues></_>
        <_>
          <internalNodes>
            0 -1 72 6.4780302345752716e-02</internalNodes>
          <leafValues>
            5.8378789573907852e-02 -5.1434910297393799e-01</leafValues></_>
        <_>
          <internalNodes>
            0 -1 300 1.1050488799810410e-02</internalNodes>
          <leafValues>
            -1.0525046288967133e-01 2.7426123619079590e-01</leafValues></_>
        <_>
          <internalNodes>
            0 -1 338 1.5112364664673805e-02</internalNodes>
          <leafValues>
            5.4400652647018433e-02 -5.4662382602691650e-01</leafValues></_>
        <_>
          <internalNodes>
            0 -1 534 -1.7520397901535034e-02</internalNodes>
          <leafValues>
            3.3814734220504761e-01 -8.2794211804866791e-02</leafValues></_>
        <_>
          <internalNodes>
            0 -1 561 2.0911116153001785e-03</internalNodes>
          <leafValues>
            6.9257587194442749e-02 -4.0098112821578979e-01</leafValues></_>
        <_>
          <internalNodes>
            0 -1 607 -1.1917199008166790e-03</internalNodes>
          <leafValues>
            -3.3650103956460953e-02 8.5299688577651978e-01</leafValues></_>
        <_>
          <internalNodes>
            0 -1 505 3.7745976442238316e-05</internalNodes>
          <leafValues>
            -1.6394151747226715e-01 1.6237027943134308e-01</leafValues></_>
        <_>
          <internalNodes>
            0 -1 222 1.9560288637876511e-03</internalNodes>
          <leafValues>
            -1.3457757234573364e-01 1.7835111916065216e-01</leafValues></_></weakClassifiers></_>
    <!-- stage 6 -->
    <_>
      <maxWeakCount>90</maxWeakCount>
      <stageThreshold>-7.4490636587142944e-01</stageThreshold>
      <weakClassifiers>
        <_>
          <internalNodes>
            0 -1 348 -1.5375864505767822e-01</internalNodes>
          <leafValues>
            -1.6518649458885193e-01 -8.3957219123840332e-01</leafValues></_>
        <_>
          <internalNodes>
            0 -1 287 -2.3408022522926331e-01</internalNodes>
          <leafValues>
            5.1607745885848999e-01 -1.5431180596351624e-01</leafValues></_>
        <_>
          <internalNodes>
            0 -1 144 -3.6378192901611328e-01</internalNodes>
          <leafValues>
            7.4348874390125275e-02 -7.6624441146850586e-01</leafValues></_>
        <_>
          <internalNodes>
            0 -1 455 -3.1233318150043488e-03</internalNodes>
          <leafValues>
            2.1235257387161255e-01 -2.3538389801979065e-01</leafValues></_>
        <_>
          <internalNodes>
            0 -1 318 5.1650151610374451e-02</internalNodes>
          <leafValues>
            -1.2629793584346771e-01 4.4353926181793213e-01</leafValues></_>
        <_>
          <internalNodes>
            0 -1 540 6.9186091423034668e-03</internalNodes>
          <leafValues>
            -5.6190036237239838e-02 6.9293326139450073e-01</leafValues></_>
        <_>
          <internalNodes>
            0 -1 387 8.9550083503127098e-03</internalNodes>
          <leafValues>
            -1.4607405662536621e-01 2.9019364714622498e-01</leafValues></_>
        <_>
          <internalNodes>
            0 -1 229 -2.5034148246049881e-02</internalNodes>
          <leafValues>
            -5.4947197437286377e-01 8.9844159781932831e-02</leafValues></_>
        <_>
          <internalNodes>
            0 -1 605 6.7533319815993309e-04</internalNodes>
          <leafValues>
            9.8811529576778412e-02 -3.8771313428878784e-01</leafValues></_>
        <_>
          <internalNodes>
            0 -1 110 -1.9152875989675522e-02</internalNodes>
          <leafValues>
            -6.7594331502914429e-01 4.5957420021295547e-02</leafValues></_>
        <_>
          <internalNodes>
            0 -1 497 -1.6871983185410500e-02</internalNodes>
          <leafValues>
            -7.0522361993789673e-01 2.1220453083515167e-02</leafValues></_>
        <_>
          <internalNodes>
            0 -1 237 -3.2404866069555283e-03</internalNodes>
          <leafValues>
            1.8262358009815216e-01 -1.5760153532028198e-01</leafValues></_>
        <_>
          <internalNodes>
            0 -1 31 -1.6737870872020721e-02</internalNodes>
          <leafValues>
            2.9586520791053772e-01 -1.0150690376758575e-01</leafValues></_>
        <_>
          <internalNodes>
            0 -1 206 1.4120250940322876e-01</internalNodes>
          <leafValues>
            -9.8809041082859039e-02 3.7795192003250122e-01</leafValues></_>
        <_>
          <internalNodes>
            0 -1 158 -2.9481458477675915e-03</internalNodes>
          <leafValues>
            -5.0428819656372070e-01 6.8231999874114990e-02</leafValues></_>
        <_>
          <internalNodes>
            0 -1 62 8.3745829761028290e-03</internalNodes>
          <leafValues>
            2.5035822764039040e-02 -7.8864014148712158e-01</leafValues></_>
        <_>
          <internalNodes>
            0 -1 122 -1.7552789300680161e-02</internalNodes>
          <leafValues>
            2.0149457454681396e-01 -1.5662719309329987e-01</leafValues></_>
        <_>
          <internalNodes>
            0 -1 198 -2.5330457836389542e-02</internalNodes>
          <leafValues>
            4.1031149029731750e-01 -6.7399382591247559e-02</leafValues></_>
        <_>
          <internalNodes>
            0 -1 42 9.4174146652221680e-03</internalNodes>
          <leafValues>
            -1.3925166428089142e-01 1.8741747736930847e-01</leafValues></_>
        <_>
          <internalNodes>
            0 -1 184 1.9167006015777588e-02</internalNodes>
          <leafValues>
            4.7939922660589218e-02 -5.9185600280761719e-01</leafValues></_>
        <_>
          <internalNodes>
            0 -1 566 4.1009008884429932e-02</internalNodes>
          <leafValues>
            -5.4920047521591187e-02 5.6652969121932983e-01</leafValues></_>
        <_>
          <internalNodes>
            0 -1 169 4.6921218745410442e-03</internalNodes>
          <leafValues>
            -1.3825982809066772e-01 1.8599840998649597e-01</leafValues></_>
        <_>
          <internalNodes>
            0 -1 307 9.1696484014391899e-03</internalNodes>
          <leafValues>
            -1.3126789033412933e-01 2.3631218075752258e-01</leafValues></_>
        <_>
          <internalNodes>
            0 -1 367 -1.3760535512119532e-03</internalNodes>
          <leafValues>
            2.9445853829383850e-01 -9.6670061349868774e-02</leafValues></_>
        <_>
          <internalNodes>
            0 -1 92 3.9202524349093437e-03</internalNodes>
          <leafValues>
            6.0385167598724365e-02 -4.4057896733283997e-01</leafValues></_>
        <_>
          <internalNodes>
            0 -1 97 -2.7393267955631018e-03</internalNodes>
          <leafValues>
            -6.0883843898773193e-01 4.4486120343208313e-02</leafValues></_>
        <_>
          <internalNodes>
            0 -1 383 1.3375287875533104e-02</internalNodes>
          <leafValues>
            -8.0310814082622528e-02 3.6298978328704834e-01</leafValues></_>
        <_>
          <internalNodes>
            0 -1 208 2.6657463982701302e-02</internalNodes>
          <leafValues>
            -9.7986012697219849e-02 2.9931867122650146e-01</leafValues></_>
        <_>
          <internalNodes>
            0 -1 330 -3.8085110485553741e-02</internalNodes>
          <leafValues>
            4.0198677778244019e-01 -6.8199656903743744e-02</leafValues></_>
        <_>
          <internalNodes>
            0 -1 186 2.7981838211417198e-03</internalNodes>
          <leafValues>
            -1.8584772944450378e-01 1.5077172219753265e-01</leafValues></_>
        <_>
          <internalNodes>
            0 -1 83 -1.0970287956297398e-02</internalNodes>
          <leafValues>
            -6.3270467519760132e-01 3.7925850600004196e-02</leafValues></_>
        <_>
          <internalNodes>
            0 -1 309 -1.3426858931779861e-03</internalNodes>
          <leafValues>
            2.8287181258201599e-01 -9.9461250007152557e-02</leafValues></_>
        <_>
          <internalNodes>
            0 -1 253 3.4402213059365749e-03</internalNodes>
          <leafValues>
            -1.2726463377475739e-01 2.3048941791057587e-01</leafValues></_>
        <_>
          <internalNodes>
            0 -1 282 2.5948537513613701e-02</internalNodes>
          <leafValues>
            4.0480308234691620e-02 -7.3391336202621460e-01</leafValues></_>
        <_>
          <internalNodes>
            0 -1 5 -4.1133813560009003e-02</internalNodes>
          <leafValues>
            4.3218451738357544e-01 -7.6823547482490540e-02</leafValues></_>
        <_>
          <internalNodes>
            0 -1 155 -7.5426872354000807e-04</internalNodes>
          <leafValues>
            -3.4875074028968811e-01 9.2560477554798126e-02</leafValues></_>
        <_>
          <internalNodes>
            0 -1 130 -9.9211819469928741e-03</internalNodes>
          <leafValues>
            3.5285718739032745e-02 -6.6685992479324341e-01</leafValues></_>
        <_>
          <internalNodes>
            0 -1 541 -5.3445547819137573e-02</internalNodes>
          <leafValues>
            -9.1315150260925293e-02 3.1497576832771301e-01</leafValues></_>
        <_>
          <internalNodes>
            0 -1 372 -1.9969720393419266e-02</internalNodes>
          <leafValues>
            -5.3242343664169312e-01 5.0390586256980896e-02</leafValues></_>
        <_>
          <internalNodes>
            0 -1 544 -1.3527659699320793e-02</internalNodes>
          <leafValues>
            6.0279533267021179e-02 -4.1305029392242432e-01</leafValues></_>
        <_>
          <internalNodes>
            0 -1 441 -1.4112355187535286e-02</internalNodes>
          <leafValues>
            -6.6139167547225952e-01 3.6212131381034851e-02</leafValues></_>
        <_>
          <internalNodes>
            0 -1 8 -6.8804256618022919e-02</internalNodes>
          <leafValues>
            5.2950161695480347e-01 -5.3559802472591400e-02</leafValues></_>
        <_>
          <internalNodes>
            0 -1 283 1.1335389688611031e-02</internalNodes>
          <leafValues>
            4.4021364301443100e-02 -6.0814803838729858e-01</leafValues></_>
        <_>
          <internalNodes>
            0 -1 54 -1.3077035546302795e-02</internalNodes>
          <leafValues>
            -4.9384927749633789e-01 4.4472236186265945e-02</leafValues></_>
        <_>
          <internalNodes>
            0 -1 506 1.9205268472433090e-03</internalNodes>
          <leafValues>
            9.9735267460346222e-02 -2.3785008490085602e-01</leafValues></_>
        <_>
          <internalNodes>
            0 -1 325 1.2394787743687630e-02</internalNodes>
          <leafValues>
            -4.8782262951135635e-02 5.4338175058364868e-01</leafValues></_>
        <_>
          <internalNodes>
            0 -1 101 3.2452358864247799e-03</internalNodes>
          <leafValues>
            8.5303276777267456e-02 -3.1663486361503601e-01</leafValues></_>
        <_>
          <internalNodes>
            0 -1 257 -5.0195790827274323e-02</internalNodes>
          <leafValues>
            -6.1481767892837524e-01 3.6368731409311295e-02</leafValues></_>
        <_>
          <internalNodes>
            0 -1 559 1.0523603297770023e-02</internalNodes>
          <leafValues>
            2.5481203570961952e-02 -8.1914758682250977e-01</leafValues></_>
        <_>
          <internalNodes>
            0 -1 415 5.2999863401055336e-03</internalNodes>
          <leafValues>
            -8.4356538951396942e-02 3.1824472546577454e-01</leafValues></_>
        <_>
          <internalNodes>
            0 -1 415 -3.6450896877795458e-03</internalNodes>
          <leafValues>
            2.6684054732322693e-01 -1.0342342406511307e-01</leafValues></_>
        <_>
          <internalNodes>
            0 -1 39 1.5262683853507042e-02</internalNodes>
          <leafValues>
            5.4266225546598434e-02 -4.8016530275344849e-01</leafValues></_>
        <_>
          <internalNodes>
            0 -1 594 -9.7734192386269569e-03</internalNodes>
          <leafValues>
            -5.8491832017898560e-01 3.8153614848852158e-02</leafValues></_>
        <_>
          <internalNodes>
            0 -1 254 -4.9453768879175186e-03</internalNodes>
          <leafValues>
            2.6035785675048828e-01 -9.3238726258277893e-02</leafValues></_>
        <_>
          <internalNodes>
            0 -1 73 -1.0248202085494995e-01</internalNodes>
          <leafValues>
            6.0872191190719604e-01 -4.3796136975288391e-02</leafValues></_>
        <_>
          <internalNodes>
            0 -1 276 2.5755068659782410e-01</internalNodes>
          <leafValues>
            3.2441813498735428e-02 -8.2543736696243286e-01</leafValues></_>
        <_>
          <internalNodes>
            0 -1 333 -4.6864084899425507e-02</internalNodes>
          <leafValues>
            3.6209937930107117e-01 -7.3067098855972290e-02</leafValues></_>
        <_>
          <internalNodes>
            0 -1 202 9.3366410583257675e-03</internalNodes>
          <leafValues>
            6.0447923839092255e-02 -4.0622797608375549e-01</leafValues></_>
        <_>
          <internalNodes>
            0 -1 439 1.4134237426333129e-04</internalNodes>
          <leafValues>
            -1.5981960296630859e-01 1.5696708858013153e-01</leafValues></_>
        <_>
          <internalNodes>
            0 -1 438 -1.9172830507159233e-03</internalNodes>
          <leafValues>
            2.2054286301136017e-01 -1.2747779488563538e-01</leafValues></_>
        <_>
          <internalNodes>
            0 -1 458 -6.1843782896175981e-04</internalNodes>
          <leafValues>
            -1.6698767244815826e-01 1.5043298900127411e-01</leafValues></_>
        <_>
          <internalNodes>
            0 -1 319 -1.2126669287681580e-02</internalNodes>
          <leafValues>
            1.4832149446010590e-01 -1.7259030044078827e-01</leafValues></_>
        <_>
          <internalNodes>
            0 -1 207 6.4895130693912506e-02</internalNodes>
          <leafValues>
            -5.4123044013977051e-02 4.9539640545845032e-01</leafValues></_>
        <_>
          <internalNodes>
            0 -1 562 -4.1304966434836388e-03</internalNodes>
          <leafValues>
            -5.0997555255889893e-01 5.4023623466491699e-02</leafValues></_>
        <_>
          <internalNodes>
            0 -1 537 -8.5098780691623688e-03</internalNodes>
          <leafValues>
            3.2653430104255676e-01 -7.9717785120010376e-02</leafValues></_>
        <_>
          <internalNodes>
            0 -1 385 8.0979820340871811e-03</internalNodes>
          <leafValues>
            6.1059806495904922e-02 -4.5553264021873474e-01</leafValues></_>
        <_>
          <internalNodes>
            0 -1 581 -2.4286387488245964e-02</internalNodes>
          <leafValues>
            5.6186991930007935e-01 -4.6921081840991974e-02</leafValues></_>
        <_>
          <internalNodes>
            0 -1 366 -1.3320515863597393e-03</internalNodes>
          <leafValues>
            2.5036802887916565e-01 -1.0400836169719696e-01</leafValues></_>
        <_>
          <internalNodes>
            0 -1 249 -8.7203430011868477e-03</internalNodes>
          <leafValues>
            -8.4172135591506958e-01 3.1166739761829376e-02</leafValues></_>
        <_>
          <internalNodes>
            0 -1 532 6.2990328297019005e-04</internalNodes>
          <leafValues>
            1.1328068375587463e-01 -2.0955353975296021e-01</leafValues></_>
        <_>
          <internalNodes>
            0 -1 420 -1.5787079930305481e-02</internalNodes>
          <leafValues>
            3.8950836658477783e-01 -6.6279247403144836e-02</leafValues></_>
        <_>
          <internalNodes>
            0 -1 290 -1.0553483664989471e-01</internalNodes>
          <leafValues>
            3.2199118286371231e-02 -7.8909444808959961e-01</leafValues></_>
        <_>
          <internalNodes>
            0 -1 272 2.2593287751078606e-02</internalNodes>
          <leafValues>
            2.1933510899543762e-02 -8.5241425037384033e-01</leafValues></_>
        <_>
          <internalNodes>
            0 -1 313 -6.7294076085090637e-02</internalNodes>
          <leafValues>
            6.0387814044952393e-01 -4.6085864305496216e-02</leafValues></_>
        <_>
          <internalNodes>
            0 -1 558 -1.9046773668378592e-03</internalNodes>
          <leafValues>
            3.3813682198524475e-01 -6.7440554499626160e-02</leafValues></_>
        <_>
          <internalNodes>
            0 -1 526 3.9394863415509462e-04</internalNodes>
          <leafValues>
            -1.0697964578866959e-01 2.1393087506294250e-01</leafValues></_>
        <_>
          <internalNodes>
            0 -1 451 -2.1189806982874870e-02</internalNodes>
          <leafValues>
            -3.1986665725708008e-01 7.0199728012084961e-02</leafValues></_>
        <_>
          <internalNodes>
            0 -1 418 -7.0208068937063217e-03</internalNodes>
          <leafValues>
            3.6954361200332642e-01 -6.4957007765769958e-02</leafValues></_>
        <_>
          <internalNodes>
            0 -1 493 -6.1977352015674114e-04</internalNodes>
          <leafValues>
            -2.1845461428165436e-01 1.0860669612884521e-01</leafValues></_>
        <_>
          <internalNodes>
            0 -1 515 8.5662410128861666e-04</internalNodes>
          <leafValues>
            -1.4904309809207916e-01 1.6153167188167572e-01</leafValues></_>
        <_>
          <internalNodes>
            0 -1 517 1.8521912861615419e-03</internalNodes>
          <leafValues>
            -1.3043233752250671e-01 2.9389548301696777e-01</leafValues></_>
        <_>
          <internalNodes>
            0 -1 427 -6.6160291433334351e-02</internalNodes>
          <leafValues>
            -6.8804003298282623e-02 3.5720503330230713e-01</leafValues></_>
        <_>
          <internalNodes>
            0 -1 293 2.1977545693516731e-03</internalNodes>
          <leafValues>
            -1.3753543794155121e-01 1.8496485054492950e-01</leafValues></_>
        <_>
          <internalNodes>
            0 -1 168 -5.7872505858540535e-03</internalNodes>
          <leafValues>
            2.6011753827333450e-02 -9.6295380592346191e-01</leafValues></_>
        <_>
          <internalNodes>
            0 -1 471 3.2788643147796392e-04</internalNodes>
          <leafValues>
            -1.8576981127262115e-01 1.2899404764175415e-01</leafValues></_>
        <_>
          <internalNodes>
            0 -1 302 -2.0366958342492580e-03</internalNodes>
          <leafValues>
            2.4572123587131500e-01 -1.0273756831884384e-01</leafValues></_>
        <_>
          <internalNodes>
            0 -1 112 3.0370287131518126e-03</internalNodes>
          <leafValues>
            5.0778977572917938e-02 -5.4993420839309692e-01</leafValues></_>
        <_>
          <internalNodes>
            0 -1 306 -2.1447841078042984e-02</internalNodes>
          <leafValues>
            -6.4771956205368042e-01 3.3304411917924881e-02</leafValues></_>
        <_>
          <internalNodes>
            0 -1 411 -1.1121302668470889e-04</internalNodes>
          <leafValues>
            2.0810852944850922e-01 -1.2142275273799896e-01</leafValues></_>
        <_>
          <internalNodes>
            0 -1 552 -5.0446838140487671e-03</internalNodes>
          <leafValues>
            -5.2570533752441406e-01 4.6303875744342804e-02</leafValues></_></weakClassifiers></_>
    <!-- stage 7 -->
    <_>
      <maxWeakCount>100</maxWeakCount>
      <stageThreshold>-7.5642102956771851e-01</stageThreshold>
      <weakClassifiers>
        <_>
          <internalNodes>
            0 -1 7 -4.6674691839143634e-04</internalNodes>
          <leafValues>
            -3.7488371133804321e-01 5.6000000238418579e-01</leafValues></_>
        <_>
          <internalNodes>
            0 -1 129 -1.3033930212259293e-02</internalNodes>
          <leafValues>
            1.1276802420616150e-01 -2.8100728988647461e-01</leafValues></_>
        <_>
          <internalNodes>
            0 -1 296 -3.8518188521265984e-03</internalNodes>
          <leafValues>
            2.1082784235477448e-01 -1.8641582131385803e-01</leafValues></_>
        <_>
          <internalNodes>
            0 -1 585 -9.6997311338782310e-03</internalNodes>
          <leafValues>
            -4.4153672456741333e-01 7.4601843953132629e-02</leafValues></_>
        <_>
          <internalNodes>
            0 -1 75 -1.1062750592827797e-02</internalNodes>
          <leafValues>
            -8.4025949239730835e-01 7.7026933431625366e-02</leafValues></_>
        <_>
          <internalNodes>
            0 -1 235 2.8142563998699188e-02</internalNodes>
          <leafValues>
            2.7123153209686279e-02 -5.3693681955337524e-01</leafValues></_>
        <_>
          <internalNodes>
            0 -1 417 2.4272009730339050e-02</internalNodes>
          <leafValues>
            6.7302383482456207e-02 -4.8048883676528931e-01</leafValues></_>
        <_>
          <internalNodes>
            0 -1 412 -4.3125048279762268e-02</internalNodes>
          <leafValues>
            -8.0308878421783447e-01 3.5662151873111725e-02</leafValues></_>
        <_>
          <internalNodes>
            0 -1 247 5.3329639136791229e-02</internalNodes>
          <leafValues>
            2.4057343602180481e-02 -9.5471137762069702e-01</leafValues></_>
        <_>
          <internalNodes>
            0 -1 327 4.8288229852914810e-02</internalNodes>
          <leafValues>
            -9.5902882516384125e-02 3.0599898099899292e-01</leafValues></_>
        <_>
          <internalNodes>
            0 -1 510 6.0614047106355429e-04</internalNodes>
          <leafValues>
            1.3889923691749573e-01 -2.1789787709712982e-01</leafValues></_>
        <_>
          <internalNodes>
            0 -1 227 2.3143720626831055e-01</internalNodes>
          <leafValues>
            3.1484909355640411e-02 -6.9638645648956299e-01</leafValues></_>
        <_>
          <internalNodes>
            0 -1 336 1.8803384155035019e-02</internalNodes>
          <leafValues>
            -1.2153975665569305e-01 2.0498038828372955e-01</leafValues></_>
        <_>
          <internalNodes>
            0 -1 219 1.1556185781955719e-02</internalNodes>
          <leafValues>
            9.5873512327671051e-02 -2.8005018830299377e-01</leafValues></_>
        <_>
          <internalNodes>
            0 -1 533 1.6118119237944484e-03</internalNodes>
          <leafValues>
            6.6231854259967804e-02 -3.9027360081672668e-01</leafValues></_>
        <_>
          <internalNodes>
            0 -1 576 -8.3403475582599640e-03</internalNodes>
          <leafValues>
            -8.1771934032440186e-01 3.3980201929807663e-02</leafValues></_>
        <_>
          <internalNodes>
            0 -1 265 -2.2940836846828461e-02</internalNodes>
          <leafValues>
            -4.1016501188278198e-01 5.3614474833011627e-02</leafValues></_>
        <_>
          <internalNodes>
            0 -1 463 1.3191834092140198e-02</internalNodes>
          <leafValues>
            -4.0171578526496887e-02 6.0730272531509399e-01</leafValues></_>
        <_>
          <internalNodes>
            0 -1 284 -3.2610744237899780e-02</internalNodes>
          <leafValues>
            3.2940310239791870e-01 -7.5292728841304779e-02</leafValues></_>
        <_>
          <internalNodes>
            0 -1 289 1.6985990107059479e-02</internalNodes>
          <leafValues>
            -1.0330300033092499e-01 2.5285688042640686e-01</leafValues></_>
        <_>
          <internalNodes>
            0 -1 142 -5.0417188555002213e-02</internalNodes>
          <leafValues>
            4.2564406991004944e-01 -6.6189274191856384e-02</leafValues></_>
        <_>
          <internalNodes>
            0 -1 64 -7.9128257930278778e-03</internalNodes>
          <leafValues>
            -6.3180673122406006e-01 3.7286840379238129e-02</leafValues></_>
        <_>
          <internalNodes>
            0 -1 269 1.5091741457581520e-02</internalNodes>
          <leafValues>
            -7.5390048325061798e-02 2.9364684224128723e-01</leafValues></_>
        <_>
          <internalNodes>
            0 -1 395 -4.0440773591399193e-03</internalNodes>
          <leafValues>
            2.0130679011344910e-01 -1.2211021780967712e-01</leafValues></_>
        <_>
          <internalNodes>
            0 -1 91 -2.6600002311170101e-03</internalNodes>
          <leafValues>
            -5.2732777595520020e-01 4.7519337385892868e-02</leafValues></_>
        <_>
          <internalNodes>
            0 -1 226 -2.2445389628410339e-01</internalNodes>
          <leafValues>
            -6.4161300659179688e-01 3.0356833711266518e-02</leafValues></_>
        <_>
          <internalNodes>
            0 -1 461 -2.2722128778696060e-02</internalNodes>
          <leafValues>
            -8.1847357749938965e-01 1.9046438857913017e-02</leafValues></_>
        <_>
          <internalNodes>
            0 -1 48 -5.0602900981903076e-01</internalNodes>
          <leafValues>
            -7.3197221755981445e-01 2.4498594924807549e-02</leafValues></_>
        <_>
          <internalNodes>
            0 -1 370 -1.4878159388899803e-02</internalNodes>
          <leafValues>
            -7.0712935924530029e-01 2.3630250245332718e-02</leafValues></_>
        <_>
          <internalNodes>
            0 -1 55 -7.8228153288364410e-03</internalNodes>
          <leafValues>
            1.8417949974536896e-01 -1.2043793499469757e-01</leafValues></_>
        <_>
          <internalNodes>
            0 -1 21 6.8335961550474167e-03</internalNodes>
          <leafValues>
            -1.3897998631000519e-01 1.7018933594226837e-01</leafValues></_>
        <_>
          <internalNodes>
            0 -1 526 1.2766718864440918e-03</internalNodes>
          <leafValues>
            -8.7332643568515778e-02 2.4991112947463989e-01</leafValues></_>
        <_>
          <internalNodes>
            0 -1 446 6.9353787694126368e-04</internalNodes>
          <leafValues>
            -1.1166030168533325e-01 1.9860337674617767e-01</leafValues></_>
        <_>
          <internalNodes>
            0 -1 579 5.9370542876422405e-03</internalNodes>
          <leafValues>
            4.1861362755298615e-02 -5.5057615041732788e-01</leafValues></_>
        <_>
          <internalNodes>
            0 -1 587 4.7778356820344925e-03</internalNodes>
          <leafValues>
            3.8878053426742554e-02 -5.2899372577667236e-01</leafValues></_>
        <_>
          <internalNodes>
            0 -1 167 1.1702777119353414e-03</internalNodes>
          <leafValues>
            -1.6020637750625610e-01 1.3688418269157410e-01</leafValues></_>
        <_>
          <internalNodes>
            0 -1 154 -1.8727025389671326e-01</internalNodes>
          <leafValues>
            -7.6848196983337402e-01 3.0120970681309700e-02</leafValues></_>
        <_>
          <internalNodes>
            0 -1 462 1.5705280005931854e-02</internalNodes>
          <leafValues>
            3.6243960261344910e-02 -5.0542521476745605e-01</leafValues></_>
        <_>
          <internalNodes>
            0 -1 52 3.3891214989125729e-03</internalNodes>
          <leafValues>
            4.0163747966289520e-02 -5.2050524950027466e-01</leafValues></_>
        <_>
          <internalNodes>
            0 -1 333 8.1884771585464478e-02</internalNodes>
          <leafValues>
            -4.0943037718534470e-02 5.4294097423553467e-01</leafValues></_>
        <_>
          <internalNodes>
            0 -1 147 -6.1583094298839569e-02</internalNodes>
          <leafValues>
            -8.4622740745544434e-01 2.8351219370961189e-02</leafValues></_>
        <_>
          <internalNodes>
            0 -1 143 -6.8246717564761639e-03</internalNodes>
          <leafValues>
            3.6298716068267822e-01 -7.6271452009677887e-02</leafValues></_>
        <_>
          <internalNodes>
            0 -1 140 2.8989996761083603e-02</internalNodes>
          <leafValues>
            -9.8175622522830963e-02 2.4610668420791626e-01</leafValues></_>
        <_>
          <internalNodes>
            0 -1 490 -6.0900501906871796e-02</internalNodes>
          <leafValues>
            -4.1146472096443176e-01 6.1849649995565414e-02</leafValues></_>
        <_>
          <internalNodes>
            0 -1 175 1.1038906872272491e-02</internalNodes>
          <leafValues>
            -7.5500078499317169e-02 3.1339091062545776e-01</leafValues></_>
        <_>
          <internalNodes>
            0 -1 588 3.6139722215011716e-04</internalNodes>
          <leafValues>
            1.1742726713418961e-01 -1.7913179099559784e-01</leafValues></_>
        <_>
          <internalNodes>
            0 -1 368 -2.2423956543207169e-02</internalNodes>
          <leafValues>
            -9.3897879123687744e-01 2.2956648841500282e-02</leafValues></_>
        <_>
          <internalNodes>
            0 -1 79 -1.8456146121025085e-02</internalNodes>
          <leafValues>
            -5.3833323717117310e-01 3.0566660687327385e-02</leafValues></_>
        <_>
          <internalNodes>
            0 -1 97 2.7073209639638662e-04</internalNodes>
          <leafValues>
            9.0048156678676605e-02 -2.2434383630752563e-01</leafValues></_>
        <_>
          <internalNodes>
            0 -1 61 -6.1052545905113220e-02</internalNodes>
          <leafValues>
            2.2698687016963959e-01 -9.1995790600776672e-02</leafValues></_>
        <_>
          <internalNodes>
            0 -1 554 2.4224119260907173e-03</internalNodes>
          <leafValues>
            -1.5455399453639984e-01 1.9263158738613129e-01</leafValues></_>
        <_>
          <internalNodes>
            0 -1 479 -3.1623486429452896e-03</internalNodes>
          <leafValues>
            2.1456104516983032e-01 -1.0186149179935455e-01</leafValues></_>
        <_>
          <internalNodes>
            0 -1 599 -3.5451892763376236e-03</internalNodes>
          <leafValues>
            -6.9652533531188965e-01 2.7185851708054543e-02</leafValues></_>
        <_>
          <internalNodes>
            0 -1 595 -4.6784961596131325e-03</internalNodes>
          <leafValues>
            -8.2697951793670654e-01 1.8041815608739853e-02</leafValues></_>
        <_>
          <internalNodes>
            0 -1 382 -1.4519715681672096e-02</internalNodes>
          <leafValues>
            3.8944905996322632e-01 -5.7918034493923187e-02</leafValues></_>
        <_>
          <internalNodes>
            0 -1 380 -6.8464339710772038e-04</internalNodes>
          <leafValues>
            -1.6481466591358185e-01 1.4494639635086060e-01</leafValues></_>
        <_>
          <internalNodes>
            0 -1 342 1.4040942490100861e-01</internalNodes>
          <leafValues>
            1.0208670049905777e-01 -2.0511497557163239e-01</leafValues></_>
        <_>
          <internalNodes>
            0 -1 440 3.8711708039045334e-03</internalNodes>
          <leafValues>
            3.4424666315317154e-02 -5.6322580575942993e-01</leafValues></_>
        <_>
          <internalNodes>
            0 -1 60 -6.9429306313395500e-03</internalNodes>
          <leafValues>
            -3.9170056581497192e-01 4.8312433063983917e-02</leafValues></_>
        <_>
          <internalNodes>
            0 -1 258 -4.0832661092281342e-02</internalNodes>
          <leafValues>
            -4.3436563014984131e-01 4.7267451882362366e-02</leafValues></_>
        <_>
          <internalNodes>
            0 -1 456 -6.2099479138851166e-02</internalNodes>
          <leafValues>
            1.8199069797992706e-01 -1.1748450994491577e-01</leafValues></_>
        <_>
          <internalNodes>
            0 -1 375 5.1279449835419655e-03</internalNodes>
          <leafValues>
            8.1803269684314728e-02 -2.9915651679039001e-01</leafValues></_>
        <_>
          <internalNodes>
            0 -1 173 9.4498209655284882e-03</internalNodes>
          <leafValues>
            3.2691869884729385e-02 -6.5671402215957642e-01</leafValues></_>
        <_>
          <internalNodes>
            0 -1 478 1.6582510434091091e-03</internalNodes>
          <leafValues>
            -1.2635549902915955e-01 1.8708698451519012e-01</leafValues></_>
        <_>
          <internalNodes>
            0 -1 431 -1.8956556916236877e-02</internalNodes>
          <leafValues>
            4.2513713240623474e-01 -5.6412793695926666e-02</leafValues></_>
        <_>
          <internalNodes>
            0 -1 593 7.1579758077859879e-03</internalNodes>
          <leafValues>
            2.7407256886363029e-02 -7.6540064811706543e-01</leafValues></_>
        <_>
          <internalNodes>
            0 -1 350 6.5956749022006989e-03</internalNodes>
          <leafValues>
            -7.7678911387920380e-02 2.9036000370979309e-01</leafValues></_>
        <_>
          <internalNodes>
            0 -1 519 -4.9932166002690792e-03</internalNodes>
          <leafValues>
            2.2423297166824341e-01 -9.2584677040576935e-02</leafValues></_>
        <_>
          <internalNodes>
            0 -1 181 2.0064001902937889e-02</internalNodes>
          <leafValues>
            2.6298373937606812e-02 -8.3185005187988281e-01</leafValues></_>
        <_>
          <internalNodes>
            0 -1 239 1.6212461050599813e-03</internalNodes>
          <leafValues>
            -9.9079594016075134e-02 2.2692532837390900e-01</leafValues></_>
        <_>
          <internalNodes>
            0 -1 449 9.4270296394824982e-03</internalNodes>
          <leafValues>
            3.0453752726316452e-02 -6.2645673751831055e-01</leafValues></_>
        <_>
          <internalNodes>
            0 -1 233 -1.6501311212778091e-02</internalNodes>
          <leafValues>
            3.1096288561820984e-01 -6.9673217833042145e-02</leafValues></_>
        <_>
          <internalNodes>
            0 -1 6 -1.4649140648543835e-03</internalNodes>
          <leafValues>
            -3.4221764653921127e-02 5.6306737661361694e-01</leafValues></_>
        <_>
          <internalNodes>
            0 -1 43 -2.0542722195386887e-02</internalNodes>
          <leafValues>
            3.1224567443132401e-02 -8.6254936456680298e-01</leafValues></_>
        <_>
          <internalNodes>
            0 -1 386 1.2659102678298950e-02</internalNodes>
          <leafValues>
            3.0127743259072304e-02 -4.8632532358169556e-01</leafValues></_>
        <_>
          <internalNodes>
            0 -1 330 5.7662189006805420e-02</internalNodes>
          <leafValues>
            -3.3625207841396332e-02 6.7923468351364136e-01</leafValues></_>
        <_>
          <internalNodes>
            0 -1 147 -5.5792547762393951e-02</internalNodes>
          <leafValues>
            -8.1045860052108765e-01 2.9974956065416336e-02</leafValues></_>
        <_>
          <internalNodes>
            0 -1 465 -1.4394806325435638e-01</internalNodes>
          <leafValues>
            -5.2649533748626709e-01 3.1973369419574738e-02</leafValues></_>
        <_>
          <internalNodes>
            0 -1 396 -3.4130811691284180e-02</internalNodes>
          <leafValues>
            -6.8763130903244019e-01 2.6306586340069771e-02</leafValues></_>
        <_>
          <internalNodes>
            0 -1 82 -8.4683503955602646e-03</internalNodes>
          <leafValues>
            -8.4854149818420410e-01 1.8088825047016144e-02</leafValues></_>
        <_>
          <internalNodes>
            0 -1 159 4.9377880990505219e-02</internalNodes>
          <leafValues>
            1.9407533109188080e-02 -7.3910015821456909e-01</leafValues></_>
        <_>
          <internalNodes>
            0 -1 381 1.2976675294339657e-02</internalNodes>
          <leafValues>
            -6.2314614653587341e-02 3.2607677578926086e-01</leafValues></_>
        <_>
          <internalNodes>
            0 -1 349 -1.3482017675414681e-03</internalNodes>
          <leafValues>
            1.8695627152919769e-01 -1.0252287983894348e-01</leafValues></_>
        <_>
          <internalNodes>
            0 -1 274 -3.8944318890571594e-02</internalNodes>
          <leafValues>
            -1.0131692886352539e-01 2.0902769267559052e-01</leafValues></_>
        <_>
          <internalNodes>
            0 -1 109 -2.2788918577134609e-03</internalNodes>
          <leafValues>
            1.3803108036518097e-01 -1.5097397565841675e-01</leafValues></_>
        <_>
          <internalNodes>
            0 -1 328 -6.0366593301296234e-02</internalNodes>
          <leafValues>
            3.0782109498977661e-01 -7.6103918254375458e-02</leafValues></_>
        <_>
          <internalNodes>
            0 -1 399 -4.5508481562137604e-02</internalNodes>
          <leafValues>
            -8.7826263904571533e-01 2.7366288006305695e-02</leafValues></_>
        <_>
          <internalNodes>
            0 -1 358 -7.9791303724050522e-03</internalNodes>
          <leafValues>
            2.9680079221725464e-01 -7.6025597751140594e-02</leafValues></_>
        <_>
          <internalNodes>
            0 -1 364 -9.2931129038333893e-02</internalNodes>
          <leafValues>
            8.3735805749893188e-01 -2.3394528776407242e-02</leafValues></_>
        <_>
          <internalNodes>
            0 -1 466 -1.5607669018208981e-02</internalNodes>
          <leafValues>
            3.3281676471233368e-02 -8.0163252353668213e-01</leafValues></_>
        <_>
          <internalNodes>
            0 -1 194 9.8244170658290386e-04</internalNodes>
          <leafValues>
            4.7758620232343674e-02 -3.7440770864486694e-01</leafValues></_>
        <_>
          <internalNodes>
            0 -1 516 -9.7060771659016609e-03</internalNodes>
          <leafValues>
            -8.6362892389297485e-01 2.1522425115108490e-02</leafValues></_>
        <_>
          <internalNodes>
            0 -1 161 4.5062956213951111e-01</internalNodes>
          <leafValues>
            2.1931331604719162e-02 -7.3377513885498047e-01</leafValues></_>
        <_>
          <internalNodes>
            0 -1 24 4.0523286908864975e-02</internalNodes>
          <leafValues>
            -8.7618455290794373e-02 2.6926681399345398e-01</leafValues></_>
        <_>
          <internalNodes>
            0 -1 66 -1.9043169915676117e-02</internalNodes>
          <leafValues>
            2.2268030047416687e-01 -8.7633237242698669e-02</leafValues></_>
        <_>
          <internalNodes>
            0 -1 553 6.1050103977322578e-04</internalNodes>
          <leafValues>
            -1.2944059073925018e-01 1.6624717414379120e-01</leafValues></_>
        <_>
          <internalNodes>
            0 -1 425 -8.0774044618010521e-03</internalNodes>
          <leafValues>
            2.8846660256385803e-01 -7.0457756519317627e-02</leafValues></_>
        <_>
          <internalNodes>
            0 -1 477 6.3128760084509850e-03</internalNodes>
          <leafValues>
            2.7520921081304550e-02 -8.2630497217178345e-01</leafValues></_>
        <_>
          <internalNodes>
            0 -1 162 2.5309327989816666e-02</internalNodes>
          <leafValues>
            2.5710685178637505e-02 -6.0300469398498535e-01</leafValues></_>
        <_>
          <internalNodes>
            0 -1 433 3.6444081924855709e-03</internalNodes>
          <leafValues>
            -7.0897355675697327e-02 3.1275755167007446e-01</leafValues></_></weakClassifiers></_>
    <!-- stage 8 -->
    <_>
      <maxWeakCount>98</maxWeakCount>
      <stageThreshold>-6.9691556692123413e-01</stageThreshold>
      <weakClassifiers>
        <_>
          <internalNodes>
            0 -1 564 -1.8016643822193146e-02</internalNodes>
          <leafValues>
            2.8571429848670959e-01 -3.9705881476402283e-01</leafValues></_>
        <_>
          <internalNodes>
            0 -1 335 4.7159935347735882e-03</internalNodes>
          <leafValues>
            -2.6426857709884644e-01 1.3941340148448944e-01</leafValues></_>
        <_>
          <internalNodes>
            0 -1 295 -1.6105514764785767e-01</internalNodes>
          <leafValues>
            5.3219401836395264e-01 -5.8223746716976166e-02</leafValues></_>
        <_>
          <internalNodes>
            0 -1 174 -9.8547369241714478e-02</internalNodes>
          <leafValues>
            3.9944809675216675e-01 -9.7526364028453827e-02</leafValues></_>
        <_>
          <internalNodes>
            0 -1 164 3.6474788188934326e-01</internalNodes>
          <leafValues>
            -6.5943554043769836e-02 4.5016089081764221e-01</leafValues></_>
        <_>
          <internalNodes>
            0 -1 129 -2.9814539477229118e-02</internalNodes>
          <leafValues>
            2.4134391546249390e-01 -1.1752441525459290e-01</leafValues></_>
        <_>
          <internalNodes>
            0 -1 526 -3.2585819717496634e-03</internalNodes>
          <leafValues>
            3.5223037004470825e-01 -8.3387881517410278e-02</leafValues></_>
        <_>
          <internalNodes>
            0 -1 50 1.0543384123593569e-03</internalNodes>
          <leafValues>
            -2.9243007302284241e-01 9.8637923598289490e-02</leafValues></_>
        <_>
          <internalNodes>
            0 -1 145 -2.6134744286537170e-02</internalNodes>
          <leafValues>
            4.7428035736083984e-01 -4.4675521552562714e-02</leafValues></_>
        <_>
          <internalNodes>
            0 -1 214 -7.2059426456689835e-03</internalNodes>
          <leafValues>
            3.0544653534889221e-01 -7.8935682773590088e-02</leafValues></_>
        <_>
          <internalNodes>
            0 -1 105 -1.5711966156959534e-01</internalNodes>
          <leafValues>
            2.6341098546981812e-01 -8.2024306058883667e-02</leafValues></_>
        <_>
          <internalNodes>
            0 -1 114 1.4142865315079689e-02</internalNodes>
          <leafValues>
            -1.6957832872867584e-01 1.9324068725109100e-01</leafValues></_>
        <_>
          <internalNodes>
            0 -1 491 -2.1128163207322359e-03</internalNodes>
          <leafValues>
            1.3071957230567932e-01 -1.7929399013519287e-01</leafValues></_>
        <_>
          <internalNodes>
            0 -1 472 4.1689645498991013e-02</internalNodes>
          <leafValues>
            -6.4075663685798645e-02 3.7772217392921448e-01</leafValues></_>
        <_>
          <internalNodes>
            0 -1 377 1.3438398018479347e-02</internalNodes>
          <leafValues>
            3.2374855130910873e-02 -6.5324819087982178e-01</leafValues></_>
        <_>
          <internalNodes>
            0 -1 190 1.1179534718394279e-02</internalNodes>
          <leafValues>
            -6.3483811914920807e-02 4.1569519042968750e-01</leafValues></_>
        <_>
          <internalNodes>
            0 -1 311 7.8681968152523041e-03</internalNodes>
          <leafValues>
            -6.9878347218036652e-02 3.5082179307937622e-01</leafValues></_>
        <_>
          <internalNodes>
            0 -1 34 -4.3632294982671738e-03</internalNodes>
          <leafValues>
            -6.9709217548370361e-01 3.5896219313144684e-02</leafValues></_>
        <_>
          <internalNodes>
            0 -1 187 -6.3911848701536655e-04</internalNodes>
          <leafValues>
            -3.4871131181716919e-02 7.3998934030532837e-01</leafValues></_>
        <_>
          <internalNodes>
            0 -1 47 -1.7297479510307312e-01</internalNodes>
          <leafValues>
            2.4568511545658112e-01 -9.8317444324493408e-02</leafValues></_>
        <_>
          <internalNodes>
            0 -1 326 -2.2462163120508194e-02</internalNodes>
          <leafValues>
            2.1314679086208344e-01 -1.2482906132936478e-01</leafValues></_>
        <_>
          <internalNodes>
            0 -1 15 1.2359891831874847e-01</internalNodes>
          <leafValues>
            -8.6215570569038391e-02 2.7691546082496643e-01</leafValues></_>
        <_>
          <internalNodes>
            0 -1 280 2.2520635277032852e-02</internalNodes>
          <leafValues>
            4.8167783766984940e-02 -5.7104724645614624e-01</leafValues></_>
        <_>
          <internalNodes>
            0 -1 301 2.7720108628273010e-02</internalNodes>
          <leafValues>
            -1.0354138910770416e-01 2.2920985519886017e-01</leafValues></_>
        <_>
          <internalNodes>
            0 -1 19 -6.6999145783483982e-03</internalNodes>
          <leafValues>
            5.3154408931732178e-01 -4.2045742273330688e-02</leafValues></_>
        <_>
          <internalNodes>
            0 -1 104 -5.4911527782678604e-02</internalNodes>
          <leafValues>
            1.8419823050498962e-01 -1.3044665753841400e-01</leafValues></_>
        <_>
          <internalNodes>
            0 -1 514 1.2281727045774460e-02</internalNodes>
          <leafValues>
            3.3042915165424347e-02 -6.4306479692459106e-01</leafValues></_>
        <_>
          <internalNodes>
            0 -1 98 -6.5915830433368683e-02</internalNodes>
          <leafValues>
            -6.8035084009170532e-01 2.8664458543062210e-02</leafValues></_>
        <_>
          <internalNodes>
            0 -1 259 -4.1612918721511960e-04</internalNodes>
          <leafValues>
            -1.7286954820156097e-01 1.5970483422279358e-01</leafValues></_>
        <_>
          <internalNodes>
            0 -1 452 -1.6363484784960747e-02</internalNodes>
          <leafValues>
            -4.4037592411041260e-01 5.8532085269689560e-02</leafValues></_>
        <_>
          <internalNodes>
            0 -1 603 -5.0983414985239506e-04</internalNodes>
          <leafValues>
            -3.5249434411525726e-02 8.6825579404830933e-01</leafValues></_>
        <_>
          <internalNodes>
            0 -1 99 -1.2592554558068514e-03</internalNodes>
          <leafValues>
            -3.4998095035552979e-01 7.0103198289871216e-02</leafValues></_>
        <_>
          <internalNodes>
            0 -1 485 -3.0229473486542702e-03</internalNodes>
          <leafValues>
            2.6978629827499390e-01 -7.7765606343746185e-02</leafValues></_>
        <_>
          <internalNodes>
            0 -1 443 -1.5000111889094114e-03</internalNodes>
          <leafValues>
            2.3752070963382721e-01 -8.9185424149036407e-02</leafValues></_>
        <_>
          <internalNodes>
            0 -1 525 -3.1908866018056870e-02</internalNodes>
          <leafValues>
            -5.7456547021865845e-01 3.8000404834747314e-02</leafValues></_>
        <_>
          <internalNodes>
            0 -1 416 1.2210186570882797e-02</internalNodes>
          <leafValues>
            6.5844826400279999e-02 -3.0870670080184937e-01</leafValues></_>
        <_>
          <internalNodes>
            0 -1 464 -1.0997105389833450e-02</internalNodes>
          <leafValues>
            2.7564132213592529e-01 -7.7330522239208221e-02</leafValues></_>
        <_>
          <internalNodes>
            0 -1 545 8.7653420632705092e-04</internalNodes>
          <leafValues>
            -1.2452767789363861e-01 1.6957762837409973e-01</leafValues></_>
        <_>
          <internalNodes>
            0 -1 550 2.1965326741337776e-03</internalNodes>
          <leafValues>
            -9.8360687494277954e-02 2.3497286438941956e-01</leafValues></_>
        <_>
          <internalNodes>
            0 -1 527 7.3790907859802246e-02</internalNodes>
          <leafValues>
            -3.1355403363704681e-02 7.0113807916641235e-01</leafValues></_>
        <_>
          <internalNodes>
            0 -1 605 2.2124713286757469e-03</internalNodes>
          <leafValues>
            4.4550813734531403e-02 -6.4032340049743652e-01</leafValues></_>
        <_>
          <internalNodes>
            0 -1 460 -1.4034193940460682e-02</internalNodes>
          <leafValues>
            -5.5797266960144043e-01 3.5503786057233810e-02</leafValues></_>
        <_>
          <internalNodes>
            0 -1 605 -1.1670179665088654e-03</internalNodes>
          <leafValues>
            -3.2870668172836304e-01 6.3750162720680237e-02</leafValues></_>
        <_>
          <internalNodes>
            0 -1 402 -1.6512947622686625e-03</internalNodes>
          <leafValues>
            2.2744697332382202e-01 -1.0150032490491867e-01</leafValues></_>
        <_>
          <internalNodes>
            0 -1 224 5.4405868053436279e-02</internalNodes>
          <leafValues>
            -8.9160166680812836e-02 2.8022041916847229e-01</leafValues></_>
        <_>
          <internalNodes>
            0 -1 546 6.5099336206912994e-03</internalNodes>
          <leafValues>
            2.9310684651136398e-02 -8.5276472568511963e-01</leafValues></_>
        <_>
          <internalNodes>
            0 -1 0 -7.4859750457108021e-03</internalNodes>
          <leafValues>
            -1.0399278253316879e-01 2.6082223653793335e-01</leafValues></_>
        <_>
          <internalNodes>
            0 -1 238 -2.9707705974578857e-01</internalNodes>
          <leafValues>
            1.1867118626832962e-01 -2.4741512537002563e-01</leafValues></_>
        <_>
          <internalNodes>
            0 -1 74 1.9086453318595886e-01</internalNodes>
          <leafValues>
            -4.7610729932785034e-02 4.8026725649833679e-01</leafValues></_>
        <_>
          <internalNodes>
            0 -1 495 -8.5522066801786423e-03</internalNodes>
          <leafValues>
            -8.6404465138912201e-02 2.3080992698669434e-01</leafValues></_>
        <_>
          <internalNodes>
            0 -1 496 1.5155518194660544e-03</internalNodes>
          <leafValues>
            -8.8521726429462433e-02 2.6012879610061646e-01</leafValues></_>
        <_>
          <internalNodes>
            0 -1 463 -6.9403098896145821e-03</internalNodes>
          <leafValues>
            3.0017524957656860e-01 -6.8960241973400116e-02</leafValues></_>
        <_>
          <internalNodes>
            0 -1 107 -2.3657316341996193e-03</internalNodes>
          <leafValues>
            -5.2728313207626343e-01 4.3415412306785583e-02</leafValues></_>
        <_>
          <internalNodes>
            0 -1 267 -1.4537749812006950e-02</internalNodes>
          <leafValues>
            3.2146653532981873e-01 -6.9751977920532227e-02</leafValues></_>
        <_>
          <internalNodes>
            0 -1 264 2.1522946655750275e-02</internalNodes>
          <leafValues>
            -1.1784258484840393e-01 2.1124178171157837e-01</leafValues></_>
        <_>
          <internalNodes>
            0 -1 509 -9.9740147590637207e-02</internalNodes>
          <leafValues>
            -8.6046320199966431e-01 1.8737090751528740e-02</leafValues></_>
        <_>
          <internalNodes>
            0 -1 40 2.5883518159389496e-02</internalNodes>
          <leafValues>
            3.3679496496915817e-02 -5.2509564161300659e-01</leafValues></_>
        <_>
          <internalNodes>
            0 -1 312 4.7647436149418354e-03</internalNodes>
          <leafValues>
            -4.9525164067745209e-02 4.8824590444564819e-01</leafValues></_>
        <_>
          <internalNodes>
            0 -1 107 2.6867715641856194e-03</internalNodes>
          <leafValues>
            4.3266195803880692e-02 -5.0425541400909424e-01</leafValues></_>
        <_>
          <internalNodes>
            0 -1 312 -1.4344135997816920e-03</internalNodes>
          <leafValues>
            2.3408706486225128e-01 -9.4963341951370239e-02</leafValues></_>
        <_>
          <internalNodes>
            0 -1 407 2.5400398299098015e-02</internalNodes>
          <leafValues>
            4.4270709156990051e-02 -4.7994560003280640e-01</leafValues></_>
        <_>
          <internalNodes>
            0 -1 531 -4.2381202802062035e-03</internalNodes>
          <leafValues>
            1.4702519774436951e-01 -1.7004780471324921e-01</leafValues></_>
        <_>
          <internalNodes>
            0 -1 492 -2.3724732920527458e-02</internalNodes>
          <leafValues>
            -2.3804630339145660e-01 1.0249619930982590e-01</leafValues></_>
        <_>
          <internalNodes>
            0 -1 526 -5.1384288817644119e-03</internalNodes>
          <leafValues>
            4.6009957790374756e-01 -4.5100044459104538e-02</leafValues></_>
        <_>
          <internalNodes>
            0 -1 484 2.2159636020660400e-02</internalNodes>
          <leafValues>
            6.2394097447395325e-02 -3.7368074059486389e-01</leafValues></_>
        <_>
          <internalNodes>
            0 -1 406 3.8865073584020138e-03</internalNodes>
          <leafValues>
            4.2529091238975525e-02 -5.3458106517791748e-01</leafValues></_>
        <_>
          <internalNodes>
            0 -1 359 -2.9008649289608002e-02</internalNodes>
          <leafValues>
            -6.7712020874023438e-01 2.8036935254931450e-02</leafValues></_>
        <_>
          <internalNodes>
            0 -1 352 -9.2220403254032135e-02</internalNodes>
          <leafValues>
            4.5298597216606140e-01 -4.9376524984836578e-02</leafValues></_>
        <_>
          <internalNodes>
            0 -1 203 7.0307459682226181e-03</internalNodes>
          <leafValues>
            -1.1196571588516235e-01 2.2221958637237549e-01</leafValues></_>
        <_>
          <internalNodes>
            0 -1 429 -3.8802599906921387e-01</internalNodes>
          <leafValues>
            6.0329824686050415e-01 -3.4294646233320236e-02</leafValues></_>
        <_>
          <internalNodes>
            0 -1 149 -5.3498115390539169e-02</internalNodes>
          <leafValues>
            4.5127627253532410e-01 -4.5604173094034195e-02</leafValues></_>
        <_>
          <internalNodes>
            0 -1 352 8.2305394113063812e-02</internalNodes>
          <leafValues>
            -5.4728128015995026e-02 3.8534688949584961e-01</leafValues></_>
        <_>
          <internalNodes>
            0 -1 51 3.2733255624771118e-01</internalNodes>
          <leafValues>
            -7.1595758199691772e-02 3.0754154920578003e-01</leafValues></_>
        <_>
          <internalNodes>
            0 -1 281 1.8235830357298255e-03</internalNodes>
          <leafValues>
            -8.1141598522663116e-02 2.7745985984802246e-01</leafValues></_>
        <_>
          <internalNodes>
            0 -1 487 7.1745425462722778e-02</internalNodes>
          <leafValues>
            3.5500161349773407e-02 -6.1860722303390503e-01</leafValues></_>
        <_>
          <internalNodes>
            0 -1 520 2.0211260765790939e-02</internalNodes>
          <leafValues>
            -3.9530407637357712e-02 6.1672574281692505e-01</leafValues></_>
        <_>
          <internalNodes>
            0 -1 102 -1.0796903073787689e-01</internalNodes>
          <leafValues>
            9.0164679288864136e-01 -1.9681569188833237e-02</leafValues></_>
        <_>
          <internalNodes>
            0 -1 99 8.0555921886116266e-04</internalNodes>
          <leafValues>
            7.4915580451488495e-02 -2.7366456389427185e-01</leafValues></_>
        <_>
          <internalNodes>
            0 -1 480 -1.2952193617820740e-02</internalNodes>
          <leafValues>
            2.5467586517333984e-01 -8.0199308693408966e-02</leafValues></_>
        <_>
          <internalNodes>
            0 -1 388 -1.2488813698291779e-01</internalNodes>
          <leafValues>
            4.0087005496025085e-01 -5.0722993910312653e-02</leafValues></_>
        <_>
          <internalNodes>
            0 -1 89 -7.5531995296478271e-01</internalNodes>
          <leafValues>
            -3.6511757969856262e-01 6.8533480167388916e-02</leafValues></_>
        <_>
          <internalNodes>
            0 -1 592 3.2689059153199196e-03</internalNodes>
          <leafValues>
            -7.4315950274467468e-02 3.2132032513618469e-01</leafValues></_>
        <_>
          <internalNodes>
            0 -1 71 9.5957182347774506e-03</internalNodes>
          <leafValues>
            4.5618746429681778e-02 -5.0062024593353271e-01</leafValues></_>
        <_>
          <internalNodes>
            0 -1 508 -3.6128088831901550e-03</internalNodes>
          <leafValues>
            -5.1441317796707153e-01 4.1074506938457489e-02</leafValues></_>
        <_>
          <internalNodes>
            0 -1 113 -1.7601214349269867e-02</internalNodes>
          <leafValues>
            2.4841831997036934e-02 -7.6878279447555542e-01</leafValues></_>
        <_>
          <internalNodes>
            0 -1 285 -3.0070163309574127e-02</internalNodes>
          <leafValues>
            -2.2501288354396820e-01 8.6724102497100830e-02</leafValues></_>
        <_>
          <internalNodes>
            0 -1 303 -5.0559225492179394e-03</internalNodes>
          <leafValues>
            1.8749240040779114e-01 -1.1427855491638184e-01</leafValues></_>
        <_>
          <internalNodes>
            0 -1 60 1.4659432694315910e-02</internalNodes>
          <leafValues>
            3.9539523422718048e-02 -5.8782428503036499e-01</leafValues></_>
        <_>
          <internalNodes>
            0 -1 141 -1.0306794196367264e-02</internalNodes>
          <leafValues>
            -4.1848663240671158e-02 6.4010339975357056e-01</leafValues></_>
        <_>
          <internalNodes>
            0 -1 59 -6.2623664736747742e-02</internalNodes>
          <leafValues>
            7.8075833618640900e-02 -4.2648604512214661e-01</leafValues></_>
        <_>
          <internalNodes>
            0 -1 343 4.4213873334228992e-03</internalNodes>
          <leafValues>
            -9.7878552973270416e-02 2.9596385359764099e-01</leafValues></_>
        <_>
          <internalNodes>
            0 -1 230 -7.1019446477293968e-03</internalNodes>
          <leafValues>
            -8.0954796075820923e-01 2.5857927277684212e-02</leafValues></_>
        <_>
          <internalNodes>
            0 -1 559 -1.1496280319988728e-02</internalNodes>
          <leafValues>
            -8.7574213743209839e-01 1.8169062212109566e-02</leafValues></_>
        <_>
          <internalNodes>
            0 -1 528 -9.8977446556091309e-02</internalNodes>
          <leafValues>
            6.1381977796554565e-01 -4.8180654644966125e-02</leafValues></_>
        <_>
          <internalNodes>
            0 -1 35 -2.6329099200665951e-03</internalNodes>
          <leafValues>
            2.7217018604278564e-01 -7.3317952454090118e-02</leafValues></_>
        <_>
          <internalNodes>
            0 -1 536 -3.8739766925573349e-02</internalNodes>
          <leafValues>
            -5.7978328317403793e-02 3.5000878572463989e-01</leafValues></_>
        <_>
          <internalNodes>
            0 -1 547 -1.9102308899164200e-02</internalNodes>
          <leafValues>
            6.6683359444141388e-02 -3.2210144400596619e-01</leafValues></_>
        <_>
          <internalNodes>
            0 -1 28 -5.8046253398060799e-03</internalNodes>
          <leafValues>
            -7.7902865409851074e-01 2.0520251244306564e-02</leafValues></_></weakClassifiers></_>
    <!-- stage 9 -->
    <_>
      <maxWeakCount>99</maxWeakCount>
      <stageThreshold>-7.4017554521560669e-01</stageThreshold>
      <weakClassifiers>
        <_>
          <internalNodes>
            0 -1 314 -1.4585207402706146e-01</internalNodes>
          <leafValues>
            3.5849055647850037e-01 -3.8593974709510803e-01</leafValues></_>
        <_>
          <internalNodes>
            0 -1 291 1.1686802655458450e-01</internalNodes>
          <leafValues>
            -1.2042802572250366e-01 3.2311686873435974e-01</leafValues></_>
        <_>
          <internalNodes>
            0 -1 500 1.2213570997118950e-02</internalNodes>
          <leafValues>
            -6.5992131829261780e-02 4.8119574785232544e-01</leafValues></_>
        <_>
          <internalNodes>
            0 -1 216 2.0496390759944916e-02</internalNodes>
          <leafValues>
            -8.0749005079269409e-02 4.2678436636924744e-01</leafValues></_>
        <_>
          <internalNodes>
            0 -1 137 -3.3941459655761719e-01</internalNodes>
          <leafValues>
            4.2507636547088623e-01 -5.4478146135807037e-02</leafValues></_>
        <_>
          <internalNodes>
            0 -1 468 1.1323092505335808e-02</internalNodes>
          <leafValues>
            -2.4188907444477081e-01 1.3050922751426697e-01</leafValues></_>
        <_>
          <internalNodes>
            0 -1 88 1.9335148681420833e-04</internalNodes>
          <leafValues>
            1.2738491594791412e-01 -2.0268301665782928e-01</leafValues></_>
        <_>
          <internalNodes>
            0 -1 150 -3.8110282272100449e-02</internalNodes>
          <leafValues>
            -2.9939779639244080e-01 1.0546392202377319e-01</leafValues></_>
        <_>
          <internalNodes>
            0 -1 356 5.6912447325885296e-03</internalNodes>
          <leafValues>
            -8.6756214499473572e-02 2.8691864013671875e-01</leafValues></_>
        <_>
          <internalNodes>
            0 -1 4 -2.6984151452779770e-02</internalNodes>
          <leafValues>
            3.6180683970451355e-01 -1.0438179969787598e-01</leafValues></_>
        <_>
          <internalNodes>
            0 -1 593 -2.3111905902624130e-03</internalNodes>
          <leafValues>
            -4.3167176842689514e-01 8.1894092261791229e-02</leafValues></_>
        <_>
          <internalNodes>
            0 -1 414 1.9051386043429375e-03</internalNodes>
          <leafValues>
            -1.1306525766849518e-01 2.7355295419692993e-01</leafValues></_>
        <_>
          <internalNodes>
            0 -1 414 -5.1701097982004285e-04</internalNodes>
          <leafValues>
            2.0703078806400299e-01 -1.2039546668529510e-01</leafValues></_>
        <_>
          <internalNodes>
            0 -1 374 -1.1050795204937458e-02</internalNodes>
          <leafValues>
            5.6355021893978119e-02 -4.7004416584968567e-01</leafValues></_>
        <_>
          <internalNodes>
            0 -1 95 -1.1406958103179932e-01</internalNodes>
          <leafValues>
            6.6633325815200806e-01 -4.8780225217342377e-02</leafValues></_>
        <_>
          <internalNodes>
            0 -1 38 1.9161824136972427e-02</internalNodes>
          <leafValues>
            3.8088414818048477e-02 -7.3759603500366211e-01</leafValues></_>
        <_>
          <internalNodes>
            0 -1 535 -1.9027103553526103e-04</internalNodes>
          <leafValues>
            -1.9637602567672729e-01 1.0532508790493011e-01</leafValues></_>
        <_>
          <internalNodes>
            0 -1 593 2.0172595977783203e-03</internalNodes>
          <leafValues>
            8.0176629126071930e-02 -3.1081375479698181e-01</leafValues></_>
        <_>
          <internalNodes>
            0 -1 498 7.8544635325670242e-03</internalNodes>
          <leafValues>
            6.8016596138477325e-02 -3.5531494021415710e-01</leafValues></_>
        <_>
          <internalNodes>
            0 -1 504 1.2769133318215609e-03</internalNodes>
          <leafValues>
            -1.3081781566143036e-01 1.8704657256603241e-01</leafValues></_>
        <_>
          <internalNodes>
            0 -1 299 -1.0441049933433533e-02</internalNodes>
          <leafValues>
            2.3787239193916321e-01 -9.8660610616207123e-02</leafValues></_>
        <_>
          <internalNodes>
            0 -1 178 6.6024051047861576e-03</internalNodes>
          <leafValues>
            -6.5539270639419556e-02 3.5510385036468506e-01</leafValues></_>
        <_>
          <internalNodes>
            0 -1 483 8.2582700997591019e-03</internalNodes>
          <leafValues>
            3.9228301495313644e-02 -5.4946053028106689e-01</leafValues></_>
        <_>
          <internalNodes>
            0 -1 538 6.4444527961313725e-03</internalNodes>
          <leafValues>
            -9.5119304955005646e-02 2.5679436326026917e-01</leafValues></_>
        <_>
          <internalNodes>
            0 -1 567 -1.9545532763004303e-02</internalNodes>
          <leafValues>
            2.7394959330558777e-01 -8.6556322872638702e-02</leafValues></_>
        <_>
          <internalNodes>
            0 -1 577 6.0940431430935860e-03</internalNodes>
          <leafValues>
            -1.0120377689599991e-01 2.8177911043167114e-01</leafValues></_>
        <_>
          <internalNodes>
            0 -1 512 -6.1993398703634739e-03</internalNodes>
          <leafValues>
            -3.9839470386505127e-01 5.7635329663753510e-02</leafValues></_>
        <_>
          <internalNodes>
            0 -1 232 2.4437648244202137e-03</internalNodes>
          <leafValues>
            5.9023521840572357e-02 -3.5683292150497437e-01</leafValues></_>
        <_>
          <internalNodes>
            0 -1 453 -2.2385101765394211e-03</internalNodes>
          <leafValues>
            2.3664496839046478e-01 -9.7465060651302338e-02</leafValues></_>
        <_>
          <internalNodes>
            0 -1 260 7.7063199132680893e-03</internalNodes>
          <leafValues>
            -8.5208721458911896e-02 2.9019820690155029e-01</leafValues></_>
        <_>
          <internalNodes>
            0 -1 134 2.4960444867610931e-01</internalNodes>
          <leafValues>
            -6.3626609742641449e-02 3.6423751711845398e-01</leafValues></_>
        <_>
          <internalNodes>
            0 -1 33 7.9553574323654175e-02</internalNodes>
          <leafValues>
            -8.1790931522846222e-02 3.2591781020164490e-01</leafValues></_>
        <_>
          <internalNodes>
            0 -1 78 -7.0914826355874538e-03</internalNodes>
          <leafValues>
            -4.8378345370292664e-01 5.5569287389516830e-02</leafValues></_>
        <_>
          <internalNodes>
            0 -1 323 -1.1226318776607513e-02</internalNodes>
          <leafValues>
            -5.4287117719650269e-01 3.9591100066900253e-02</leafValues></_>
        <_>
          <internalNodes>
            0 -1 537 -2.5951975956559181e-02</internalNodes>
          <leafValues>
            5.3944921493530273e-01 -4.8145305365324020e-02</leafValues></_>
        <_>
          <internalNodes>
            0 -1 286 -8.1196077167987823e-02</internalNodes>
          <leafValues>
            -5.9200179576873779e-01 4.6838372945785522e-02</leafValues></_>
        <_>
          <internalNodes>
            0 -1 530 -3.4982524812221527e-03</internalNodes>
          <leafValues>
            3.2694855332374573e-01 -7.8318923711776733e-02</leafValues></_>
        <_>
          <internalNodes>
            0 -1 126 4.5695682638324797e-04</internalNodes>
          <leafValues>
            8.5610866546630859e-02 -2.9038199782371521e-01</leafValues></_>
        <_>
          <internalNodes>
            0 -1 601 1.0163083672523499e-02</internalNodes>
          <leafValues>
            2.8304733335971832e-02 -6.9204229116439819e-01</leafValues></_>
        <_>
          <internalNodes>
            0 -1 29 -6.5996333956718445e-02</internalNodes>
          <leafValues>
            6.9072371721267700e-01 -3.7360187619924545e-02</leafValues></_>
        <_>
          <internalNodes>
            0 -1 413 -8.0810894723981619e-04</internalNodes>
          <leafValues>
            2.2476428747177124e-01 -9.2945560812950134e-02</leafValues></_>
        <_>
          <internalNodes>
            0 -1 442 2.1690924186259508e-03</internalNodes>
          <leafValues>
            -8.2512699067592621e-02 3.0224442481994629e-01</leafValues></_>
        <_>
          <internalNodes>
            0 -1 339 -3.0881162732839584e-02</internalNodes>
          <leafValues>
            -5.4907995462417603e-01 4.1768468916416168e-02</leafValues></_>
        <_>
          <internalNodes>
            0 -1 25 1.9320864230394363e-02</internalNodes>
          <leafValues>
            -7.4137598276138306e-02 3.4542033076286316e-01</leafValues></_>
        <_>
          <internalNodes>
            0 -1 394 3.4019887447357178e-02</internalNodes>
          <leafValues>
            3.3591400831937790e-02 -7.3366916179656982e-01</leafValues></_>
        <_>
          <internalNodes>
            0 -1 448 3.9192261174321175e-03</internalNodes>
          <leafValues>
            -6.5642088651657104e-02 3.7597438693046570e-01</leafValues></_>
        <_>
          <internalNodes>
            0 -1 322 -1.3280489947646856e-03</internalNodes>
          <leafValues>
            2.2231432795524597e-01 -1.0156546533107758e-01</leafValues></_>
        <_>
          <internalNodes>
            0 -1 273 -1.9324203021824360e-03</internalNodes>
          <leafValues>
            -4.3119892477989197e-02 5.5018228292465210e-01</leafValues></_>
        <_>
          <internalNodes>
            0 -1 507 1.7984358593821526e-02</internalNodes>
          <leafValues>
            3.2211542129516602e-02 -6.9278937578201294e-01</leafValues></_>
        <_>
          <internalNodes>
            0 -1 400 8.4173101931810379e-03</internalNodes>
          <leafValues>
            4.2311988770961761e-02 -5.1855450868606567e-01</leafValues></_>
        <_>
          <internalNodes>
            0 -1 511 1.1479800567030907e-02</internalNodes>
          <leafValues>
            3.1602684408426285e-02 -6.0830086469650269e-01</leafValues></_>
        <_>
          <internalNodes>
            0 -1 494 -9.6172075718641281e-03</internalNodes>
          <leafValues>
            4.7318601608276367e-01 -5.2564416080713272e-02</leafValues></_>
        <_>
          <internalNodes>
            0 -1 458 -1.7640495207160711e-03</internalNodes>
          <leafValues>
            -2.0257316529750824e-01 1.2354401499032974e-01</leafValues></_>
        <_>
          <internalNodes>
            0 -1 195 -3.7562486249953508e-04</internalNodes>
          <leafValues>
            7.2830937802791595e-02 -3.4083676338195801e-01</leafValues></_>
        <_>
          <internalNodes>
            0 -1 469 6.1287160962820053e-02</internalNodes>
          <leafValues>
            -4.9325890839099884e-02 5.1270633935928345e-01</leafValues></_>
        <_>
          <internalNodes>
            0 -1 49 2.3744258284568787e-01</internalNodes>
          <leafValues>
            -3.8064729422330856e-02 5.8214020729064941e-01</leafValues></_>
        <_>
          <internalNodes>
            0 -1 597 3.9682872593402863e-03</internalNodes>
          <leafValues>
            3.7727110087871552e-02 -6.3059127330780029e-01</leafValues></_>
        <_>
          <internalNodes>
            0 -1 432 -2.5208811275660992e-03</internalNodes>
          <leafValues>
            -1.7257320880889893e-01 1.3287848234176636e-01</leafValues></_>
        <_>
          <internalNodes>
            0 -1 82 4.0266728028655052e-03</internalNodes>
          <leafValues>
            4.6849422156810760e-02 -5.2575236558914185e-01</leafValues></_>
        <_>
          <internalNodes>
            0 -1 84 -8.7984934449195862e-02</internalNodes>
          <leafValues>
            -6.3699525594711304e-01 2.9459012672305107e-02</leafValues></_>
        <_>
          <internalNodes>
            0 -1 297 2.9134863615036011e-01</internalNodes>
          <leafValues>
            2.7209186926484108e-02 -7.0683860778808594e-01</leafValues></_>
        <_>
          <internalNodes>
            0 -1 81 1.5823084861040115e-02</internalNodes>
          <leafValues>
            -5.2736543118953705e-02 4.4242200255393982e-01</leafValues></_>
        <_>
          <internalNodes>
            0 -1 120 1.7501628026366234e-02</internalNodes>
          <leafValues>
            4.1203573346138000e-02 -5.6942951679229736e-01</leafValues></_>
        <_>
          <internalNodes>
            0 -1 96 3.1981291249394417e-04</internalNodes>
          <leafValues>
            -1.9874835014343262e-01 1.2009923905134201e-01</leafValues></_>
        <_>
          <internalNodes>
            0 -1 426 1.3897200115025043e-02</internalNodes>
          <leafValues>
            7.4493944644927979e-02 -2.7953246235847473e-01</leafValues></_>
        <_>
          <internalNodes>
            0 -1 128 2.6665106415748596e-03</internalNodes>
          <leafValues>
            -8.1418827176094055e-02 2.9736027121543884e-01</leafValues></_>
        <_>
          <internalNodes>
            0 -1 589 -7.5219926657155156e-04</internalNodes>
          <leafValues>
            -2.4789080023765564e-01 8.3407849073410034e-02</leafValues></_>
        <_>
          <internalNodes>
            0 -1 317 7.9115450382232666e-02</internalNodes>
          <leafValues>
            -3.6788642406463623e-02 6.1316454410552979e-01</leafValues></_>
        <_>
          <internalNodes>
            0 -1 611 1.8272075976710767e-04</internalNodes>
          <leafValues>
            1.0251022875308990e-01 -2.1607378125190735e-01</leafValues></_>
        <_>
          <internalNodes>
            0 -1 183 2.5513209402561188e-02</internalNodes>
          <leafValues>
            1.3194781541824341e-01 -1.8222588300704956e-01</leafValues></_>
        <_>
          <internalNodes>
            0 -1 131 1.1481780558824539e-02</internalNodes>
          <leafValues>
            -1.3780285418033600e-01 2.2197976708412170e-01</leafValues></_>
        <_>
          <internalNodes>
            0 -1 309 3.3714217133820057e-03</internalNodes>
          <leafValues>
            -6.6256821155548096e-02 3.2212680578231812e-01</leafValues></_>
        <_>
          <internalNodes>
            0 -1 309 -8.9016673155128956e-04</internalNodes>
          <leafValues>
            2.0009438693523407e-01 -1.0148309916257858e-01</leafValues></_>
        <_>
          <internalNodes>
            0 -1 34 5.3072022274136543e-03</internalNodes>
          <leafValues>
            3.5457309335470200e-02 -6.4237076044082642e-01</leafValues></_>
        <_>
          <internalNodes>
            0 -1 499 2.5692034512758255e-02</internalNodes>
          <leafValues>
            3.0140796676278114e-02 -6.3036960363388062e-01</leafValues></_>
        <_>
          <internalNodes>
            0 -1 18 -8.6448766523972154e-04</internalNodes>
          <leafValues>
            2.0699585974216461e-01 -1.0245510935783386e-01</leafValues></_>
        <_>
          <internalNodes>
            0 -1 1 1.0866360738873482e-02</internalNodes>
          <leafValues>
            -8.6672753095626831e-02 3.0861303210258484e-01</leafValues></_>
        <_>
          <internalNodes>
            0 -1 209 2.7145761251449585e-01</internalNodes>
          <leafValues>
            -2.4803334847092628e-02 8.3948129415512085e-01</leafValues></_>
        <_>
          <internalNodes>
            0 -1 361 9.1992437839508057e-02</internalNodes>
          <leafValues>
            -2.9261214658617973e-02 6.1270940303802490e-01</leafValues></_>
        <_>
          <internalNodes>
            0 -1 563 5.4294459521770477e-02</internalNodes>
          <leafValues>
            -4.3446339666843414e-02 4.8876479268074036e-01</leafValues></_>
        <_>
          <internalNodes>
            0 -1 279 1.1457132175564766e-02</internalNodes>
          <leafValues>
            -5.1124114543199539e-02 4.3417510390281677e-01</leafValues></_>
        <_>
          <internalNodes>
            0 -1 90 1.5615867078304291e-01</internalNodes>
          <leafValues>
            -2.7829116210341454e-02 7.2513884305953979e-01</leafValues></_>
        <_>
          <internalNodes>
            0 -1 94 8.5341720841825008e-04</internalNodes>
          <leafValues>
            1.0557632893323898e-01 -2.2199133038520813e-01</leafValues></_>
        <_>
          <internalNodes>
            0 -1 134 2.4960444867610931e-01</internalNodes>
          <leafValues>
            -7.0487819612026215e-02 3.5514390468597412e-01</leafValues></_>
        <_>
          <internalNodes>
            0 -1 223 1.6943123191595078e-02</internalNodes>
          <leafValues>
            -2.0465931296348572e-01 1.5146462619304657e-01</leafValues></_>
        <_>
          <internalNodes>
            0 -1 123 -3.8551412522792816e-02</internalNodes>
          <leafValues>
            -7.6226156949996948e-01 2.5670655071735382e-02</leafValues></_>
        <_>
          <internalNodes>
            0 -1 77 -8.6678259074687958e-02</internalNodes>
          <leafValues>
            6.0898023843765259e-01 -3.8738943636417389e-02</leafValues></_>
        <_>
          <internalNodes>
            0 -1 10 7.9982079565525055e-02</internalNodes>
          <leafValues>
            6.7826375365257263e-02 -3.3331072330474854e-01</leafValues></_>
        <_>
          <internalNodes>
            0 -1 298 4.2978054843842983e-03</internalNodes>
          <leafValues>
            -8.3061210811138153e-02 2.8671672940254211e-01</leafValues></_>
        <_>
          <internalNodes>
            0 -1 606 2.6199317653663456e-04</internalNodes>
          <leafValues>
            1.0425388813018799e-01 -2.1229381859302521e-01</leafValues></_>
        <_>
          <internalNodes>
            0 -1 27 1.1337752640247345e-01</internalNodes>
          <leafValues>
            -5.9026315808296204e-02 3.7063482403755188e-01</leafValues></_>
        <_>
          <internalNodes>
            0 -1 252 -3.3901229500770569e-02</internalNodes>
          <leafValues>
            -9.4395047426223755e-01 2.2590160369873047e-02</leafValues></_>
        <_>
          <internalNodes>
            0 -1 324 -9.1467369347810745e-03</internalNodes>
          <leafValues>
            -3.6910253763198853e-01 5.6758161634206772e-02</leafValues></_>
        <_>
          <internalNodes>
            0 -1 225 -1.6729991137981415e-01</internalNodes>
          <leafValues>
            -5.7844859361648560e-01 3.8259994238615036e-02</leafValues></_>
        <_>
          <internalNodes>
            0 -1 403 7.9263560473918915e-03</internalNodes>
          <leafValues>
            -7.8452646732330322e-02 3.2832086086273193e-01</leafValues></_>
        <_>
          <internalNodes>
            0 -1 68 -7.6244482770562172e-03</internalNodes>
          <leafValues>
            -8.7227129936218262e-01 2.7936451137065887e-02</leafValues></_>
        <_>
          <internalNodes>
            0 -1 179 -5.5460780858993530e-03</internalNodes>
          <leafValues>
            -3.3596158027648926e-02 9.4417315721511841e-01</leafValues></_>
        <_>
          <internalNodes>
            0 -1 135 3.5816532373428345e-01</internalNodes>
          <leafValues>
            4.8561152070760727e-02 -5.7028526067733765e-01</leafValues></_>
        <_>
          <internalNodes>
            0 -1 440 -6.6102589480578899e-03</internalNodes>
          <leafValues>
            -9.4749754667282104e-01 1.9724246114492416e-02</leafValues></_></weakClassifiers></_></stages>
  <features>
    <_>
      <rects>
        <_>
          0 0 3 1 -1.</_>
        <_>
          1 0 1 1 2.</_></rects>
      <tilted>0</tilted></_>
    <_>
      <rects>
        <_>
          0 0 2 5 -1.</_>
        <_>
          1 0 1 5 2.</_></rects>
      <tilted>0</tilted></_>
    <_>
      <rects>
        <_>
          0 0 2 8 -1.</_>
        <_>
          1 0 1 8 2.</_></rects>
      <tilted>0</tilted></_>
    <_>
      <rects>
        <_>
          0 0 2 18 -1.</_>
        <_>
          0 0 1 9 2.</_>
        <_>
          1 9 1 9 2.</_></rects>
      <tilted>0</tilted></_>
    <_>
      <rects>
        <_>
          0 0 2 20 -1.</_>
        <_>
          0 0 1 10 2.</_>
        <_>
          1 10 1 10 2.</_></rects>
      <tilted>0</tilted></_>
    <_>
      <rects>
        <_>
          0 0 2 15 -1.</_>
        <_>
          1 0 1 15 2.</_></rects>
      <tilted>0</tilted></_>
    <_>
      <rects>
        <_>
          0 0 6 1 -1.</_>
        <_>
          2 0 2 1 2.</_></rects>
      <tilted>0</tilted></_>
    <_>
      <rects>
        <_>
          0 0 12 1 -1.</_>
        <_>
          4 0 4 1 2.</_></rects>
      <tilted>0</tilted></_>
    <_>
      <rects>
        <_>
          0 0 8 4 -1.</_>
        <_>
          0 0 4 2 2.</_>
        <_>
          4 2 4 2 2.</_></rects>
      <tilted>0</tilted></_>
    <_>
      <rects>
        <_>
          0 0 8 4 -1.</_>
        <_>
          4 0 4 4 2.</_></rects>
      <tilted>0</tilted></_>
    <_>
      <rects>
        <_>
          0 0 8 8 -1.</_>
        <_>
          0 0 4 4 2.</_>
        <_>
          4 4 4 4 2.</_></rects>
      <tilted>0</tilted></_>
    <_>
      <rects>
        <_>
          0 0 8 13 -1.</_>
        <_>
          4 0 4 13 2.</_></rects>
      <tilted>0</tilted></_>
    <_>
      <rects>
        <_>
          0 0 5 2 -1.</_>
        <_>
          0 1 5 1 2.</_></rects>
      <tilted>0</tilted></_>
    <_>
      <rects>
        <_>
          0 0 10 2 -1.</_>
        <_>
          0 0 5 1 2.</_>
        <_>
          5 1 5 1 2.</_></rects>
      <tilted>0</tilted></_>
    <_>
      <rects>
        <_>
          0 0 7 2 -1.</_>
        <_>
          0 1 7 1 2.</_></rects>
      <tilted>0</tilted></_>
    <_>
      <rects>
        <_>
          0 0 10 6 -1.</_>
        <_>
          0 3 10 3 2.</_></rects>
      <tilted>0</tilted></_>
    <_>
      <rects>
        <_>
          0 0 10 8 -1.</_>
        <_>
          0 4 10 4 2.</_></rects>
      <tilted>0</tilted></_>
    <_>
      <rects>
        <_>
          0 0 12 3 -1.</_>
        <_>
          0 1 12 1 2.</_></rects>
      <tilted>0</tilted></_>
    <_>
      <rects>
        <_>
          0 1 2 1 -1.</_>
        <_>
          1 1 1 1 2.</_></rects>
      <tilted>0</tilted></_>
    <_>
      <rects>
        <_>
          0 1 2 2 -1.</_>
        <_>
          0 1 1 1 2.</_>
        <_>
          1 2 1 1 2.</_></rects>
      <tilted>0</tilted></_>
    <_>
      <rects>
        <_>
          0 1 2 7 -1.</_>
        <_>
          1 1 1 7 2.</_></rects>
      <tilted>0</tilted></_>
    <_>
      <rects>
        <_>
          0 1 2 11 -1.</_>
        <_>
          1 1 1 11 2.</_></rects>
      <tilted>0</tilted></_>
    <_>
      <rects>
        <_>
          0 1 4 2 -1.</_>
        <_>
          0 1 2 1 2.</_>
        <_>
          2 2 2 1 2.</_></rects>
      <tilted>0</tilted></_>
    <_>
      <rects>
        <_>
          0 1 2 4 -1.</_>
        <_>
          0 3 2 2 2.</_></rects>
      <tilted>0</tilted></_>
    <_>
      <rects>
        <_>
          0 1 4 10 -1.</_>
        <_>
          0 1 2 5 2.</_>
        <_>
          2 6 2 5 2.</_></rects>
      <tilted>0</tilted></_>
    <_>
      <rects>
        <_>
          0 1 6 1 -1.</_>
        <_>
          3 1 3 1 2.</_></rects>
      <tilted>0</tilted></_>
    <_>
      <rects>
        <_>
          0 1 8 2 -1.</_>
        <_>
          4 1 4 2 2.</_></rects>
      <tilted>0</tilted></_>
    <_>
      <rects>
        <_>
          0 1 7 6 -1.</_>
        <_>
          0 4 7 3 2.</_></rects>
      <tilted>0</tilted></_>
    <_>
      <rects>
        <_>
          0 2 1 2 -1.</_>
        <_>
          0 3 1 1 2.</_></rects>
      <tilted>0</tilted></_>
    <_>
      <rects>
        <_>
          0 2 2 11 -1.</_>
        <_>
          1 2 1 11 2.</_></rects>
      <tilted>0</tilted></_>
    <_>
      <rects>
        <_>
          0 2 2 18 -1.</_>
        <_>
          1 2 1 18 2.</_></rects>
      <tilted>0</tilted></_>
    <_>
      <rects>
        <_>
          0 2 4 8 -1.</_>
        <_>
          0 2 2 4 2.</_>
        <_>
          2 6 2 4 2.</_></rects>
      <tilted>0</tilted></_>
    <_>
      <rects>
        <_>
          0 2 8 4 -1.</_>
        <_>
          0 4 8 2 2.</_></rects>
      <tilted>0</tilted></_>
    <_>
      <rects>
        <_>
          0 2 12 4 -1.</_>
        <_>
          0 4 12 2 2.</_></rects>
      <tilted>0</tilted></_>
    <_>
      <rects>
        <_>
          0 3 1 2 -1.</_>
        <_>
          0 4 1 1 2.</_></rects>
      <tilted>0</tilted></_>
    <_>
      <rects>
        <_>
          0 3 2 4 -1.</_>
        <_>
          0 3 1 2 2.</_>
        <_>
          1 5 1 2 2.</_></rects>
      <tilted>0</tilted></_>
    <_>
      <rects>
        <_>
          0 3 2 6 -1.</_>
        <_>
          0 3 1 3 2.</_>
        <_>
          1 6 1 3 2.</_></rects>
      <tilted>0</tilted></_>
    <_>
      <rects>
        <_>
          0 3 2 8 -1.</_>
        <_>
          1 3 1 8 2.</_></rects>
      <tilted>0</tilted></_>
    <_>
      <rects>
        <_>
          0 3 4 2 -1.</_>
        <_>
          0 4 4 1 2.</_></rects>
      <tilted>0</tilted></_>
    <_>
      <rects>
        <_>
          0 3 8 2 -1.</_>
        <_>
          0 3 4 1 2.</_>
        <_>
          4 4 4 1 2.</_></rects>
      <tilted>0</tilted></_>
    <_>
      <rects>
        <_>
          0 3 7 2 -1.</_>
        <_>
          0 4 7 1 2.</_></rects>
      <tilted>0</tilted></_>
    <_>
      <rects>
        <_>
          0 4 2 14 -1.</_>
        <_>
          1 4 1 14 2.</_></rects>
      <tilted>0</tilted></_>
    <_>
      <rects>
        <_>
          0 4 2 6 -1.</_>
        <_>
          0 7 2 3 2.</_></rects>
      <tilted>0</tilted></_>
    <_>
      <rects>
        <_>
          0 4 9 2 -1.</_>
        <_>
          3 4 3 2 2.</_></rects>
      <tilted>0</tilted></_>
    <_>
      <rects>
        <_>
          0 4 6 6 -1.</_>
        <_>
          0 4 3 3 2.</_>
        <_>
          3 7 3 3 2.</_></rects>
      <tilted>0</tilted></_>
    <_>
      <rects>
        <_>
          0 4 8 2 -1.</_>
        <_>
          0 4 4 1 2.</_>
        <_>
          4 5 4 1 2.</_></rects>
      <tilted>0</tilted></_>
    <_>
      <rects>
        <_>
          0 4 10 16 -1.</_>
        <_>
          0 4 5 8 2.</_>
        <_>
          5 12 5 8 2.</_></rects>
      <tilted>0</tilted></_>
    <_>
      <rects>
        <_>
          0 4 12 14 -1.</_>
        <_>
          0 4 6 7 2.</_>
        <_>
          6 11 6 7 2.</_></rects>
      <tilted>0</tilted></_>
    <_>
      <rects>
        <_>
          0 4 12 16 -1.</_>
        <_>
          0 4 6 8 2.</_>
        <_>
          6 12 6 8 2.</_></rects>
      <tilted>0</tilted></_>
    <_>
      <rects>
        <_>
          0 4 8 10 -1.</_>
        <_>
          0 9 8 5 2.</_></rects>
      <tilted>0</tilted></_>
    <_>
      <rects>
        <_>
          0 4 9 2 -1.</_>
        <_>
          0 5 9 1 2.</_></rects>
      <tilted>0</tilted></_>
    <_>
      <rects>
        <_>
          0 4 12 16 -1.</_>
        <_>
          0 12 12 8 2.</_></rects>
      <tilted>0</tilted></_>
    <_>
      <rects>
        <_>
          0 5 1 2 -1.</_>
        <_>
          0 6 1 1 2.</_></rects>
      <tilted>0</tilted></_>
    <_>
      <rects>
        <_>
          0 5 2 2 -1.</_>
        <_>
          0 5 1 1 2.</_>
        <_>
          1 6 1 1 2.</_></rects>
      <tilted>0</tilted></_>
    <_>
      <rects>
        <_>
          0 5 4 1 -1.</_>
        <_>
          2 5 2 1 2.</_></rects>
      <tilted>0</tilted></_>
    <_>
      <rects>
        <_>
          0 5 4 3 -1.</_>
        <_>
          2 5 2 3 2.</_></rects>
      <tilted>0</tilted></_>
    <_>
      <rects>
        <_>
          0 5 4 6 -1.</_>
        <_>
          0 5 2 3 2.</_>
        <_>
          2 8 2 3 2.</_></rects>
      <tilted>0</tilted></_>
    <_>
      <rects>
        <_>
          0 5 3 2 -1.</_>
        <_>
          0 6 3 1 2.</_></rects>
      <tilted>0</tilted></_>
    <_>
      <rects>
        <_>
          0 5 6 11 -1.</_>
        <_>
          3 5 3 11 2.</_></rects>
      <tilted>0</tilted></_>
    <_>
      <rects>
        <_>
          0 5 12 2 -1.</_>
        <_>
          4 5 4 2 2.</_></rects>
      <tilted>0</tilted></_>
    <_>
      <rects>
        <_>
          0 5 5 2 -1.</_>
        <_>
          0 6 5 1 2.</_></rects>
      <tilted>0</tilted></_>
    <_>
      <rects>
        <_>
          0 5 12 8 -1.</_>
        <_>
          0 5 6 4 2.</_>
        <_>
          6 9 6 4 2.</_></rects>
      <tilted>0</tilted></_>
    <_>
      <rects>
        <_>
          0 6 2 2 -1.</_>
        <_>
          0 7 2 1 2.</_></rects>
      <tilted>0</tilted></_>
    <_>
      <rects>
        <_>
          0 6 4 4 -1.</_>
        <_>
          0 6 2 2 2.</_>
        <_>
          2 8 2 2 2.</_></rects>
      <tilted>0</tilted></_>
    <_>
      <rects>
        <_>
          0 6 3 2 -1.</_>
        <_>
          0 7 3 1 2.</_></rects>
      <tilted>0</tilted></_>
    <_>
      <rects>
        <_>
          0 6 6 12 -1.</_>
        <_>
          0 6 3 6 2.</_>
        <_>
          3 12 3 6 2.</_></rects>
      <tilted>0</tilted></_>
    <_>
      <rects>
        <_>
          0 6 12 4 -1.</_>
        <_>
          0 6 6 2 2.</_>
        <_>
          6 8 6 2 2.</_></rects>
      <tilted>0</tilted></_>
    <_>
      <rects>
        <_>
          0 7 2 5 -1.</_>
        <_>
          1 7 1 5 2.</_></rects>
      <tilted>0</tilted></_>
    <_>
      <rects>
        <_>
          0 7 2 2 -1.</_>
        <_>
          0 8 2 1 2.</_></rects>
      <tilted>0</tilted></_>
    <_>
      <rects>
        <_>
          0 7 4 7 -1.</_>
        <_>
          2 7 2 7 2.</_></rects>
      <tilted>0</tilted></_>
    <_>
      <rects>
        <_>
          0 7 3 2 -1.</_>
        <_>
          0 8 3 1 2.</_></rects>
      <tilted>0</tilted></_>
    <_>
      <rects>
        <_>
          0 7 6 2 -1.</_>
        <_>
          0 7 3 1 2.</_>
        <_>
          3 8 3 1 2.</_></rects>
      <tilted>0</tilted></_>
    <_>
      <rects>
        <_>
          0 7 10 4 -1.</_>
        <_>
          0 9 10 2 2.</_></rects>
      <tilted>0</tilted></_>
    <_>
      <rects>
        <_>
          0 8 4 12 -1.</_>
        <_>
          0 8 2 6 2.</_>
        <_>
          2 14 2 6 2.</_></rects>
      <tilted>0</tilted></_>
    <_>
      <rects>
        <_>
          0 8 8 10 -1.</_>
        <_>
          0 8 4 5 2.</_>
        <_>
          4 13 4 5 2.</_></rects>
      <tilted>0</tilted></_>
    <_>
      <rects>
        <_>
          0 8 5 2 -1.</_>
        <_>
          0 9 5 1 2.</_></rects>
      <tilted>0</tilted></_>
    <_>
      <rects>
        <_>
          0 8 11 2 -1.</_>
        <_>
          0 9 11 1 2.</_></rects>
      <tilted>0</tilted></_>
    <_>
      <rects>
        <_>
          0 9 4 10 -1.</_>
        <_>
          0 9 2 5 2.</_>
        <_>
          2 14 2 5 2.</_></rects>
      <tilted>0</tilted></_>
    <_>
      <rects>
        <_>
          0 9 4 2 -1.</_>
        <_>
          0 10 4 1 2.</_></rects>
      <tilted>0</tilted></_>
    <_>
      <rects>
        <_>
          0 9 12 2 -1.</_>
        <_>
          0 9 6 1 2.</_>
        <_>
          6 10 6 1 2.</_></rects>
      <tilted>0</tilted></_>
    <_>
      <rects>
        <_>
          0 10 1 2 -1.</_>
        <_>
          0 11 1 1 2.</_></rects>
      <tilted>0</tilted></_>
    <_>
      <rects>
        <_>
          0 10 2 8 -1.</_>
        <_>
          0 10 1 4 2.</_>
        <_>
          1 14 1 4 2.</_></rects>
      <tilted>0</tilted></_>
    <_>
      <rects>
        <_>
          0 10 2 2 -1.</_>
        <_>
          0 11 2 1 2.</_></rects>
      <tilted>0</tilted></_>
    <_>
      <rects>
        <_>
          0 10 4 2 -1.</_>
        <_>
          0 11 4 1 2.</_></rects>
      <tilted>0</tilted></_>
    <_>
      <rects>
        <_>
          0 10 5 6 -1.</_>
        <_>
          0 13 5 3 2.</_></rects>
      <tilted>0</tilted></_>
    <_>
      <rects>
        <_>
          0 11 1 2 -1.</_>
        <_>
          0 12 1 1 2.</_></rects>
      <tilted>0</tilted></_>
    <_>
      <rects>
        <_>
          0 11 1 4 -1.</_>
        <_>
          0 13 1 2 2.</_></rects>
      <tilted>0</tilted></_>
    <_>
      <rects>
        <_>
          0 11 1 6 -1.</_>
        <_>
          0 14 1 3 2.</_></rects>
      <tilted>0</tilted></_>
    <_>
      <rects>
        <_>
          0 11 2 2 -1.</_>
        <_>
          0 12 2 1 2.</_></rects>
      <tilted>0</tilted></_>
    <_>
      <rects>
        <_>
          0 11 9 9 -1.</_>
        <_>
          3 11 3 9 2.</_></rects>
      <tilted>0</tilted></_>
    <_>
      <rects>
        <_>
          0 11 10 8 -1.</_>
        <_>
          0 15 10 4 2.</_></rects>
      <tilted>0</tilted></_>
    <_>
      <rects>
        <_>
          0 12 1 2 -1.</_>
        <_>
          0 13 1 1 2.</_></rects>
      <tilted>0</tilted></_>
    <_>
      <rects>
        <_>
          0 12 1 4 -1.</_>
        <_>
          0 14 1 2 2.</_></rects>
      <tilted>0</tilted></_>
    <_>
      <rects>
        <_>
          0 12 1 6 -1.</_>
        <_>
          0 14 1 2 2.</_></rects>
      <tilted>0</tilted></_>
    <_>
      <rects>
        <_>
          0 12 1 8 -1.</_>
        <_>
          0 16 1 4 2.</_></rects>
      <tilted>0</tilted></_>
    <_>
      <rects>
        <_>
          0 12 6 6 -1.</_>
        <_>
          3 12 3 6 2.</_></rects>
      <tilted>0</tilted></_>
    <_>
      <rects>
        <_>
          0 12 6 8 -1.</_>
        <_>
          3 12 3 8 2.</_></rects>
      <tilted>0</tilted></_>
    <_>
      <rects>
        <_>
          0 13 1 2 -1.</_>
        <_>
          0 14 1 1 2.</_></rects>
      <tilted>0</tilted></_>
    <_>
      <rects>
        <_>
          0 13 10 4 -1.</_>
        <_>
          0 13 5 2 2.</_>
        <_>
          5 15 5 2 2.</_></rects>
      <tilted>0</tilted></_>
    <_>
      <rects>
        <_>
          0 14 1 2 -1.</_>
        <_>
          0 15 1 1 2.</_></rects>
      <tilted>0</tilted></_>
    <_>
      <rects>
        <_>
          0 14 1 4 -1.</_>
        <_>
          0 16 1 2 2.</_></rects>
      <tilted>0</tilted></_>
    <_>
      <rects>
        <_>
          0 14 1 6 -1.</_>
        <_>
          0 17 1 3 2.</_></rects>
      <tilted>0</tilted></_>
    <_>
      <rects>
        <_>
          0 14 6 6 -1.</_>
        <_>
          0 14 3 3 2.</_>
        <_>
          3 17 3 3 2.</_></rects>
      <tilted>0</tilted></_>
    <_>
      <rects>
        <_>
          0 14 10 5 -1.</_>
        <_>
          5 14 5 5 2.</_></rects>
      <tilted>0</tilted></_>
    <_>
      <rects>
        <_>
          0 14 6 6 -1.</_>
        <_>
          0 17 6 3 2.</_></rects>
      <tilted>0</tilted></_>
    <_>
      <rects>
        <_>
          0 14 12 6 -1.</_>
        <_>
          6 14 6 6 2.</_></rects>
      <tilted>0</tilted></_>
    <_>
      <rects>
        <_>
          0 14 8 2 -1.</_>
        <_>
          0 15 8 1 2.</_></rects>
      <tilted>0</tilted></_>
    <_>
      <rects>
        <_>
          0 15 1 2 -1.</_>
        <_>
          0 16 1 1 2.</_></rects>
      <tilted>0</tilted></_>
    <_>
      <rects>
        <_>
          0 15 2 2 -1.</_>
        <_>
          0 16 2 1 2.</_></rects>
      <tilted>0</tilted></_>
    <_>
      <rects>
        <_>
          0 15 10 2 -1.</_>
        <_>
          0 15 5 1 2.</_>
        <_>
          5 16 5 1 2.</_></rects>
      <tilted>0</tilted></_>
    <_>
      <rects>
        <_>
          0 15 7 2 -1.</_>
        <_>
          0 16 7 1 2.</_></rects>
      <tilted>0</tilted></_>
    <_>
      <rects>
        <_>
          0 16 1 2 -1.</_>
        <_>
          0 17 1 1 2.</_></rects>
      <tilted>0</tilted></_>
    <_>
      <rects>
        <_>
          0 16 2 2 -1.</_>
        <_>
          0 16 1 1 2.</_>
        <_>
          1 17 1 1 2.</_></rects>
      <tilted>0</tilted></_>
    <_>
      <rects>
        <_>
          0 16 9 3 -1.</_>
        <_>
          3 16 3 3 2.</_></rects>
      <tilted>0</tilted></_>
    <_>
      <rects>
        <_>
          0 16 12 2 -1.</_>
        <_>
          6 16 6 2 2.</_></rects>
      <tilted>0</tilted></_>
    <_>
      <rects>
        <_>
          0 16 12 4 -1.</_>
        <_>
          0 16 6 2 2.</_>
        <_>
          6 18 6 2 2.</_></rects>
      <tilted>0</tilted></_>
    <_>
      <rects>
        <_>
          0 16 12 3 -1.</_>
        <_>
          6 16 6 3 2.</_></rects>
      <tilted>0</tilted></_>
    <_>
      <rects>
        <_>
          0 16 7 4 -1.</_>
        <_>
          0 18 7 2 2.</_></rects>
      <tilted>0</tilted></_>
    <_>
      <rects>
        <_>
          0 17 1 2 -1.</_>
        <_>
          0 18 1 1 2.</_></rects>
      <tilted>0</tilted></_>
    <_>
      <rects>
        <_>
          0 17 2 2 -1.</_>
        <_>
          0 17 1 1 2.</_>
        <_>
          1 18 1 1 2.</_></rects>
      <tilted>0</tilted></_>
    <_>
      <rects>
        <_>
          0 17 4 1 -1.</_>
        <_>
          2 17 2 1 2.</_></rects>
      <tilted>0</tilted></_>
    <_>
      <rects>
        <_>
          0 17 4 3 -1.</_>
        <_>
          0 18 4 1 2.</_></rects>
      <tilted>0</tilted></_>
    <_>
      <rects>
        <_>
          0 17 10 2 -1.</_>
        <_>
          5 17 5 2 2.</_></rects>
      <tilted>0</tilted></_>
    <_>
      <rects>
        <_>
          0 17 6 2 -1.</_>
        <_>
          0 18 6 1 2.</_></rects>
      <tilted>0</tilted></_>
    <_>
      <rects>
        <_>
          0 17 10 2 -1.</_>
        <_>
          0 18 10 1 2.</_></rects>
      <tilted>0</tilted></_>
    <_>
      <rects>
        <_>
          0 17 12 2 -1.</_>
        <_>
          0 18 12 1 2.</_></rects>
      <tilted>0</tilted></_>
    <_>
      <rects>
        <_>
          0 18 2 2 -1.</_>
        <_>
          0 18 1 1 2.</_>
        <_>
          1 19 1 1 2.</_></rects>
      <tilted>0</tilted></_>
    <_>
      <rects>
        <_>
          0 18 9 1 -1.</_>
        <_>
          3 18 3 1 2.</_></rects>
      <tilted>0</tilted></_>
    <_>
      <rects>
        <_>
          0 18 8 2 -1.</_>
        <_>
          0 19 8 1 2.</_></rects>
      <tilted>0</tilted></_>
    <_>
      <rects>
        <_>
          0 18 12 2 -1.</_>
        <_>
          0 19 12 1 2.</_></rects>
      <tilted>0</tilted></_>
    <_>
      <rects>
        <_>
          0 19 12 1 -1.</_>
        <_>
          4 19 4 1 2.</_></rects>
      <tilted>0</tilted></_>
    <_>
      <rects>
        <_>
          1 0 2 14 -1.</_>
        <_>
          2 0 1 14 2.</_></rects>
      <tilted>0</tilted></_>
    <_>
      <rects>
        <_>
          1 0 6 4 -1.</_>
        <_>
          1 0 3 2 2.</_>
        <_>
          4 2 3 2 2.</_></rects>
      <tilted>0</tilted></_>
    <_>
      <rects>
        <_>
          1 0 8 4 -1.</_>
        <_>
          1 0 4 2 2.</_>
        <_>
          5 2 4 2 2.</_></rects>
      <tilted>0</tilted></_>
    <_>
      <rects>
        <_>
          1 0 8 18 -1.</_>
        <_>
          1 0 4 9 2.</_>
        <_>
          5 9 4 9 2.</_></rects>
      <tilted>0</tilted></_>
    <_>
      <rects>
        <_>
          1 0 8 19 -1.</_>
        <_>
          5 0 4 19 2.</_></rects>
      <tilted>0</tilted></_>
    <_>
      <rects>
        <_>
          1 0 10 2 -1.</_>
        <_>
          1 0 5 1 2.</_>
        <_>
          6 1 5 1 2.</_></rects>
      <tilted>0</tilted></_>
    <_>
      <rects>
        <_>
          1 0 10 18 -1.</_>
        <_>
          1 0 5 9 2.</_>
        <_>
          6 9 5 9 2.</_></rects>
      <tilted>0</tilted></_>
    <_>
      <rects>
        <_>
          1 0 6 9 -1.</_>
        <_>
          1 3 6 3 2.</_></rects>
      <tilted>0</tilted></_>
    <_>
      <rects>
        <_>
          1 0 9 8 -1.</_>
        <_>
          1 4 9 4 2.</_></rects>
      <tilted>0</tilted></_>
    <_>
      <rects>
        <_>
          1 0 10 2 -1.</_>
        <_>
          1 1 10 1 2.</_></rects>
      <tilted>0</tilted></_>
    <_>
      <rects>
        <_>
          1 1 3 3 -1.</_>
        <_>
          2 1 1 3 2.</_></rects>
      <tilted>0</tilted></_>
    <_>
      <rects>
        <_>
          1 1 1 16 -1.</_>
        <_>
          1 9 1 8 2.</_></rects>
      <tilted>0</tilted></_>
    <_>
      <rects>
        <_>
          1 1 2 2 -1.</_>
        <_>
          1 2 2 1 2.</_></rects>
      <tilted>0</tilted></_>
    <_>
      <rects>
        <_>
          1 1 9 19 -1.</_>
        <_>
          4 1 3 19 2.</_></rects>
      <tilted>0</tilted></_>
    <_>
      <rects>
        <_>
          1 1 8 2 -1.</_>
        <_>
          1 1 4 1 2.</_>
        <_>
          5 2 4 1 2.</_></rects>
      <tilted>0</tilted></_>
    <_>
      <rects>
        <_>
          1 1 9 2 -1.</_>
        <_>
          1 2 9 1 2.</_></rects>
      <tilted>0</tilted></_>
    <_>
      <rects>
        <_>
          1 1 11 2 -1.</_>
        <_>
          1 2 11 1 2.</_></rects>
      <tilted>0</tilted></_>
    <_>
      <rects>
        <_>
          1 2 2 2 -1.</_>
        <_>
          2 2 1 2 2.</_></rects>
      <tilted>0</tilted></_>
    <_>
      <rects>
        <_>
          1 2 4 8 -1.</_>
        <_>
          1 2 2 4 2.</_>
        <_>
          3 6 2 4 2.</_></rects>
      <tilted>0</tilted></_>
    <_>
      <rects>
        <_>
          1 2 6 6 -1.</_>
        <_>
          4 2 3 6 2.</_></rects>
      <tilted>0</tilted></_>
    <_>
      <rects>
        <_>
          1 2 4 16 -1.</_>
        <_>
          1 10 4 8 2.</_></rects>
      <tilted>0</tilted></_>
    <_>
      <rects>
        <_>
          1 2 11 4 -1.</_>
        <_>
          1 4 11 2 2.</_></rects>
      <tilted>0</tilted></_>
    <_>
      <rects>
        <_>
          1 2 11 14 -1.</_>
        <_>
          1 9 11 7 2.</_></rects>
      <tilted>0</tilted></_>
    <_>
      <rects>
        <_>
          1 3 8 12 -1.</_>
        <_>
          1 3 4 6 2.</_>
        <_>
          5 9 4 6 2.</_></rects>
      <tilted>0</tilted></_>
    <_>
      <rects>
        <_>
          1 3 11 2 -1.</_>
        <_>
          1 4 11 1 2.</_></rects>
      <tilted>0</tilted></_>
    <_>
      <rects>
        <_>
          1 4 2 1 -1.</_>
        <_>
          2 4 1 1 2.</_></rects>
      <tilted>0</tilted></_>
    <_>
      <rects>
        <_>
          1 4 1 2 -1.</_>
        <_>
          1 5 1 1 2.</_></rects>
      <tilted>0</tilted></_>
    <_>
      <rects>
        <_>
          1 4 2 2 -1.</_>
        <_>
          1 4 1 1 2.</_>
        <_>
          2 5 1 1 2.</_></rects>
      <tilted>0</tilted></_>
    <_>
      <rects>
        <_>
          1 4 2 9 -1.</_>
        <_>
          2 4 1 9 2.</_></rects>
      <tilted>0</tilted></_>
    <_>
      <rects>
        <_>
          1 4 9 1 -1.</_>
        <_>
          4 4 3 1 2.</_></rects>
      <tilted>0</tilted></_>
    <_>
      <rects>
        <_>
          1 4 10 16 -1.</_>
        <_>
          1 4 5 8 2.</_>
        <_>
          6 12 5 8 2.</_></rects>
      <tilted>0</tilted></_>
    <_>
      <rects>
        <_>
          1 4 7 2 -1.</_>
        <_>
          1 5 7 1 2.</_></rects>
      <tilted>0</tilted></_>
    <_>
      <rects>
        <_>
          1 4 10 2 -1.</_>
        <_>
          1 5 10 1 2.</_></rects>
      <tilted>0</tilted></_>
    <_>
      <rects>
        <_>
          1 4 10 16 -1.</_>
        <_>
          1 12 10 8 2.</_></rects>
      <tilted>0</tilted></_>
    <_>
      <rects>
        <_>
          1 5 1 2 -1.</_>
        <_>
          1 6 1 1 2.</_></rects>
      <tilted>0</tilted></_>
    <_>
      <rects>
        <_>
          1 5 2 2 -1.</_>
        <_>
          2 5 1 2 2.</_></rects>
      <tilted>0</tilted></_>
    <_>
      <rects>
        <_>
          1 5 1 4 -1.</_>
        <_>
          1 7 1 2 2.</_></rects>
      <tilted>0</tilted></_>
    <_>
      <rects>
        <_>
          1 5 1 6 -1.</_>
        <_>
          1 7 1 2 2.</_></rects>
      <tilted>0</tilted></_>
    <_>
      <rects>
        <_>
          1 5 2 10 -1.</_>
        <_>
          1 5 1 5 2.</_>
        <_>
          2 10 1 5 2.</_></rects>
      <tilted>0</tilted></_>
    <_>
      <rects>
        <_>
          1 5 2 6 -1.</_>
        <_>
          2 5 1 6 2.</_></rects>
      <tilted>0</tilted></_>
    <_>
      <rects>
        <_>
          1 5 10 8 -1.</_>
        <_>
          6 5 5 8 2.</_></rects>
      <tilted>0</tilted></_>
    <_>
      <rects>
        <_>
          1 6 1 2 -1.</_>
        <_>
          1 7 1 1 2.</_></rects>
      <tilted>0</tilted></_>
    <_>
      <rects>
        <_>
          1 6 3 2 -1.</_>
        <_>
          1 7 3 1 2.</_></rects>
      <tilted>0</tilted></_>
    <_>
      <rects>
        <_>
          1 6 3 12 -1.</_>
        <_>
          1 12 3 6 2.</_></rects>
      <tilted>0</tilted></_>
    <_>
      <rects>
        <_>
          1 6 10 2 -1.</_>
        <_>
          1 6 5 1 2.</_>
        <_>
          6 7 5 1 2.</_></rects>
      <tilted>0</tilted></_>
    <_>
      <rects>
        <_>
          1 6 11 2 -1.</_>
        <_>
          1 7 11 1 2.</_></rects>
      <tilted>0</tilted></_>
    <_>
      <rects>
        <_>
          1 7 1 4 -1.</_>
        <_>
          1 9 1 2 2.</_></rects>
      <tilted>0</tilted></_>
    <_>
      <rects>
        <_>
          1 9 2 4 -1.</_>
        <_>
          1 9 1 2 2.</_>
        <_>
          2 11 1 2 2.</_></rects>
      <tilted>0</tilted></_>
    <_>
      <rects>
        <_>
          1 9 1 9 -1.</_>
        <_>
          1 12 1 3 2.</_></rects>
      <tilted>0</tilted></_>
    <_>
      <rects>
        <_>
          1 9 3 4 -1.</_>
        <_>
          1 11 3 2 2.</_></rects>
      <tilted>0</tilted></_>
    <_>
      <rects>
        <_>
          1 9 8 2 -1.</_>
        <_>
          1 9 4 1 2.</_>
        <_>
          5 10 4 1 2.</_></rects>
      <tilted>0</tilted></_>
    <_>
      <rects>
        <_>
          1 10 4 2 -1.</_>
        <_>
          1 10 2 1 2.</_>
        <_>
          3 11 2 1 2.</_></rects>
      <tilted>0</tilted></_>
    <_>
      <rects>
        <_>
          1 10 4 6 -1.</_>
        <_>
          3 10 2 6 2.</_></rects>
      <tilted>0</tilted></_>
    <_>
      <rects>
        <_>
          1 10 11 2 -1.</_>
        <_>
          1 11 11 1 2.</_></rects>
      <tilted>0</tilted></_>
    <_>
      <rects>
        <_>
          1 11 2 4 -1.</_>
        <_>
          1 11 1 2 2.</_>
        <_>
          2 13 1 2 2.</_></rects>
      <tilted>0</tilted></_>
    <_>
      <rects>
        <_>
          1 12 6 1 -1.</_>
        <_>
          4 12 3 1 2.</_></rects>
      <tilted>0</tilted></_>
    <_>
      <rects>
        <_>
          1 13 1 3 -1.</_>
        <_>
          1 14 1 1 2.</_></rects>
      <tilted>0</tilted></_>
    <_>
      <rects>
        <_>
          1 14 6 2 -1.</_>
        <_>
          1 14 3 1 2.</_>
        <_>
          4 15 3 1 2.</_></rects>
      <tilted>0</tilted></_>
    <_>
      <rects>
        <_>
          1 14 6 4 -1.</_>
        <_>
          1 14 3 2 2.</_>
        <_>
          4 16 3 2 2.</_></rects>
      <tilted>0</tilted></_>
    <_>
      <rects>
        <_>
          1 15 7 4 -1.</_>
        <_>
          1 17 7 2 2.</_></rects>
      <tilted>0</tilted></_>
    <_>
      <rects>
        <_>
          1 15 9 4 -1.</_>
        <_>
          1 17 9 2 2.</_></rects>
      <tilted>0</tilted></_>
    <_>
      <rects>
        <_>
          1 16 8 4 -1.</_>
        <_>
          1 16 4 2 2.</_>
        <_>
          5 18 4 2 2.</_></rects>
      <tilted>0</tilted></_>
    <_>
      <rects>
        <_>
          1 16 5 4 -1.</_>
        <_>
          1 18 5 2 2.</_></rects>
      <tilted>0</tilted></_>
    <_>
      <rects>
        <_>
          1 17 1 2 -1.</_>
        <_>
          1 18 1 1 2.</_></rects>
      <tilted>0</tilted></_>
    <_>
      <rects>
        <_>
          1 17 10 2 -1.</_>
        <_>
          1 18 10 1 2.</_></rects>
      <tilted>0</tilted></_>
    <_>
      <rects>
        <_>
          1 18 2 2 -1.</_>
        <_>
          2 18 1 2 2.</_></rects>
      <tilted>0</tilted></_>
    <_>
      <rects>
        <_>
          1 18 8 2 -1.</_>
        <_>
          1 18 4 1 2.</_>
        <_>
          5 19 4 1 2.</_></rects>
      <tilted>0</tilted></_>
    <_>
      <rects>
        <_>
          1 18 10 2 -1.</_>
        <_>
          1 18 5 1 2.</_>
        <_>
          6 19 5 1 2.</_></rects>
      <tilted>0</tilted></_>
    <_>
      <rects>
        <_>
          1 18 9 2 -1.</_>
        <_>
          1 19 9 1 2.</_></rects>
      <tilted>0</tilted></_>
    <_>
      <rects>
        <_>
          1 18 10 2 -1.</_>
        <_>
          1 19 10 1 2.</_></rects>
      <tilted>0</tilted></_>
    <_>
      <rects>
        <_>
          1 18 11 2 -1.</_>
        <_>
          1 19 11 1 2.</_></rects>
      <tilted>0</tilted></_>
    <_>
      <rects>
        <_>
          2 0 2 3 -1.</_>
        <_>
          3 0 1 3 2.</_></rects>
      <tilted>0</tilted></_>
    <_>
      <rects>
        <_>
          2 0 2 10 -1.</_>
        <_>
          2 0 1 5 2.</_>
        <_>
          3 5 1 5 2.</_></rects>
      <tilted>0</tilted></_>
    <_>
      <rects>
        <_>
          2 0 4 2 -1.</_>
        <_>
          2 0 2 1 2.</_>
        <_>
          4 1 2 1 2.</_></rects>
      <tilted>0</tilted></_>
    <_>
      <rects>
        <_>
          2 0 3 2 -1.</_>
        <_>
          2 1 3 1 2.</_></rects>
      <tilted>0</tilted></_>
    <_>
      <rects>
        <_>
          2 0 6 18 -1.</_>
        <_>
          2 0 3 9 2.</_>
        <_>
          5 9 3 9 2.</_></rects>
      <tilted>0</tilted></_>
    <_>
      <rects>
        <_>
          2 0 8 2 -1.</_>
        <_>
          6 0 4 2 2.</_></rects>
      <tilted>0</tilted></_>
    <_>
      <rects>
        <_>
          2 0 8 4 -1.</_>
        <_>
          2 0 4 2 2.</_>
        <_>
          6 2 4 2 2.</_></rects>
      <tilted>0</tilted></_>
    <_>
      <rects>
        <_>
          2 0 10 6 -1.</_>
        <_>
          7 0 5 6 2.</_></rects>
      <tilted>0</tilted></_>
    <_>
      <rects>
        <_>
          2 0 10 19 -1.</_>
        <_>
          7 0 5 19 2.</_></rects>
      <tilted>0</tilted></_>
    <_>
      <rects>
        <_>
          2 0 10 20 -1.</_>
        <_>
          7 0 5 20 2.</_></rects>
      <tilted>0</tilted></_>
    <_>
      <rects>
        <_>
          2 0 6 2 -1.</_>
        <_>
          2 1 6 1 2.</_></rects>
      <tilted>0</tilted></_>
    <_>
      <rects>
        <_>
          2 1 2 5 -1.</_>
        <_>
          3 1 1 5 2.</_></rects>
      <tilted>0</tilted></_>
    <_>
      <rects>
        <_>
          2 1 2 2 -1.</_>
        <_>
          2 2 2 1 2.</_></rects>
      <tilted>0</tilted></_>
    <_>
      <rects>
        <_>
          2 1 3 2 -1.</_>
        <_>
          2 2 3 1 2.</_></rects>
      <tilted>0</tilted></_>
    <_>
      <rects>
        <_>
          2 1 8 2 -1.</_>
        <_>
          2 1 4 1 2.</_>
        <_>
          6 2 4 1 2.</_></rects>
      <tilted>0</tilted></_>
    <_>
      <rects>
        <_>
          2 1 8 16 -1.</_>
        <_>
          6 1 4 16 2.</_></rects>
      <tilted>0</tilted></_>
    <_>
      <rects>
        <_>
          2 1 10 10 -1.</_>
        <_>
          7 1 5 10 2.</_></rects>
      <tilted>0</tilted></_>
    <_>
      <rects>
        <_>
          2 1 9 2 -1.</_>
        <_>
          2 2 9 1 2.</_></rects>
      <tilted>0</tilted></_>
    <_>
      <rects>
        <_>
          2 2 2 2 -1.</_>
        <_>
          2 2 1 1 2.</_>
        <_>
          3 3 1 1 2.</_></rects>
      <tilted>0</tilted></_>
    <_>
      <rects>
        <_>
          2 2 1 6 -1.</_>
        <_>
          2 4 1 2 2.</_></rects>
      <tilted>0</tilted></_>
    <_>
      <rects>
        <_>
          2 2 2 2 -1.</_>
        <_>
          2 3 2 1 2.</_></rects>
      <tilted>0</tilted></_>
    <_>
      <rects>
        <_>
          2 2 2 16 -1.</_>
        <_>
          2 10 2 8 2.</_></rects>
      <tilted>0</tilted></_>
    <_>
      <rects>
        <_>
          2 2 8 8 -1.</_>
        <_>
          2 2 4 4 2.</_>
        <_>
          6 6 4 4 2.</_></rects>
      <tilted>0</tilted></_>
    <_>
      <rects>
        <_>
          2 2 8 12 -1.</_>
        <_>
          2 2 4 6 2.</_>
        <_>
          6 8 4 6 2.</_></rects>
      <tilted>0</tilted></_>
    <_>
      <rects>
        <_>
          2 2 8 10 -1.</_>
        <_>
          6 2 4 10 2.</_></rects>
      <tilted>0</tilted></_>
    <_>
      <rects>
        <_>
          2 2 8 11 -1.</_>
        <_>
          6 2 4 11 2.</_></rects>
      <tilted>0</tilted></_>
    <_>
      <rects>
        <_>
          2 2 6 4 -1.</_>
        <_>
          2 4 6 2 2.</_></rects>
      <tilted>0</tilted></_>
    <_>
      <rects>
        <_>
          2 2 6 6 -1.</_>
        <_>
          2 5 6 3 2.</_></rects>
      <tilted>0</tilted></_>
    <_>
      <rects>
        <_>
          2 3 2 1 -1.</_>
        <_>
          3 3 1 1 2.</_></rects>
      <tilted>0</tilted></_>
    <_>
      <rects>
        <_>
          2 3 6 6 -1.</_>
        <_>
          2 3 3 3 2.</_>
        <_>
          5 6 3 3 2.</_></rects>
      <tilted>0</tilted></_>
    <_>
      <rects>
        <_>
          2 4 2 2 -1.</_>
        <_>
          2 4 1 1 2.</_>
        <_>
          3 5 1 1 2.</_></rects>
      <tilted>0</tilted></_>
    <_>
      <rects>
        <_>
          2 5 2 8 -1.</_>
        <_>
          3 5 1 8 2.</_></rects>
      <tilted>0</tilted></_>
    <_>
      <rects>
        <_>
          2 5 6 1 -1.</_>
        <_>
          5 5 3 1 2.</_></rects>
      <tilted>0</tilted></_>
    <_>
      <rects>
        <_>
          2 5 10 1 -1.</_>
        <_>
          7 5 5 1 2.</_></rects>
      <tilted>0</tilted></_>
    <_>
      <rects>
        <_>
          2 6 2 5 -1.</_>
        <_>
          3 6 1 5 2.</_></rects>
      <tilted>0</tilted></_>
    <_>
      <rects>
        <_>
          2 6 6 2 -1.</_>
        <_>
          2 6 3 1 2.</_>
        <_>
          5 7 3 1 2.</_></rects>
      <tilted>0</tilted></_>
    <_>
      <rects>
        <_>
          2 6 10 6 -1.</_>
        <_>
          2 8 10 2 2.</_></rects>
      <tilted>0</tilted></_>
    <_>
      <rects>
        <_>
          2 7 2 1 -1.</_>
        <_>
          3 7 1 1 2.</_></rects>
      <tilted>0</tilted></_>
    <_>
      <rects>
        <_>
          2 7 2 8 -1.</_>
        <_>
          2 7 1 4 2.</_>
        <_>
          3 11 1 4 2.</_></rects>
      <tilted>0</tilted></_>
    <_>
      <rects>
        <_>
          2 7 6 6 -1.</_>
        <_>
          2 10 6 3 2.</_></rects>
      <tilted>0</tilted></_>
    <_>
      <rects>
        <_>
          2 7 10 4 -1.</_>
        <_>
          2 9 10 2 2.</_></rects>
      <tilted>0</tilted></_>
    <_>
      <rects>
        <_>
          2 8 8 2 -1.</_>
        <_>
          2 9 8 1 2.</_></rects>
      <tilted>0</tilted></_>
    <_>
      <rects>
        <_>
          2 8 10 2 -1.</_>
        <_>
          2 9 10 1 2.</_></rects>
      <tilted>0</tilted></_>
    <_>
      <rects>
        <_>
          2 9 2 3 -1.</_>
        <_>
          3 9 1 3 2.</_></rects>
      <tilted>0</tilted></_>
    <_>
      <rects>
        <_>
          2 9 4 10 -1.</_>
        <_>
          2 9 2 5 2.</_>
        <_>
          4 14 2 5 2.</_></rects>
      <tilted>0</tilted></_>
    <_>
      <rects>
        <_>
          2 9 10 4 -1.</_>
        <_>
          2 9 5 2 2.</_>
        <_>
          7 11 5 2 2.</_></rects>
      <tilted>0</tilted></_>
    <_>
      <rects>
        <_>
          2 10 2 4 -1.</_>
        <_>
          2 10 1 2 2.</_>
        <_>
          3 12 1 2 2.</_></rects>
      <tilted>0</tilted></_>
    <_>
      <rects>
        <_>
          2 10 4 2 -1.</_>
        <_>
          2 10 2 1 2.</_>
        <_>
          4 11 2 1 2.</_></rects>
      <tilted>0</tilted></_>
    <_>
      <rects>
        <_>
          2 10 6 2 -1.</_>
        <_>
          2 10 3 1 2.</_>
        <_>
          5 11 3 1 2.</_></rects>
      <tilted>0</tilted></_>
    <_>
      <rects>
        <_>
          2 11 2 2 -1.</_>
        <_>
          2 11 1 1 2.</_>
        <_>
          3 12 1 1 2.</_></rects>
      <tilted>0</tilted></_>
    <_>
      <rects>
        <_>
          2 11 2 7 -1.</_>
        <_>
          3 11 1 7 2.</_></rects>
      <tilted>0</tilted></_>
    <_>
      <rects>
        <_>
          2 11 4 2 -1.</_>
        <_>
          2 11 2 1 2.</_>
        <_>
          4 12 2 1 2.</_></rects>
      <tilted>0</tilted></_>
    <_>
      <rects>
        <_>
          2 12 6 2 -1.</_>
        <_>
          2 12 3 1 2.</_>
        <_>
          5 13 3 1 2.</_></rects>
      <tilted>0</tilted></_>
    <_>
      <rects>
        <_>
          2 12 3 4 -1.</_>
        <_>
          2 14 3 2 2.</_></rects>
      <tilted>0</tilted></_>
    <_>
      <rects>
        <_>
          2 12 10 7 -1.</_>
        <_>
          7 12 5 7 2.</_></rects>
      <tilted>0</tilted></_>
    <_>
      <rects>
        <_>
          2 12 9 4 -1.</_>
        <_>
          2 14 9 2 2.</_></rects>
      <tilted>0</tilted></_>
    <_>
      <rects>
        <_>
          2 12 10 4 -1.</_>
        <_>
          2 14 10 2 2.</_></rects>
      <tilted>0</tilted></_>
    <_>
      <rects>
        <_>
          2 13 1 6 -1.</_>
        <_>
          2 16 1 3 2.</_></rects>
      <tilted>0</tilted></_>
    <_>
      <rects>
        <_>
          2 13 7 2 -1.</_>
        <_>
          2 14 7 1 2.</_></rects>
      <tilted>0</tilted></_>
    <_>
      <rects>
        <_>
          2 14 10 6 -1.</_>
        <_>
          2 16 10 2 2.</_></rects>
      <tilted>0</tilted></_>
    <_>
      <rects>
        <_>
          2 16 8 2 -1.</_>
        <_>
          6 16 4 2 2.</_></rects>
      <tilted>0</tilted></_>
    <_>
      <rects>
        <_>
          2 16 8 3 -1.</_>
        <_>
          6 16 4 3 2.</_></rects>
      <tilted>0</tilted></_>
    <_>
      <rects>
        <_>
          2 16 10 4 -1.</_>
        <_>
          2 16 5 2 2.</_>
        <_>
          7 18 5 2 2.</_></rects>
      <tilted>0</tilted></_>
    <_>
      <rects>
        <_>
          2 16 8 2 -1.</_>
        <_>
          2 17 8 1 2.</_></rects>
      <tilted>0</tilted></_>
    <_>
      <rects>
        <_>
          2 17 2 3 -1.</_>
        <_>
          3 17 1 3 2.</_></rects>
      <tilted>0</tilted></_>
    <_>
      <rects>
        <_>
          2 17 10 2 -1.</_>
        <_>
          2 17 5 1 2.</_>
        <_>
          7 18 5 1 2.</_></rects>
      <tilted>0</tilted></_>
    <_>
      <rects>
        <_>
          2 18 3 2 -1.</_>
        <_>
          2 19 3 1 2.</_></rects>
      <tilted>0</tilted></_>
    <_>
      <rects>
        <_>
          2 18 6 2 -1.</_>
        <_>
          2 18 3 1 2.</_>
        <_>
          5 19 3 1 2.</_></rects>
      <tilted>0</tilted></_>
    <_>
      <rects>
        <_>
          2 18 9 2 -1.</_>
        <_>
          2 19 9 1 2.</_></rects>
      <tilted>0</tilted></_>
    <_>
      <rects>
        <_>
          3 0 2 2 -1.</_>
        <_>
          3 0 1 1 2.</_>
        <_>
          4 1 1 1 2.</_></rects>
      <tilted>0</tilted></_>
    <_>
      <rects>
        <_>
          3 0 2 4 -1.</_>
        <_>
          4 0 1 4 2.</_></rects>
      <tilted>0</tilted></_>
    <_>
      <rects>
        <_>
          3 0 9 1 -1.</_>
        <_>
          6 0 3 1 2.</_></rects>
      <tilted>0</tilted></_>
    <_>
      <rects>
        <_>
          3 0 4 3 -1.</_>
        <_>
          3 1 4 1 2.</_></rects>
      <tilted>0</tilted></_>
    <_>
      <rects>
        <_>
          3 0 8 4 -1.</_>
        <_>
          3 0 4 2 2.</_>
        <_>
          7 2 4 2 2.</_></rects>
      <tilted>0</tilted></_>
    <_>
      <rects>
        <_>
          3 0 8 14 -1.</_>
        <_>
          3 0 4 7 2.</_>
        <_>
          7 7 4 7 2.</_></rects>
      <tilted>0</tilted></_>
    <_>
      <rects>
        <_>
          3 0 8 18 -1.</_>
        <_>
          3 0 4 9 2.</_>
        <_>
          7 9 4 9 2.</_></rects>
      <tilted>0</tilted></_>
    <_>
      <rects>
        <_>
          3 0 6 2 -1.</_>
        <_>
          3 1 6 1 2.</_></rects>
      <tilted>0</tilted></_>
    <_>
      <rects>
        <_>
          3 1 4 2 -1.</_>
        <_>
          3 1 2 1 2.</_>
        <_>
          5 2 2 1 2.</_></rects>
      <tilted>0</tilted></_>
    <_>
      <rects>
        <_>
          3 1 6 2 -1.</_>
        <_>
          3 2 6 1 2.</_></rects>
      <tilted>0</tilted></_>
    <_>
      <rects>
        <_>
          3 2 2 2 -1.</_>
        <_>
          3 2 1 1 2.</_>
        <_>
          4 3 1 1 2.</_></rects>
      <tilted>0</tilted></_>
    <_>
      <rects>
        <_>
          3 2 2 5 -1.</_>
        <_>
          4 2 1 5 2.</_></rects>
      <tilted>0</tilted></_>
    <_>
      <rects>
        <_>
          3 2 2 2 -1.</_>
        <_>
          3 3 2 1 2.</_></rects>
      <tilted>0</tilted></_>
    <_>
      <rects>
        <_>
          3 2 4 8 -1.</_>
        <_>
          3 2 2 4 2.</_>
        <_>
          5 6 2 4 2.</_></rects>
      <tilted>0</tilted></_>
    <_>
      <rects>
        <_>
          3 2 6 5 -1.</_>
        <_>
          6 2 3 5 2.</_></rects>
      <tilted>0</tilted></_>
    <_>
      <rects>
        <_>
          3 2 6 8 -1.</_>
        <_>
          3 6 6 4 2.</_></rects>
      <tilted>0</tilted></_>
    <_>
      <rects>
        <_>
          3 4 8 14 -1.</_>
        <_>
          3 4 4 7 2.</_>
        <_>
          7 11 4 7 2.</_></rects>
      <tilted>0</tilted></_>
    <_>
      <rects>
        <_>
          3 5 1 2 -1.</_>
        <_>
          3 6 1 1 2.</_></rects>
      <tilted>0</tilted></_>
    <_>
      <rects>
        <_>
          3 5 4 4 -1.</_>
        <_>
          5 5 2 4 2.</_></rects>
      <tilted>0</tilted></_>
    <_>
      <rects>
        <_>
          3 5 6 8 -1.</_>
        <_>
          5 5 2 8 2.</_></rects>
      <tilted>0</tilted></_>
    <_>
      <rects>
        <_>
          3 5 6 14 -1.</_>
        <_>
          3 5 3 7 2.</_>
        <_>
          6 12 3 7 2.</_></rects>
      <tilted>0</tilted></_>
    <_>
      <rects>
        <_>
          3 6 2 2 -1.</_>
        <_>
          3 6 1 1 2.</_>
        <_>
          4 7 1 1 2.</_></rects>
      <tilted>0</tilted></_>
    <_>
      <rects>
        <_>
          3 6 2 5 -1.</_>
        <_>
          4 6 1 5 2.</_></rects>
      <tilted>0</tilted></_>
    <_>
      <rects>
        <_>
          3 6 4 12 -1.</_>
        <_>
          3 6 2 6 2.</_>
        <_>
          5 12 2 6 2.</_></rects>
      <tilted>0</tilted></_>
    <_>
      <rects>
        <_>
          3 6 6 12 -1.</_>
        <_>
          3 6 3 6 2.</_>
        <_>
          6 12 3 6 2.</_></rects>
      <tilted>0</tilted></_>
    <_>
      <rects>
        <_>
          3 6 5 2 -1.</_>
        <_>
          3 7 5 1 2.</_></rects>
      <tilted>0</tilted></_>
    <_>
      <rects>
        <_>
          3 6 6 12 -1.</_>
        <_>
          3 12 6 6 2.</_></rects>
      <tilted>0</tilted></_>
    <_>
      <rects>
        <_>
          3 7 2 2 -1.</_>
        <_>
          4 7 1 2 2.</_></rects>
      <tilted>0</tilted></_>
    <_>
      <rects>
        <_>
          3 7 4 2 -1.</_>
        <_>
          5 7 2 2 2.</_></rects>
      <tilted>0</tilted></_>
    <_>
      <rects>
        <_>
          3 7 6 1 -1.</_>
        <_>
          6 7 3 1 2.</_></rects>
      <tilted>0</tilted></_>
    <_>
      <rects>
        <_>
          3 7 8 2 -1.</_>
        <_>
          7 7 4 2 2.</_></rects>
      <tilted>0</tilted></_>
    <_>
      <rects>
        <_>
          3 8 2 1 -1.</_>
        <_>
          4 8 1 1 2.</_></rects>
      <tilted>0</tilted></_>
    <_>
      <rects>
        <_>
          3 8 8 1 -1.</_>
        <_>
          7 8 4 1 2.</_></rects>
      <tilted>0</tilted></_>
    <_>
      <rects>
        <_>
          3 8 6 12 -1.</_>
        <_>
          3 14 6 6 2.</_></rects>
      <tilted>0</tilted></_>
    <_>
      <rects>
        <_>
          3 10 3 1 -1.</_>
        <_>
          4 10 1 1 2.</_></rects>
      <tilted>0</tilted></_>
    <_>
      <rects>
        <_>
          3 10 2 6 -1.</_>
        <_>
          4 10 1 6 2.</_></rects>
      <tilted>0</tilted></_>
    <_>
      <rects>
        <_>
          3 10 4 4 -1.</_>
        <_>
          3 10 2 2 2.</_>
        <_>
          5 12 2 2 2.</_></rects>
      <tilted>0</tilted></_>
    <_>
      <rects>
        <_>
          3 10 4 5 -1.</_>
        <_>
          5 10 2 5 2.</_></rects>
      <tilted>0</tilted></_>
    <_>
      <rects>
        <_>
          3 11 2 2 -1.</_>
        <_>
          3 11 1 1 2.</_>
        <_>
          4 12 1 1 2.</_></rects>
      <tilted>0</tilted></_>
    <_>
      <rects>
        <_>
          3 12 2 2 -1.</_>
        <_>
          3 12 1 1 2.</_>
        <_>
          4 13 1 1 2.</_></rects>
      <tilted>0</tilted></_>
    <_>
      <rects>
        <_>
          3 12 4 2 -1.</_>
        <_>
          3 12 2 1 2.</_>
        <_>
          5 13 2 1 2.</_></rects>
      <tilted>0</tilted></_>
    <_>
      <rects>
        <_>
          3 13 2 2 -1.</_>
        <_>
          3 13 1 1 2.</_>
        <_>
          4 14 1 1 2.</_></rects>
      <tilted>0</tilted></_>
    <_>
      <rects>
        <_>
          3 14 2 6 -1.</_>
        <_>
          3 17 2 3 2.</_></rects>
      <tilted>0</tilted></_>
    <_>
      <rects>
        <_>
          3 15 8 3 -1.</_>
        <_>
          7 15 4 3 2.</_></rects>
      <tilted>0</tilted></_>
    <_>
      <rects>
        <_>
          3 15 9 2 -1.</_>
        <_>
          3 16 9 1 2.</_></rects>
      <tilted>0</tilted></_>
    <_>
      <rects>
        <_>
          3 16 4 2 -1.</_>
        <_>
          3 16 2 1 2.</_>
        <_>
          5 17 2 1 2.</_></rects>
      <tilted>0</tilted></_>
    <_>
      <rects>
        <_>
          3 16 8 4 -1.</_>
        <_>
          3 16 4 2 2.</_>
        <_>
          7 18 4 2 2.</_></rects>
      <tilted>0</tilted></_>
    <_>
      <rects>
        <_>
          3 17 8 2 -1.</_>
        <_>
          7 17 4 2 2.</_></rects>
      <tilted>0</tilted></_>
    <_>
      <rects>
        <_>
          3 17 8 2 -1.</_>
        <_>
          3 18 8 1 2.</_></rects>
      <tilted>0</tilted></_>
    <_>
      <rects>
        <_>
          3 18 8 2 -1.</_>
        <_>
          3 18 4 1 2.</_>
        <_>
          7 19 4 1 2.</_></rects>
      <tilted>0</tilted></_>
    <_>
      <rects>
        <_>
          3 19 3 1 -1.</_>
        <_>
          4 19 1 1 2.</_></rects>
      <tilted>0</tilted></_>
    <_>
      <rects>
        <_>
          4 0 2 1 -1.</_>
        <_>
          5 0 1 1 2.</_></rects>
      <tilted>0</tilted></_>
    <_>
      <rects>
        <_>
          4 0 2 3 -1.</_>
        <_>
          5 0 1 3 2.</_></rects>
      <tilted>0</tilted></_>
    <_>
      <rects>
        <_>
          4 0 2 6 -1.</_>
        <_>
          4 0 1 3 2.</_>
        <_>
          5 3 1 3 2.</_></rects>
      <tilted>0</tilted></_>
    <_>
      <rects>
        <_>
          4 0 4 2 -1.</_>
        <_>
          4 0 2 1 2.</_>
        <_>
          6 1 2 1 2.</_></rects>
      <tilted>0</tilted></_>
    <_>
      <rects>
        <_>
          4 0 4 9 -1.</_>
        <_>
          6 0 2 9 2.</_></rects>
      <tilted>0</tilted></_>
    <_>
      <rects>
        <_>
          4 0 4 11 -1.</_>
        <_>
          6 0 2 11 2.</_></rects>
      <tilted>0</tilted></_>
    <_>
      <rects>
        <_>
          4 0 4 12 -1.</_>
        <_>
          6 0 2 12 2.</_></rects>
      <tilted>0</tilted></_>
    <_>
      <rects>
        <_>
          4 0 3 2 -1.</_>
        <_>
          4 1 3 1 2.</_></rects>
      <tilted>0</tilted></_>
    <_>
      <rects>
        <_>
          4 0 6 4 -1.</_>
        <_>
          4 0 3 2 2.</_>
        <_>
          7 2 3 2 2.</_></rects>
      <tilted>0</tilted></_>
    <_>
      <rects>
        <_>
          4 0 8 1 -1.</_>
        <_>
          8 0 4 1 2.</_></rects>
      <tilted>0</tilted></_>
    <_>
      <rects>
        <_>
          4 0 4 3 -1.</_>
        <_>
          4 1 4 1 2.</_></rects>
      <tilted>0</tilted></_>
    <_>
      <rects>
        <_>
          4 0 8 2 -1.</_>
        <_>
          8 0 4 2 2.</_></rects>
      <tilted>0</tilted></_>
    <_>
      <rects>
        <_>
          4 0 8 20 -1.</_>
        <_>
          4 0 4 10 2.</_>
        <_>
          8 10 4 10 2.</_></rects>
      <tilted>0</tilted></_>
    <_>
      <rects>
        <_>
          4 0 6 2 -1.</_>
        <_>
          4 1 6 1 2.</_></rects>
      <tilted>0</tilted></_>
    <_>
      <rects>
        <_>
          4 0 7 2 -1.</_>
        <_>
          4 1 7 1 2.</_></rects>
      <tilted>0</tilted></_>
    <_>
      <rects>
        <_>
          4 1 2 2 -1.</_>
        <_>
          4 1 1 1 2.</_>
        <_>
          5 2 1 1 2.</_></rects>
      <tilted>0</tilted></_>
    <_>
      <rects>
        <_>
          4 1 2 5 -1.</_>
        <_>
          5 1 1 5 2.</_></rects>
      <tilted>0</tilted></_>
    <_>
      <rects>
        <_>
          4 1 2 14 -1.</_>
        <_>
          4 1 1 7 2.</_>
        <_>
          5 8 1 7 2.</_></rects>
      <tilted>0</tilted></_>
    <_>
      <rects>
        <_>
          4 1 2 18 -1.</_>
        <_>
          5 1 1 18 2.</_></rects>
      <tilted>0</tilted></_>
    <_>
      <rects>
        <_>
          4 1 6 2 -1.</_>
        <_>
          4 1 3 1 2.</_>
        <_>
          7 2 3 1 2.</_></rects>
      <tilted>0</tilted></_>
    <_>
      <rects>
        <_>
          4 1 5 14 -1.</_>
        <_>
          4 8 5 7 2.</_></rects>
      <tilted>0</tilted></_>
    <_>
      <rects>
        <_>
          4 2 4 2 -1.</_>
        <_>
          4 2 2 1 2.</_>
        <_>
          6 3 2 1 2.</_></rects>
      <tilted>0</tilted></_>
    <_>
      <rects>
        <_>
          4 3 3 4 -1.</_>
        <_>
          4 5 3 2 2.</_></rects>
      <tilted>0</tilted></_>
    <_>
      <rects>
        <_>
          4 3 5 2 -1.</_>
        <_>
          4 4 5 1 2.</_></rects>
      <tilted>0</tilted></_>
    <_>
      <rects>
        <_>
          4 4 4 2 -1.</_>
        <_>
          4 5 4 1 2.</_></rects>
      <tilted>0</tilted></_>
    <_>
      <rects>
        <_>
          4 4 8 2 -1.</_>
        <_>
          4 4 4 1 2.</_>
        <_>
          8 5 4 1 2.</_></rects>
      <tilted>0</tilted></_>
    <_>
      <rects>
        <_>
          4 5 3 14 -1.</_>
        <_>
          5 5 1 14 2.</_></rects>
      <tilted>0</tilted></_>
    <_>
      <rects>
        <_>
          4 6 1 2 -1.</_>
        <_>
          4 7 1 1 2.</_></rects>
      <tilted>0</tilted></_>
    <_>
      <rects>
        <_>
          4 6 1 4 -1.</_>
        <_>
          4 8 1 2 2.</_></rects>
      <tilted>0</tilted></_>
    <_>
      <rects>
        <_>
          4 6 2 12 -1.</_>
        <_>
          5 6 1 12 2.</_></rects>
      <tilted>0</tilted></_>
    <_>
      <rects>
        <_>
          4 6 4 12 -1.</_>
        <_>
          4 6 2 6 2.</_>
        <_>
          6 12 2 6 2.</_></rects>
      <tilted>0</tilted></_>
    <_>
      <rects>
        <_>
          4 6 3 2 -1.</_>
        <_>
          4 7 3 1 2.</_></rects>
      <tilted>0</tilted></_>
    <_>
      <rects>
        <_>
          4 6 4 2 -1.</_>
        <_>
          4 7 4 1 2.</_></rects>
      <tilted>0</tilted></_>
    <_>
      <rects>
        <_>
          4 7 2 2 -1.</_>
        <_>
          5 7 1 2 2.</_></rects>
      <tilted>0</tilted></_>
    <_>
      <rects>
        <_>
          4 7 4 1 -1.</_>
        <_>
          6 7 2 1 2.</_></rects>
      <tilted>0</tilted></_>
    <_>
      <rects>
        <_>
          4 7 4 3 -1.</_>
        <_>
          6 7 2 3 2.</_></rects>
      <tilted>0</tilted></_>
    <_>
      <rects>
        <_>
          4 7 3 4 -1.</_>
        <_>
          4 9 3 2 2.</_></rects>
      <tilted>0</tilted></_>
    <_>
      <rects>
        <_>
          4 8 2 12 -1.</_>
        <_>
          4 8 1 6 2.</_>
        <_>
          5 14 1 6 2.</_></rects>
      <tilted>0</tilted></_>
    <_>
      <rects>
        <_>
          4 8 4 1 -1.</_>
        <_>
          6 8 2 1 2.</_></rects>
      <tilted>0</tilted></_>
    <_>
      <rects>
        <_>
          4 8 4 6 -1.</_>
        <_>
          4 11 4 3 2.</_></rects>
      <tilted>0</tilted></_>
    <_>
      <rects>
        <_>
          4 9 2 6 -1.</_>
        <_>
          4 9 1 3 2.</_>
        <_>
          5 12 1 3 2.</_></rects>
      <tilted>0</tilted></_>
    <_>
      <rects>
        <_>
          4 10 1 3 -1.</_>
        <_>
          4 11 1 1 2.</_></rects>
      <tilted>0</tilted></_>
    <_>
      <rects>
        <_>
          4 10 8 2 -1.</_>
        <_>
          8 10 4 2 2.</_></rects>
      <tilted>0</tilted></_>
    <_>
      <rects>
        <_>
          4 10 8 8 -1.</_>
        <_>
          8 10 4 8 2.</_></rects>
      <tilted>0</tilted></_>
    <_>
      <rects>
        <_>
          4 11 2 1 -1.</_>
        <_>
          5 11 1 1 2.</_></rects>
      <tilted>0</tilted></_>
    <_>
      <rects>
        <_>
          4 11 2 2 -1.</_>
        <_>
          4 11 1 1 2.</_>
        <_>
          5 12 1 1 2.</_></rects>
      <tilted>0</tilted></_>
    <_>
      <rects>
        <_>
          4 11 2 6 -1.</_>
        <_>
          4 11 1 3 2.</_>
        <_>
          5 14 1 3 2.</_></rects>
      <tilted>0</tilted></_>
    <_>
      <rects>
        <_>
          4 12 2 2 -1.</_>
        <_>
          4 12 1 1 2.</_>
        <_>
          5 13 1 1 2.</_></rects>
      <tilted>0</tilted></_>
    <_>
      <rects>
        <_>
          4 12 2 3 -1.</_>
        <_>
          5 12 1 3 2.</_></rects>
      <tilted>0</tilted></_>
    <_>
      <rects>
        <_>
          4 12 4 2 -1.</_>
        <_>
          4 12 2 1 2.</_>
        <_>
          6 13 2 1 2.</_></rects>
      <tilted>0</tilted></_>
    <_>
      <rects>
        <_>
          4 12 4 2 -1.</_>
        <_>
          6 12 2 2 2.</_></rects>
      <tilted>0</tilted></_>
    <_>
      <rects>
        <_>
          4 12 5 8 -1.</_>
        <_>
          4 16 5 4 2.</_></rects>
      <tilted>0</tilted></_>
    <_>
      <rects>
        <_>
          4 14 3 1 -1.</_>
        <_>
          5 14 1 1 2.</_></rects>
      <tilted>0</tilted></_>
    <_>
      <rects>
        <_>
          4 14 2 2 -1.</_>
        <_>
          5 14 1 2 2.</_></rects>
      <tilted>0</tilted></_>
    <_>
      <rects>
        <_>
          4 16 5 4 -1.</_>
        <_>
          4 18 5 2 2.</_></rects>
      <tilted>0</tilted></_>
    <_>
      <rects>
        <_>
          4 16 7 2 -1.</_>
        <_>
          4 17 7 1 2.</_></rects>
      <tilted>0</tilted></_>
    <_>
      <rects>
        <_>
          4 17 8 1 -1.</_>
        <_>
          8 17 4 1 2.</_></rects>
      <tilted>0</tilted></_>
    <_>
      <rects>
        <_>
          4 17 5 2 -1.</_>
        <_>
          4 18 5 1 2.</_></rects>
      <tilted>0</tilted></_>
    <_>
      <rects>
        <_>
          4 18 1 2 -1.</_>
        <_>
          4 19 1 1 2.</_></rects>
      <tilted>0</tilted></_>
    <_>
      <rects>
        <_>
          4 18 4 1 -1.</_>
        <_>
          6 18 2 1 2.</_></rects>
      <tilted>0</tilted></_>
    <_>
      <rects>
        <_>
          4 18 2 2 -1.</_>
        <_>
          4 19 2 1 2.</_></rects>
      <tilted>0</tilted></_>
    <_>
      <rects>
        <_>
          4 18 6 2 -1.</_>
        <_>
          4 18 3 1 2.</_>
        <_>
          7 19 3 1 2.</_></rects>
      <tilted>0</tilted></_>
    <_>
      <rects>
        <_>
          4 19 3 1 -1.</_>
        <_>
          5 19 1 1 2.</_></rects>
      <tilted>0</tilted></_>
    <_>
      <rects>
        <_>
          5 0 2 3 -1.</_>
        <_>
          6 0 1 3 2.</_></rects>
      <tilted>0</tilted></_>
    <_>
      <rects>
        <_>
          5 0 2 6 -1.</_>
        <_>
          5 0 1 3 2.</_>
        <_>
          6 3 1 3 2.</_></rects>
      <tilted>0</tilted></_>
    <_>
      <rects>
        <_>
          5 0 2 2 -1.</_>
        <_>
          5 1 2 1 2.</_></rects>
      <tilted>0</tilted></_>
    <_>
      <rects>
        <_>
          5 0 2 6 -1.</_>
        <_>
          5 2 2 2 2.</_></rects>
      <tilted>0</tilted></_>
    <_>
      <rects>
        <_>
          5 0 4 2 -1.</_>
        <_>
          5 1 4 1 2.</_></rects>
      <tilted>0</tilted></_>
    <_>
      <rects>
        <_>
          5 0 5 4 -1.</_>
        <_>
          5 2 5 2 2.</_></rects>
      <tilted>0</tilted></_>
    <_>
      <rects>
        <_>
          5 1 1 9 -1.</_>
        <_>
          5 4 1 3 2.</_></rects>
      <tilted>0</tilted></_>
    <_>
      <rects>
        <_>
          5 1 2 6 -1.</_>
        <_>
          6 1 1 6 2.</_></rects>
      <tilted>0</tilted></_>
    <_>
      <rects>
        <_>
          5 1 4 2 -1.</_>
        <_>
          5 2 4 1 2.</_></rects>
      <tilted>0</tilted></_>
    <_>
      <rects>
        <_>
          5 2 2 12 -1.</_>
        <_>
          5 2 1 6 2.</_>
        <_>
          6 8 1 6 2.</_></rects>
      <tilted>0</tilted></_>
    <_>
      <rects>
        <_>
          5 3 2 5 -1.</_>
        <_>
          6 3 1 5 2.</_></rects>
      <tilted>0</tilted></_>
    <_>
      <rects>
        <_>
          5 3 1 12 -1.</_>
        <_>
          5 9 1 6 2.</_></rects>
      <tilted>0</tilted></_>
    <_>
      <rects>
        <_>
          5 3 6 8 -1.</_>
        <_>
          5 3 3 4 2.</_>
        <_>
          8 7 3 4 2.</_></rects>
      <tilted>0</tilted></_>
    <_>
      <rects>
        <_>
          5 4 1 2 -1.</_>
        <_>
          5 5 1 1 2.</_></rects>
      <tilted>0</tilted></_>
    <_>
      <rects>
        <_>
          5 4 2 15 -1.</_>
        <_>
          6 4 1 15 2.</_></rects>
      <tilted>0</tilted></_>
    <_>
      <rects>
        <_>
          5 4 6 2 -1.</_>
        <_>
          5 4 3 1 2.</_>
        <_>
          8 5 3 1 2.</_></rects>
      <tilted>0</tilted></_>
    <_>
      <rects>
        <_>
          5 5 2 2 -1.</_>
        <_>
          5 5 1 1 2.</_>
        <_>
          6 6 1 1 2.</_></rects>
      <tilted>0</tilted></_>
    <_>
      <rects>
        <_>
          5 7 2 1 -1.</_>
        <_>
          6 7 1 1 2.</_></rects>
      <tilted>0</tilted></_>
    <_>
      <rects>
        <_>
          5 7 4 1 -1.</_>
        <_>
          7 7 2 1 2.</_></rects>
      <tilted>0</tilted></_>
    <_>
      <rects>
        <_>
          5 8 2 8 -1.</_>
        <_>
          6 8 1 8 2.</_></rects>
      <tilted>0</tilted></_>
    <_>
      <rects>
        <_>
          5 8 2 8 -1.</_>
        <_>
          5 12 2 4 2.</_></rects>
      <tilted>0</tilted></_>
    <_>
      <rects>
        <_>
          5 9 2 2 -1.</_>
        <_>
          5 9 1 1 2.</_>
        <_>
          6 10 1 1 2.</_></rects>
      <tilted>0</tilted></_>
    <_>
      <rects>
        <_>
          5 9 2 10 -1.</_>
        <_>
          5 9 1 5 2.</_>
        <_>
          6 14 1 5 2.</_></rects>
      <tilted>0</tilted></_>
    <_>
      <rects>
        <_>
          5 9 4 3 -1.</_>
        <_>
          7 9 2 3 2.</_></rects>
      <tilted>0</tilted></_>
    <_>
      <rects>
        <_>
          5 9 6 8 -1.</_>
        <_>
          5 9 3 4 2.</_>
        <_>
          8 13 3 4 2.</_></rects>
      <tilted>0</tilted></_>
    <_>
      <rects>
        <_>
          5 9 6 10 -1.</_>
        <_>
          5 9 3 5 2.</_>
        <_>
          8 14 3 5 2.</_></rects>
      <tilted>0</tilted></_>
    <_>
      <rects>
        <_>
          5 10 1 2 -1.</_>
        <_>
          5 11 1 1 2.</_></rects>
      <tilted>0</tilted></_>
    <_>
      <rects>
        <_>
          5 10 3 1 -1.</_>
        <_>
          6 10 1 1 2.</_></rects>
      <tilted>0</tilted></_>
    <_>
      <rects>
        <_>
          5 11 2 2 -1.</_>
        <_>
          5 12 2 1 2.</_></rects>
      <tilted>0</tilted></_>
    <_>
      <rects>
        <_>
          5 12 2 2 -1.</_>
        <_>
          5 12 1 1 2.</_>
        <_>
          6 13 1 1 2.</_></rects>
      <tilted>0</tilted></_>
    <_>
      <rects>
        <_>
          5 12 4 2 -1.</_>
        <_>
          5 12 2 1 2.</_>
        <_>
          7 13 2 1 2.</_></rects>
      <tilted>0</tilted></_>
    <_>
      <rects>
        <_>
          5 12 4 3 -1.</_>
        <_>
          7 12 2 3 2.</_></rects>
      <tilted>0</tilted></_>
    <_>
      <rects>
        <_>
          5 12 3 4 -1.</_>
        <_>
          5 14 3 2 2.</_></rects>
      <tilted>0</tilted></_>
    <_>
      <rects>
        <_>
          5 13 4 2 -1.</_>
        <_>
          5 13 2 1 2.</_>
        <_>
          7 14 2 1 2.</_></rects>
      <tilted>0</tilted></_>
    <_>
      <rects>
        <_>
          5 14 2 6 -1.</_>
        <_>
          5 17 2 3 2.</_></rects>
      <tilted>0</tilted></_>
    <_>
      <rects>
        <_>
          5 15 4 4 -1.</_>
        <_>
          5 15 2 2 2.</_>
        <_>
          7 17 2 2 2.</_></rects>
      <tilted>0</tilted></_>
    <_>
      <rects>
        <_>
          5 16 7 4 -1.</_>
        <_>
          5 18 7 2 2.</_></rects>
      <tilted>0</tilted></_>
    <_>
      <rects>
        <_>
          5 17 4 2 -1.</_>
        <_>
          5 17 2 1 2.</_>
        <_>
          7 18 2 1 2.</_></rects>
      <tilted>0</tilted></_>
    <_>
      <rects>
        <_>
          5 17 7 3 -1.</_>
        <_>
          5 18 7 1 2.</_></rects>
      <tilted>0</tilted></_>
    <_>
      <rects>
        <_>
          5 18 1 2 -1.</_>
        <_>
          5 19 1 1 2.</_></rects>
      <tilted>0</tilted></_>
    <_>
      <rects>
        <_>
          5 18 4 2 -1.</_>
        <_>
          5 18 2 1 2.</_>
        <_>
          7 19 2 1 2.</_></rects>
      <tilted>0</tilted></_>
    <_>
      <rects>
        <_>
          6 0 2 16 -1.</_>
        <_>
          6 0 1 8 2.</_>
        <_>
          7 8 1 8 2.</_></rects>
      <tilted>0</tilted></_>
    <_>
      <rects>
        <_>
          6 0 3 9 -1.</_>
        <_>
          6 3 3 3 2.</_></rects>
      <tilted>0</tilted></_>
    <_>
      <rects>
        <_>
          6 0 6 12 -1.</_>
        <_>
          9 0 3 12 2.</_></rects>
      <tilted>0</tilted></_>
    <_>
      <rects>
        <_>
          6 0 6 18 -1.</_>
        <_>
          9 0 3 18 2.</_></rects>
      <tilted>0</tilted></_>
    <_>
      <rects>
        <_>
          6 1 2 12 -1.</_>
        <_>
          6 1 1 6 2.</_>
        <_>
          7 7 1 6 2.</_></rects>
      <tilted>0</tilted></_>
    <_>
      <rects>
        <_>
          6 1 4 2 -1.</_>
        <_>
          6 2 4 1 2.</_></rects>
      <tilted>0</tilted></_>
    <_>
      <rects>
        <_>
          6 2 2 14 -1.</_>
        <_>
          6 2 1 7 2.</_>
        <_>
          7 9 1 7 2.</_></rects>
      <tilted>0</tilted></_>
    <_>
      <rects>
        <_>
          6 3 1 2 -1.</_>
        <_>
          6 4 1 1 2.</_></rects>
      <tilted>0</tilted></_>
    <_>
      <rects>
        <_>
          6 4 2 3 -1.</_>
        <_>
          7 4 1 3 2.</_></rects>
      <tilted>0</tilted></_>
    <_>
      <rects>
        <_>
          6 4 6 8 -1.</_>
        <_>
          9 4 3 8 2.</_></rects>
      <tilted>0</tilted></_>
    <_>
      <rects>
        <_>
          6 6 6 5 -1.</_>
        <_>
          9 6 3 5 2.</_></rects>
      <tilted>0</tilted></_>
    <_>
      <rects>
        <_>
          6 6 6 14 -1.</_>
        <_>
          6 6 3 7 2.</_>
        <_>
          9 13 3 7 2.</_></rects>
      <tilted>0</tilted></_>
    <_>
      <rects>
        <_>
          6 8 2 3 -1.</_>
        <_>
          7 8 1 3 2.</_></rects>
      <tilted>0</tilted></_>
    <_>
      <rects>
        <_>
          6 9 2 1 -1.</_>
        <_>
          7 9 1 1 2.</_></rects>
      <tilted>0</tilted></_>
    <_>
      <rects>
        <_>
          6 9 2 2 -1.</_>
        <_>
          6 9 1 1 2.</_>
        <_>
          7 10 1 1 2.</_></rects>
      <tilted>0</tilted></_>
    <_>
      <rects>
        <_>
          6 9 6 2 -1.</_>
        <_>
          6 9 3 1 2.</_>
        <_>
          9 10 3 1 2.</_></rects>
      <tilted>0</tilted></_>
    <_>
      <rects>
        <_>
          6 10 2 1 -1.</_>
        <_>
          7 10 1 1 2.</_></rects>
      <tilted>0</tilted></_>
    <_>
      <rects>
        <_>
          6 10 1 4 -1.</_>
        <_>
          6 12 1 2 2.</_></rects>
      <tilted>0</tilted></_>
    <_>
      <rects>
        <_>
          6 10 2 6 -1.</_>
        <_>
          7 10 1 6 2.</_></rects>
      <tilted>0</tilted></_>
    <_>
      <rects>
        <_>
          6 10 5 2 -1.</_>
        <_>
          6 11 5 1 2.</_></rects>
      <tilted>0</tilted></_>
    <_>
      <rects>
        <_>
          6 11 2 2 -1.</_>
        <_>
          6 11 1 1 2.</_>
        <_>
          7 12 1 1 2.</_></rects>
      <tilted>0</tilted></_>
    <_>
      <rects>
        <_>
          6 11 4 4 -1.</_>
        <_>
          8 11 2 4 2.</_></rects>
      <tilted>0</tilted></_>
    <_>
      <rects>
        <_>
          6 12 1 2 -1.</_>
        <_>
          6 13 1 1 2.</_></rects>
      <tilted>0</tilted></_>
    <_>
      <rects>
        <_>
          6 12 2 2 -1.</_>
        <_>
          7 12 1 2 2.</_></rects>
      <tilted>0</tilted></_>
    <_>
      <rects>
        <_>
          6 12 3 2 -1.</_>
        <_>
          6 13 3 1 2.</_></rects>
      <tilted>0</tilted></_>
    <_>
      <rects>
        <_>
          6 12 6 4 -1.</_>
        <_>
          6 12 3 2 2.</_>
        <_>
          9 14 3 2 2.</_></rects>
      <tilted>0</tilted></_>
    <_>
      <rects>
        <_>
          6 13 2 4 -1.</_>
        <_>
          7 13 1 4 2.</_></rects>
      <tilted>0</tilted></_>
    <_>
      <rects>
        <_>
          6 13 2 2 -1.</_>
        <_>
          6 14 2 1 2.</_></rects>
      <tilted>0</tilted></_>
    <_>
      <rects>
        <_>
          6 13 4 2 -1.</_>
        <_>
          6 13 2 1 2.</_>
        <_>
          8 14 2 1 2.</_></rects>
      <tilted>0</tilted></_>
    <_>
      <rects>
        <_>
          6 13 6 1 -1.</_>
        <_>
          9 13 3 1 2.</_></rects>
      <tilted>0</tilted></_>
    <_>
      <rects>
        <_>
          6 14 6 6 -1.</_>
        <_>
          6 17 6 3 2.</_></rects>
      <tilted>0</tilted></_>
    <_>
      <rects>
        <_>
          6 16 1 4 -1.</_>
        <_>
          6 18 1 2 2.</_></rects>
      <tilted>0</tilted></_>
    <_>
      <rects>
        <_>
          6 18 1 2 -1.</_>
        <_>
          6 19 1 1 2.</_></rects>
      <tilted>0</tilted></_>
    <_>
      <rects>
        <_>
          7 0 1 2 -1.</_>
        <_>
          7 1 1 1 2.</_></rects>
      <tilted>0</tilted></_>
    <_>
      <rects>
        <_>
          7 0 2 4 -1.</_>
        <_>
          8 0 1 4 2.</_></rects>
      <tilted>0</tilted></_>
    <_>
      <rects>
        <_>
          7 0 2 5 -1.</_>
        <_>
          8 0 1 5 2.</_></rects>
      <tilted>0</tilted></_>
    <_>
      <rects>
        <_>
          7 0 2 6 -1.</_>
        <_>
          8 0 1 6 2.</_></rects>
      <tilted>0</tilted></_>
    <_>
      <rects>
        <_>
          7 0 4 2 -1.</_>
        <_>
          7 0 2 1 2.</_>
        <_>
          9 1 2 1 2.</_></rects>
      <tilted>0</tilted></_>
    <_>
      <rects>
        <_>
          7 0 4 4 -1.</_>
        <_>
          7 0 2 2 2.</_>
        <_>
          9 2 2 2 2.</_></rects>
      <tilted>0</tilted></_>
    <_>
      <rects>
        <_>
          7 0 4 20 -1.</_>
        <_>
          7 0 2 10 2.</_>
        <_>
          9 10 2 10 2.</_></rects>
      <tilted>0</tilted></_>
    <_>
      <rects>
        <_>
          7 1 1 12 -1.</_>
        <_>
          7 5 1 4 2.</_></rects>
      <tilted>0</tilted></_>
    <_>
      <rects>
        <_>
          7 2 4 10 -1.</_>
        <_>
          7 2 2 5 2.</_>
        <_>
          9 7 2 5 2.</_></rects>
      <tilted>0</tilted></_>
    <_>
      <rects>
        <_>
          7 2 2 14 -1.</_>
        <_>
          7 9 2 7 2.</_></rects>
      <tilted>0</tilted></_>
    <_>
      <rects>
        <_>
          7 3 4 8 -1.</_>
        <_>
          7 3 2 4 2.</_>
        <_>
          9 7 2 4 2.</_></rects>
      <tilted>0</tilted></_>
    <_>
      <rects>
        <_>
          7 3 5 2 -1.</_>
        <_>
          7 4 5 1 2.</_></rects>
      <tilted>0</tilted></_>
    <_>
      <rects>
        <_>
          7 4 1 2 -1.</_>
        <_>
          7 5 1 1 2.</_></rects>
      <tilted>0</tilted></_>
    <_>
      <rects>
        <_>
          7 4 4 14 -1.</_>
        <_>
          7 4 2 7 2.</_>
        <_>
          9 11 2 7 2.</_></rects>
      <tilted>0</tilted></_>
    <_>
      <rects>
        <_>
          7 4 4 2 -1.</_>
        <_>
          7 5 4 1 2.</_></rects>
      <tilted>0</tilted></_>
    <_>
      <rects>
        <_>
          7 5 2 1 -1.</_>
        <_>
          8 5 1 1 2.</_></rects>
      <tilted>0</tilted></_>
    <_>
      <rects>
        <_>
          7 5 2 14 -1.</_>
        <_>
          7 12 2 7 2.</_></rects>
      <tilted>0</tilted></_>
    <_>
      <rects>
        <_>
          7 6 4 12 -1.</_>
        <_>
          7 6 2 6 2.</_>
        <_>
          9 12 2 6 2.</_></rects>
      <tilted>0</tilted></_>
    <_>
      <rects>
        <_>
          7 7 2 2 -1.</_>
        <_>
          7 7 1 1 2.</_>
        <_>
          8 8 1 1 2.</_></rects>
      <tilted>0</tilted></_>
    <_>
      <rects>
        <_>
          7 7 2 2 -1.</_>
        <_>
          7 8 2 1 2.</_></rects>
      <tilted>0</tilted></_>
    <_>
      <rects>
        <_>
          7 8 2 4 -1.</_>
        <_>
          7 8 1 2 2.</_>
        <_>
          8 10 1 2 2.</_></rects>
      <tilted>0</tilted></_>
    <_>
      <rects>
        <_>
          7 8 4 4 -1.</_>
        <_>
          7 8 2 2 2.</_>
        <_>
          9 10 2 2 2.</_></rects>
      <tilted>0</tilted></_>
    <_>
      <rects>
        <_>
          7 8 4 6 -1.</_>
        <_>
          7 8 2 3 2.</_>
        <_>
          9 11 2 3 2.</_></rects>
      <tilted>0</tilted></_>
    <_>
      <rects>
        <_>
          7 10 2 4 -1.</_>
        <_>
          7 10 1 2 2.</_>
        <_>
          8 12 1 2 2.</_></rects>
      <tilted>0</tilted></_>
    <_>
      <rects>
        <_>
          7 10 3 2 -1.</_>
        <_>
          7 11 3 1 2.</_></rects>
      <tilted>0</tilted></_>
    <_>
      <rects>
        <_>
          7 10 5 4 -1.</_>
        <_>
          7 12 5 2 2.</_></rects>
      <tilted>0</tilted></_>
    <_>
      <rects>
        <_>
          7 11 2 2 -1.</_>
        <_>
          7 11 1 1 2.</_>
        <_>
          8 12 1 1 2.</_></rects>
      <tilted>0</tilted></_>
    <_>
      <rects>
        <_>
          7 11 2 9 -1.</_>
        <_>
          8 11 1 9 2.</_></rects>
      <tilted>0</tilted></_>
    <_>
      <rects>
        <_>
          7 11 5 6 -1.</_>
        <_>
          7 14 5 3 2.</_></rects>
      <tilted>0</tilted></_>
    <_>
      <rects>
        <_>
          7 12 2 2 -1.</_>
        <_>
          7 12 1 1 2.</_>
        <_>
          8 13 1 1 2.</_></rects>
      <tilted>0</tilted></_>
    <_>
      <rects>
        <_>
          7 12 2 3 -1.</_>
        <_>
          8 12 1 3 2.</_></rects>
      <tilted>0</tilted></_>
    <_>
      <rects>
        <_>
          7 13 1 6 -1.</_>
        <_>
          7 15 1 2 2.</_></rects>
      <tilted>0</tilted></_>
    <_>
      <rects>
        <_>
          7 14 4 1 -1.</_>
        <_>
          9 14 2 1 2.</_></rects>
      <tilted>0</tilted></_>
    <_>
      <rects>
        <_>
          7 14 4 5 -1.</_>
        <_>
          9 14 2 5 2.</_></rects>
      <tilted>0</tilted></_>
    <_>
      <rects>
        <_>
          7 17 4 2 -1.</_>
        <_>
          7 17 2 1 2.</_>
        <_>
          9 18 2 1 2.</_></rects>
      <tilted>0</tilted></_>
    <_>
      <rects>
        <_>
          7 18 1 2 -1.</_>
        <_>
          7 19 1 1 2.</_></rects>
      <tilted>0</tilted></_>
    <_>
      <rects>
        <_>
          8 0 3 1 -1.</_>
        <_>
          9 0 1 1 2.</_></rects>
      <tilted>0</tilted></_>
    <_>
      <rects>
        <_>
          8 0 2 2 -1.</_>
        <_>
          8 0 1 1 2.</_>
        <_>
          9 1 1 1 2.</_></rects>
      <tilted>0</tilted></_>
    <_>
      <rects>
        <_>
          8 0 2 4 -1.</_>
        <_>
          9 0 1 4 2.</_></rects>
      <tilted>0</tilted></_>
    <_>
      <rects>
        <_>
          8 1 2 4 -1.</_>
        <_>
          9 1 1 4 2.</_></rects>
      <tilted>0</tilted></_>
    <_>
      <rects>
        <_>
          8 1 2 7 -1.</_>
        <_>
          9 1 1 7 2.</_></rects>
      <tilted>0</tilted></_>
    <_>
      <rects>
        <_>
          8 1 4 2 -1.</_>
        <_>
          8 1 2 1 2.</_>
        <_>
          10 2 2 1 2.</_></rects>
      <tilted>0</tilted></_>
    <_>
      <rects>
        <_>
          8 1 4 5 -1.</_>
        <_>
          10 1 2 5 2.</_></rects>
      <tilted>0</tilted></_>
    <_>
      <rects>
        <_>
          8 1 4 12 -1.</_>
        <_>
          8 1 2 6 2.</_>
        <_>
          10 7 2 6 2.</_></rects>
      <tilted>0</tilted></_>
    <_>
      <rects>
        <_>
          8 1 3 18 -1.</_>
        <_>
          8 10 3 9 2.</_></rects>
      <tilted>0</tilted></_>
    <_>
      <rects>
        <_>
          8 2 2 3 -1.</_>
        <_>
          9 2 1 3 2.</_></rects>
      <tilted>0</tilted></_>
    <_>
      <rects>
        <_>
          8 2 2 8 -1.</_>
        <_>
          8 2 1 4 2.</_>
        <_>
          9 6 1 4 2.</_></rects>
      <tilted>0</tilted></_>
    <_>
      <rects>
        <_>
          8 2 4 2 -1.</_>
        <_>
          8 2 2 1 2.</_>
        <_>
          10 3 2 1 2.</_></rects>
      <tilted>0</tilted></_>
    <_>
      <rects>
        <_>
          8 2 4 2 -1.</_>
        <_>
          8 3 4 1 2.</_></rects>
      <tilted>0</tilted></_>
    <_>
      <rects>
        <_>
          8 4 2 2 -1.</_>
        <_>
          8 5 2 1 2.</_></rects>
      <tilted>0</tilted></_>
    <_>
      <rects>
        <_>
          8 4 4 5 -1.</_>
        <_>
          10 4 2 5 2.</_></rects>
      <tilted>0</tilted></_>
    <_>
      <rects>
        <_>
          8 5 2 14 -1.</_>
        <_>
          8 5 1 7 2.</_>
        <_>
          9 12 1 7 2.</_></rects>
      <tilted>0</tilted></_>
    <_>
      <rects>
        <_>
          8 5 4 2 -1.</_>
        <_>
          8 6 4 1 2.</_></rects>
      <tilted>0</tilted></_>
    <_>
      <rects>
        <_>
          8 6 4 2 -1.</_>
        <_>
          8 6 2 1 2.</_>
        <_>
          10 7 2 1 2.</_></rects>
      <tilted>0</tilted></_>
    <_>
      <rects>
        <_>
          8 6 4 8 -1.</_>
        <_>
          10 6 2 8 2.</_></rects>
      <tilted>0</tilted></_>
    <_>
      <rects>
        <_>
          8 6 4 2 -1.</_>
        <_>
          8 7 4 1 2.</_></rects>
      <tilted>0</tilted></_>
    <_>
      <rects>
        <_>
          8 7 2 2 -1.</_>
        <_>
          9 7 1 2 2.</_></rects>
      <tilted>0</tilted></_>
    <_>
      <rects>
        <_>
          8 7 4 2 -1.</_>
        <_>
          8 8 4 1 2.</_></rects>
      <tilted>0</tilted></_>
    <_>
      <rects>
        <_>
          8 8 2 4 -1.</_>
        <_>
          8 8 1 2 2.</_>
        <_>
          9 10 1 2 2.</_></rects>
      <tilted>0</tilted></_>
    <_>
      <rects>
        <_>
          8 8 4 12 -1.</_>
        <_>
          8 8 2 6 2.</_>
        <_>
          10 14 2 6 2.</_></rects>
      <tilted>0</tilted></_>
    <_>
      <rects>
        <_>
          8 9 2 4 -1.</_>
        <_>
          8 9 1 2 2.</_>
        <_>
          9 11 1 2 2.</_></rects>
      <tilted>0</tilted></_>
    <_>
      <rects>
        <_>
          8 9 2 6 -1.</_>
        <_>
          8 9 1 3 2.</_>
        <_>
          9 12 1 3 2.</_></rects>
      <tilted>0</tilted></_>
    <_>
      <rects>
        <_>
          8 10 2 4 -1.</_>
        <_>
          8 10 1 2 2.</_>
        <_>
          9 12 1 2 2.</_></rects>
      <tilted>0</tilted></_>
    <_>
      <rects>
        <_>
          8 10 4 8 -1.</_>
        <_>
          8 10 2 4 2.</_>
        <_>
          10 14 2 4 2.</_></rects>
      <tilted>0</tilted></_>
    <_>
      <rects>
        <_>
          8 10 3 2 -1.</_>
        <_>
          8 11 3 1 2.</_></rects>
      <tilted>0</tilted></_>
    <_>
      <rects>
        <_>
          8 10 4 2 -1.</_>
        <_>
          8 11 4 1 2.</_></rects>
      <tilted>0</tilted></_>
    <_>
      <rects>
        <_>
          8 10 4 4 -1.</_>
        <_>
          8 12 4 2 2.</_></rects>
      <tilted>0</tilted></_>
    <_>
      <rects>
        <_>
          8 11 2 2 -1.</_>
        <_>
          8 11 1 1 2.</_>
        <_>
          9 12 1 1 2.</_></rects>
      <tilted>0</tilted></_>
    <_>
      <rects>
        <_>
          8 11 4 8 -1.</_>
        <_>
          8 11 2 4 2.</_>
        <_>
          10 15 2 4 2.</_></rects>
      <tilted>0</tilted></_>
    <_>
      <rects>
        <_>
          8 11 3 8 -1.</_>
        <_>
          8 15 3 4 2.</_></rects>
      <tilted>0</tilted></_>
    <_>
      <rects>
        <_>
          8 11 4 2 -1.</_>
        <_>
          8 12 4 1 2.</_></rects>
      <tilted>0</tilted></_>
    <_>
      <rects>
        <_>
          8 12 2 2 -1.</_>
        <_>
          8 12 1 1 2.</_>
        <_>
          9 13 1 1 2.</_></rects>
      <tilted>0</tilted></_>
    <_>
      <rects>
        <_>
          8 15 4 3 -1.</_>
        <_>
          10 15 2 3 2.</_></rects>
      <tilted>0</tilted></_>
    <_>
      <rects>
        <_>
          8 17 2 2 -1.</_>
        <_>
          8 17 1 1 2.</_>
        <_>
          9 18 1 1 2.</_></rects>
      <tilted>0</tilted></_>
    <_>
      <rects>
        <_>
          8 17 2 2 -1.</_>
        <_>
          8 18 2 1 2.</_></rects>
      <tilted>0</tilted></_>
    <_>
      <rects>
        <_>
          8 18 4 2 -1.</_>
        <_>
          8 19 4 1 2.</_></rects>
      <tilted>0</tilted></_>
    <_>
      <rects>
        <_>
          8 19 2 1 -1.</_>
        <_>
          9 19 1 1 2.</_></rects>
      <tilted>0</tilted></_>
    <_>
      <rects>
        <_>
          9 0 3 6 -1.</_>
        <_>
          10 0 1 6 2.</_></rects>
      <tilted>0</tilted></_>
    <_>
      <rects>
        <_>
          9 0 2 4 -1.</_>
        <_>
          9 2 2 2 2.</_></rects>
      <tilted>0</tilted></_>
    <_>
      <rects>
        <_>
          9 0 3 2 -1.</_>
        <_>
          9 1 3 1 2.</_></rects>
      <tilted>0</tilted></_>
    <_>
      <rects>
        <_>
          9 0 3 3 -1.</_>
        <_>
          9 1 3 1 2.</_></rects>
      <tilted>0</tilted></_>
    <_>
      <rects>
        <_>
          9 1 2 2 -1.</_>
        <_>
          9 1 1 1 2.</_>
        <_>
          10 2 1 1 2.</_></rects>
      <tilted>0</tilted></_>
    <_>
      <rects>
        <_>
          9 1 3 6 -1.</_>
        <_>
          10 1 1 6 2.</_></rects>
      <tilted>0</tilted></_>
    <_>
      <rects>
        <_>
          9 2 2 5 -1.</_>
        <_>
          10 2 1 5 2.</_></rects>
      <tilted>0</tilted></_>
    <_>
      <rects>
        <_>
          9 2 2 12 -1.</_>
        <_>
          9 2 1 6 2.</_>
        <_>
          10 8 1 6 2.</_></rects>
      <tilted>0</tilted></_>
    <_>
      <rects>
        <_>
          9 2 2 3 -1.</_>
        <_>
          9 3 2 1 2.</_></rects>
      <tilted>0</tilted></_>
    <_>
      <rects>
        <_>
          9 3 2 1 -1.</_>
        <_>
          10 3 1 1 2.</_></rects>
      <tilted>0</tilted></_>
    <_>
      <rects>
        <_>
          9 3 1 2 -1.</_>
        <_>
          9 4 1 1 2.</_></rects>
      <tilted>0</tilted></_>
    <_>
      <rects>
        <_>
          9 3 1 6 -1.</_>
        <_>
          9 5 1 2 2.</_></rects>
      <tilted>0</tilted></_>
    <_>
      <rects>
        <_>
          9 3 2 2 -1.</_>
        <_>
          9 4 2 1 2.</_></rects>
      <tilted>0</tilted></_>
    <_>
      <rects>
        <_>
          9 4 1 3 -1.</_>
        <_>
          9 5 1 1 2.</_></rects>
      <tilted>0</tilted></_>
    <_>
      <rects>
        <_>
          9 4 2 4 -1.</_>
        <_>
          9 4 1 2 2.</_>
        <_>
          10 6 1 2 2.</_></rects>
      <tilted>0</tilted></_>
    <_>
      <rects>
        <_>
          9 4 3 2 -1.</_>
        <_>
          9 5 3 1 2.</_></rects>
      <tilted>0</tilted></_>
    <_>
      <rects>
        <_>
          9 5 3 2 -1.</_>
        <_>
          9 6 3 1 2.</_></rects>
      <tilted>0</tilted></_>
    <_>
      <rects>
        <_>
          9 6 2 1 -1.</_>
        <_>
          10 6 1 1 2.</_></rects>
      <tilted>0</tilted></_>
    <_>
      <rects>
        <_>
          9 7 1 4 -1.</_>
        <_>
          9 9 1 2 2.</_></rects>
      <tilted>0</tilted></_>
    <_>
      <rects>
        <_>
          9 9 3 2 -1.</_>
        <_>
          9 10 3 1 2.</_></rects>
      <tilted>0</tilted></_>
    <_>
      <rects>
        <_>
          9 11 2 2 -1.</_>
        <_>
          9 12 2 1 2.</_></rects>
      <tilted>0</tilted></_>
    <_>
      <rects>
        <_>
          9 12 3 2 -1.</_>
        <_>
          9 13 3 1 2.</_></rects>
      <tilted>0</tilted></_>
    <_>
      <rects>
        <_>
          9 13 2 2 -1.</_>
        <_>
          9 13 1 1 2.</_>
        <_>
          10 14 1 1 2.</_></rects>
      <tilted>0</tilted></_>
    <_>
      <rects>
        <_>
          9 13 3 2 -1.</_>
        <_>
          9 14 3 1 2.</_></rects>
      <tilted>0</tilted></_>
    <_>
      <rects>
        <_>
          9 14 2 4 -1.</_>
        <_>
          9 16 2 2 2.</_></rects>
      <tilted>0</tilted></_>
    <_>
      <rects>
        <_>
          9 17 2 2 -1.</_>
        <_>
          9 17 1 1 2.</_>
        <_>
          10 18 1 1 2.</_></rects>
      <tilted>0</tilted></_>
    <_>
      <rects>
        <_>
          10 0 2 1 -1.</_>
        <_>
          11 0 1 1 2.</_></rects>
      <tilted>0</tilted></_>
    <_>
      <rects>
        <_>
          10 0 2 20 -1.</_>
        <_>
          10 0 1 10 2.</_>
        <_>
          11 10 1 10 2.</_></rects>
      <tilted>0</tilted></_>
    <_>
      <rects>
        <_>
          10 1 2 3 -1.</_>
        <_>
          11 1 1 3 2.</_></rects>
      <tilted>0</tilted></_>
    <_>
      <rects>
        <_>
          10 1 2 7 -1.</_>
        <_>
          11 1 1 7 2.</_></rects>
      <tilted>0</tilted></_>
    <_>
      <rects>
        <_>
          10 1 2 8 -1.</_>
        <_>
          11 1 1 8 2.</_></rects>
      <tilted>0</tilted></_>
    <_>
      <rects>
        <_>
          10 1 2 16 -1.</_>
        <_>
          10 1 1 8 2.</_>
        <_>
          11 9 1 8 2.</_></rects>
      <tilted>0</tilted></_>
    <_>
      <rects>
        <_>
          10 1 2 11 -1.</_>
        <_>
          11 1 1 11 2.</_></rects>
      <tilted>0</tilted></_>
    <_>
      <rects>
        <_>
          10 2 2 2 -1.</_>
        <_>
          10 2 1 1 2.</_>
        <_>
          11 3 1 1 2.</_></rects>
      <tilted>0</tilted></_>
    <_>
      <rects>
        <_>
          10 2 1 6 -1.</_>
        <_>
          10 4 1 2 2.</_></rects>
      <tilted>0</tilted></_>
    <_>
      <rects>
        <_>
          10 2 2 4 -1.</_>
        <_>
          10 2 1 2 2.</_>
        <_>
          11 4 1 2 2.</_></rects>
      <tilted>0</tilted></_>
    <_>
      <rects>
        <_>
          10 2 2 5 -1.</_>
        <_>
          11 2 1 5 2.</_></rects>
      <tilted>0</tilted></_>
    <_>
      <rects>
        <_>
          10 2 2 18 -1.</_>
        <_>
          10 2 1 9 2.</_>
        <_>
          11 11 1 9 2.</_></rects>
      <tilted>0</tilted></_>
    <_>
      <rects>
        <_>
          10 2 2 14 -1.</_>
        <_>
          11 2 1 14 2.</_></rects>
      <tilted>0</tilted></_>
    <_>
      <rects>
        <_>
          10 2 2 17 -1.</_>
        <_>
          11 2 1 17 2.</_></rects>
      <tilted>0</tilted></_>
    <_>
      <rects>
        <_>
          10 2 2 2 -1.</_>
        <_>
          10 3 2 1 2.</_></rects>
      <tilted>0</tilted></_>
    <_>
      <rects>
        <_>
          10 4 2 8 -1.</_>
        <_>
          10 4 1 4 2.</_>
        <_>
          11 8 1 4 2.</_></rects>
      <tilted>0</tilted></_>
    <_>
      <rects>
        <_>
          10 5 2 14 -1.</_>
        <_>
          11 5 1 14 2.</_></rects>
      <tilted>0</tilted></_>
    <_>
      <rects>
        <_>
          10 5 2 2 -1.</_>
        <_>
          10 6 2 1 2.</_></rects>
      <tilted>0</tilted></_>
    <_>
      <rects>
        <_>
          10 6 2 2 -1.</_>
        <_>
          10 7 2 1 2.</_></rects>
      <tilted>0</tilted></_>
    <_>
      <rects>
        <_>
          10 8 2 3 -1.</_>
        <_>
          11 8 1 3 2.</_></rects>
      <tilted>0</tilted></_>
    <_>
      <rects>
        <_>
          10 9 2 10 -1.</_>
        <_>
          10 9 1 5 2.</_>
        <_>
          11 14 1 5 2.</_></rects>
      <tilted>0</tilted></_>
    <_>
      <rects>
        <_>
          10 11 2 8 -1.</_>
        <_>
          10 11 1 4 2.</_>
        <_>
          11 15 1 4 2.</_></rects>
      <tilted>0</tilted></_>
    <_>
      <rects>
        <_>
          10 12 1 6 -1.</_>
        <_>
          10 15 1 3 2.</_></rects>
      <tilted>0</tilted></_>
    <_>
      <rects>
        <_>
          10 13 2 4 -1.</_>
        <_>
          10 15 2 2 2.</_></rects>
      <tilted>0</tilted></_>
    <_>
      <rects>
        <_>
          10 14 2 1 -1.</_>
        <_>
          11 14 1 1 2.</_></rects>
      <tilted>0</tilted></_>
    <_>
      <rects>
        <_>
          10 14 2 2 -1.</_>
        <_>
          10 15 2 1 2.</_></rects>
      <tilted>0</tilted></_>
    <_>
      <rects>
        <_>
          10 15 2 4 -1.</_>
        <_>
          10 15 1 2 2.</_>
        <_>
          11 17 1 2 2.</_></rects>
      <tilted>0</tilted></_>
    <_>
      <rects>
        <_>
          10 16 2 4 -1.</_>
        <_>
          10 16 1 2 2.</_>
        <_>
          11 18 1 2 2.</_></rects>
      <tilted>0</tilted></_>
    <_>
      <rects>
        <_>
          10 17 2 2 -1.</_>
        <_>
          10 17 1 1 2.</_>
        <_>
          11 18 1 1 2.</_></rects>
      <tilted>0</tilted></_>
    <_>
      <rects>
        <_>
          10 17 2 2 -1.</_>
        <_>
          10 18 2 1 2.</_></rects>
      <tilted>0</tilted></_>
    <_>
      <rects>
        <_>
          10 18 2 2 -1.</_>
        <_>
          10 18 1 1 2.</_>
        <_>
          11 19 1 1 2.</_></rects>
      <tilted>0</tilted></_>
    <_>
      <rects>
        <_>
          11 0 1 2 -1.</_>
        <_>
          11 1 1 1 2.</_></rects>
      <tilted>0</tilted></_>
    <_>
      <rects>
        <_>
          11 0 1 4 -1.</_>
        <_>
          11 2 1 2 2.</_></rects>
      <tilted>0</tilted></_>
    <_>
      <rects>
        <_>
          11 3 1 2 -1.</_>
        <_>
          11 4 1 1 2.</_></rects>
      <tilted>0</tilted></_>
    <_>
      <rects>
        <_>
          11 5 1 2 -1.</_>
        <_>
          11 6 1 1 2.</_></rects>
      <tilted>0</tilted></_>
    <_>
      <rects>
        <_>
          11 7 1 2 -1.</_>
        <_>
          11 8 1 1 2.</_></rects>
      <tilted>0</tilted></_>
    <_>
      <rects>
        <_>
          11 8 1 2 -1.</_>
        <_>
          11 9 1 1 2.</_></rects>
      <tilted>0</tilted></_>
    <_>
      <rects>
        <_>
          11 9 1 2 -1.</_>
        <_>
          11 10 1 1 2.</_></rects>
      <tilted>0</tilted></_>
    <_>
      <rects>
        <_>
          11 10 1 2 -1.</_>
        <_>
          11 11 1 1 2.</_></rects>
      <tilted>0</tilted></_>
    <_>
      <rects>
        <_>
          11 10 1 4 -1.</_>
        <_>
          11 12 1 2 2.</_></rects>
      <tilted>0</tilted></_>
    <_>
      <rects>
        <_>
          11 11 1 2 -1.</_>
        <_>
          11 12 1 1 2.</_></rects>
      <tilted>0</tilted></_>
    <_>
      <rects>
        <_>
          11 11 1 3 -1.</_>
        <_>
          11 12 1 1 2.</_></rects>
      <tilted>0</tilted></_>
    <_>
      <rects>
        <_>
          11 12 1 2 -1.</_>
        <_>
          11 13 1 1 2.</_></rects>
      <tilted>0</tilted></_>
    <_>
      <rects>
        <_>
          11 13 1 2 -1.</_>
        <_>
          11 14 1 1 2.</_></rects>
      <tilted>0</tilted></_>
    <_>
      <rects>
        <_>
          11 14 1 2 -1.</_>
        <_>
          11 15 1 1 2.</_></rects>
      <tilted>0</tilted></_>
    <_>
      <rects>
        <_>
          11 14 1 3 -1.</_>
        <_>
          11 15 1 1 2.</_></rects>
      <tilted>0</tilted></_>
    <_>
      <rects>
        <_>
          11 14 1 6 -1.</_>
        <_>
          11 17 1 3 2.</_></rects>
      <tilted>0</tilted></_>
    <_>
      <rects>
        <_>
          11 15 1 2 -1.</_>
        <_>
          11 16 1 1 2.</_></rects>
      <tilted>0</tilted></_>
    <_>
      <rects>
        <_>
          11 16 1 2 -1.</_>
        <_>
          11 17 1 1 2.</_></rects>
      <tilted>0</tilted></_>
    <_>
      <rects>
        <_>
          11 18 1 2 -1.</_>
        <_>
          11 19 1 1 2.</_></rects>
      <tilted>0</tilted></_></features></cascade>
</opencv_storage>
