<?xml version="1.0"?>
<opencv_storage>
<cascade>
  <stageType>BOOST</stageType>
  <featureType>HAAR</featureType>
  <height>20</height>
  <width>12</width>
  <stageParams>
    <boostType>GAB</boostType>
    <minHitRate>9.9000000953674316e-01</minHitRate>
    <maxFalseAlarm>1.0000000149011612e-01</maxFalseAlarm>
    <weightTrimRate>9.4999999999999996e-01</weightTrimRate>
    <maxDepth>1</maxDepth>
    <maxWeakCount>100</maxWeakCount></stageParams>
  <featureParams>
    <maxCatCount>0</maxCatCount>
    <featSize>1</featSize>
    <mode>BASIC</mode></featureParams>
  <stageNum>9</stageNum>
  <stages>
    <!-- stage 0 -->
    <_>
      <maxWeakCount>18</maxWeakCount>
      <stageThreshold>-1.5984346866607666e+00</stageThreshold>
      <weakClassifiers>
        <_>
          <internalNodes>
            0 -1 285 -1.1093895137310028e-01</internalNodes>
          <leafValues>
            -8.9863973855972290e-01 -1.2919463217258453e-01</leafValues></_>
        <_>
          <internalNodes>
            0 -1 193 -3.3488087356090546e-02</internalNodes>
          <leafValues>
            3.0281955003738403e-01 -7.0789456367492676e-01</leafValues></_>
        <_>
          <internalNodes>
            0 -1 149 -3.8539054989814758e-01</internalNodes>
          <leafValues>
            -9.5277446508407593e-01 2.0551705360412598e-01</leafValues></_>
        <_>
          <internalNodes>
            0 -1 224 1.2187863700091839e-02</internalNodes>
          <leafValues>
            -5.1910984516143799e-01 3.3134096860885620e-01</leafValues></_>
        <_>
          <internalNodes>
            0 -1 402 -4.6085797250270844e-02</internalNodes>
          <leafValues>
            7.0452964305877686e-01 -2.4438719451427460e-01</leafValues></_>
        <_>
          <internalNodes>
            0 -1 338 6.5927803516387939e-03</internalNodes>
          <leafValues>
            -2.2248646616935730e-01 5.5018818378448486e-01</leafValues></_>
        <_>
          <internalNodes>
            0 -1 74 4.0035843849182129e-02</internalNodes>
          <leafValues>
            -2.0393328368663788e-01 5.8936578035354614e-01</leafValues></_>
        <_>
          <internalNodes>
            0 -1 250 -2.1220572292804718e-02</internalNodes>
          <leafValues>
            5.2281367778778076e-01 -2.0069094002246857e-01</leafValues></_>
        <_>
          <internalNodes>
            0 -1 508 -4.0082111954689026e-02</internalNodes>
          <leafValues>
            5.5571460723876953e-01 -2.1573993563652039e-01</leafValues></_>
        <_>
          <internalNodes>
            0 -1 132 -1.7490136623382568e-01</internalNodes>
          <leafValues>
            -9.4892609119415283e-01 1.7657938599586487e-01</leafValues></_>
        <_>
          <internalNodes>
            0 -1 499 -2.9302928596735001e-02</internalNodes>
          <leafValues>
            5.2817654609680176e-01 -2.3134312033653259e-01</leafValues></_>
        <_>
          <internalNodes>
            0 -1 158 -6.7283406853675842e-02</internalNodes>
          <leafValues>
            5.9833616018295288e-01 -1.3436636328697205e-01</leafValues></_>
        <_>
          <internalNodes>
            0 -1 384 -8.2343099638819695e-03</internalNodes>
          <leafValues>
            5.3593873977661133e-01 -1.8186718225479126e-01</leafValues></_>
        <_>
          <internalNodes>
            0 -1 56 -2.1696710586547852e-01</internalNodes>
          <leafValues>
            -8.0610918998718262e-01 1.2620741128921509e-01</leafValues></_>
        <_>
          <internalNodes>
            0 -1 27 2.5891920551657677e-02</internalNodes>
          <leafValues>
            -2.0850443840026855e-01 4.9534416198730469e-01</leafValues></_>
        <_>
          <internalNodes>
            0 -1 273 -5.2475102245807648e-02</internalNodes>
          <leafValues>
            5.7012367248535156e-01 -1.6479563713073730e-01</leafValues></_>
        <_>
          <internalNodes>
            0 -1 209 1.1192342638969421e-01</internalNodes>
          <leafValues>
            -1.8740367889404297e-01 5.8731979131698608e-01</leafValues></_>
        <_>
          <internalNodes>
            0 -1 65 2.8050608932971954e-02</internalNodes>
          <leafValues>
            -2.0695382356643677e-01 4.1696044802665710e-01</leafValues></_></weakClassifiers></_>
    <!-- stage 1 -->
    <_>
      <maxWeakCount>38</maxWeakCount>
      <stageThreshold>-1.3079285621643066e+00</stageThreshold>
      <weakClassifiers>
        <_>
          <internalNodes>
            0 -1 385 -7.5620077550411224e-03</internalNodes>
          <leafValues>
            -8.1404101848602295e-01 1.7162472009658813e-01</leafValues></_>
        <_>
          <internalNodes>
            0 -1 144 2.0984722301363945e-02</internalNodes>
          <leafValues>
            -5.0327306985855103e-01 3.2427498698234558e-01</leafValues></_>
        <_>
          <internalNodes>
            0 -1 54 1.0375939309597015e-03</internalNodes>
          <leafValues>
            -5.4311305284500122e-01 2.4109794199466705e-01</leafValues></_>
        <_>
          <internalNodes>
            0 -1 217 -3.1140485405921936e-01</internalNodes>
          <leafValues>
            -5.5032759904861450e-01 1.9776841998100281e-01</leafValues></_>
        <_>
          <internalNodes>
            0 -1 192 -6.1184622347354889e-02</internalNodes>
          <leafValues>
            5.6404912471771240e-01 -1.8874427676200867e-01</leafValues></_>
        <_>
          <internalNodes>
            0 -1 249 -6.6715460270643234e-03</internalNodes>
          <leafValues>
            -7.0128607749938965e-01 1.4430080354213715e-01</leafValues></_>
        <_>
          <internalNodes>
            0 -1 246 3.5017147660255432e-02</internalNodes>
          <leafValues>
            -1.5560741722583771e-01 4.9685850739479065e-01</leafValues></_>
        <_>
          <internalNodes>
            0 -1 128 -8.7899938225746155e-02</internalNodes>
          <leafValues>
            5.3755676746368408e-01 -1.4778886735439301e-01</leafValues></_>
        <_>
          <internalNodes>
            0 -1 608 -1.5482585877180099e-03</internalNodes>
          <leafValues>
            -5.4956924915313721e-01 1.2648750841617584e-01</leafValues></_>
        <_>
          <internalNodes>
            0 -1 608 5.4843653924763203e-04</internalNodes>
          <leafValues>
            1.5841878950595856e-01 -4.6252721548080444e-01</leafValues></_>
        <_>
          <internalNodes>
            0 -1 203 7.4198208749294281e-03</internalNodes>
          <leafValues>
            -1.4015001058578491e-01 4.6502396464347839e-01</leafValues></_>
        <_>
          <internalNodes>
            0 -1 118 2.2945597302168608e-03</internalNodes>
          <leafValues>
            9.6558101475238800e-02 -6.6459441184997559e-01</leafValues></_>
        <_>
          <internalNodes>
            0 -1 117 1.2274600565433502e-01</internalNodes>
          <leafValues>
            -1.1764580756425858e-01 5.6761431694030762e-01</leafValues></_>
        <_>
          <internalNodes>
            0 -1 60 -9.5042362809181213e-03</internalNodes>
          <leafValues>
            3.0868396162986755e-01 -2.0160168409347534e-01</leafValues></_>
        <_>
          <internalNodes>
            0 -1 548 -5.8976006694138050e-03</internalNodes>
          <leafValues>
            -7.1498990058898926e-01 8.1820115447044373e-02</leafValues></_>
        <_>
          <internalNodes>
            0 -1 511 -9.6843019127845764e-03</internalNodes>
          <leafValues>
            -8.8954222202301025e-01 5.2855003625154495e-02</leafValues></_>
        <_>
          <internalNodes>
            0 -1 215 -7.9606566578149796e-03</internalNodes>
          <leafValues>
            3.9840906858444214e-01 -1.4712344110012054e-01</leafValues></_>
        <_>
          <internalNodes>
            0 -1 100 4.8235235735774040e-03</internalNodes>
          <leafValues>
            1.0730870068073273e-01 -5.7568556070327759e-01</leafValues></_>
        <_>
          <internalNodes>
            0 -1 109 -8.8915452361106873e-03</internalNodes>
          <leafValues>
            -6.2928479909896851e-01 8.8185034692287445e-02</leafValues></_>
        <_>
          <internalNodes>
            0 -1 581 -2.5473732501268387e-02</internalNodes>
          <leafValues>
            6.5647327899932861e-01 -8.8122136890888214e-02</leafValues></_>
        <_>
          <internalNodes>
            0 -1 313 6.1395466327667236e-02</internalNodes>
          <leafValues>
            -2.0943273603916168e-01 2.5774165987968445e-01</leafValues></_>
        <_>
          <internalNodes>
            0 -1 18 1.0137736052274704e-01</internalNodes>
          <leafValues>
            -2.0039701461791992e-01 3.1410950422286987e-01</leafValues></_>
        <_>
          <internalNodes>
            0 -1 90 -7.7655978500843048e-02</internalNodes>
          <leafValues>
            4.6202102303504944e-01 -1.3542483747005463e-01</leafValues></_>
        <_>
          <internalNodes>
            0 -1 433 7.1432895958423615e-02</internalNodes>
          <leafValues>
            -1.5104465186595917e-01 3.6647620797157288e-01</leafValues></_>
        <_>
          <internalNodes>
            0 -1 135 -1.7216242849826813e-02</internalNodes>
          <leafValues>
            3.3162820339202881e-01 -1.7674943804740906e-01</leafValues></_>
        <_>
          <internalNodes>
            0 -1 605 -3.0464795418083668e-03</internalNodes>
          <leafValues>
            -7.9919391870498657e-01 7.2417072951793671e-02</leafValues></_>
        <_>
          <internalNodes>
            0 -1 284 -4.1720494627952576e-02</internalNodes>
          <leafValues>
            5.1015245914459229e-01 -1.1791809648275375e-01</leafValues></_>
        <_>
          <internalNodes>
            0 -1 24 -2.3722559213638306e-02</internalNodes>
          <leafValues>
            5.1757305860519409e-01 -1.0874257981777191e-01</leafValues></_>
        <_>
          <internalNodes>
            0 -1 598 -2.0872158929705620e-02</internalNodes>
          <leafValues>
            -6.8329021334648132e-02 7.5233596563339233e-01</leafValues></_>
        <_>
          <internalNodes>
            0 -1 440 2.7604576200246811e-02</internalNodes>
          <leafValues>
            -1.0494258254766464e-01 4.4236239790916443e-01</leafValues></_>
        <_>
          <internalNodes>
            0 -1 299 -8.3968089893460274e-03</internalNodes>
          <leafValues>
            2.8236076235771179e-01 -1.8716250360012054e-01</leafValues></_>
        <_>
          <internalNodes>
            0 -1 497 -6.3752204179763794e-02</internalNodes>
          <leafValues>
            4.5943444967269897e-01 -1.1726421862840652e-01</leafValues></_>
        <_>
          <internalNodes>
            0 -1 454 1.3410601764917374e-02</internalNodes>
          <leafValues>
            6.8540476262569427e-02 -8.0015915632247925e-01</leafValues></_>
        <_>
          <internalNodes>
            0 -1 384 -8.4457769989967346e-03</internalNodes>
          <leafValues>
            3.2348492741584778e-01 -1.5812897682189941e-01</leafValues></_>
        <_>
          <internalNodes>
            0 -1 455 2.8088279068470001e-03</internalNodes>
          <leafValues>
            8.7216399610042572e-02 -5.4609149694442749e-01</leafValues></_>
        <_>
          <internalNodes>
            0 -1 86 7.6379358768463135e-02</internalNodes>
          <leafValues>
            4.5178413391113281e-02 -8.5439336299896240e-01</leafValues></_>
        <_>
          <internalNodes>
            0 -1 44 -7.8325616195797920e-03</internalNodes>
          <leafValues>
            -7.8471547365188599e-01 4.5537311583757401e-02</leafValues></_>
        <_>
          <internalNodes>
            0 -1 114 9.4858894590288401e-04</internalNodes>
          <leafValues>
            1.0311882197856903e-01 -4.1865900158882141e-01</leafValues></_></weakClassifiers></_>
    <!-- stage 2 -->
    <_>
      <maxWeakCount>62</maxWeakCount>
      <stageThreshold>-1.3572443723678589e+00</stageThreshold>
      <weakClassifiers>
        <_>
          <internalNodes>
            0 -1 265 -2.1809399127960205e-01</internalNodes>
          <leafValues>
            1.3114753365516663e-01 -7.7769708633422852e-01</leafValues></_>
        <_>
          <internalNodes>
            0 -1 418 -3.9688751101493835e-02</internalNodes>
          <leafValues>
            2.6616671681404114e-01 -4.0311661362648010e-01</leafValues></_>
        <_>
          <internalNodes>
            0 -1 604 -1.4531834749504924e-03</internalNodes>
          <leafValues>
            -5.7989495992660522e-01 1.0180983692407608e-01</leafValues></_>
        <_>
          <internalNodes>
            0 -1 341 1.2532809749245644e-02</internalNodes>
          <leafValues>
            -2.2256062924861908e-01 2.9771742224693298e-01</leafValues></_>
        <_>
          <internalNodes>
            0 -1 613 -1.9400292076170444e-03</internalNodes>
          <leafValues>
            -5.7293081283569336e-01 1.4863637089729309e-01</leafValues></_>
        <_>
          <internalNodes>
            0 -1 361 3.5087037831544876e-03</internalNodes>
          <leafValues>
            -2.5583651661872864e-01 2.3729941248893738e-01</leafValues></_>
        <_>
          <internalNodes>
            0 -1 606 -2.1366192959249020e-03</internalNodes>
          <leafValues>
            -6.0787874460220337e-01 1.0972099751234055e-01</leafValues></_>
        <_>
          <internalNodes>
            0 -1 114 -1.9505857490003109e-03</internalNodes>
          <leafValues>
            -5.6995171308517456e-01 9.0841934084892273e-02</leafValues></_>
        <_>
          <internalNodes>
            0 -1 422 -5.5960696190595627e-03</internalNodes>
          <leafValues>
            -1.0179349780082703e-01 5.5393636226654053e-01</leafValues></_>
        <_>
          <internalNodes>
            0 -1 152 -1.6282037831842899e-03</internalNodes>
          <leafValues>
            -4.2090046405792236e-01 1.2100864201784134e-01</leafValues></_>
        <_>
          <internalNodes>
            0 -1 472 -8.0487810075283051e-02</internalNodes>
          <leafValues>
            4.9151349067687988e-01 -1.0585471242666245e-01</leafValues></_>
        <_>
          <internalNodes>
            0 -1 198 1.7290156334638596e-02</internalNodes>
          <leafValues>
            -1.0241659730672836e-01 5.2562195062637329e-01</leafValues></_>
        <_>
          <internalNodes>
            0 -1 186 1.7473888397216797e-01</internalNodes>
          <leafValues>
            -7.9426459968090057e-02 6.3385301828384399e-01</leafValues></_>
        <_>
          <internalNodes>
            0 -1 66 -5.4825454950332642e-02</internalNodes>
          <leafValues>
            4.4173815846443176e-01 -1.1272164434194565e-01</leafValues></_>
        <_>
          <internalNodes>
            0 -1 88 -8.4370300173759460e-03</internalNodes>
          <leafValues>
            -9.1753315925598145e-01 5.3981509059667587e-02</leafValues></_>
        <_>
          <internalNodes>
            0 -1 99 -2.6757305022329092e-03</internalNodes>
          <leafValues>
            -6.5204447507858276e-01 5.9082973748445511e-02</leafValues></_>
        <_>
          <internalNodes>
            0 -1 241 3.9378367364406586e-03</internalNodes>
          <leafValues>
            -2.9461875557899475e-01 1.4259417355060577e-01</leafValues></_>
        <_>
          <internalNodes>
            0 -1 141 -7.3838219046592712e-02</internalNodes>
          <leafValues>
            7.5521820783615112e-01 -6.0374598950147629e-02</leafValues></_>
        <_>
          <internalNodes>
            0 -1 75 1.4070191979408264e-01</internalNodes>
          <leafValues>
            -7.9812370240688324e-02 5.2791255712509155e-01</leafValues></_>
        <_>
          <internalNodes>
            0 -1 238 -6.4791195094585419e-02</internalNodes>
          <leafValues>
            -5.1180928945541382e-01 8.6406752467155457e-02</leafValues></_>
        <_>
          <internalNodes>
            0 -1 99 1.5680013457313180e-03</internalNodes>
          <leafValues>
            7.8769415616989136e-02 -4.8489058017730713e-01</leafValues></_>
        <_>
          <internalNodes>
            0 -1 216 2.1701082587242126e-02</internalNodes>
          <leafValues>
            -8.1705629825592041e-02 5.7546204328536987e-01</leafValues></_>
        <_>
          <internalNodes>
            0 -1 579 3.5902597010135651e-02</internalNodes>
          <leafValues>
            -6.3893221318721771e-02 5.9267002344131470e-01</leafValues></_>
        <_>
          <internalNodes>
            0 -1 495 -1.7790237441658974e-02</internalNodes>
          <leafValues>
            3.1725230813026428e-01 -1.2892523407936096e-01</leafValues></_>
        <_>
          <internalNodes>
            0 -1 343 4.3949902057647705e-02</internalNodes>
          <leafValues>
            5.4657202214002609e-02 -8.0393922328948975e-01</leafValues></_>
        <_>
          <internalNodes>
            0 -1 557 7.8410860151052475e-03</internalNodes>
          <leafValues>
            4.1078906506299973e-02 -7.8194695711135864e-01</leafValues></_>
        <_>
          <internalNodes>
            0 -1 604 3.6687697283923626e-03</internalNodes>
          <leafValues>
            3.5973593592643738e-02 -8.4632241725921631e-01</leafValues></_>
        <_>
          <internalNodes>
            0 -1 354 1.5046674758195877e-02</internalNodes>
          <leafValues>
            3.1404495239257813e-02 -8.9657688140869141e-01</leafValues></_>
        <_>
          <internalNodes>
            0 -1 394 -4.3034102767705917e-02</internalNodes>
          <leafValues>
            -8.0762660503387451e-01 3.5523768514394760e-02</leafValues></_>
        <_>
          <internalNodes>
            0 -1 51 1.7658382654190063e-02</internalNodes>
          <leafValues>
            3.0606547370553017e-02 -9.1156959533691406e-01</leafValues></_>
        <_>
          <internalNodes>
            0 -1 590 4.7230668133124709e-04</internalNodes>
          <leafValues>
            1.2897369265556335e-01 -2.7000704407691956e-01</leafValues></_>
        <_>
          <internalNodes>
            0 -1 574 -2.5504056364297867e-02</internalNodes>
          <leafValues>
            5.3516453504562378e-01 -6.6687852144241333e-02</leafValues></_>
        <_>
          <internalNodes>
            0 -1 57 -2.3730597458779812e-03</internalNodes>
          <leafValues>
            3.0138778686523438e-01 -1.2235687673091888e-01</leafValues></_>
        <_>
          <internalNodes>
            0 -1 39 7.1963435038924217e-03</internalNodes>
          <leafValues>
            -1.5186612308025360e-01 3.3215132355690002e-01</leafValues></_>
        <_>
          <internalNodes>
            0 -1 427 -1.1082282289862633e-02</internalNodes>
          <leafValues>
            3.1632360816001892e-01 -1.1929495632648468e-01</leafValues></_>
        <_>
          <internalNodes>
            0 -1 87 1.2035591062158346e-03</internalNodes>
          <leafValues>
            9.6628285944461823e-02 -4.1450741887092590e-01</leafValues></_>
        <_>
          <internalNodes>
            0 -1 80 8.4782376885414124e-02</internalNodes>
          <leafValues>
            -1.4685985445976257e-01 3.0143186450004578e-01</leafValues></_>
        <_>
          <internalNodes>
            0 -1 130 -5.6079784408211708e-03</internalNodes>
          <leafValues>
            1.6796819865703583e-01 -2.6397207379341125e-01</leafValues></_>
        <_>
          <internalNodes>
            0 -1 483 7.5831345748156309e-04</internalNodes>
          <leafValues>
            -1.9855983555316925e-01 2.1028235554695129e-01</leafValues></_>
        <_>
          <internalNodes>
            0 -1 431 3.7855079863220453e-03</internalNodes>
          <leafValues>
            -2.0996515452861786e-01 1.7135696113109589e-01</leafValues></_>
        <_>
          <internalNodes>
            0 -1 310 -2.2682301700115204e-02</internalNodes>
          <leafValues>
            3.7611216306686401e-01 -1.0574435442686081e-01</leafValues></_>
        <_>
          <internalNodes>
            0 -1 382 -2.0130824297666550e-02</internalNodes>
          <leafValues>
            3.5148617625236511e-01 -1.0264280438423157e-01</leafValues></_>
        <_>
          <internalNodes>
            0 -1 615 -2.6752066332846880e-03</internalNodes>
          <leafValues>
            -4.7037208080291748e-01 8.7657898664474487e-02</leafValues></_>
        <_>
          <internalNodes>
            0 -1 505 7.8757461160421371e-03</internalNodes>
          <leafValues>
            4.5353628695011139e-02 -7.0742702484130859e-01</leafValues></_>
        <_>
          <internalNodes>
            0 -1 614 3.9487658068537712e-04</internalNodes>
          <leafValues>
            1.0540055483579636e-01 -3.1874132156372070e-01</leafValues></_>
        <_>
          <internalNodes>
            0 -1 614 -5.0437485333532095e-04</internalNodes>
          <leafValues>
            -2.5329294800758362e-01 1.3892781734466553e-01</leafValues></_>
        <_>
          <internalNodes>
            0 -1 277 1.9502790644764900e-02</internalNodes>
          <leafValues>
            -7.8778184950351715e-02 4.1970419883728027e-01</leafValues></_>
        <_>
          <internalNodes>
            0 -1 330 -1.2352437712252140e-02</internalNodes>
          <leafValues>
            3.5246738791465759e-01 -1.2226591259241104e-01</leafValues></_>
        <_>
          <internalNodes>
            0 -1 549 3.7275806535035372e-03</internalNodes>
          <leafValues>
            -1.2518192827701569e-01 2.8111976385116577e-01</leafValues></_>
        <_>
          <internalNodes>
            0 -1 296 -1.0387939959764481e-01</internalNodes>
          <leafValues>
            3.9676091074943542e-01 -9.3429364264011383e-02</leafValues></_>
        <_>
          <internalNodes>
            0 -1 375 2.8993135783821344e-03</internalNodes>
          <leafValues>
            -1.3001666963100433e-01 2.8093814849853516e-01</leafValues></_>
        <_>
          <internalNodes>
            0 -1 610 -2.3027234710752964e-03</internalNodes>
          <leafValues>
            -5.2154195308685303e-01 6.7161388695240021e-02</leafValues></_>
        <_>
          <internalNodes>
            0 -1 509 -8.0495197325944901e-03</internalNodes>
          <leafValues>
            -6.4594662189483643e-01 4.7115460038185120e-02</leafValues></_>
        <_>
          <internalNodes>
            0 -1 207 2.0957618951797485e-02</internalNodes>
          <leafValues>
            -7.3749564588069916e-02 5.3339064121246338e-01</leafValues></_>
        <_>
          <internalNodes>
            0 -1 175 1.6040366608649492e-03</internalNodes>
          <leafValues>
            7.9932570457458496e-02 -4.2365044355392456e-01</leafValues></_>
        <_>
          <internalNodes>
            0 -1 142 1.9208811223506927e-02</internalNodes>
          <leafValues>
            -7.8479520976543427e-02 4.1386300325393677e-01</leafValues></_>
        <_>
          <internalNodes>
            0 -1 247 2.1504002809524536e-01</internalNodes>
          <leafValues>
            -6.3712529838085175e-02 4.9215054512023926e-01</leafValues></_>
        <_>
          <internalNodes>
            0 -1 26 2.5854147970676422e-02</internalNodes>
          <leafValues>
            -1.0781034827232361e-01 3.1787893176078796e-01</leafValues></_>
        <_>
          <internalNodes>
            0 -1 73 -8.9041087776422501e-03</internalNodes>
          <leafValues>
            -7.6253473758697510e-01 4.2716145515441895e-02</leafValues></_>
        <_>
          <internalNodes>
            0 -1 365 2.0458959043025970e-03</internalNodes>
          <leafValues>
            -1.0862996429204941e-01 3.0800074338912964e-01</leafValues></_>
        <_>
          <internalNodes>
            0 -1 583 -2.2786315530538559e-02</internalNodes>
          <leafValues>
            2.9664841294288635e-01 -1.0743918269872665e-01</leafValues></_>
        <_>
          <internalNodes>
            0 -1 555 -8.2105044275522232e-03</internalNodes>
          <leafValues>
            -8.2802540063858032e-01 3.8603376597166061e-02</leafValues></_></weakClassifiers></_>
    <!-- stage 3 -->
    <_>
      <maxWeakCount>73</maxWeakCount>
      <stageThreshold>-1.2954261302947998e+00</stageThreshold>
      <weakClassifiers>
        <_>
          <internalNodes>
            0 -1 398 -1.5378764364868402e-03</internalNodes>
          <leafValues>
            -4.6169772744178772e-01 -8.3259707689285278e-01</leafValues></_>
        <_>
          <internalNodes>
            0 -1 135 -1.2929659336805344e-02</internalNodes>
          <leafValues>
            3.8463607430458069e-02 -5.2951842546463013e-01</leafValues></_>
        <_>
          <internalNodes>
            0 -1 283 4.6310592442750931e-03</internalNodes>
          <leafValues>
            -2.8365227580070496e-01 2.4381397664546967e-01</leafValues></_>
        <_>
          <internalNodes>
            0 -1 475 -1.0845137760043144e-02</internalNodes>
          <leafValues>
            3.0082935094833374e-01 -2.4629636108875275e-01</leafValues></_>
        <_>
          <internalNodes>
            0 -1 355 3.2931808382272720e-03</internalNodes>
          <leafValues>
            -2.2006639838218689e-01 2.6767510175704956e-01</leafValues></_>
        <_>
          <internalNodes>
            0 -1 417 2.8491653501987457e-03</internalNodes>
          <leafValues>
            -1.9956153631210327e-01 3.1204235553741455e-01</leafValues></_>
        <_>
          <internalNodes>
            0 -1 35 -5.9864556789398193e-01</internalNodes>
          <leafValues>
            -8.4369009733200073e-01 8.4165088832378387e-02</leafValues></_>
        <_>
          <internalNodes>
            0 -1 512 2.0579232368618250e-03</internalNodes>
          <leafValues>
            -1.5326654911041260e-01 3.4026491641998291e-01</leafValues></_>
        <_>
          <internalNodes>
            0 -1 170 1.4071878045797348e-02</internalNodes>
          <leafValues>
            -1.1070197820663452e-01 3.4330642223358154e-01</leafValues></_>
        <_>
          <internalNodes>
            0 -1 102 -2.9068891890347004e-03</internalNodes>
          <leafValues>
            3.5224238038063049e-01 -1.2167635560035706e-01</leafValues></_>
        <_>
          <internalNodes>
            0 -1 324 -3.7190471775829792e-03</internalNodes>
          <leafValues>
            3.5625326633453369e-01 -1.0024871677160263e-01</leafValues></_>
        <_>
          <internalNodes>
            0 -1 482 -3.4322587307542562e-03</internalNodes>
          <leafValues>
            4.5853424072265625e-01 -7.5516656041145325e-02</leafValues></_>
        <_>
          <internalNodes>
            0 -1 524 3.0078504234552383e-02</internalNodes>
          <leafValues>
            6.4836613833904266e-02 -6.6679376363754272e-01</leafValues></_>
        <_>
          <internalNodes>
            0 -1 304 9.8207578063011169e-02</internalNodes>
          <leafValues>
            -7.1308769285678864e-02 5.7595157623291016e-01</leafValues></_>
        <_>
          <internalNodes>
            0 -1 199 9.9505633115768433e-03</internalNodes>
          <leafValues>
            -7.3288902640342712e-02 4.3482831120491028e-01</leafValues></_>
        <_>
          <internalNodes>
            0 -1 5 2.5070279836654663e-02</internalNodes>
          <leafValues>
            -1.1158198118209839e-01 3.2306805253028870e-01</leafValues></_>
        <_>
          <internalNodes>
            0 -1 148 -1.8530415836721659e-03</internalNodes>
          <leafValues>
            2.0913130044937134e-01 -1.7448720335960388e-01</leafValues></_>
        <_>
          <internalNodes>
            0 -1 30 3.6355964839458466e-02</internalNodes>
          <leafValues>
            -1.5561580657958984e-01 2.9102489352226257e-01</leafValues></_>
        <_>
          <internalNodes>
            0 -1 280 -3.5936629865318537e-03</internalNodes>
          <leafValues>
            -4.4421192258596420e-02 7.6328867673873901e-01</leafValues></_>
        <_>
          <internalNodes>
            0 -1 57 -8.2807836588472128e-04</internalNodes>
          <leafValues>
            2.3600158095359802e-01 -1.5241089463233948e-01</leafValues></_>
        <_>
          <internalNodes>
            0 -1 59 -8.8342633098363876e-03</internalNodes>
          <leafValues>
            -8.2158493995666504e-01 3.9975542575120926e-02</leafValues></_>
        <_>
          <internalNodes>
            0 -1 613 6.8493594881147146e-04</internalNodes>
          <leafValues>
            7.2909429669380188e-02 -3.6872512102127075e-01</leafValues></_>
        <_>
          <internalNodes>
            0 -1 110 -2.1885833702981472e-03</internalNodes>
          <leafValues>
            -6.2555772066116333e-01 4.6801857650279999e-02</leafValues></_>
        <_>
          <internalNodes>
            0 -1 380 2.6756441220641136e-03</internalNodes>
          <leafValues>
            -1.6199661791324615e-01 1.9340330362319946e-01</leafValues></_>
        <_>
          <internalNodes>
            0 -1 539 1.8902826122939587e-03</internalNodes>
          <leafValues>
            -1.4489306509494781e-01 2.2546122968196869e-01</leafValues></_>
        <_>
          <internalNodes>
            0 -1 486 2.1593882702291012e-03</internalNodes>
          <leafValues>
            -9.4028607010841370e-02 3.2048377394676208e-01</leafValues></_>
        <_>
          <internalNodes>
            0 -1 327 -5.8134905993938446e-03</internalNodes>
          <leafValues>
            1.9350244104862213e-01 -1.6565677523612976e-01</leafValues></_>
        <_>
          <internalNodes>
            0 -1 542 7.3198191821575165e-03</internalNodes>
          <leafValues>
            -8.1740930676460266e-02 3.5998681187629700e-01</leafValues></_>
        <_>
          <internalNodes>
            0 -1 585 7.7160038053989410e-03</internalNodes>
          <leafValues>
            4.0651578456163406e-02 -8.1024867296218872e-01</leafValues></_>
        <_>
          <internalNodes>
            0 -1 77 1.0310700163245201e-02</internalNodes>
          <leafValues>
            -1.7873202264308929e-01 1.6150948405265808e-01</leafValues></_>
        <_>
          <internalNodes>
            0 -1 385 -1.7569396877661347e-03</internalNodes>
          <leafValues>
            -4.6977456659078598e-02 6.5495753288269043e-01</leafValues></_>
        <_>
          <internalNodes>
            0 -1 288 -6.2468377873301506e-03</internalNodes>
          <leafValues>
            3.8479566574096680e-01 -7.8887186944484711e-02</leafValues></_>
        <_>
          <internalNodes>
            0 -1 363 -6.5366504713892937e-03</internalNodes>
          <leafValues>
            3.2460838556289673e-01 -9.0886689722537994e-02</leafValues></_>
        <_>
          <internalNodes>
            0 -1 553 -8.2500698044896126e-03</internalNodes>
          <leafValues>
            7.3330581188201904e-02 -4.6414887905120850e-01</leafValues></_>
        <_>
          <internalNodes>
            0 -1 443 1.2445578351616859e-02</internalNodes>
          <leafValues>
            3.7587996572256088e-02 -7.3010247945785522e-01</leafValues></_>
        <_>
          <internalNodes>
            0 -1 609 -1.6166130080819130e-03</internalNodes>
          <leafValues>
            -4.2758442461490631e-02 8.6364823579788208e-01</leafValues></_>
        <_>
          <internalNodes>
            0 -1 225 3.7488692998886108e-01</internalNodes>
          <leafValues>
            -8.4322981536388397e-02 3.2779029011726379e-01</leafValues></_>
        <_>
          <internalNodes>
            0 -1 196 -7.1333125233650208e-03</internalNodes>
          <leafValues>
            1.4343562722206116e-01 -2.4384286999702454e-01</leafValues></_>
        <_>
          <internalNodes>
            0 -1 120 -6.7521445453166962e-03</internalNodes>
          <leafValues>
            -3.7987005710601807e-01 8.1438556313514709e-02</leafValues></_>
        <_>
          <internalNodes>
            0 -1 189 -3.7462733685970306e-02</internalNodes>
          <leafValues>
            3.3124741911888123e-01 -1.0941951721906662e-01</leafValues></_>
        <_>
          <internalNodes>
            0 -1 113 9.8547831177711487e-02</internalNodes>
          <leafValues>
            -1.4194507896900177e-01 2.5146383047103882e-01</leafValues></_>
        <_>
          <internalNodes>
            0 -1 36 1.5922505408525467e-02</internalNodes>
          <leafValues>
            -1.5872886776924133e-01 1.8495313823223114e-01</leafValues></_>
        <_>
          <internalNodes>
            0 -1 15 -1.5476682782173157e-01</internalNodes>
          <leafValues>
            4.7675290703773499e-01 -6.4280375838279724e-02</leafValues></_>
        <_>
          <internalNodes>
            0 -1 446 -3.3965278416872025e-03</internalNodes>
          <leafValues>
            4.6250492334365845e-01 -6.8177036941051483e-02</leafValues></_>
        <_>
          <internalNodes>
            0 -1 120 1.0300138965249062e-03</internalNodes>
          <leafValues>
            1.0385303944349289e-01 -2.8772979974746704e-01</leafValues></_>
        <_>
          <internalNodes>
            0 -1 42 8.1482119858264923e-03</internalNodes>
          <leafValues>
            4.0443576872348785e-02 -6.2649983167648315e-01</leafValues></_>
        <_>
          <internalNodes>
            0 -1 363 2.7136406861245632e-03</internalNodes>
          <leafValues>
            -1.4905950427055359e-01 1.9630353152751923e-01</leafValues></_>
        <_>
          <internalNodes>
            0 -1 213 -2.6636046823114157e-03</internalNodes>
          <leafValues>
            3.1399023532867432e-01 -8.9907534420490265e-02</leafValues></_>
        <_>
          <internalNodes>
            0 -1 561 -1.1101558804512024e-02</internalNodes>
          <leafValues>
            -8.8248670101165771e-01 3.3849097788333893e-02</leafValues></_>
        <_>
          <internalNodes>
            0 -1 432 2.9842298477888107e-02</internalNodes>
          <leafValues>
            2.6146743446588516e-02 -7.5874346494674683e-01</leafValues></_>
        <_>
          <internalNodes>
            0 -1 515 -9.7059123218059540e-03</internalNodes>
          <leafValues>
            4.4310769438743591e-01 -7.1839317679405212e-02</leafValues></_>
        <_>
          <internalNodes>
            0 -1 22 3.4696259535849094e-03</internalNodes>
          <leafValues>
            -5.7603936642408371e-02 4.3459129333496094e-01</leafValues></_>
        <_>
          <internalNodes>
            0 -1 582 -1.9696578383445740e-02</internalNodes>
          <leafValues>
            3.0858579277992249e-01 -8.1559166312217712e-02</leafValues></_>
        <_>
          <internalNodes>
            0 -1 578 -3.1386356800794601e-02</internalNodes>
          <leafValues>
            4.3415436148643494e-01 -6.3480779528617859e-02</leafValues></_>
        <_>
          <internalNodes>
            0 -1 133 4.9971183761954308e-03</internalNodes>
          <leafValues>
            -1.0547884553670883e-01 2.2940102219581604e-01</leafValues></_>
        <_>
          <internalNodes>
            0 -1 131 -1.1813191231340170e-03</internalNodes>
          <leafValues>
            -3.0113494396209717e-01 1.0944733768701553e-01</leafValues></_>
        <_>
          <internalNodes>
            0 -1 63 3.2066114246845245e-02</internalNodes>
          <leafValues>
            -6.4185127615928650e-02 4.6957072615623474e-01</leafValues></_>
        <_>
          <internalNodes>
            0 -1 101 -5.4082612041383982e-04</internalNodes>
          <leafValues>
            -2.2782737016677856e-01 1.3028159737586975e-01</leafValues></_>
        <_>
          <internalNodes>
            0 -1 353 2.1272305399179459e-02</internalNodes>
          <leafValues>
            3.3069238066673279e-02 -7.5231558084487915e-01</leafValues></_>
        <_>
          <internalNodes>
            0 -1 6 -3.3114436082541943e-03</internalNodes>
          <leafValues>
            -5.1813412457704544e-02 6.0510373115539551e-01</leafValues></_>
        <_>
          <internalNodes>
            0 -1 157 -6.9613099098205566e-02</internalNodes>
          <leafValues>
            4.8976480960845947e-02 -6.8508809804916382e-01</leafValues></_>
        <_>
          <internalNodes>
            0 -1 168 9.7976680845022202e-03</internalNodes>
          <leafValues>
            -9.8550990223884583e-02 2.7940660715103149e-01</leafValues></_>
        <_>
          <internalNodes>
            0 -1 479 -1.1049300432205200e-02</internalNodes>
          <leafValues>
            -8.2369893789291382e-01 3.2499488443136215e-02</leafValues></_>
        <_>
          <internalNodes>
            0 -1 253 -1.2321179965510964e-03</internalNodes>
          <leafValues>
            2.5615379214286804e-01 -1.0362830013036728e-01</leafValues></_>
        <_>
          <internalNodes>
            0 -1 595 -3.3364216797053814e-03</internalNodes>
          <leafValues>
            -5.1712489128112793e-01 5.0593592226505280e-02</leafValues></_>
        <_>
          <internalNodes>
            0 -1 381 -1.9404537975788116e-02</internalNodes>
          <leafValues>
            -6.3619065284729004e-01 3.0129402875900269e-02</leafValues></_>
        <_>
          <internalNodes>
            0 -1 379 -5.8682538568973541e-02</internalNodes>
          <leafValues>
            1.7111384868621826e-01 -1.6205702722072601e-01</leafValues></_>
        <_>
          <internalNodes>
            0 -1 564 -6.4861122518777847e-03</internalNodes>
          <leafValues>
            -5.9082418680191040e-01 5.1179718226194382e-02</leafValues></_>
        <_>
          <internalNodes>
            0 -1 383 -3.7083169445395470e-04</internalNodes>
          <leafValues>
            -1.6264238953590393e-01 1.4287528395652771e-01</leafValues></_>
        <_>
          <internalNodes>
            0 -1 421 7.9848272725939751e-03</internalNodes>
          <leafValues>
            -7.9085916280746460e-02 3.2191452383995056e-01</leafValues></_>
        <_>
          <internalNodes>
            0 -1 322 -1.0432153940200806e-02</internalNodes>
          <leafValues>
            3.9696142077445984e-01 -5.8458343148231506e-02</leafValues></_>
        <_>
          <internalNodes>
            0 -1 164 -1.4234238769859076e-03</internalNodes>
          <leafValues>
            -3.4222149848937988e-01 7.3746509850025177e-02</leafValues></_>
        <_>
          <internalNodes>
            0 -1 589 -1.9427035003900528e-02</internalNodes>
          <leafValues>
            4.4271948933601379e-01 -5.9256866574287415e-02</leafValues></_></weakClassifiers></_>
    <!-- stage 4 -->
    <_>
      <maxWeakCount>100</maxWeakCount>
      <stageThreshold>-1.2804294824600220e+00</stageThreshold>
      <weakClassifiers>
        <_>
          <internalNodes>
            0 -1 11 -3.9242181810550392e-04</internalNodes>
          <leafValues>
            -7.5876176357269287e-01 1.1627907305955887e-01</leafValues></_>
        <_>
          <internalNodes>
            0 -1 199 -2.1624758839607239e-02</internalNodes>
          <leafValues>
            8.7389573454856873e-02 -4.1935077309608459e-01</leafValues></_>
        <_>
          <internalNodes>
            0 -1 388 8.9015737175941467e-03</internalNodes>
          <leafValues>
            -1.7005181312561035e-01 3.4811440110206604e-01</leafValues></_>
        <_>
          <internalNodes>
            0 -1 393 -1.2731273472309113e-01</internalNodes>
          <leafValues>
            -3.5215976834297180e-01 1.3716231286525726e-01</leafValues></_>
        <_>
          <internalNodes>
            0 -1 236 -7.7122601214796305e-04</internalNodes>
          <leafValues>
            2.0398327708244324e-01 -1.6986894607543945e-01</leafValues></_>
        <_>
          <internalNodes>
            0 -1 156 -4.9775168299674988e-03</internalNodes>
          <leafValues>
            -6.2232607603073120e-01 4.8268768936395645e-02</leafValues></_>
        <_>
          <internalNodes>
            0 -1 348 3.5432819277048111e-03</internalNodes>
          <leafValues>
            -1.1798129975795746e-01 2.5462681055068970e-01</leafValues></_>
        <_>
          <internalNodes>
            0 -1 180 8.0739021301269531e-02</internalNodes>
          <leafValues>
            4.6793151646852493e-02 -7.3908704519271851e-01</leafValues></_>
        <_>
          <internalNodes>
            0 -1 535 6.9428039714694023e-03</internalNodes>
          <leafValues>
            -6.0692362487316132e-02 5.4268956184387207e-01</leafValues></_>
        <_>
          <internalNodes>
            0 -1 17 2.6871538162231445e-01</internalNodes>
          <leafValues>
            -8.7119273841381073e-02 3.2978439331054688e-01</leafValues></_>
        <_>
          <internalNodes>
            0 -1 321 2.7975749224424362e-02</internalNodes>
          <leafValues>
            9.1611444950103760e-02 -3.5441610217094421e-01</leafValues></_>
        <_>
          <internalNodes>
            0 -1 107 -1.2698667123913765e-03</internalNodes>
          <leafValues>
            -3.8350409269332886e-01 7.2927519679069519e-02</leafValues></_>
        <_>
          <internalNodes>
            0 -1 521 -2.3010494187474251e-03</internalNodes>
          <leafValues>
            2.9084444046020508e-01 -1.0309275239706039e-01</leafValues></_>
        <_>
          <internalNodes>
            0 -1 610 1.5874251257628202e-03</internalNodes>
          <leafValues>
            5.9160698205232620e-02 -5.1144683361053467e-01</leafValues></_>
        <_>
          <internalNodes>
            0 -1 544 1.2581778690218925e-02</internalNodes>
          <leafValues>
            3.2586406916379929e-02 -7.1473115682601929e-01</leafValues></_>
        <_>
          <internalNodes>
            0 -1 45 -5.1130779087543488e-02</internalNodes>
          <leafValues>
            2.4042455479502678e-02 -8.2374870777130127e-01</leafValues></_>
        <_>
          <internalNodes>
            0 -1 107 2.8760050190612674e-04</internalNodes>
          <leafValues>
            9.9611625075340271e-02 -2.3477990925312042e-01</leafValues></_>
        <_>
          <internalNodes>
            0 -1 565 2.0419100765138865e-03</internalNodes>
          <leafValues>
            6.2943972647190094e-02 -3.7630742788314819e-01</leafValues></_>
        <_>
          <internalNodes>
            0 -1 190 -5.6019697338342667e-02</internalNodes>
          <leafValues>
            3.9808765053749084e-01 -7.7192865312099457e-02</leafValues></_>
        <_>
          <internalNodes>
            0 -1 123 6.5401002764701843e-02</internalNodes>
          <leafValues>
            -7.6368249952793121e-02 3.9944660663604736e-01</leafValues></_>
        <_>
          <internalNodes>
            0 -1 21 1.0077725892188028e-04</internalNodes>
          <leafValues>
            -1.6672016680240631e-01 1.5033620595932007e-01</leafValues></_>
        <_>
          <internalNodes>
            0 -1 246 5.6025125086307526e-02</internalNodes>
          <leafValues>
            -6.6325955092906952e-02 3.5686686635017395e-01</leafValues></_>
        <_>
          <internalNodes>
            0 -1 319 -1.3576627243310213e-03</internalNodes>
          <leafValues>
            2.7320963144302368e-01 -9.1398075222969055e-02</leafValues></_>
        <_>
          <internalNodes>
            0 -1 611 -3.6077160621061921e-04</internalNodes>
          <leafValues>
            -2.4344712495803833e-02 9.4023334980010986e-01</leafValues></_>
        <_>
          <internalNodes>
            0 -1 85 -1.0562632977962494e-01</internalNodes>
          <leafValues>
            -9.3662923574447632e-01 3.1702671200037003e-02</leafValues></_>
        <_>
          <internalNodes>
            0 -1 520 -9.7921565175056458e-03</internalNodes>
          <leafValues>
            -6.0838687419891357e-01 2.9116682708263397e-02</leafValues></_>
        <_>
          <internalNodes>
            0 -1 387 1.2595600448548794e-02</internalNodes>
          <leafValues>
            4.0785327553749084e-02 -4.8608466982841492e-01</leafValues></_>
        <_>
          <internalNodes>
            0 -1 373 -1.9202679395675659e-02</internalNodes>
          <leafValues>
            -8.8767939805984497e-01 2.0393846556544304e-02</leafValues></_>
        <_>
          <internalNodes>
            0 -1 545 5.2268162835389376e-04</internalNodes>
          <leafValues>
            -1.4712744951248169e-01 1.4796417951583862e-01</leafValues></_>
        <_>
          <internalNodes>
            0 -1 491 -1.3828730583190918e-01</internalNodes>
          <leafValues>
            4.3159487843513489e-01 -5.4470553994178772e-02</leafValues></_>
        <_>
          <internalNodes>
            0 -1 490 -1.7752902582287788e-02</internalNodes>
          <leafValues>
            -8.1010937690734863e-01 3.1059877946972847e-02</leafValues></_>
        <_>
          <internalNodes>
            0 -1 467 2.1979346871376038e-02</internalNodes>
          <leafValues>
            -1.1787275224924088e-01 2.1658609807491302e-01</leafValues></_>
        <_>
          <internalNodes>
            0 -1 502 -1.0507868602871895e-02</internalNodes>
          <leafValues>
            -7.4460351467132568e-01 3.1392343342304230e-02</leafValues></_>
        <_>
          <internalNodes>
            0 -1 465 1.7909843474626541e-02</internalNodes>
          <leafValues>
            5.5179804563522339e-02 -3.7227985262870789e-01</leafValues></_>
        <_>
          <internalNodes>
            0 -1 464 -4.3635517358779907e-03</internalNodes>
          <leafValues>
            3.4169575572013855e-01 -7.7468127012252808e-02</leafValues></_>
        <_>
          <internalNodes>
            0 -1 48 2.4190451949834824e-03</internalNodes>
          <leafValues>
            -2.6438546180725098e-01 1.0031254589557648e-01</leafValues></_>
        <_>
          <internalNodes>
            0 -1 153 -2.3987569147720933e-04</internalNodes>
          <leafValues>
            1.6051240265369415e-01 -1.5775005519390106e-01</leafValues></_>
        <_>
          <internalNodes>
            0 -1 83 -7.2191879153251648e-03</internalNodes>
          <leafValues>
            -4.4657278060913086e-01 5.3926505148410797e-02</leafValues></_>
        <_>
          <internalNodes>
            0 -1 4 -1.7489811405539513e-02</internalNodes>
          <leafValues>
            2.7983203530311584e-01 -8.9470364153385162e-02</leafValues></_>
        <_>
          <internalNodes>
            0 -1 188 -4.0140519849956036e-03</internalNodes>
          <leafValues>
            -2.9624864459037781e-01 8.3630107343196869e-02</leafValues></_>
        <_>
          <internalNodes>
            0 -1 298 -6.7726531997323036e-03</internalNodes>
          <leafValues>
            2.2768267989158630e-01 -1.0464024543762207e-01</leafValues></_>
        <_>
          <internalNodes>
            0 -1 323 -1.3171164318919182e-03</internalNodes>
          <leafValues>
            2.3618730902671814e-01 -9.9060915410518646e-02</leafValues></_>
        <_>
          <internalNodes>
            0 -1 143 -7.6173707842826843e-02</internalNodes>
          <leafValues>
            -9.0580485761165619e-02 2.4824704229831696e-01</leafValues></_>
        <_>
          <internalNodes>
            0 -1 59 7.8327599912881851e-03</internalNodes>
          <leafValues>
            5.0560124218463898e-02 -4.4769319891929626e-01</leafValues></_>
        <_>
          <internalNodes>
            0 -1 139 -2.3796487599611282e-02</internalNodes>
          <leafValues>
            3.6218348145484924e-01 -6.3955679535865784e-02</leafValues></_>
        <_>
          <internalNodes>
            0 -1 474 -3.8607921451330185e-02</internalNodes>
          <leafValues>
            3.8595193624496460e-01 -6.0583073645830154e-02</leafValues></_>
        <_>
          <internalNodes>
            0 -1 448 -1.0379482060670853e-02</internalNodes>
          <leafValues>
            -3.4631004929542542e-01 7.4059858918190002e-02</leafValues></_>
        <_>
          <internalNodes>
            0 -1 414 -2.0651677623391151e-03</internalNodes>
          <leafValues>
            1.5044839680194855e-01 -1.6259428858757019e-01</leafValues></_>
        <_>
          <internalNodes>
            0 -1 559 -2.6427807752043009e-03</internalNodes>
          <leafValues>
            3.3776026964187622e-01 -7.1288183331489563e-02</leafValues></_>
        <_>
          <internalNodes>
            0 -1 191 -3.5846654325723648e-02</internalNodes>
          <leafValues>
            -9.1007864475250244e-01 2.6139104738831520e-02</leafValues></_>
        <_>
          <internalNodes>
            0 -1 261 -5.2353583276271820e-02</internalNodes>
          <leafValues>
            -6.7037540674209595e-01 2.5468321517109871e-02</leafValues></_>
        <_>
          <internalNodes>
            0 -1 197 1.1192024685442448e-02</internalNodes>
          <leafValues>
            2.8522679582238197e-02 -6.1088526248931885e-01</leafValues></_>
        <_>
          <internalNodes>
            0 -1 337 -4.4494651257991791e-02</internalNodes>
          <leafValues>
            3.7222117185592651e-01 -6.3606202602386475e-02</leafValues></_>
        <_>
          <internalNodes>
            0 -1 182 8.7912031449377537e-04</internalNodes>
          <leafValues>
            -1.9598284363746643e-01 1.1583687365055084e-01</leafValues></_>
        <_>
          <internalNodes>
            0 -1 251 -2.4276752956211567e-03</internalNodes>
          <leafValues>
            2.2063407301902771e-01 -1.0594807565212250e-01</leafValues></_>
        <_>
          <internalNodes>
            0 -1 473 -1.1839986545965075e-03</internalNodes>
          <leafValues>
            2.2143696248531342e-01 -9.9811792373657227e-02</leafValues></_>
        <_>
          <internalNodes>
            0 -1 615 2.7735021430999041e-03</internalNodes>
          <leafValues>
            4.0147326886653900e-02 -5.5130195617675781e-01</leafValues></_>
        <_>
          <internalNodes>
            0 -1 488 -2.3208174388855696e-04</internalNodes>
          <leafValues>
            -1.4382669329643250e-01 1.8226575851440430e-01</leafValues></_>
        <_>
          <internalNodes>
            0 -1 528 -8.3579905331134796e-03</internalNodes>
          <leafValues>
            3.0031833052635193e-01 -1.0102719068527222e-01</leafValues></_>
        <_>
          <internalNodes>
            0 -1 272 6.4261020161211491e-03</internalNodes>
          <leafValues>
            -9.2760778963565826e-02 2.7624893188476563e-01</leafValues></_>
        <_>
          <internalNodes>
            0 -1 160 -1.2469802051782608e-02</internalNodes>
          <leafValues>
            -8.4413540363311768e-01 2.8033988550305367e-02</leafValues></_>
        <_>
          <internalNodes>
            0 -1 571 -9.3918517231941223e-03</internalNodes>
          <leafValues>
            1.9814072549343109e-01 -1.0899447649717331e-01</leafValues></_>
        <_>
          <internalNodes>
            0 -1 607 -2.6925266720354557e-03</internalNodes>
          <leafValues>
            -5.6727808713912964e-01 4.1238542646169662e-02</leafValues></_>
        <_>
          <internalNodes>
            0 -1 166 7.1212992072105408e-02</internalNodes>
          <leafValues>
            1.9117351621389389e-02 -8.7820094823837280e-01</leafValues></_>
        <_>
          <internalNodes>
            0 -1 82 5.4147848859429359e-03</internalNodes>
          <leafValues>
            1.7136540263891220e-02 -8.3375161886215210e-01</leafValues></_>
        <_>
          <internalNodes>
            0 -1 138 -9.9186271429061890e-02</internalNodes>
          <leafValues>
            -7.9872590303421021e-01 1.8866406753659248e-02</leafValues></_>
        <_>
          <internalNodes>
            0 -1 276 -5.6347537785768509e-02</internalNodes>
          <leafValues>
            4.2732280492782593e-01 -5.3026854991912842e-02</leafValues></_>
        <_>
          <internalNodes>
            0 -1 7 -2.4403317365795374e-03</internalNodes>
          <leafValues>
            -2.5555083528161049e-02 6.8231719732284546e-01</leafValues></_>
        <_>
          <internalNodes>
            0 -1 501 5.5396240204572678e-03</internalNodes>
          <leafValues>
            2.4854108691215515e-02 -9.5217323303222656e-01</leafValues></_>
        <_>
          <internalNodes>
            0 -1 244 1.5494017861783504e-02</internalNodes>
          <leafValues>
            -6.4992740750312805e-02 3.4198316931724548e-01</leafValues></_>
        <_>
          <internalNodes>
            0 -1 237 3.5132151097059250e-03</internalNodes>
          <leafValues>
            -9.0494744479656219e-02 2.8091046214103699e-01</leafValues></_>
        <_>
          <internalNodes>
            0 -1 153 -7.1711651980876923e-03</internalNodes>
          <leafValues>
            -7.7980399131774902e-01 2.8964400291442871e-02</leafValues></_>
        <_>
          <internalNodes>
            0 -1 67 -7.9236766323447227e-03</internalNodes>
          <leafValues>
            -5.7009845972061157e-01 2.6885462924838066e-02</leafValues></_>
        <_>
          <internalNodes>
            0 -1 14 -5.8777723461389542e-02</internalNodes>
          <leafValues>
            4.1783455014228821e-01 -4.9486503005027771e-02</leafValues></_>
        <_>
          <internalNodes>
            0 -1 33 -1.3885650783777237e-02</internalNodes>
          <leafValues>
            -1. 2.3154832422733307e-02</leafValues></_>
        <_>
          <internalNodes>
            0 -1 429 1.0163305699825287e-01</internalNodes>
          <leafValues>
            -9.9052660167217255e-02 2.1053862571716309e-01</leafValues></_>
        <_>
          <internalNodes>
            0 -1 494 2.5923063978552818e-02</internalNodes>
          <leafValues>
            4.2655751109123230e-02 -6.2365067005157471e-01</leafValues></_>
        <_>
          <internalNodes>
            0 -1 447 9.5670688897371292e-03</internalNodes>
          <leafValues>
            2.4987269192934036e-02 -6.9471007585525513e-01</leafValues></_>
        <_>
          <internalNodes>
            0 -1 223 -2.2208601236343384e-01</internalNodes>
          <leafValues>
            -5.8326953649520874e-01 2.7226200327277184e-02</leafValues></_>
        <_>
          <internalNodes>
            0 -1 311 -1.0808544233441353e-02</internalNodes>
          <leafValues>
            2.4827682971954346e-01 -8.4808751940727234e-02</leafValues></_>
        <_>
          <internalNodes>
            0 -1 364 1.2933667749166489e-02</internalNodes>
          <leafValues>
            -1.0729368031024933e-01 2.2279630601406097e-01</leafValues></_>
        <_>
          <internalNodes>
            0 -1 316 3.4946132451295853e-02</internalNodes>
          <leafValues>
            5.9319011867046356e-02 -3.6690172553062439e-01</leafValues></_>
        <_>
          <internalNodes>
            0 -1 96 3.8032340817153454e-03</internalNodes>
          <leafValues>
            4.2063642293214798e-02 -4.7910296916961670e-01</leafValues></_>
        <_>
          <internalNodes>
            0 -1 169 -1.3839953579008579e-02</internalNodes>
          <leafValues>
            4.0087622404098511e-01 -5.2753452211618423e-02</leafValues></_>
        <_>
          <internalNodes>
            0 -1 266 2.6383016258478165e-02</internalNodes>
          <leafValues>
            2.8049742802977562e-02 -7.6713359355926514e-01</leafValues></_>
        <_>
          <internalNodes>
            0 -1 314 3.6869025789201260e-03</internalNodes>
          <leafValues>
            -8.2251265645027161e-02 2.5533902645111084e-01</leafValues></_>
        <_>
          <internalNodes>
            0 -1 468 7.9925268888473511e-02</internalNodes>
          <leafValues>
            -2.4264300242066383e-02 7.7467423677444458e-01</leafValues></_>
        <_>
          <internalNodes>
            0 -1 554 9.9161416292190552e-03</internalNodes>
          <leafValues>
            3.5828132182359695e-02 -6.5879100561141968e-01</leafValues></_>
        <_>
          <internalNodes>
            0 -1 233 2.5214418768882751e-02</internalNodes>
          <leafValues>
            3.2462183386087418e-02 -5.2825284004211426e-01</leafValues></_>
        <_>
          <internalNodes>
            0 -1 462 -2.4299316108226776e-02</internalNodes>
          <leafValues>
            -9.2388689517974854e-01 1.6879141330718994e-02</leafValues></_>
        <_>
          <internalNodes>
            0 -1 111 2.6246830821037292e-03</internalNodes>
          <leafValues>
            6.9682680070400238e-02 -2.6744484901428223e-01</leafValues></_>
        <_>
          <internalNodes>
            0 -1 25 6.2840983271598816e-02</internalNodes>
          <leafValues>
            -3.9313066750764847e-02 5.4317498207092285e-01</leafValues></_>
        <_>
          <internalNodes>
            0 -1 181 -1.4325250685214996e-01</internalNodes>
          <leafValues>
            -8.0624890327453613e-01 2.8934026136994362e-02</leafValues></_>
        <_>
          <internalNodes>
            0 -1 592 4.4226692989468575e-04</internalNodes>
          <leafValues>
            7.5933061540126801e-02 -2.4620573222637177e-01</leafValues></_>
        <_>
          <internalNodes>
            0 -1 332 -8.2880053669214249e-03</internalNodes>
          <leafValues>
            3.0477979779243469e-01 -6.5065816044807434e-02</leafValues></_>
        <_>
          <internalNodes>
            0 -1 137 2.3833226412534714e-02</internalNodes>
          <leafValues>
            4.2153123766183853e-02 -5.3345876932144165e-01</leafValues></_>
        <_>
          <internalNodes>
            0 -1 428 2.6347525417804718e-03</internalNodes>
          <leafValues>
            -1.5413512289524078e-01 1.5015441179275513e-01</leafValues></_>
        <_>
          <internalNodes>
            0 -1 602 -1.5403151046484709e-03</internalNodes>
          <leafValues>
            -3.4200119972229004e-01 6.0648869723081589e-02</leafValues></_>
        <_>
          <internalNodes>
            0 -1 586 -5.2759340032935143e-03</internalNodes>
          <leafValues>
            2.0448085665702820e-01 -1.0428840667009354e-01</leafValues></_>
        <_>
          <internalNodes>
            0 -1 218 3.5407498478889465e-02</internalNodes>
          <leafValues>
            2.7136074379086494e-02 -7.4979323148727417e-01</leafValues></_></weakClassifiers></_>
    <!-- stage 5 -->
    <_>
      <maxWeakCount>100</maxWeakCount>
      <stageThreshold>-1.3184378147125244e+00</stageThreshold>
      <weakClassifiers>
        <_>
          <internalNodes>
            0 -1 372 -6.5199911594390869e-02</internalNodes>
          <leafValues>
            -6.5595179796218872e-01 -9.2647057771682739e-01</leafValues></_>
        <_>
          <internalNodes>
            0 -1 258 -1.6272416710853577e-01</internalNodes>
          <leafValues>
            -1.4335092902183533e-01 -7.8915476799011230e-01</leafValues></_>
        <_>
          <internalNodes>
            0 -1 325 -9.9187910556793213e-02</internalNodes>
          <leafValues>
            1.8120138347148895e-01 -2.1169324219226837e-01</leafValues></_>
        <_>
          <internalNodes>
            0 -1 307 -2.4535781703889370e-03</internalNodes>
          <leafValues>
            2.1066975593566895e-01 -1.7823892831802368e-01</leafValues></_>
        <_>
          <internalNodes>
            0 -1 8 1.8251843750476837e-02</internalNodes>
          <leafValues>
            -9.2278882861137390e-02 2.8433659672737122e-01</leafValues></_>
        <_>
          <internalNodes>
            0 -1 183 -3.5043342504650354e-03</internalNodes>
          <leafValues>
            -2.9741951823234558e-01 1.0957673937082291e-01</leafValues></_>
        <_>
          <internalNodes>
            0 -1 601 -2.6673693209886551e-03</internalNodes>
          <leafValues>
            -5.5529791116714478e-01 3.8232378661632538e-02</leafValues></_>
        <_>
          <internalNodes>
            0 -1 560 7.0025436580181122e-03</internalNodes>
          <leafValues>
            -1.1584327369928360e-01 2.2464217245578766e-01</leafValues></_>
        <_>
          <internalNodes>
            0 -1 574 -2.5425951927900314e-02</internalNodes>
          <leafValues>
            3.9375829696655273e-01 -7.1449585258960724e-02</leafValues></_>
        <_>
          <internalNodes>
            0 -1 171 3.5299168666824698e-04</internalNodes>
          <leafValues>
            -2.3845174908638000e-01 1.0570602864027023e-01</leafValues></_>
        <_>
          <internalNodes>
            0 -1 352 2.9970366507768631e-02</internalNodes>
          <leafValues>
            4.9436923116445541e-02 -5.0728082656860352e-01</leafValues></_>
        <_>
          <internalNodes>
            0 -1 95 5.3569069132208824e-03</internalNodes>
          <leafValues>
            6.6697917878627777e-02 -3.2822906970977783e-01</leafValues></_>
        <_>
          <internalNodes>
            0 -1 146 1.4908056706190109e-02</internalNodes>
          <leafValues>
            -8.0378927290439606e-02 3.0596032738685608e-01</leafValues></_>
        <_>
          <internalNodes>
            0 -1 331 1.4719482511281967e-02</internalNodes>
          <leafValues>
            5.0672609359025955e-02 -5.7836872339248657e-01</leafValues></_>
        <_>
          <internalNodes>
            0 -1 575 -8.0632448196411133e-02</internalNodes>
          <leafValues>
            4.5297607779502869e-01 -5.5990748107433319e-02</leafValues></_>
        <_>
          <internalNodes>
            0 -1 395 7.8321422915905714e-04</internalNodes>
          <leafValues>
            -1.7296986281871796e-01 1.3554324209690094e-01</leafValues></_>
        <_>
          <internalNodes>
            0 -1 173 -2.5030001997947693e-02</internalNodes>
          <leafValues>
            5.1639539003372192e-01 -4.0581494569778442e-02</leafValues></_>
        <_>
          <internalNodes>
            0 -1 492 -1.9316601101309061e-03</internalNodes>
          <leafValues>
            2.3590771853923798e-01 -9.8754860460758209e-02</leafValues></_>
        <_>
          <internalNodes>
            0 -1 281 -3.6245115101337433e-02</internalNodes>
          <leafValues>
            -1.3894550502300262e-01 1.4463429152965546e-01</leafValues></_>
        <_>
          <internalNodes>
            0 -1 79 5.4930639453232288e-03</internalNodes>
          <leafValues>
            1.9885668531060219e-02 -8.3176046609878540e-01</leafValues></_>
        <_>
          <internalNodes>
            0 -1 262 2.2092550061643124e-03</internalNodes>
          <leafValues>
            -7.9031817615032196e-02 2.7180764079093933e-01</leafValues></_>
        <_>
          <internalNodes>
            0 -1 211 5.8202075958251953e-01</internalNodes>
          <leafValues>
            -3.2526969909667969e-02 5.6854224205017090e-01</leafValues></_>
        <_>
          <internalNodes>
            0 -1 544 -1.0800013318657875e-02</internalNodes>
          <leafValues>
            -9.3855196237564087e-01 2.4196719750761986e-02</leafValues></_>
        <_>
          <internalNodes>
            0 -1 569 -8.9228525757789612e-03</internalNodes>
          <leafValues>
            -8.4362924098968506e-01 1.4563121832907200e-02</leafValues></_>
        <_>
          <internalNodes>
            0 -1 68 -1.4462338760495186e-02</internalNodes>
          <leafValues>
            2.3338448256254196e-02 -6.2556457519531250e-01</leafValues></_>
        <_>
          <internalNodes>
            0 -1 453 -2.7755247429013252e-03</internalNodes>
          <leafValues>
            1.0292933136224747e-01 -1.9142048060894012e-01</leafValues></_>
        <_>
          <internalNodes>
            0 -1 445 -1.7116395756602287e-03</internalNodes>
          <leafValues>
            2.8570392727851868e-01 -6.8630933761596680e-02</leafValues></_>
        <_>
          <internalNodes>
            0 -1 516 -8.0384276807308197e-03</internalNodes>
          <leafValues>
            -5.7024168968200684e-01 3.4579709172248840e-02</leafValues></_>
        <_>
          <internalNodes>
            0 -1 536 -1.4828520361334085e-03</internalNodes>
          <leafValues>
            1.6881737112998962e-01 -1.0631609708070755e-01</leafValues></_>
        <_>
          <internalNodes>
            0 -1 599 -4.5299781486392021e-03</internalNodes>
          <leafValues>
            -5.7627928256988525e-01 3.1418707221746445e-02</leafValues></_>
        <_>
          <internalNodes>
            0 -1 477 2.4791269097477198e-03</internalNodes>
          <leafValues>
            -7.9312272369861603e-02 2.4487110972404480e-01</leafValues></_>
        <_>
          <internalNodes>
            0 -1 329 8.2461070269346237e-03</internalNodes>
          <leafValues>
            -9.2589758336544037e-02 2.1835725009441376e-01</leafValues></_>
        <_>
          <internalNodes>
            0 -1 134 -1.7925426363945007e-02</internalNodes>
          <leafValues>
            2.7681729197502136e-01 -9.7475357353687286e-02</leafValues></_>
        <_>
          <internalNodes>
            0 -1 104 -1.2840280309319496e-02</internalNodes>
          <leafValues>
            -8.6370956897735596e-01 2.4458358064293861e-02</leafValues></_>
        <_>
          <internalNodes>
            0 -1 178 1.9626966677606106e-03</internalNodes>
          <leafValues>
            -8.1904403865337372e-02 2.5112831592559814e-01</leafValues></_>
        <_>
          <internalNodes>
            0 -1 510 -1.0496523231267929e-02</internalNodes>
          <leafValues>
            -9.7905540466308594e-01 1.8233757466077805e-02</leafValues></_>
        <_>
          <internalNodes>
            0 -1 98 -1.3357113115489483e-02</internalNodes>
          <leafValues>
            -6.3330996036529541e-01 2.0876577123999596e-02</leafValues></_>
        <_>
          <internalNodes>
            0 -1 108 -1.2195164337754250e-02</internalNodes>
          <leafValues>
            -3.3974856138229370e-02 5.6700205802917480e-01</leafValues></_>
        <_>
          <internalNodes>
            0 -1 243 -5.4253963753581047e-03</internalNodes>
          <leafValues>
            3.3835850656032562e-02 -5.9665119647979736e-01</leafValues></_>
        <_>
          <internalNodes>
            0 -1 41 -4.8496961593627930e-02</internalNodes>
          <leafValues>
            4.3754908442497253e-01 -4.8336483538150787e-02</leafValues></_>
        <_>
          <internalNodes>
            0 -1 103 5.7377154007554054e-03</internalNodes>
          <leafValues>
            -1.7173926532268524e-01 1.2715966999530792e-01</leafValues></_>
        <_>
          <internalNodes>
            0 -1 263 5.2318321540951729e-03</internalNodes>
          <leafValues>
            8.6928851902484894e-02 -2.4242387712001801e-01</leafValues></_>
        <_>
          <internalNodes>
            0 -1 172 1.5566715970635414e-02</internalNodes>
          <leafValues>
            -1.1345991492271423e-01 1.6677528619766235e-01</leafValues></_>
        <_>
          <internalNodes>
            0 -1 594 5.5834697559475899e-03</internalNodes>
          <leafValues>
            2.9929418116807938e-02 -5.6910443305969238e-01</leafValues></_>
        <_>
          <internalNodes>
            0 -1 375 2.8731510974466801e-03</internalNodes>
          <leafValues>
            -1.0577417165040970e-01 1.7391744256019592e-01</leafValues></_>
        <_>
          <internalNodes>
            0 -1 481 9.0771187096834183e-03</internalNodes>
          <leafValues>
            -5.3830221295356750e-02 4.0716165304183960e-01</leafValues></_>
        <_>
          <internalNodes>
            0 -1 434 -1.7280325293540955e-01</internalNodes>
          <leafValues>
            4.1483041644096375e-01 -4.1392564773559570e-02</leafValues></_>
        <_>
          <internalNodes>
            0 -1 376 -2.0981017500162125e-02</internalNodes>
          <leafValues>
            -3.9221659302711487e-01 5.5272102355957031e-02</leafValues></_>
        <_>
          <internalNodes>
            0 -1 523 -4.4337250292301178e-03</internalNodes>
          <leafValues>
            -1.6310137510299683e-01 1.2817431986331940e-01</leafValues></_>
        <_>
          <internalNodes>
            0 -1 204 -6.0923926532268524e-02</internalNodes>
          <leafValues>
            5.4369223117828369e-01 -3.6627348512411118e-02</leafValues></_>
        <_>
          <internalNodes>
            0 -1 282 6.4432024955749512e-03</internalNodes>
          <leafValues>
            -7.9138569533824921e-02 2.2304318845272064e-01</leafValues></_>
        <_>
          <internalNodes>
            0 -1 252 -7.8383218497037888e-03</internalNodes>
          <leafValues>
            -5.3191304206848145e-01 3.5618398338556290e-02</leafValues></_>
        <_>
          <internalNodes>
            0 -1 458 -7.8774709254503250e-03</internalNodes>
          <leafValues>
            1.5968267619609833e-01 -1.0885648429393768e-01</leafValues></_>
        <_>
          <internalNodes>
            0 -1 526 6.7263073287904263e-04</internalNodes>
          <leafValues>
            1.0711754113435745e-01 -1.9139541685581207e-01</leafValues></_>
        <_>
          <internalNodes>
            0 -1 506 -4.1576549410820007e-03</internalNodes>
          <leafValues>
            -3.9662280678749084e-01 4.3243948370218277e-02</leafValues></_>
        <_>
          <internalNodes>
            0 -1 317 -1.4549164916388690e-04</internalNodes>
          <leafValues>
            1.4767611026763916e-01 -1.2031504511833191e-01</leafValues></_>
        <_>
          <internalNodes>
            0 -1 147 -1.4973565936088562e-01</internalNodes>
          <leafValues>
            1.8893195688724518e-01 -1.1024337261915207e-01</leafValues></_>
        <_>
          <internalNodes>
            0 -1 500 1.9864242523908615e-02</internalNodes>
          <leafValues>
            -1.5865945816040039e-01 1.4131955802440643e-01</leafValues></_>
        <_>
          <internalNodes>
            0 -1 405 -1.0860264301300049e-01</internalNodes>
          <leafValues>
            9.2472636699676514e-01 -1.8113711848855019e-02</leafValues></_>
        <_>
          <internalNodes>
            0 -1 164 4.9631460569798946e-03</internalNodes>
          <leafValues>
            3.3367082476615906e-02 -6.5808695554733276e-01</leafValues></_>
        <_>
          <internalNodes>
            0 -1 4 -3.8262516260147095e-02</internalNodes>
          <leafValues>
            3.5959425568580627e-01 -5.2862934768199921e-02</leafValues></_>
        <_>
          <internalNodes>
            0 -1 416 1.7635165713727474e-03</internalNodes>
          <leafValues>
            8.7789222598075867e-02 -2.5119945406913757e-01</leafValues></_>
        <_>
          <internalNodes>
            0 -1 221 -6.1972983181476593e-02</internalNodes>
          <leafValues>
            2.8947487473487854e-01 -6.1754569411277771e-02</leafValues></_>
        <_>
          <internalNodes>
            0 -1 46 1.1626492440700531e-01</internalNodes>
          <leafValues>
            2.9561249539256096e-02 -6.2409919500350952e-01</leafValues></_>
        <_>
          <internalNodes>
            0 -1 404 3.8865406531840563e-03</internalNodes>
          <leafValues>
            2.7916815131902695e-02 -5.3970050811767578e-01</leafValues></_>
        <_>
          <internalNodes>
            0 -1 489 4.1519328951835632e-03</internalNodes>
          <leafValues>
            -4.6934604644775391e-02 4.0858319401741028e-01</leafValues></_>
        <_>
          <internalNodes>
            0 -1 608 6.7533424589782953e-04</internalNodes>
          <leafValues>
            6.6251657903194427e-02 -2.9058757424354553e-01</leafValues></_>
        <_>
          <internalNodes>
            0 -1 519 8.4283426403999329e-02</internalNodes>
          <leafValues>
            -2.9087407514452934e-02 6.6802340745925903e-01</leafValues></_>
        <_>
          <internalNodes>
            0 -1 335 7.0899285376071930e-02</internalNodes>
          <leafValues>
            -6.6258825361728668e-02 2.7488517761230469e-01</leafValues></_>
        <_>
          <internalNodes>
            0 -1 300 -2.2962447255849838e-02</internalNodes>
          <leafValues>
            2.1802547574043274e-01 -8.0208398401737213e-02</leafValues></_>
        <_>
          <internalNodes>
            0 -1 360 -1.0150231420993805e-02</internalNodes>
          <leafValues>
            1.9230291247367859e-01 -9.4703182578086853e-02</leafValues></_>
        <_>
          <internalNodes>
            0 -1 504 6.1000183224678040e-02</internalNodes>
          <leafValues>
            2.3854734376072884e-02 -7.8976702690124512e-01</leafValues></_>
        <_>
          <internalNodes>
            0 -1 526 -8.1350759137421846e-04</internalNodes>
          <leafValues>
            -2.5299715995788574e-01 6.7068062722682953e-02</leafValues></_>
        <_>
          <internalNodes>
            0 -1 97 -1.2017064541578293e-01</internalNodes>
          <leafValues>
            2.0532807335257530e-02 -7.6122134923934937e-01</leafValues></_>
        <_>
          <internalNodes>
            0 -1 287 2.5602407753467560e-02</internalNodes>
          <leafValues>
            2.3783927783370018e-02 -6.8881577253341675e-01</leafValues></_>
        <_>
          <internalNodes>
            0 -1 439 1.1890365276485682e-03</internalNodes>
          <leafValues>
            -8.7883755564689636e-02 2.2345995903015137e-01</leafValues></_>
        <_>
          <internalNodes>
            0 -1 202 -2.5995958596467972e-02</internalNodes>
          <leafValues>
            -7.6926726102828979e-01 2.4183554574847221e-02</leafValues></_>
        <_>
          <internalNodes>
            0 -1 357 2.4978213012218475e-02</internalNodes>
          <leafValues>
            -8.9384548366069794e-02 1.9981579482555389e-01</leafValues></_>
        <_>
          <internalNodes>
            0 -1 408 -6.8445311626419425e-04</internalNodes>
          <leafValues>
            1.4130105078220367e-01 -1.4185045659542084e-01</leafValues></_>
        <_>
          <internalNodes>
            0 -1 159 1.4814910292625427e-01</internalNodes>
          <leafValues>
            3.2567910850048065e-02 -5.6188285350799561e-01</leafValues></_>
        <_>
          <internalNodes>
            0 -1 237 1.8583370838314295e-03</internalNodes>
          <leafValues>
            -9.6713073551654816e-02 1.8568834662437439e-01</leafValues></_>
        <_>
          <internalNodes>
            0 -1 167 3.2330319285392761e-02</internalNodes>
          <leafValues>
            -1.0995072871446609e-01 1.8637387454509735e-01</leafValues></_>
        <_>
          <internalNodes>
            0 -1 119 -7.9935975372791290e-04</internalNodes>
          <leafValues>
            -2.6321426033973694e-01 6.5429531037807465e-02</leafValues></_>
        <_>
          <internalNodes>
            0 -1 392 2.7761671692132950e-02</internalNodes>
          <leafValues>
            1.6429251059889793e-02 -9.2021900415420532e-01</leafValues></_>
        <_>
          <internalNodes>
            0 -1 294 2.6036826893687248e-03</internalNodes>
          <leafValues>
            -1.2932196259498596e-01 1.2859821319580078e-01</leafValues></_>
        <_>
          <internalNodes>
            0 -1 390 4.9994602799415588e-01</internalNodes>
          <leafValues>
            -3.0619179829955101e-02 6.1606031656265259e-01</leafValues></_>
        <_>
          <internalNodes>
            0 -1 340 2.9374688863754272e-01</internalNodes>
          <leafValues>
            -2.2776177152991295e-02 6.3697540760040283e-01</leafValues></_>
        <_>
          <internalNodes>
            0 -1 461 5.0651784986257553e-03</internalNodes>
          <leafValues>
            7.2482265532016754e-02 -3.0099093914031982e-01</leafValues></_>
        <_>
          <internalNodes>
            0 -1 411 -1.8572621047496796e-03</internalNodes>
          <leafValues>
            2.7569776773452759e-01 -7.1211077272891998e-02</leafValues></_>
        <_>
          <internalNodes>
            0 -1 367 -2.8941664844751358e-02</internalNodes>
          <leafValues>
            -5.1766693592071533e-01 3.3874794840812683e-02</leafValues></_>
        <_>
          <internalNodes>
            0 -1 517 -4.8137022531591356e-04</internalNodes>
          <leafValues>
            1.5414290130138397e-01 -1.1349668353796005e-01</leafValues></_>
        <_>
          <internalNodes>
            0 -1 518 -4.9805361777544022e-03</internalNodes>
          <leafValues>
            3.8620725274085999e-01 -4.7704245895147324e-02</leafValues></_>
        <_>
          <internalNodes>
            0 -1 450 -2.8063699603080750e-02</internalNodes>
          <leafValues>
            -2.6189893484115601e-01 7.1727469563484192e-02</leafValues></_>
        <_>
          <internalNodes>
            0 -1 256 -2.2097568958997726e-02</internalNodes>
          <leafValues>
            1.8760383129119873e-01 -1.0237853974103928e-01</leafValues></_>
        <_>
          <internalNodes>
            0 -1 245 -5.3390813991427422e-03</internalNodes>
          <leafValues>
            -5.8844125270843506e-01 3.3710755407810211e-02</leafValues></_>
        <_>
          <internalNodes>
            0 -1 532 -1.5242523513734341e-02</internalNodes>
          <leafValues>
            5.9164279699325562e-01 -3.4562222659587860e-02</leafValues></_>
        <_>
          <internalNodes>
            0 -1 114 2.4176957085728645e-03</internalNodes>
          <leafValues>
            4.1078519076108932e-02 -4.5105755329132080e-01</leafValues></_>
        <_>
          <internalNodes>
            0 -1 106 3.3267170190811157e-02</internalNodes>
          <leafValues>
            -7.7812187373638153e-02 2.2260877490043640e-01</leafValues></_>
        <_>
          <internalNodes>
            0 -1 452 -1.0600984096527100e-03</internalNodes>
          <leafValues>
            9.0538248419761658e-02 -1.9524222612380981e-01</leafValues></_>
        <_>
          <internalNodes>
            0 -1 339 9.0703941881656647e-02</internalNodes>
          <leafValues>
            -3.0203625559806824e-02 5.5970048904418945e-01</leafValues></_></weakClassifiers></_>
    <!-- stage 6 -->
    <_>
      <maxWeakCount>100</maxWeakCount>
      <stageThreshold>-1.3360528945922852e+00</stageThreshold>
      <weakClassifiers>
        <_>
          <internalNodes>
            0 -1 280 1.0094390017911792e-03</internalNodes>
          <leafValues>
            -7.5860834121704102e-01 -1.1494252830743790e-01</leafValues></_>
        <_>
          <internalNodes>
            0 -1 19 2.8655299916863441e-02</internalNodes>
          <leafValues>
            -3.5314312577247620e-01 9.8646290600299835e-02</leafValues></_>
        <_>
          <internalNodes>
            0 -1 124 -7.6379641890525818e-02</internalNodes>
          <leafValues>
            1.9344183802604675e-01 -1.5305532515048981e-01</leafValues></_>
        <_>
          <internalNodes>
            0 -1 129 -5.8050319552421570e-02</internalNodes>
          <leafValues>
            -7.2817742824554443e-01 3.1767178326845169e-02</leafValues></_>
        <_>
          <internalNodes>
            0 -1 368 1.4160289429128170e-03</internalNodes>
          <leafValues>
            -2.4160763621330261e-01 9.3745723366737366e-02</leafValues></_>
        <_>
          <internalNodes>
            0 -1 572 5.5721387267112732e-02</internalNodes>
          <leafValues>
            -4.9479112029075623e-02 4.7917571663856506e-01</leafValues></_>
        <_>
          <internalNodes>
            0 -1 22 -2.9860250651836395e-03</internalNodes>
          <leafValues>
            2.9450538754463196e-01 -7.6082408428192139e-02</leafValues></_>
        <_>
          <internalNodes>
            0 -1 87 1.2267278507351875e-03</internalNodes>
          <leafValues>
            1.0559934377670288e-01 -3.1850266456604004e-01</leafValues></_>
        <_>
          <internalNodes>
            0 -1 87 -8.8664575014263391e-04</internalNodes>
          <leafValues>
            -2.7342393994331360e-01 6.3810318708419800e-02</leafValues></_>
        <_>
          <internalNodes>
            0 -1 470 -1.4955181395635009e-03</internalNodes>
          <leafValues>
            1.9969749450683594e-01 -1.0369430482387543e-01</leafValues></_>
        <_>
          <internalNodes>
            0 -1 268 1.0827688127756119e-01</internalNodes>
          <leafValues>
            -6.8000055849552155e-02 3.3368241786956787e-01</leafValues></_>
        <_>
          <internalNodes>
            0 -1 198 2.3862838745117188e-02</internalNodes>
          <leafValues>
            -5.0988137722015381e-02 4.0252527594566345e-01</leafValues></_>
        <_>
          <internalNodes>
            0 -1 607 6.7748967558145523e-04</internalNodes>
          <leafValues>
            8.2760073244571686e-02 -2.8784757852554321e-01</leafValues></_>
        <_>
          <internalNodes>
            0 -1 72 -5.6599706411361694e-02</internalNodes>
          <leafValues>
            2.8071665763854980e-01 -7.1481555700302124e-02</leafValues></_>
        <_>
          <internalNodes>
            0 -1 58 1.2412743642926216e-02</internalNodes>
          <leafValues>
            -1.1751157790422440e-01 1.8914069235324860e-01</leafValues></_>
        <_>
          <internalNodes>
            0 -1 176 -6.0166564071550965e-04</internalNodes>
          <leafValues>
            1.8089458346366882e-01 -9.9697753787040710e-02</leafValues></_>
        <_>
          <internalNodes>
            0 -1 608 -1.1023458791896701e-03</internalNodes>
          <leafValues>
            -2.9505482316017151e-01 6.2692999839782715e-02</leafValues></_>
        <_>
          <internalNodes>
            0 -1 49 2.8708152472972870e-02</internalNodes>
          <leafValues>
            -1.5252764523029327e-01 1.2302273511886597e-01</leafValues></_>
        <_>
          <internalNodes>
            0 -1 419 -1.2512072920799255e-02</internalNodes>
          <leafValues>
            2.4283903837203979e-01 -8.3175480365753174e-02</leafValues></_>
        <_>
          <internalNodes>
            0 -1 306 -2.2931528091430664e-01</internalNodes>
          <leafValues>
            4.1775253415107727e-01 -4.5060347765684128e-02</leafValues></_>
        <_>
          <internalNodes>
            0 -1 284 5.9187524020671844e-02</internalNodes>
          <leafValues>
            -4.6469561755657196e-02 3.9842674136161804e-01</leafValues></_>
        <_>
          <internalNodes>
            0 -1 208 1.4022096991539001e-01</internalNodes>
          <leafValues>
            2.5399871170520782e-02 -8.7969774007797241e-01</leafValues></_>
        <_>
          <internalNodes>
            0 -1 463 -4.2200829833745956e-02</internalNodes>
          <leafValues>
            3.9305299520492554e-01 -5.3363442420959473e-02</leafValues></_>
        <_>
          <internalNodes>
            0 -1 31 -7.0559218525886536e-02</internalNodes>
          <leafValues>
            -9.3877494335174561e-01 2.6234183460474014e-02</leafValues></_>
        <_>
          <internalNodes>
            0 -1 126 1.6033818945288658e-02</internalNodes>
          <leafValues>
            2.9758764430880547e-02 -4.5337378978729248e-01</leafValues></_>
        <_>
          <internalNodes>
            0 -1 485 -8.3232475444674492e-03</internalNodes>
          <leafValues>
            -3.8709542155265808e-01 4.3779116123914719e-02</leafValues></_>
        <_>
          <internalNodes>
            0 -1 540 2.0033065229654312e-03</internalNodes>
          <leafValues>
            -1.3174192607402802e-01 1.2545295059680939e-01</leafValues></_>
        <_>
          <internalNodes>
            0 -1 584 5.9487735852599144e-03</internalNodes>
          <leafValues>
            3.7152968347072601e-02 -4.9098756909370422e-01</leafValues></_>
        <_>
          <internalNodes>
            0 -1 413 4.0117427706718445e-03</internalNodes>
          <leafValues>
            -7.9526074230670929e-02 2.3706799745559692e-01</leafValues></_>
        <_>
          <internalNodes>
            0 -1 105 5.1694162189960480e-02</internalNodes>
          <leafValues>
            4.7755122184753418e-02 -4.7284767031669617e-01</leafValues></_>
        <_>
          <internalNodes>
            0 -1 116 6.9402903318405151e-03</internalNodes>
          <leafValues>
            -1.5652097761631012e-01 1.4058464765548706e-01</leafValues></_>
        <_>
          <internalNodes>
            0 -1 127 -8.2728162407875061e-02</internalNodes>
          <leafValues>
            2.2543111443519592e-01 -9.0865686535835266e-02</leafValues></_>
        <_>
          <internalNodes>
            0 -1 140 -2.5393385440111160e-02</internalNodes>
          <leafValues>
            3.2252600789070129e-01 -5.9090740978717804e-02</leafValues></_>
        <_>
          <internalNodes>
            0 -1 584 -6.3079302199184895e-03</internalNodes>
          <leafValues>
            -7.5203281641006470e-01 2.5440895929932594e-02</leafValues></_>
        <_>
          <internalNodes>
            0 -1 219 1.7515309154987335e-03</internalNodes>
          <leafValues>
            -1.2642870843410492e-01 1.5036912262439728e-01</leafValues></_>
        <_>
          <internalNodes>
            0 -1 289 1.0006475448608398e-01</internalNodes>
          <leafValues>
            2.5978179648518562e-02 -7.3594051599502563e-01</leafValues></_>
        <_>
          <internalNodes>
            0 -1 200 4.9758218228816986e-03</internalNodes>
          <leafValues>
            -6.8850018084049225e-02 2.9036310315132141e-01</leafValues></_>
        <_>
          <internalNodes>
            0 -1 174 -1.2336567044258118e-02</internalNodes>
          <leafValues>
            -8.3077257871627808e-01 2.4389654397964478e-02</leafValues></_>
        <_>
          <internalNodes>
            0 -1 362 1.9425526261329651e-03</internalNodes>
          <leafValues>
            -9.2515148222446442e-02 2.3144753277301788e-01</leafValues></_>
        <_>
          <internalNodes>
            0 -1 232 -1.7257789149880409e-03</internalNodes>
          <leafValues>
            -2.0496807992458344e-01 8.6073152720928192e-02</leafValues></_>
        <_>
          <internalNodes>
            0 -1 480 -2.1319175139069557e-03</internalNodes>
          <leafValues>
            2.1478316187858582e-01 -8.4419384598731995e-02</leafValues></_>
        <_>
          <internalNodes>
            0 -1 240 -1.2796470522880554e-01</internalNodes>
          <leafValues>
            -4.4054427742958069e-01 4.0359422564506531e-02</leafValues></_>
        <_>
          <internalNodes>
            0 -1 596 -2.3076704237610102e-03</internalNodes>
          <leafValues>
            -3.4963831305503845e-01 4.2289454489946365e-02</leafValues></_>
        <_>
          <internalNodes>
            0 -1 573 -3.8076769560575485e-03</internalNodes>
          <leafValues>
            4.0037915110588074e-01 -4.5404348522424698e-02</leafValues></_>
        <_>
          <internalNodes>
            0 -1 201 2.1888703107833862e-02</internalNodes>
          <leafValues>
            2.6200396940112114e-02 -6.5427607297897339e-01</leafValues></_>
        <_>
          <internalNodes>
            0 -1 336 -4.8785209655761719e-02</internalNodes>
          <leafValues>
            2.1024712920188904e-01 -8.0131486058235168e-02</leafValues></_>
        <_>
          <internalNodes>
            0 -1 339 5.9979949146509171e-02</internalNodes>
          <leafValues>
            -4.5388359576463699e-02 3.4845384955406189e-01</leafValues></_>
        <_>
          <internalNodes>
            0 -1 430 1.1858548037707806e-02</internalNodes>
          <leafValues>
            3.1020697206258774e-02 -5.5850142240524292e-01</leafValues></_>
        <_>
          <internalNodes>
            0 -1 196 -1.6126643167808652e-03</internalNodes>
          <leafValues>
            6.1097439378499985e-02 -2.6114654541015625e-01</leafValues></_>
        <_>
          <internalNodes>
            0 -1 81 3.6678442358970642e-01</internalNodes>
          <leafValues>
            -3.2844327390193939e-02 6.4240920543670654e-01</leafValues></_>
        <_>
          <internalNodes>
            0 -1 570 -3.3739111386239529e-03</internalNodes>
          <leafValues>
            3.2841265201568604e-01 -5.0433009862899780e-02</leafValues></_>
        <_>
          <internalNodes>
            0 -1 112 -2.2368147969245911e-02</internalNodes>
          <leafValues>
            -5.7843631505966187e-01 2.9701963067054749e-02</leafValues></_>
        <_>
          <internalNodes>
            0 -1 444 -1.4907249715179205e-03</internalNodes>
          <leafValues>
            2.6391023397445679e-01 -6.9302238523960114e-02</leafValues></_>
        <_>
          <internalNodes>
            0 -1 179 4.4196411967277527e-02</internalNodes>
          <leafValues>
            -3.0035629868507385e-02 5.5771589279174805e-01</leafValues></_>
        <_>
          <internalNodes>
            0 -1 420 -4.3101544724777341e-04</internalNodes>
          <leafValues>
            -1.3327731192111969e-01 1.2614546716213226e-01</leafValues></_>
        <_>
          <internalNodes>
            0 -1 459 -7.8539755195379257e-03</internalNodes>
          <leafValues>
            4.0623062849044800e-01 -5.4063498973846436e-02</leafValues></_>
        <_>
          <internalNodes>
            0 -1 28 -1.7009288072586060e-02</internalNodes>
          <leafValues>
            -3.4016009420156479e-02 4.8134684562683105e-01</leafValues></_>
        <_>
          <internalNodes>
            0 -1 358 7.2552502155303955e-02</internalNodes>
          <leafValues>
            -3.3571254462003708e-02 4.6301189064979553e-01</leafValues></_>
        <_>
          <internalNodes>
            0 -1 257 -3.7560972571372986e-01</internalNodes>
          <leafValues>
            5.8459532260894775e-01 -2.8413016349077225e-02</leafValues></_>
        <_>
          <internalNodes>
            0 -1 514 -1.1144189164042473e-02</internalNodes>
          <leafValues>
            -7.8940725326538086e-01 2.6118895038962364e-02</leafValues></_>
        <_>
          <internalNodes>
            0 -1 16 -2.6297357678413391e-01</internalNodes>
          <leafValues>
            4.3422675132751465e-01 -4.3202243745326996e-02</leafValues></_>
        <_>
          <internalNodes>
            0 -1 377 4.3087188154459000e-02</internalNodes>
          <leafValues>
            3.9170689880847931e-02 -4.5890629291534424e-01</leafValues></_>
        <_>
          <internalNodes>
            0 -1 558 2.1266220137476921e-03</internalNodes>
          <leafValues>
            -6.8182513117790222e-02 2.6566800475120544e-01</leafValues></_>
        <_>
          <internalNodes>
            0 -1 550 5.0955628976225853e-03</internalNodes>
          <leafValues>
            -7.7631093561649323e-02 2.1183878183364868e-01</leafValues></_>
        <_>
          <internalNodes>
            0 -1 52 -8.0991245806217194e-02</internalNodes>
          <leafValues>
            -3.7740045785903931e-01 4.2875692248344421e-02</leafValues></_>
        <_>
          <internalNodes>
            0 -1 20 2.0045536756515503e-01</internalNodes>
          <leafValues>
            -7.9109720885753632e-02 2.1861460804939270e-01</leafValues></_>
        <_>
          <internalNodes>
            0 -1 218 8.6402669548988342e-03</internalNodes>
          <leafValues>
            7.9495273530483246e-02 -2.3204636573791504e-01</leafValues></_>
        <_>
          <internalNodes>
            0 -1 10 -3.5069208592176437e-02</internalNodes>
          <leafValues>
            3.5231065750122070e-01 -5.0797365605831146e-02</leafValues></_>
        <_>
          <internalNodes>
            0 -1 214 7.1057486347854137e-03</internalNodes>
          <leafValues>
            -5.4221428930759430e-02 3.2364848256111145e-01</leafValues></_>
        <_>
          <internalNodes>
            0 -1 456 -2.2817060351371765e-02</internalNodes>
          <leafValues>
            -6.0609954595565796e-01 3.1058967113494873e-02</leafValues></_>
        <_>
          <internalNodes>
            0 -1 50 6.9142356514930725e-03</internalNodes>
          <leafValues>
            3.2190941274166107e-02 -4.6640557050704956e-01</leafValues></_>
        <_>
          <internalNodes>
            0 -1 415 -8.9119076728820801e-02</internalNodes>
          <leafValues>
            1.7388805747032166e-01 -9.3901276588439941e-02</leafValues></_>
        <_>
          <internalNodes>
            0 -1 496 -3.2605037093162537e-02</internalNodes>
          <leafValues>
            2.8361725807189941e-01 -5.7127140462398529e-02</leafValues></_>
        <_>
          <internalNodes>
            0 -1 459 -3.7328689359128475e-04</internalNodes>
          <leafValues>
            -1.2248476594686508e-01 1.3122394680976868e-01</leafValues></_>
        <_>
          <internalNodes>
            0 -1 242 -2.7649563550949097e-01</internalNodes>
          <leafValues>
            -8.8658469915390015e-01 1.7642391845583916e-02</leafValues></_>
        <_>
          <internalNodes>
            0 -1 185 -4.5540940482169390e-04</internalNodes>
          <leafValues>
            -2.8726784512400627e-02 6.8003636598587036e-01</leafValues></_>
        <_>
          <internalNodes>
            0 -1 442 -7.2633549571037292e-02</internalNodes>
          <leafValues>
            1.1607198417186737e-01 -1.3751599192619324e-01</leafValues></_>
        <_>
          <internalNodes>
            0 -1 460 -1.2610448524355888e-02</internalNodes>
          <leafValues>
            -1.2148264795541763e-01 1.3360218703746796e-01</leafValues></_>
        <_>
          <internalNodes>
            0 -1 345 1.3057905435562134e-01</internalNodes>
          <leafValues>
            5.7207655161619186e-02 -2.9222410917282104e-01</leafValues></_>
        <_>
          <internalNodes>
            0 -1 69 1.5648359432816505e-02</internalNodes>
          <leafValues>
            -9.5634795725345612e-02 1.8035787343978882e-01</leafValues></_>
        <_>
          <internalNodes>
            0 -1 301 -4.3412894010543823e-02</internalNodes>
          <leafValues>
            2.7324795722961426e-01 -6.8680323660373688e-02</leafValues></_>
        <_>
          <internalNodes>
            0 -1 194 1.4666076749563217e-03</internalNodes>
          <leafValues>
            4.3292861431837082e-02 -3.6424732208251953e-01</leafValues></_>
        <_>
          <internalNodes>
            0 -1 184 1.1308284010738134e-03</internalNodes>
          <leafValues>
            -1.7785742878913879e-01 8.8604860007762909e-02</leafValues></_>
        <_>
          <internalNodes>
            0 -1 40 -2.3523230105638504e-02</internalNodes>
          <leafValues>
            2.6998090744018555e-01 -6.5790377557277679e-02</leafValues></_>
        <_>
          <internalNodes>
            0 -1 47 -1.5759088099002838e-02</internalNodes>
          <leafValues>
            -7.1205139160156250e-01 2.6066148653626442e-02</leafValues></_>
        <_>
          <internalNodes>
            0 -1 3 6.6685723140835762e-03</internalNodes>
          <leafValues>
            -9.3595318496227264e-02 1.8213872611522675e-01</leafValues></_>
        <_>
          <internalNodes>
            0 -1 293 1.4737183228135109e-02</internalNodes>
          <leafValues>
            -1.3582623004913330e-01 1.3190339505672455e-01</leafValues></_>
        <_>
          <internalNodes>
            0 -1 596 4.2221881449222565e-03</internalNodes>
          <leafValues>
            3.9403177797794342e-02 -4.2784124612808228e-01</leafValues></_>
        <_>
          <internalNodes>
            0 -1 451 3.6688833497464657e-03</internalNodes>
          <leafValues>
            -4.6360697597265244e-02 3.6490598320960999e-01</leafValues></_>
        <_>
          <internalNodes>
            0 -1 0 -4.0749530307948589e-03</internalNodes>
          <leafValues>
            -4.6671923995018005e-01 3.5322472453117371e-02</leafValues></_>
        <_>
          <internalNodes>
            0 -1 18 -1.8763349950313568e-01</internalNodes>
          <leafValues>
            6.9190043210983276e-01 -2.8038209304213524e-02</leafValues></_>
        <_>
          <internalNodes>
            0 -1 451 -1.0529332794249058e-03</internalNodes>
          <leafValues>
            1.7124484479427338e-01 -9.6554078161716461e-02</leafValues></_>
        <_>
          <internalNodes>
            0 -1 235 1.9584834575653076e-01</internalNodes>
          <leafValues>
            3.4145254641771317e-02 -4.7776034474372864e-01</leafValues></_>
        <_>
          <internalNodes>
            0 -1 356 -2.4114405736327171e-02</internalNodes>
          <leafValues>
            -8.0376601219177246e-01 1.7493585124611855e-02</leafValues></_>
        <_>
          <internalNodes>
            0 -1 378 -2.1919184364378452e-03</internalNodes>
          <leafValues>
            2.4411404132843018e-01 -7.0446506142616272e-02</leafValues></_>
        <_>
          <internalNodes>
            0 -1 371 -9.9418098106980324e-03</internalNodes>
          <leafValues>
            3.9439819753170013e-02 -4.3986186385154724e-01</leafValues></_>
        <_>
          <internalNodes>
            0 -1 275 -1.2512254528701305e-02</internalNodes>
          <leafValues>
            2.8216257691383362e-01 -6.2421724200248718e-02</leafValues></_>
        <_>
          <internalNodes>
            0 -1 567 5.5917247664183378e-04</internalNodes>
          <leafValues>
            1.0176932811737061e-01 -1.6380915045738220e-01</leafValues></_>
        <_>
          <internalNodes>
            0 -1 529 -2.7633681893348694e-03</internalNodes>
          <leafValues>
            -3.1299200654029846e-01 5.7460661977529526e-02</leafValues></_>
        <_>
          <internalNodes>
            0 -1 286 -8.1250891089439392e-03</internalNodes>
          <leafValues>
            2.0295500755310059e-01 -8.0384396016597748e-02</leafValues></_></weakClassifiers></_>
    <!-- stage 7 -->
    <_>
      <maxWeakCount>100</maxWeakCount>
      <stageThreshold>-1.3276818990707397e+00</stageThreshold>
      <weakClassifiers>
        <_>
          <internalNodes>
            0 -1 598 5.2333122584968805e-04</internalNodes>
          <leafValues>
            -7.5446110963821411e-01 -1.5068493783473969e-01</leafValues></_>
        <_>
          <internalNodes>
            0 -1 212 1.4324538409709930e-02</internalNodes>
          <leafValues>
            -3.7330389022827148e-01 -5.1020931452512741e-02</leafValues></_>
        <_>
          <internalNodes>
            0 -1 436 -2.3760525509715080e-03</internalNodes>
          <leafValues>
            1.7459879815578461e-01 -1.3200721144676208e-01</leafValues></_>
        <_>
          <internalNodes>
            0 -1 93 -1.5707227587699890e-01</internalNodes>
          <leafValues>
            2.2460700571537018e-01 -1.1934487521648407e-01</leafValues></_>
        <_>
          <internalNodes>
            0 -1 350 1.2272594030946493e-03</internalNodes>
          <leafValues>
            -2.9950311779975891e-01 7.3372341692447662e-02</leafValues></_>
        <_>
          <internalNodes>
            0 -1 302 -3.2529947347939014e-03</internalNodes>
          <leafValues>
            1.8075783550739288e-01 -1.1222253739833832e-01</leafValues></_>
        <_>
          <internalNodes>
            0 -1 110 -1.9552586600184441e-03</internalNodes>
          <leafValues>
            -4.8326486349105835e-01 1.0932624340057373e-02</leafValues></_>
        <_>
          <internalNodes>
            0 -1 110 5.8989814715459943e-04</internalNodes>
          <leafValues>
            1.0210517048835754e-01 -2.4430583417415619e-01</leafValues></_>
        <_>
          <internalNodes>
            0 -1 469 -6.7713456228375435e-03</internalNodes>
          <leafValues>
            -8.2914054393768311e-01 3.8101308047771454e-02</leafValues></_>
        <_>
          <internalNodes>
            0 -1 216 1.5662593767046928e-02</internalNodes>
          <leafValues>
            -7.7070720493793488e-02 2.6744663715362549e-01</leafValues></_>
        <_>
          <internalNodes>
            0 -1 234 -6.3211753964424133e-02</internalNodes>
          <leafValues>
            2.4648533761501312e-01 -9.0581387281417847e-02</leafValues></_>
        <_>
          <internalNodes>
            0 -1 305 9.3643553555011749e-02</internalNodes>
          <leafValues>
            -7.9888336360454559e-02 2.7505680918693542e-01</leafValues></_>
        <_>
          <internalNodes>
            0 -1 260 4.1974065825343132e-03</internalNodes>
          <leafValues>
            -1.4077289402484894e-01 1.6002881526947021e-01</leafValues></_>
        <_>
          <internalNodes>
            0 -1 92 -2.1804231405258179e-01</internalNodes>
          <leafValues>
            -5.0578713417053223e-01 3.2735135406255722e-02</leafValues></_>
        <_>
          <internalNodes>
            0 -1 386 -1.9794777035713196e-02</internalNodes>
          <leafValues>
            -7.9118467867374420e-02 2.7335342764854431e-01</leafValues></_>
        <_>
          <internalNodes>
            0 -1 330 1.7810869961977005e-02</internalNodes>
          <leafValues>
            -6.3259147107601166e-02 2.8359004855155945e-01</leafValues></_>
        <_>
          <internalNodes>
            0 -1 195 -6.9739548489451408e-03</internalNodes>
          <leafValues>
            1.5771082043647766e-01 -1.1115992814302444e-01</leafValues></_>
        <_>
          <internalNodes>
            0 -1 492 -3.0067316256463528e-03</internalNodes>
          <leafValues>
            2.3078292608261108e-01 -8.0775208771228790e-02</leafValues></_>
        <_>
          <internalNodes>
            0 -1 527 -2.6249554008245468e-02</internalNodes>
          <leafValues>
            -6.5498602390289307e-01 2.7671806514263153e-02</leafValues></_>
        <_>
          <internalNodes>
            0 -1 295 -3.0441656708717346e-03</internalNodes>
          <leafValues>
            -4.2162919044494629e-01 3.4658979624509811e-02</leafValues></_>
        <_>
          <internalNodes>
            0 -1 593 -1.4050402678549290e-03</internalNodes>
          <leafValues>
            -2.8606566786766052e-01 5.9107046574354172e-02</leafValues></_>
        <_>
          <internalNodes>
            0 -1 23 -2.1005749702453613e-02</internalNodes>
          <leafValues>
            6.3919168710708618e-01 -2.7379376813769341e-02</leafValues></_>
        <_>
          <internalNodes>
            0 -1 226 3.5088662058115005e-02</internalNodes>
          <leafValues>
            2.8656305745244026e-02 -6.4978200197219849e-01</leafValues></_>
        <_>
          <internalNodes>
            0 -1 520 -1.1745216324925423e-02</internalNodes>
          <leafValues>
            -7.0683687925338745e-01 1.9711913540959358e-02</leafValues></_>
        <_>
          <internalNodes>
            0 -1 556 -3.3210476394742727e-03</internalNodes>
          <leafValues>
            1.5366145968437195e-01 -1.2924803793430328e-01</leafValues></_>
        <_>
          <internalNodes>
            0 -1 607 -4.5715286978520453e-04</internalNodes>
          <leafValues>
            -2.0338965952396393e-01 8.4356099367141724e-02</leafValues></_>
        <_>
          <internalNodes>
            0 -1 165 -2.5194033514708281e-04</internalNodes>
          <leafValues>
            1.2447096407413483e-01 -1.2936627864837646e-01</leafValues></_>
        <_>
          <internalNodes>
            0 -1 9 1.3778313994407654e-01</internalNodes>
          <leafValues>
            -6.4194746315479279e-02 2.6604917645454407e-01</leafValues></_>
        <_>
          <internalNodes>
            0 -1 546 4.8169679939746857e-04</internalNodes>
          <leafValues>
            -1.2260862439870834e-01 1.4029785990715027e-01</leafValues></_>
        <_>
          <internalNodes>
            0 -1 547 1.4867432415485382e-02</internalNodes>
          <leafValues>
            3.1006345525383949e-02 -6.1555916070938110e-01</leafValues></_>
        <_>
          <internalNodes>
            0 -1 493 -1.8626484088599682e-03</internalNodes>
          <leafValues>
            1.5790429711341858e-01 -1.0424268245697021e-01</leafValues></_>
        <_>
          <internalNodes>
            0 -1 580 -8.3518354222178459e-03</internalNodes>
          <leafValues>
            -7.0193523168563843e-01 2.3779949173331261e-02</leafValues></_>
        <_>
          <internalNodes>
            0 -1 312 3.4093931317329407e-03</internalNodes>
          <leafValues>
            -1.0949197411537170e-01 1.4825262129306793e-01</leafValues></_>
        <_>
          <internalNodes>
            0 -1 162 -5.4479725658893585e-03</internalNodes>
          <leafValues>
            2.2310794889926910e-01 -7.5713485479354858e-02</leafValues></_>
        <_>
          <internalNodes>
            0 -1 576 1.4858919195830822e-02</internalNodes>
          <leafValues>
            -3.5483062267303467e-02 4.8463729023933411e-01</leafValues></_>
        <_>
          <internalNodes>
            0 -1 34 4.8525340855121613e-02</internalNodes>
          <leafValues>
            -7.7085494995117188e-02 2.1264502406120300e-01</leafValues></_>
        <_>
          <internalNodes>
            0 -1 406 1.6705308109521866e-02</internalNodes>
          <leafValues>
            4.8538558185100555e-02 -3.9229062199592590e-01</leafValues></_>
        <_>
          <internalNodes>
            0 -1 222 1.4085152745246887e-01</internalNodes>
          <leafValues>
            3.5591416060924530e-02 -4.7185260057449341e-01</leafValues></_>
        <_>
          <internalNodes>
            0 -1 334 4.6887971460819244e-02</internalNodes>
          <leafValues>
            -6.4225099980831146e-02 3.0824810266494751e-01</leafValues></_>
        <_>
          <internalNodes>
            0 -1 347 3.9665907621383667e-02</internalNodes>
          <leafValues>
            7.8732572495937347e-02 -2.5138035416603088e-01</leafValues></_>
        <_>
          <internalNodes>
            0 -1 154 -1.3993921456858516e-03</internalNodes>
          <leafValues>
            -3.2907825708389282e-01 4.6856373548507690e-02</leafValues></_>
        <_>
          <internalNodes>
            0 -1 344 2.2402649745345116e-02</internalNodes>
          <leafValues>
            -3.8842201232910156e-02 4.4679850339889526e-01</leafValues></_>
        <_>
          <internalNodes>
            0 -1 425 -1.2036017142236233e-02</internalNodes>
          <leafValues>
            -5.0116401910781860e-01 4.0099572390317917e-02</leafValues></_>
        <_>
          <internalNodes>
            0 -1 438 -6.5779210999608040e-03</internalNodes>
          <leafValues>
            -8.1868803501129150e-01 1.6106823459267616e-02</leafValues></_>
        <_>
          <internalNodes>
            0 -1 600 -3.7918418645858765e-02</internalNodes>
          <leafValues>
            -4.7377273440361023e-01 2.9707204550504684e-02</leafValues></_>
        <_>
          <internalNodes>
            0 -1 482 -1.9794059917330742e-03</internalNodes>
          <leafValues>
            2.1109546720981598e-01 -7.9470686614513397e-02</leafValues></_>
        <_>
          <internalNodes>
            0 -1 478 -2.0546794403344393e-03</internalNodes>
          <leafValues>
            1.6706459224224091e-01 -9.8858878016471863e-02</leafValues></_>
        <_>
          <internalNodes>
            0 -1 318 2.1871030330657959e-02</internalNodes>
          <leafValues>
            -8.5095897316932678e-02 1.8429012596607208e-01</leafValues></_>
        <_>
          <internalNodes>
            0 -1 412 2.4234095588326454e-02</internalNodes>
          <leafValues>
            4.2859032750129700e-02 -3.7874311208724976e-01</leafValues></_>
        <_>
          <internalNodes>
            0 -1 290 9.3355616554617882e-03</internalNodes>
          <leafValues>
            4.4559657573699951e-02 -3.2341226935386658e-01</leafValues></_>
        <_>
          <internalNodes>
            0 -1 449 -2.4625558406114578e-02</internalNodes>
          <leafValues>
            -2.8308394551277161e-01 5.4458916187286377e-02</leafValues></_>
        <_>
          <internalNodes>
            0 -1 70 4.8898950219154358e-01</internalNodes>
          <leafValues>
            1.5004809945821762e-02 -9.1724950075149536e-01</leafValues></_>
        <_>
          <internalNodes>
            0 -1 370 4.5780073851346970e-03</internalNodes>
          <leafValues>
            4.9457032233476639e-02 -2.8294292092323303e-01</leafValues></_>
        <_>
          <internalNodes>
            0 -1 396 -3.2888457644730806e-04</internalNodes>
          <leafValues>
            1.0977583378553391e-01 -1.6151002049446106e-01</leafValues></_>
        <_>
          <internalNodes>
            0 -1 562 -1.4248616062104702e-03</internalNodes>
          <leafValues>
            -2.4417206645011902e-01 6.1345502734184265e-02</leafValues></_>
        <_>
          <internalNodes>
            0 -1 446 -9.5013179816305637e-04</internalNodes>
          <leafValues>
            1.6846090555191040e-01 -8.9492298662662506e-02</leafValues></_>
        <_>
          <internalNodes>
            0 -1 190 -4.1780374944210052e-02</internalNodes>
          <leafValues>
            2.0778851211071014e-01 -7.9023480415344238e-02</leafValues></_>
        <_>
          <internalNodes>
            0 -1 616 -5.7789180427789688e-03</internalNodes>
          <leafValues>
            -5.7257217168807983e-01 3.5689201205968857e-02</leafValues></_>
        <_>
          <internalNodes>
            0 -1 326 5.5313534103333950e-03</internalNodes>
          <leafValues>
            7.1758389472961426e-02 -2.2714051604270935e-01</leafValues></_>
        <_>
          <internalNodes>
            0 -1 530 -1.9664295017719269e-02</internalNodes>
          <leafValues>
            3.0620354413986206e-01 -5.8384805917739868e-02</leafValues></_>
        <_>
          <internalNodes>
            0 -1 374 -2.6028864085674286e-03</internalNodes>
          <leafValues>
            2.7344185113906860e-01 -5.9150908142328262e-02</leafValues></_>
        <_>
          <internalNodes>
            0 -1 534 -4.6878749132156372e-01</internalNodes>
          <leafValues>
            -1. 1.6618404537439346e-02</leafValues></_>
        <_>
          <internalNodes>
            0 -1 12 2.6497093960642815e-02</internalNodes>
          <leafValues>
            -1.0378333926200867e-01 1.5503701567649841e-01</leafValues></_>
        <_>
          <internalNodes>
            0 -1 228 -2.8391168452799320e-03</internalNodes>
          <leafValues>
            2.2178767621517181e-01 -7.2712935507297516e-02</leafValues></_>
        <_>
          <internalNodes>
            0 -1 230 5.1288865506649017e-03</internalNodes>
          <leafValues>
            2.6303002610802650e-02 -6.7884862422943115e-01</leafValues></_>
        <_>
          <internalNodes>
            0 -1 498 1.1073362547904253e-03</internalNodes>
          <leafValues>
            -1.7904826998710632e-01 8.2120656967163086e-02</leafValues></_>
        <_>
          <internalNodes>
            0 -1 304 9.9931523203849792e-02</internalNodes>
          <leafValues>
            -5.0859704613685608e-02 3.3648383617401123e-01</leafValues></_>
        <_>
          <internalNodes>
            0 -1 541 6.8353749811649323e-03</internalNodes>
          <leafValues>
            1.9284563139081001e-02 -8.8071328401565552e-01</leafValues></_>
        <_>
          <internalNodes>
            0 -1 1 -2.0685167692136019e-04</internalNodes>
          <leafValues>
            1.2771393358707428e-01 -1.2262302637100220e-01</leafValues></_>
        <_>
          <internalNodes>
            0 -1 2 2.2813051939010620e-02</internalNodes>
          <leafValues>
            3.7164609879255295e-02 -4.4034194946289063e-01</leafValues></_>
        <_>
          <internalNodes>
            0 -1 121 8.0987473484128714e-04</internalNodes>
          <leafValues>
            7.5847171247005463e-02 -2.0687583088874817e-01</leafValues></_>
        <_>
          <internalNodes>
            0 -1 531 5.7689137756824493e-03</internalNodes>
          <leafValues>
            -3.4122489392757416e-02 5.0047451257705688e-01</leafValues></_>
        <_>
          <internalNodes>
            0 -1 38 -1.5267962589859962e-03</internalNodes>
          <leafValues>
            2.0178323984146118e-01 -8.1345200538635254e-02</leafValues></_>
        <_>
          <internalNodes>
            0 -1 342 2.1305307745933533e-02</internalNodes>
          <leafValues>
            1.9186260178685188e-02 -8.0183994770050049e-01</leafValues></_>
        <_>
          <internalNodes>
            0 -1 288 8.3620529621839523e-03</internalNodes>
          <leafValues>
            -6.5024912357330322e-02 2.6064854860305786e-01</leafValues></_>
        <_>
          <internalNodes>
            0 -1 577 -9.2403227463364601e-03</internalNodes>
          <leafValues>
            2.2823597490787506e-01 -6.8344630300998688e-02</leafValues></_>
        <_>
          <internalNodes>
            0 -1 359 3.5854257643222809e-02</internalNodes>
          <leafValues>
            2.1010618656873703e-02 -7.5515186786651611e-01</leafValues></_>
        <_>
          <internalNodes>
            0 -1 351 -3.3777628093957901e-02</internalNodes>
          <leafValues>
            -3.1116710975766182e-02 6.5389204025268555e-01</leafValues></_>
        <_>
          <internalNodes>
            0 -1 597 -1.4909224584698677e-02</internalNodes>
          <leafValues>
            -7.7031010389328003e-01 2.2688319906592369e-02</leafValues></_>
        <_>
          <internalNodes>
            0 -1 424 -7.1302592754364014e-02</internalNodes>
          <leafValues>
            4.3338036537170410e-01 -3.7560157477855682e-02</leafValues></_>
        <_>
          <internalNodes>
            0 -1 471 -6.8238273262977600e-02</internalNodes>
          <leafValues>
            -4.4759744405746460e-01 3.4580536186695099e-02</leafValues></_>
        <_>
          <internalNodes>
            0 -1 291 3.0395437031984329e-02</internalNodes>
          <leafValues>
            -6.3922911882400513e-02 2.3845042288303375e-01</leafValues></_>
        <_>
          <internalNodes>
            0 -1 366 3.3360470551997423e-03</internalNodes>
          <leafValues>
            3.8470812141895294e-02 -4.1286268830299377e-01</leafValues></_>
        <_>
          <internalNodes>
            0 -1 61 -9.5940701663494110e-02</internalNodes>
          <leafValues>
            -6.2383913993835449e-01 2.3517752066254616e-02</leafValues></_>
        <_>
          <internalNodes>
            0 -1 53 -5.1369500160217285e-01</internalNodes>
          <leafValues>
            -6.8020814657211304e-01 1.7912659794092178e-02</leafValues></_>
        <_>
          <internalNodes>
            0 -1 457 4.7053536400198936e-03</internalNodes>
          <leafValues>
            -5.1135901361703873e-02 3.2167527079582214e-01</leafValues></_>
        <_>
          <internalNodes>
            0 -1 568 -1.2427898123860359e-02</internalNodes>
          <leafValues>
            -5.8951789140701294e-01 2.5945730507373810e-02</leafValues></_>
        <_>
          <internalNodes>
            0 -1 118 2.4764623958617449e-03</internalNodes>
          <leafValues>
            2.7174670249223709e-02 -4.7329455614089966e-01</leafValues></_>
        <_>
          <internalNodes>
            0 -1 399 -8.3663314580917358e-02</internalNodes>
          <leafValues>
            2.4602857232093811e-01 -6.2306459993124008e-02</leafValues></_>
        <_>
          <internalNodes>
            0 -1 400 -4.4099994003772736e-02</internalNodes>
          <leafValues>
            2.1164402365684509e-01 -7.0188999176025391e-02</leafValues></_>
        <_>
          <internalNodes>
            0 -1 476 -1.0796776972711086e-02</internalNodes>
          <leafValues>
            -6.7637676000595093e-01 2.4118777364492416e-02</leafValues></_>
        <_>
          <internalNodes>
            0 -1 409 -8.0945796798914671e-04</internalNodes>
          <leafValues>
            1.6891677677631378e-01 -8.4681816399097443e-02</leafValues></_>
        <_>
          <internalNodes>
            0 -1 397 2.2793415933847427e-02</internalNodes>
          <leafValues>
            -9.7769200801849365e-02 1.7998695373535156e-01</leafValues></_>
        <_>
          <internalNodes>
            0 -1 94 1.6527626663446426e-02</internalNodes>
          <leafValues>
            3.3372443169355392e-02 -4.3774217367172241e-01</leafValues></_>
        <_>
          <internalNodes>
            0 -1 78 -2.4059839546680450e-01</internalNodes>
          <leafValues>
            -8.7152403593063354e-01 1.4152954332530499e-02</leafValues></_>
        <_>
          <internalNodes>
            0 -1 269 2.0778464386239648e-04</internalNodes>
          <leafValues>
            8.1109911203384399e-02 -1.8184334039688110e-01</leafValues></_>
        <_>
          <internalNodes>
            0 -1 484 5.9144350234419107e-04</internalNodes>
          <leafValues>
            7.6165258884429932e-02 -1.9292929768562317e-01</leafValues></_>
        <_>
          <internalNodes>
            0 -1 210 4.5946246385574341e-01</internalNodes>
          <leafValues>
            -4.8421632498502731e-02 4.0831664204597473e-01</leafValues></_>
        <_>
          <internalNodes>
            0 -1 533 3.1467497348785400e-02</internalNodes>
          <leafValues>
            2.0835898816585541e-02 -8.7065064907073975e-01</leafValues></_>
        <_>
          <internalNodes>
            0 -1 13 1.3576139695942402e-02</internalNodes>
          <leafValues>
            -8.4465406835079193e-02 2.0556837320327759e-01</leafValues></_></weakClassifiers></_>
    <!-- stage 8 -->
    <_>
      <maxWeakCount>100</maxWeakCount>
      <stageThreshold>-1.4114233255386353e+00</stageThreshold>
      <weakClassifiers>
        <_>
          <internalNodes>
            0 -1 306 -2.6315331459045410e-01</internalNodes>
          <leafValues>
            -2.5581395626068115e-01 -7.6183539628982544e-01</leafValues></_>
        <_>
          <internalNodes>
            0 -1 206 1.2476604431867599e-02</internalNodes>
          <leafValues>
            -3.3445057272911072e-01 -1.2909398414194584e-02</leafValues></_>
        <_>
          <internalNodes>
            0 -1 91 2.9504430294036865e-01</internalNodes>
          <leafValues>
            -5.2081450819969177e-02 4.5300227403640747e-01</leafValues></_>
        <_>
          <internalNodes>
            0 -1 274 -1.9578168168663979e-02</internalNodes>
          <leafValues>
            3.2774397730827332e-01 -7.3070965707302094e-02</leafValues></_>
        <_>
          <internalNodes>
            0 -1 466 -1.3427877426147461e-01</internalNodes>
          <leafValues>
            -5.5957001447677612e-01 3.5229191184043884e-02</leafValues></_>
        <_>
          <internalNodes>
            0 -1 522 1.8257587216794491e-03</internalNodes>
          <leafValues>
            -6.1433926224708557e-02 2.6692834496498108e-01</leafValues></_>
        <_>
          <internalNodes>
            0 -1 145 6.8216130137443542e-02</internalNodes>
          <leafValues>
            -5.5086053907871246e-02 3.5756751894950867e-01</leafValues></_>
        <_>
          <internalNodes>
            0 -1 7 4.8484024591743946e-04</internalNodes>
          <leafValues>
            -2.8843073174357414e-02 6.0771185159683228e-01</leafValues></_>
        <_>
          <internalNodes>
            0 -1 395 1.4574774540960789e-03</internalNodes>
          <leafValues>
            -1.2274417281150818e-01 1.3843104243278503e-01</leafValues></_>
        <_>
          <internalNodes>
            0 -1 591 -2.9680805746465921e-03</internalNodes>
          <leafValues>
            -3.8763591647148132e-01 4.4264040887355804e-02</leafValues></_>
        <_>
          <internalNodes>
            0 -1 163 -9.0212691575288773e-03</internalNodes>
          <leafValues>
            4.1276320815086365e-02 -7.8981220722198486e-01</leafValues></_>
        <_>
          <internalNodes>
            0 -1 552 8.7163615971803665e-03</internalNodes>
          <leafValues>
            -1.0366375744342804e-01 1.7552083730697632e-01</leafValues></_>
        <_>
          <internalNodes>
            0 -1 566 -4.1061095893383026e-02</internalNodes>
          <leafValues>
            -1.3665990531444550e-01 1.7283667623996735e-01</leafValues></_>
        <_>
          <internalNodes>
            0 -1 161 -3.3530560322105885e-03</internalNodes>
          <leafValues>
            2.1029795706272125e-01 -9.8440364003181458e-02</leafValues></_>
        <_>
          <internalNodes>
            0 -1 538 1.9306683680042624e-03</internalNodes>
          <leafValues>
            -1.0182400047779083e-01 2.1702054142951965e-01</leafValues></_>
        <_>
          <internalNodes>
            0 -1 227 -6.8660713732242584e-02</internalNodes>
          <leafValues>
            -5.5975508689880371e-01 4.4429820030927658e-02</leafValues></_>
        <_>
          <internalNodes>
            0 -1 604 2.1651708520948887e-03</internalNodes>
          <leafValues>
            3.3492833375930786e-02 -4.3617856502532959e-01</leafValues></_>
        <_>
          <internalNodes>
            0 -1 605 -9.6859020413830876e-04</internalNodes>
          <leafValues>
            -2.5891476869583130e-01 6.1322193592786789e-02</leafValues></_>
        <_>
          <internalNodes>
            0 -1 587 4.5256454497575760e-02</internalNodes>
          <leafValues>
            -3.3532150089740753e-02 5.5172109603881836e-01</leafValues></_>
        <_>
          <internalNodes>
            0 -1 135 -8.1300139427185059e-02</internalNodes>
          <leafValues>
            -7.9465323686599731e-01 2.4403838440775871e-02</leafValues></_>
        <_>
          <internalNodes>
            0 -1 513 -2.4544373154640198e-02</internalNodes>
          <leafValues>
            1.8523338437080383e-01 -8.8412083685398102e-02</leafValues></_>
        <_>
          <internalNodes>
            0 -1 426 -2.5031436234712601e-03</internalNodes>
          <leafValues>
            -3.4921567887067795e-02 5.1657807826995850e-01</leafValues></_>
        <_>
          <internalNodes>
            0 -1 71 9.8229236900806427e-03</internalNodes>
          <leafValues>
            2.4178348481655121e-02 -7.2856438159942627e-01</leafValues></_>
        <_>
          <internalNodes>
            0 -1 229 -4.8241578042507172e-03</internalNodes>
          <leafValues>
            1.7747843265533447e-01 -1.0894569754600525e-01</leafValues></_>
        <_>
          <internalNodes>
            0 -1 308 9.5143285579979420e-04</internalNodes>
          <leafValues>
            -9.4465643167495728e-02 1.7071543633937836e-01</leafValues></_>
        <_>
          <internalNodes>
            0 -1 303 -7.4121722718700767e-04</internalNodes>
          <leafValues>
            1.3460417091846466e-01 -1.2590214610099792e-01</leafValues></_>
        <_>
          <internalNodes>
            0 -1 155 -1.3146013021469116e-02</internalNodes>
          <leafValues>
            -6.2212049961090088e-01 2.5373408570885658e-02</leafValues></_>
        <_>
          <internalNodes>
            0 -1 62 4.2045488953590393e-03</internalNodes>
          <leafValues>
            2.8286760672926903e-02 -5.1268100738525391e-01</leafValues></_>
        <_>
          <internalNodes>
            0 -1 96 -9.5576280727982521e-05</internalNodes>
          <leafValues>
            1.0765974223613739e-01 -1.4115391671657562e-01</leafValues></_>
        <_>
          <internalNodes>
            0 -1 89 -1.3708781450986862e-02</internalNodes>
          <leafValues>
            -7.2448027133941650e-01 2.0825533196330070e-02</leafValues></_>
        <_>
          <internalNodes>
            0 -1 403 1.4074230194091797e-01</internalNodes>
          <leafValues>
            2.0534092560410500e-02 -6.6736102104187012e-01</leafValues></_>
        <_>
          <internalNodes>
            0 -1 187 -1.4548867940902710e-02</internalNodes>
          <leafValues>
            -2.8375771641731262e-01 5.2053604274988174e-02</leafValues></_>
        <_>
          <internalNodes>
            0 -1 37 -2.7143314480781555e-02</internalNodes>
          <leafValues>
            -5.3063005208969116e-01 2.8074596077203751e-02</leafValues></_>
        <_>
          <internalNodes>
            0 -1 365 -2.2358957212418318e-03</internalNodes>
          <leafValues>
            1.9958242774009705e-01 -8.4008693695068359e-02</leafValues></_>
        <_>
          <internalNodes>
            0 -1 292 -1.4922626316547394e-01</internalNodes>
          <leafValues>
            -6.6961270570755005e-01 2.6198457926511765e-02</leafValues></_>
        <_>
          <internalNodes>
            0 -1 220 -3.6485590040683746e-02</internalNodes>
          <leafValues>
            5.2108919620513916e-01 -3.6513365805149078e-02</leafValues></_>
        <_>
          <internalNodes>
            0 -1 84 1.6231035813689232e-02</internalNodes>
          <leafValues>
            3.7415780127048492e-02 -4.8294162750244141e-01</leafValues></_>
        <_>
          <internalNodes>
            0 -1 320 1.2441109865903854e-02</internalNodes>
          <leafValues>
            8.1295140087604523e-02 -2.0762787759304047e-01</leafValues></_>
        <_>
          <internalNodes>
            0 -1 410 -1.4107008464634418e-03</internalNodes>
          <leafValues>
            2.2088184952735901e-01 -7.8952573239803314e-02</leafValues></_>
        <_>
          <internalNodes>
            0 -1 374 2.4339207448065281e-03</internalNodes>
          <leafValues>
            -7.1740396320819855e-02 2.5630038976669312e-01</leafValues></_>
        <_>
          <internalNodes>
            0 -1 401 6.4104693010449409e-03</internalNodes>
          <leafValues>
            2.0107729360461235e-02 -8.2375931739807129e-01</leafValues></_>
        <_>
          <internalNodes>
            0 -1 239 1.5090532600879669e-02</internalNodes>
          <leafValues>
            -7.7485792338848114e-02 2.5091153383255005e-01</leafValues></_>
        <_>
          <internalNodes>
            0 -1 346 -1.2724947929382324e-01</internalNodes>
          <leafValues>
            2.4545161426067352e-01 -8.6460493505001068e-02</leafValues></_>
        <_>
          <internalNodes>
            0 -1 455 -1.9628943409770727e-03</internalNodes>
          <leafValues>
            -2.0942640304565430e-01 9.2645309865474701e-02</leafValues></_>
        <_>
          <internalNodes>
            0 -1 150 -4.1596949100494385e-02</internalNodes>
          <leafValues>
            -2.7048107981681824e-01 6.9745898246765137e-02</leafValues></_>
        <_>
          <internalNodes>
            0 -1 551 -1.1295760050415993e-02</internalNodes>
          <leafValues>
            2.2725231945514679e-01 -8.5722282528877258e-02</leafValues></_>
        <_>
          <internalNodes>
            0 -1 588 -3.0795140191912651e-03</internalNodes>
          <leafValues>
            -3.5432699322700500e-01 6.2180265784263611e-02</leafValues></_>
        <_>
          <internalNodes>
            0 -1 231 -1.1170111596584320e-02</internalNodes>
          <leafValues>
            2.2725988924503326e-01 -8.1992097198963165e-02</leafValues></_>
        <_>
          <internalNodes>
            0 -1 503 -2.4710600264370441e-03</internalNodes>
          <leafValues>
            -2.9939207434654236e-01 6.1458248645067215e-02</leafValues></_>
        <_>
          <internalNodes>
            0 -1 267 -3.4152865409851074e-02</internalNodes>
          <leafValues>
            1.6422577202320099e-01 -1.1330746114253998e-01</leafValues></_>
        <_>
          <internalNodes>
            0 -1 43 -3.2038666307926178e-02</internalNodes>
          <leafValues>
            2.8462082147598267e-01 -6.2831416726112366e-02</leafValues></_>
        <_>
          <internalNodes>
            0 -1 115 -9.4582028687000275e-03</internalNodes>
          <leafValues>
            6.9426685571670532e-02 -2.4839748442173004e-01</leafValues></_>
        <_>
          <internalNodes>
            0 -1 271 -2.0301217213273048e-02</internalNodes>
          <leafValues>
            -5.5435121059417725e-02 3.2913056015968323e-01</leafValues></_>
        <_>
          <internalNodes>
            0 -1 537 -2.9154334217309952e-02</internalNodes>
          <leafValues>
            2.4386890232563019e-01 -7.1217827498912811e-02</leafValues></_>
        <_>
          <internalNodes>
            0 -1 55 1.5416499972343445e-01</internalNodes>
          <leafValues>
            -1.1103061586618423e-01 2.5061452388763428e-01</leafValues></_>
        <_>
          <internalNodes>
            0 -1 297 2.4611730128526688e-02</internalNodes>
          <leafValues>
            2.6771549135446548e-02 -6.7627871036529541e-01</leafValues></_>
        <_>
          <internalNodes>
            0 -1 585 -4.8593096435070038e-03</internalNodes>
          <leafValues>
            -4.8229330778121948e-01 3.0703755095601082e-02</leafValues></_>
        <_>
          <internalNodes>
            0 -1 435 -3.7574283778667450e-02</internalNodes>
          <leafValues>
            2.3940260708332062e-01 -7.1264944970607758e-02</leafValues></_>
        <_>
          <internalNodes>
            0 -1 122 1.1708861216902733e-02</internalNodes>
          <leafValues>
            -5.8233756572008133e-02 3.3496817946434021e-01</leafValues></_>
        <_>
          <internalNodes>
            0 -1 437 -1.0742150247097015e-02</internalNodes>
          <leafValues>
            -6.4352416992187500e-01 2.9803698882460594e-02</leafValues></_>
        <_>
          <internalNodes>
            0 -1 32 1.3967740815132856e-03</internalNodes>
          <leafValues>
            -8.7687849998474121e-02 1.9812668859958649e-01</leafValues></_>
        <_>
          <internalNodes>
            0 -1 279 8.8392924517393112e-03</internalNodes>
          <leafValues>
            -6.5215744078159332e-02 2.4559648334980011e-01</leafValues></_>
        <_>
          <internalNodes>
            0 -1 151 4.7973915934562683e-02</internalNodes>
          <leafValues>
            -5.0492618232965469e-02 3.2577586174011230e-01</leafValues></_>
        <_>
          <internalNodes>
            0 -1 278 -9.3257464468479156e-03</internalNodes>
          <leafValues>
            -3.9019039273262024e-01 4.7892302274703979e-02</leafValues></_>
        <_>
          <internalNodes>
            0 -1 205 -4.4561222195625305e-02</internalNodes>
          <leafValues>
            1.8869675695896149e-01 -8.5889630019664764e-02</leafValues></_>
        <_>
          <internalNodes>
            0 -1 349 -2.4808946996927261e-02</internalNodes>
          <leafValues>
            -3.0013081431388855e-01 6.4751774072647095e-02</leafValues></_>
        <_>
          <internalNodes>
            0 -1 525 5.2860076539218426e-03</internalNodes>
          <leafValues>
            -3.9978303015232086e-02 4.4383472204208374e-01</leafValues></_>
        <_>
          <internalNodes>
            0 -1 612 9.2572011053562164e-03</internalNodes>
          <leafValues>
            2.5359101593494415e-02 -6.5497595071792603e-01</leafValues></_>
        <_>
          <internalNodes>
            0 -1 487 8.5770341684110463e-05</internalNodes>
          <leafValues>
            -1.2228029966354370e-01 1.3352891802787781e-01</leafValues></_>
        <_>
          <internalNodes>
            0 -1 603 4.6966606751084328e-03</internalNodes>
          <leafValues>
            2.1479390561580658e-02 -7.7916747331619263e-01</leafValues></_>
        <_>
          <internalNodes>
            0 -1 333 -9.6346605569124222e-03</internalNodes>
          <leafValues>
            2.0606146752834320e-01 -8.6393035948276520e-02</leafValues></_>
        <_>
          <internalNodes>
            0 -1 29 3.3283043652772903e-02</internalNodes>
          <leafValues>
            2.5824701413512230e-02 -6.6647481918334961e-01</leafValues></_>
        <_>
          <internalNodes>
            0 -1 441 -2.5548676494508982e-03</internalNodes>
          <leafValues>
            -2.6911354064941406e-01 5.9129938483238220e-02</leafValues></_>
        <_>
          <internalNodes>
            0 -1 248 -5.7622149586677551e-02</internalNodes>
          <leafValues>
            5.3212982416152954e-01 -3.7183534353971481e-02</leafValues></_>
        <_>
          <internalNodes>
            0 -1 391 -1.4480927959084511e-02</internalNodes>
          <leafValues>
            -5.0327479839324951e-01 3.3656463027000427e-02</leafValues></_>
        <_>
          <internalNodes>
            0 -1 543 5.3702440112829208e-02</internalNodes>
          <leafValues>
            2.0432194694876671e-02 -6.4778685569763184e-01</leafValues></_>
        <_>
          <internalNodes>
            0 -1 319 3.6337706260383129e-03</internalNodes>
          <leafValues>
            -5.6922592222690582e-02 2.7725058794021606e-01</leafValues></_>
        <_>
          <internalNodes>
            0 -1 99 1.0960992658510804e-03</internalNodes>
          <leafValues>
            5.0568226724863052e-02 -2.9682016372680664e-01</leafValues></_>
        <_>
          <internalNodes>
            0 -1 178 -2.0219995640218258e-03</internalNodes>
          <leafValues>
            2.4564442038536072e-01 -6.2210187315940857e-02</leafValues></_>
        <_>
          <internalNodes>
            0 -1 125 -6.3750660046935081e-03</internalNodes>
          <leafValues>
            5.7194065302610397e-02 -3.2717695832252502e-01</leafValues></_>
        <_>
          <internalNodes>
            0 -1 136 2.4366995785385370e-03</internalNodes>
          <leafValues>
            5.0762690603733063e-02 -3.2065549492835999e-01</leafValues></_>
        <_>
          <internalNodes>
            0 -1 254 -6.0544293373823166e-03</internalNodes>
          <leafValues>
            -2.6966235041618347e-01 6.2410093843936920e-02</leafValues></_>
        <_>
          <internalNodes>
            0 -1 319 -1.5381118282675743e-03</internalNodes>
          <leafValues>
            2.0770567655563354e-01 -7.8133054077625275e-02</leafValues></_>
        <_>
          <internalNodes>
            0 -1 507 4.3879151344299316e-03</internalNodes>
          <leafValues>
            -9.3461178243160248e-02 1.6676038503646851e-01</leafValues></_>
        <_>
          <internalNodes>
            0 -1 563 -6.0263357590883970e-04</internalNodes>
          <leafValues>
            -2.6069605723023415e-02 7.3097151517868042e-01</leafValues></_>
        <_>
          <internalNodes>
            0 -1 255 8.7482884526252747e-02</internalNodes>
          <leafValues>
            -1.4485881663858891e-02 8.8640654087066650e-01</leafValues></_>
        <_>
          <internalNodes>
            0 -1 264 -1.0354068875312805e-01</internalNodes>
          <leafValues>
            -9.3107545375823975e-01 2.2021200507879257e-02</leafValues></_>
        <_>
          <internalNodes>
            0 -1 407 -1.8860967829823494e-02</internalNodes>
          <leafValues>
            -6.3301438093185425e-01 1.8349099904298782e-02</leafValues></_>
        <_>
          <internalNodes>
            0 -1 135 -4.2819757014513016e-02</internalNodes>
          <leafValues>
            2.7070012688636780e-01 -5.5156853049993515e-02</leafValues></_>
        <_>
          <internalNodes>
            0 -1 423 1.5248413197696209e-02</internalNodes>
          <leafValues>
            1.6852932050824165e-02 -8.3987343311309814e-01</leafValues></_>
        <_>
          <internalNodes>
            0 -1 270 -9.2244073748588562e-03</internalNodes>
          <leafValues>
            -3.4205663204193115e-01 3.7236914038658142e-02</leafValues></_>
        <_>
          <internalNodes>
            0 -1 177 4.1428089141845703e-02</internalNodes>
          <leafValues>
            9.1382838785648346e-02 -1.8143191933631897e-01</leafValues></_>
        <_>
          <internalNodes>
            0 -1 259 1.9107728730887175e-03</internalNodes>
          <leafValues>
            -1.2989994883537292e-01 1.2410771846771240e-01</leafValues></_>
        <_>
          <internalNodes>
            0 -1 369 4.6388343907892704e-03</internalNodes>
          <leafValues>
            7.0178024470806122e-02 -2.2282579541206360e-01</leafValues></_>
        <_>
          <internalNodes>
            0 -1 309 -2.7600878849625587e-02</internalNodes>
          <leafValues>
            5.1142090559005737e-01 -3.3769428730010986e-02</leafValues></_>
        <_>
          <internalNodes>
            0 -1 64 8.5795465856790543e-03</internalNodes>
          <leafValues>
            2.2621406242251396e-02 -7.0784276723861694e-01</leafValues></_>
        <_>
          <internalNodes>
            0 -1 328 1.2776844960171729e-04</internalNodes>
          <leafValues>
            9.4977371394634247e-02 -1.6607399284839630e-01</leafValues></_>
        <_>
          <internalNodes>
            0 -1 389 1.1175809428095818e-02</internalNodes>
          <leafValues>
            -3.6190707236528397e-02 4.3859267234802246e-01</leafValues></_>
        <_>
          <internalNodes>
            0 -1 315 1.4064898714423180e-03</internalNodes>
          <leafValues>
            -1.6802342236042023e-01 9.3887090682983398e-02</leafValues></_>
        <_>
          <internalNodes>
            0 -1 76 1.3265448808670044e-01</internalNodes>
          <leafValues>
            1.7147799953818321e-02 -7.8653359413146973e-01</leafValues></_></weakClassifiers></_></stages>
  <features>
    <_>
      <rects>
        <_>
          0 0 1 2 -1.</_>
        <_>
          0 1 1 1 2.</_></rects>
      <tilted>0</tilted></_>
    <_>
      <rects>
        <_>
          0 0 2 2 -1.</_>
        <_>
          1 0 1 2 2.</_></rects>
      <tilted>0</tilted></_>
    <_>
      <rects>
        <_>
          0 0 2 8 -1.</_>
        <_>
          0 0 1 4 2.</_>
        <_>
          1 4 1 4 2.</_></rects>
      <tilted>0</tilted></_>
    <_>
      <rects>
        <_>
          0 0 2 6 -1.</_>
        <_>
          1 0 1 6 2.</_></rects>
      <tilted>0</tilted></_>
    <_>
      <rects>
        <_>
          0 0 2 20 -1.</_>
        <_>
          0 0 1 10 2.</_>
        <_>
          1 10 1 10 2.</_></rects>
      <tilted>0</tilted></_>
    <_>
      <rects>
        <_>
          0 0 2 20 -1.</_>
        <_>
          1 0 1 20 2.</_></rects>
      <tilted>0</tilted></_>
    <_>
      <rects>
        <_>
          0 0 6 1 -1.</_>
        <_>
          2 0 2 1 2.</_></rects>
      <tilted>0</tilted></_>
    <_>
      <rects>
        <_>
          0 0 9 1 -1.</_>
        <_>
          3 0 3 1 2.</_></rects>
      <tilted>0</tilted></_>
    <_>
      <rects>
        <_>
          0 0 6 2 -1.</_>
        <_>
          3 0 3 2 2.</_></rects>
      <tilted>0</tilted></_>
    <_>
      <rects>
        <_>
          0 0 6 12 -1.</_>
        <_>
          3 0 3 12 2.</_></rects>
      <tilted>0</tilted></_>
    <_>
      <rects>
        <_>
          0 0 8 1 -1.</_>
        <_>
          4 0 4 1 2.</_></rects>
      <tilted>0</tilted></_>
    <_>
      <rects>
        <_>
          0 0 12 1 -1.</_>
        <_>
          4 0 4 1 2.</_></rects>
      <tilted>0</tilted></_>
    <_>
      <rects>
        <_>
          0 0 8 4 -1.</_>
        <_>
          4 0 4 4 2.</_></rects>
      <tilted>0</tilted></_>
    <_>
      <rects>
        <_>
          0 0 10 2 -1.</_>
        <_>
          0 0 5 1 2.</_>
        <_>
          5 1 5 1 2.</_></rects>
      <tilted>0</tilted></_>
    <_>
      <rects>
        <_>
          0 0 12 1 -1.</_>
        <_>
          6 0 6 1 2.</_></rects>
      <tilted>0</tilted></_>
    <_>
      <rects>
        <_>
          0 0 12 4 -1.</_>
        <_>
          6 0 6 4 2.</_></rects>
      <tilted>0</tilted></_>
    <_>
      <rects>
        <_>
          0 0 6 18 -1.</_>
        <_>
          0 9 6 9 2.</_></rects>
      <tilted>0</tilted></_>
    <_>
      <rects>
        <_>
          0 0 12 18 -1.</_>
        <_>
          0 0 6 9 2.</_>
        <_>
          6 9 6 9 2.</_></rects>
      <tilted>0</tilted></_>
    <_>
      <rects>
        <_>
          0 0 10 8 -1.</_>
        <_>
          0 4 10 4 2.</_></rects>
      <tilted>0</tilted></_>
    <_>
      <rects>
        <_>
          0 0 11 2 -1.</_>
        <_>
          0 1 11 1 2.</_></rects>
      <tilted>0</tilted></_>
    <_>
      <rects>
        <_>
          0 0 11 8 -1.</_>
        <_>
          0 4 11 4 2.</_></rects>
      <tilted>0</tilted></_>
    <_>
      <rects>
        <_>
          0 1 1 2 -1.</_>
        <_>
          0 2 1 1 2.</_></rects>
      <tilted>0</tilted></_>
    <_>
      <rects>
        <_>
          0 1 2 2 -1.</_>
        <_>
          0 1 1 1 2.</_>
        <_>
          1 2 1 1 2.</_></rects>
      <tilted>0</tilted></_>
    <_>
      <rects>
        <_>
          0 1 2 4 -1.</_>
        <_>
          0 1 1 2 2.</_>
        <_>
          1 3 1 2 2.</_></rects>
      <tilted>0</tilted></_>
    <_>
      <rects>
        <_>
          0 1 2 7 -1.</_>
        <_>
          1 1 1 7 2.</_></rects>
      <tilted>0</tilted></_>
    <_>
      <rects>
        <_>
          0 1 2 13 -1.</_>
        <_>
          1 1 1 13 2.</_></rects>
      <tilted>0</tilted></_>
    <_>
      <rects>
        <_>
          0 1 4 8 -1.</_>
        <_>
          0 1 2 4 2.</_>
        <_>
          2 5 2 4 2.</_></rects>
      <tilted>0</tilted></_>
    <_>
      <rects>
        <_>
          0 1 4 10 -1.</_>
        <_>
          0 1 2 5 2.</_>
        <_>
          2 6 2 5 2.</_></rects>
      <tilted>0</tilted></_>
    <_>
      <rects>
        <_>
          0 1 4 3 -1.</_>
        <_>
          0 2 4 1 2.</_></rects>
      <tilted>0</tilted></_>
    <_>
      <rects>
        <_>
          0 1 8 2 -1.</_>
        <_>
          0 2 8 1 2.</_></rects>
      <tilted>0</tilted></_>
    <_>
      <rects>
        <_>
          0 1 10 4 -1.</_>
        <_>
          0 3 10 2 2.</_></rects>
      <tilted>0</tilted></_>
    <_>
      <rects>
        <_>
          0 1 12 2 -1.</_>
        <_>
          0 2 12 1 2.</_></rects>
      <tilted>0</tilted></_>
    <_>
      <rects>
        <_>
          0 2 2 1 -1.</_>
        <_>
          1 2 1 1 2.</_></rects>
      <tilted>0</tilted></_>
    <_>
      <rects>
        <_>
          0 2 2 2 -1.</_>
        <_>
          0 3 2 1 2.</_></rects>
      <tilted>0</tilted></_>
    <_>
      <rects>
        <_>
          0 2 4 12 -1.</_>
        <_>
          0 2 2 6 2.</_>
        <_>
          2 8 2 6 2.</_></rects>
      <tilted>0</tilted></_>
    <_>
      <rects>
        <_>
          0 2 9 5 -1.</_>
        <_>
          3 2 3 5 2.</_></rects>
      <tilted>0</tilted></_>
    <_>
      <rects>
        <_>
          0 2 5 4 -1.</_>
        <_>
          0 4 5 2 2.</_></rects>
      <tilted>0</tilted></_>
    <_>
      <rects>
        <_>
          0 2 12 2 -1.</_>
        <_>
          0 2 6 1 2.</_>
        <_>
          6 3 6 1 2.</_></rects>
      <tilted>0</tilted></_>
    <_>
      <rects>
        <_>
          0 3 1 4 -1.</_>
        <_>
          0 5 1 2 2.</_></rects>
      <tilted>0</tilted></_>
    <_>
      <rects>
        <_>
          0 3 2 6 -1.</_>
        <_>
          1 3 1 6 2.</_></rects>
      <tilted>0</tilted></_>
    <_>
      <rects>
        <_>
          0 3 2 11 -1.</_>
        <_>
          1 3 1 11 2.</_></rects>
      <tilted>0</tilted></_>
    <_>
      <rects>
        <_>
          0 3 2 17 -1.</_>
        <_>
          1 3 1 17 2.</_></rects>
      <tilted>0</tilted></_>
    <_>
      <rects>
        <_>
          0 3 2 2 -1.</_>
        <_>
          0 4 2 1 2.</_></rects>
      <tilted>0</tilted></_>
    <_>
      <rects>
        <_>
          0 3 2 10 -1.</_>
        <_>
          0 8 2 5 2.</_></rects>
      <tilted>0</tilted></_>
    <_>
      <rects>
        <_>
          0 3 3 2 -1.</_>
        <_>
          0 4 3 1 2.</_></rects>
      <tilted>0</tilted></_>
    <_>
      <rects>
        <_>
          0 3 9 4 -1.</_>
        <_>
          3 3 3 4 2.</_></rects>
      <tilted>0</tilted></_>
    <_>
      <rects>
        <_>
          0 3 8 6 -1.</_>
        <_>
          0 6 8 3 2.</_></rects>
      <tilted>0</tilted></_>
    <_>
      <rects>
        <_>
          0 3 11 2 -1.</_>
        <_>
          0 4 11 1 2.</_></rects>
      <tilted>0</tilted></_>
    <_>
      <rects>
        <_>
          0 3 12 2 -1.</_>
        <_>
          0 4 12 1 2.</_></rects>
      <tilted>0</tilted></_>
    <_>
      <rects>
        <_>
          0 3 12 4 -1.</_>
        <_>
          0 5 12 2 2.</_></rects>
      <tilted>0</tilted></_>
    <_>
      <rects>
        <_>
          0 4 2 2 -1.</_>
        <_>
          0 5 2 1 2.</_></rects>
      <tilted>0</tilted></_>
    <_>
      <rects>
        <_>
          0 4 4 2 -1.</_>
        <_>
          0 5 4 1 2.</_></rects>
      <tilted>0</tilted></_>
    <_>
      <rects>
        <_>
          0 4 12 2 -1.</_>
        <_>
          6 4 6 2 2.</_></rects>
      <tilted>0</tilted></_>
    <_>
      <rects>
        <_>
          0 4 12 16 -1.</_>
        <_>
          0 4 6 8 2.</_>
        <_>
          6 12 6 8 2.</_></rects>
      <tilted>0</tilted></_>
    <_>
      <rects>
        <_>
          0 4 10 2 -1.</_>
        <_>
          0 5 10 1 2.</_></rects>
      <tilted>0</tilted></_>
    <_>
      <rects>
        <_>
          0 4 12 10 -1.</_>
        <_>
          0 9 12 5 2.</_></rects>
      <tilted>0</tilted></_>
    <_>
      <rects>
        <_>
          0 4 12 12 -1.</_>
        <_>
          0 10 12 6 2.</_></rects>
      <tilted>0</tilted></_>
    <_>
      <rects>
        <_>
          0 5 2 1 -1.</_>
        <_>
          1 5 1 1 2.</_></rects>
      <tilted>0</tilted></_>
    <_>
      <rects>
        <_>
          0 5 2 12 -1.</_>
        <_>
          1 5 1 12 2.</_></rects>
      <tilted>0</tilted></_>
    <_>
      <rects>
        <_>
          0 5 3 2 -1.</_>
        <_>
          0 6 3 1 2.</_></rects>
      <tilted>0</tilted></_>
    <_>
      <rects>
        <_>
          0 5 6 4 -1.</_>
        <_>
          0 5 3 2 2.</_>
        <_>
          3 7 3 2 2.</_></rects>
      <tilted>0</tilted></_>
    <_>
      <rects>
        <_>
          0 5 10 6 -1.</_>
        <_>
          0 8 10 3 2.</_></rects>
      <tilted>0</tilted></_>
    <_>
      <rects>
        <_>
          0 6 1 2 -1.</_>
        <_>
          0 7 1 1 2.</_></rects>
      <tilted>0</tilted></_>
    <_>
      <rects>
        <_>
          0 6 2 7 -1.</_>
        <_>
          1 6 1 7 2.</_></rects>
      <tilted>0</tilted></_>
    <_>
      <rects>
        <_>
          0 6 2 2 -1.</_>
        <_>
          0 7 2 1 2.</_></rects>
      <tilted>0</tilted></_>
    <_>
      <rects>
        <_>
          0 6 4 12 -1.</_>
        <_>
          0 6 2 6 2.</_>
        <_>
          2 12 2 6 2.</_></rects>
      <tilted>0</tilted></_>
    <_>
      <rects>
        <_>
          0 6 4 8 -1.</_>
        <_>
          2 6 2 8 2.</_></rects>
      <tilted>0</tilted></_>
    <_>
      <rects>
        <_>
          0 6 3 2 -1.</_>
        <_>
          0 7 3 1 2.</_></rects>
      <tilted>0</tilted></_>
    <_>
      <rects>
        <_>
          0 6 12 1 -1.</_>
        <_>
          4 6 4 1 2.</_></rects>
      <tilted>0</tilted></_>
    <_>
      <rects>
        <_>
          0 6 6 4 -1.</_>
        <_>
          0 8 6 2 2.</_></rects>
      <tilted>0</tilted></_>
    <_>
      <rects>
        <_>
          0 6 12 14 -1.</_>
        <_>
          0 6 6 7 2.</_>
        <_>
          6 13 6 7 2.</_></rects>
      <tilted>0</tilted></_>
    <_>
      <rects>
        <_>
          0 7 2 2 -1.</_>
        <_>
          0 8 2 1 2.</_></rects>
      <tilted>0</tilted></_>
    <_>
      <rects>
        <_>
          0 7 4 7 -1.</_>
        <_>
          2 7 2 7 2.</_></rects>
      <tilted>0</tilted></_>
    <_>
      <rects>
        <_>
          0 7 3 2 -1.</_>
        <_>
          0 8 3 1 2.</_></rects>
      <tilted>0</tilted></_>
    <_>
      <rects>
        <_>
          0 7 6 8 -1.</_>
        <_>
          0 7 3 4 2.</_>
        <_>
          3 11 3 4 2.</_></rects>
      <tilted>0</tilted></_>
    <_>
      <rects>
        <_>
          0 7 6 9 -1.</_>
        <_>
          3 7 3 9 2.</_></rects>
      <tilted>0</tilted></_>
    <_>
      <rects>
        <_>
          0 7 5 8 -1.</_>
        <_>
          0 11 5 4 2.</_></rects>
      <tilted>0</tilted></_>
    <_>
      <rects>
        <_>
          0 7 6 4 -1.</_>
        <_>
          0 9 6 2 2.</_></rects>
      <tilted>0</tilted></_>
    <_>
      <rects>
        <_>
          0 7 12 10 -1.</_>
        <_>
          0 12 12 5 2.</_></rects>
      <tilted>0</tilted></_>
    <_>
      <rects>
        <_>
          0 8 1 2 -1.</_>
        <_>
          0 9 1 1 2.</_></rects>
      <tilted>0</tilted></_>
    <_>
      <rects>
        <_>
          0 8 8 8 -1.</_>
        <_>
          0 12 8 4 2.</_></rects>
      <tilted>0</tilted></_>
    <_>
      <rects>
        <_>
          0 8 10 12 -1.</_>
        <_>
          0 14 10 6 2.</_></rects>
      <tilted>0</tilted></_>
    <_>
      <rects>
        <_>
          0 9 1 2 -1.</_>
        <_>
          0 10 1 1 2.</_></rects>
      <tilted>0</tilted></_>
    <_>
      <rects>
        <_>
          0 9 4 2 -1.</_>
        <_>
          0 10 4 1 2.</_></rects>
      <tilted>0</tilted></_>
    <_>
      <rects>
        <_>
          0 9 6 2 -1.</_>
        <_>
          0 10 6 1 2.</_></rects>
      <tilted>0</tilted></_>
    <_>
      <rects>
        <_>
          0 9 12 2 -1.</_>
        <_>
          6 9 6 2 2.</_></rects>
      <tilted>0</tilted></_>
    <_>
      <rects>
        <_>
          0 9 12 4 -1.</_>
        <_>
          0 11 12 2 2.</_></rects>
      <tilted>0</tilted></_>
    <_>
      <rects>
        <_>
          0 10 1 2 -1.</_>
        <_>
          0 11 1 1 2.</_></rects>
      <tilted>0</tilted></_>
    <_>
      <rects>
        <_>
          0 10 2 2 -1.</_>
        <_>
          0 11 2 1 2.</_></rects>
      <tilted>0</tilted></_>
    <_>
      <rects>
        <_>
          0 10 4 2 -1.</_>
        <_>
          0 11 4 1 2.</_></rects>
      <tilted>0</tilted></_>
    <_>
      <rects>
        <_>
          0 10 8 10 -1.</_>
        <_>
          0 10 4 5 2.</_>
        <_>
          4 15 4 5 2.</_></rects>
      <tilted>0</tilted></_>
    <_>
      <rects>
        <_>
          0 10 8 8 -1.</_>
        <_>
          4 10 4 8 2.</_></rects>
      <tilted>0</tilted></_>
    <_>
      <rects>
        <_>
          0 10 10 10 -1.</_>
        <_>
          0 10 5 5 2.</_>
        <_>
          5 15 5 5 2.</_></rects>
      <tilted>0</tilted></_>
    <_>
      <rects>
        <_>
          0 10 9 10 -1.</_>
        <_>
          0 15 9 5 2.</_></rects>
      <tilted>0</tilted></_>
    <_>
      <rects>
        <_>
          0 10 10 2 -1.</_>
        <_>
          0 11 10 1 2.</_></rects>
      <tilted>0</tilted></_>
    <_>
      <rects>
        <_>
          0 11 1 6 -1.</_>
        <_>
          0 14 1 3 2.</_></rects>
      <tilted>0</tilted></_>
    <_>
      <rects>
        <_>
          0 11 2 2 -1.</_>
        <_>
          0 12 2 1 2.</_></rects>
      <tilted>0</tilted></_>
    <_>
      <rects>
        <_>
          0 11 9 9 -1.</_>
        <_>
          3 11 3 9 2.</_></rects>
      <tilted>0</tilted></_>
    <_>
      <rects>
        <_>
          0 11 4 2 -1.</_>
        <_>
          0 12 4 1 2.</_></rects>
      <tilted>0</tilted></_>
    <_>
      <rects>
        <_>
          0 12 1 2 -1.</_>
        <_>
          0 13 1 1 2.</_></rects>
      <tilted>0</tilted></_>
    <_>
      <rects>
        <_>
          0 12 1 4 -1.</_>
        <_>
          0 14 1 2 2.</_></rects>
      <tilted>0</tilted></_>
    <_>
      <rects>
        <_>
          0 12 2 6 -1.</_>
        <_>
          0 12 1 3 2.</_>
        <_>
          1 15 1 3 2.</_></rects>
      <tilted>0</tilted></_>
    <_>
      <rects>
        <_>
          0 12 4 2 -1.</_>
        <_>
          0 12 2 1 2.</_>
        <_>
          2 13 2 1 2.</_></rects>
      <tilted>0</tilted></_>
    <_>
      <rects>
        <_>
          0 12 4 7 -1.</_>
        <_>
          2 12 2 7 2.</_></rects>
      <tilted>0</tilted></_>
    <_>
      <rects>
        <_>
          0 12 3 2 -1.</_>
        <_>
          0 13 3 1 2.</_></rects>
      <tilted>0</tilted></_>
    <_>
      <rects>
        <_>
          0 12 12 4 -1.</_>
        <_>
          0 12 6 2 2.</_>
        <_>
          6 14 6 2 2.</_></rects>
      <tilted>0</tilted></_>
    <_>
      <rects>
        <_>
          0 12 12 4 -1.</_>
        <_>
          0 14 12 2 2.</_></rects>
      <tilted>0</tilted></_>
    <_>
      <rects>
        <_>
          0 13 1 2 -1.</_>
        <_>
          0 14 1 1 2.</_></rects>
      <tilted>0</tilted></_>
    <_>
      <rects>
        <_>
          0 13 3 6 -1.</_>
        <_>
          0 15 3 2 2.</_></rects>
      <tilted>0</tilted></_>
    <_>
      <rects>
        <_>
          0 13 6 2 -1.</_>
        <_>
          0 14 6 1 2.</_></rects>
      <tilted>0</tilted></_>
    <_>
      <rects>
        <_>
          0 14 1 2 -1.</_>
        <_>
          0 15 1 1 2.</_></rects>
      <tilted>0</tilted></_>
    <_>
      <rects>
        <_>
          0 14 1 6 -1.</_>
        <_>
          0 17 1 3 2.</_></rects>
      <tilted>0</tilted></_>
    <_>
      <rects>
        <_>
          0 14 10 2 -1.</_>
        <_>
          0 14 5 1 2.</_>
        <_>
          5 15 5 1 2.</_></rects>
      <tilted>0</tilted></_>
    <_>
      <rects>
        <_>
          0 14 12 6 -1.</_>
        <_>
          6 14 6 6 2.</_></rects>
      <tilted>0</tilted></_>
    <_>
      <rects>
        <_>
          0 15 1 2 -1.</_>
        <_>
          0 16 1 1 2.</_></rects>
      <tilted>0</tilted></_>
    <_>
      <rects>
        <_>
          0 15 1 3 -1.</_>
        <_>
          0 16 1 1 2.</_></rects>
      <tilted>0</tilted></_>
    <_>
      <rects>
        <_>
          0 15 8 1 -1.</_>
        <_>
          4 15 4 1 2.</_></rects>
      <tilted>0</tilted></_>
    <_>
      <rects>
        <_>
          0 15 12 3 -1.</_>
        <_>
          6 15 6 3 2.</_></rects>
      <tilted>0</tilted></_>
    <_>
      <rects>
        <_>
          0 16 1 2 -1.</_>
        <_>
          0 17 1 1 2.</_></rects>
      <tilted>0</tilted></_>
    <_>
      <rects>
        <_>
          0 16 2 2 -1.</_>
        <_>
          0 16 1 1 2.</_>
        <_>
          1 17 1 1 2.</_></rects>
      <tilted>0</tilted></_>
    <_>
      <rects>
        <_>
          0 16 1 4 -1.</_>
        <_>
          0 18 1 2 2.</_></rects>
      <tilted>0</tilted></_>
    <_>
      <rects>
        <_>
          0 16 2 4 -1.</_>
        <_>
          0 16 1 2 2.</_>
        <_>
          1 18 1 2 2.</_></rects>
      <tilted>0</tilted></_>
    <_>
      <rects>
        <_>
          0 16 6 4 -1.</_>
        <_>
          0 18 6 2 2.</_></rects>
      <tilted>0</tilted></_>
    <_>
      <rects>
        <_>
          0 16 12 4 -1.</_>
        <_>
          0 16 6 2 2.</_>
        <_>
          6 18 6 2 2.</_></rects>
      <tilted>0</tilted></_>
    <_>
      <rects>
        <_>
          0 16 10 4 -1.</_>
        <_>
          0 18 10 2 2.</_></rects>
      <tilted>0</tilted></_>
    <_>
      <rects>
        <_>
          0 17 1 3 -1.</_>
        <_>
          0 18 1 1 2.</_></rects>
      <tilted>0</tilted></_>
    <_>
      <rects>
        <_>
          0 17 4 1 -1.</_>
        <_>
          2 17 2 1 2.</_></rects>
      <tilted>0</tilted></_>
    <_>
      <rects>
        <_>
          0 17 10 3 -1.</_>
        <_>
          5 17 5 3 2.</_></rects>
      <tilted>0</tilted></_>
    <_>
      <rects>
        <_>
          0 17 12 2 -1.</_>
        <_>
          6 17 6 2 2.</_></rects>
      <tilted>0</tilted></_>
    <_>
      <rects>
        <_>
          0 17 11 2 -1.</_>
        <_>
          0 18 11 1 2.</_></rects>
      <tilted>0</tilted></_>
    <_>
      <rects>
        <_>
          0 17 12 2 -1.</_>
        <_>
          0 18 12 1 2.</_></rects>
      <tilted>0</tilted></_>
    <_>
      <rects>
        <_>
          0 18 1 2 -1.</_>
        <_>
          0 19 1 1 2.</_></rects>
      <tilted>0</tilted></_>
    <_>
      <rects>
        <_>
          0 18 9 1 -1.</_>
        <_>
          3 18 3 1 2.</_></rects>
      <tilted>0</tilted></_>
    <_>
      <rects>
        <_>
          0 18 8 2 -1.</_>
        <_>
          0 18 4 1 2.</_>
        <_>
          4 19 4 1 2.</_></rects>
      <tilted>0</tilted></_>
    <_>
      <rects>
        <_>
          0 18 12 2 -1.</_>
        <_>
          0 18 6 1 2.</_>
        <_>
          6 19 6 1 2.</_></rects>
      <tilted>0</tilted></_>
    <_>
      <rects>
        <_>
          0 18 12 2 -1.</_>
        <_>
          0 19 12 1 2.</_></rects>
      <tilted>0</tilted></_>
    <_>
      <rects>
        <_>
          0 19 2 1 -1.</_>
        <_>
          1 19 1 1 2.</_></rects>
      <tilted>0</tilted></_>
    <_>
      <rects>
        <_>
          1 0 2 8 -1.</_>
        <_>
          2 0 1 8 2.</_></rects>
      <tilted>0</tilted></_>
    <_>
      <rects>
        <_>
          1 0 6 1 -1.</_>
        <_>
          3 0 2 1 2.</_></rects>
      <tilted>0</tilted></_>
    <_>
      <rects>
        <_>
          1 0 2 4 -1.</_>
        <_>
          1 2 2 2 2.</_></rects>
      <tilted>0</tilted></_>
    <_>
      <rects>
        <_>
          1 0 2 6 -1.</_>
        <_>
          1 3 2 3 2.</_></rects>
      <tilted>0</tilted></_>
    <_>
      <rects>
        <_>
          1 0 8 4 -1.</_>
        <_>
          1 0 4 2 2.</_>
        <_>
          5 2 4 2 2.</_></rects>
      <tilted>0</tilted></_>
    <_>
      <rects>
        <_>
          1 0 5 2 -1.</_>
        <_>
          1 1 5 1 2.</_></rects>
      <tilted>0</tilted></_>
    <_>
      <rects>
        <_>
          1 0 8 3 -1.</_>
        <_>
          1 1 8 1 2.</_></rects>
      <tilted>0</tilted></_>
    <_>
      <rects>
        <_>
          1 0 10 2 -1.</_>
        <_>
          1 1 10 1 2.</_></rects>
      <tilted>0</tilted></_>
    <_>
      <rects>
        <_>
          1 1 1 16 -1.</_>
        <_>
          1 9 1 8 2.</_></rects>
      <tilted>0</tilted></_>
    <_>
      <rects>
        <_>
          1 1 8 2 -1.</_>
        <_>
          1 1 4 1 2.</_>
        <_>
          5 2 4 1 2.</_></rects>
      <tilted>0</tilted></_>
    <_>
      <rects>
        <_>
          1 1 10 18 -1.</_>
        <_>
          1 1 5 9 2.</_>
        <_>
          6 10 5 9 2.</_></rects>
      <tilted>0</tilted></_>
    <_>
      <rects>
        <_>
          1 1 9 2 -1.</_>
        <_>
          1 2 9 1 2.</_></rects>
      <tilted>0</tilted></_>
    <_>
      <rects>
        <_>
          1 2 9 3 -1.</_>
        <_>
          4 2 3 3 2.</_></rects>
      <tilted>0</tilted></_>
    <_>
      <rects>
        <_>
          1 3 6 6 -1.</_>
        <_>
          4 3 3 6 2.</_></rects>
      <tilted>0</tilted></_>
    <_>
      <rects>
        <_>
          1 3 8 6 -1.</_>
        <_>
          1 3 4 3 2.</_>
        <_>
          5 6 4 3 2.</_></rects>
      <tilted>0</tilted></_>
    <_>
      <rects>
        <_>
          1 3 11 2 -1.</_>
        <_>
          1 4 11 1 2.</_></rects>
      <tilted>0</tilted></_>
    <_>
      <rects>
        <_>
          1 4 2 1 -1.</_>
        <_>
          2 4 1 1 2.</_></rects>
      <tilted>0</tilted></_>
    <_>
      <rects>
        <_>
          1 4 1 2 -1.</_>
        <_>
          1 5 1 1 2.</_></rects>
      <tilted>0</tilted></_>
    <_>
      <rects>
        <_>
          1 4 2 2 -1.</_>
        <_>
          2 4 1 2 2.</_></rects>
      <tilted>0</tilted></_>
    <_>
      <rects>
        <_>
          1 4 2 2 -1.</_>
        <_>
          1 5 2 1 2.</_></rects>
      <tilted>0</tilted></_>
    <_>
      <rects>
        <_>
          1 4 3 12 -1.</_>
        <_>
          1 8 3 4 2.</_></rects>
      <tilted>0</tilted></_>
    <_>
      <rects>
        <_>
          1 4 8 10 -1.</_>
        <_>
          1 4 4 5 2.</_>
        <_>
          5 9 4 5 2.</_></rects>
      <tilted>0</tilted></_>
    <_>
      <rects>
        <_>
          1 4 8 6 -1.</_>
        <_>
          5 4 4 6 2.</_></rects>
      <tilted>0</tilted></_>
    <_>
      <rects>
        <_>
          1 4 7 2 -1.</_>
        <_>
          1 5 7 1 2.</_></rects>
      <tilted>0</tilted></_>
    <_>
      <rects>
        <_>
          1 4 9 4 -1.</_>
        <_>
          1 6 9 2 2.</_></rects>
      <tilted>0</tilted></_>
    <_>
      <rects>
        <_>
          1 5 2 6 -1.</_>
        <_>
          1 5 1 3 2.</_>
        <_>
          2 8 1 3 2.</_></rects>
      <tilted>0</tilted></_>
    <_>
      <rects>
        <_>
          1 5 9 1 -1.</_>
        <_>
          4 5 3 1 2.</_></rects>
      <tilted>0</tilted></_>
    <_>
      <rects>
        <_>
          1 6 1 2 -1.</_>
        <_>
          1 7 1 1 2.</_></rects>
      <tilted>0</tilted></_>
    <_>
      <rects>
        <_>
          1 6 2 2 -1.</_>
        <_>
          2 6 1 2 2.</_></rects>
      <tilted>0</tilted></_>
    <_>
      <rects>
        <_>
          1 6 4 5 -1.</_>
        <_>
          3 6 2 5 2.</_></rects>
      <tilted>0</tilted></_>
    <_>
      <rects>
        <_>
          1 6 4 12 -1.</_>
        <_>
          1 6 2 6 2.</_>
        <_>
          3 12 2 6 2.</_></rects>
      <tilted>0</tilted></_>
    <_>
      <rects>
        <_>
          1 7 8 2 -1.</_>
        <_>
          1 8 8 1 2.</_></rects>
      <tilted>0</tilted></_>
    <_>
      <rects>
        <_>
          1 8 2 6 -1.</_>
        <_>
          1 8 1 3 2.</_>
        <_>
          2 11 1 3 2.</_></rects>
      <tilted>0</tilted></_>
    <_>
      <rects>
        <_>
          1 8 2 12 -1.</_>
        <_>
          1 8 1 6 2.</_>
        <_>
          2 14 1 6 2.</_></rects>
      <tilted>0</tilted></_>
    <_>
      <rects>
        <_>
          1 8 11 2 -1.</_>
        <_>
          1 9 11 1 2.</_></rects>
      <tilted>0</tilted></_>
    <_>
      <rects>
        <_>
          1 9 4 8 -1.</_>
        <_>
          1 9 2 4 2.</_>
        <_>
          3 13 2 4 2.</_></rects>
      <tilted>0</tilted></_>
    <_>
      <rects>
        <_>
          1 10 2 8 -1.</_>
        <_>
          1 10 1 4 2.</_>
        <_>
          2 14 1 4 2.</_></rects>
      <tilted>0</tilted></_>
    <_>
      <rects>
        <_>
          1 10 6 2 -1.</_>
        <_>
          1 10 3 1 2.</_>
        <_>
          4 11 3 1 2.</_></rects>
      <tilted>0</tilted></_>
    <_>
      <rects>
        <_>
          1 11 1 2 -1.</_>
        <_>
          1 12 1 1 2.</_></rects>
      <tilted>0</tilted></_>
    <_>
      <rects>
        <_>
          1 11 2 2 -1.</_>
        <_>
          1 11 1 1 2.</_>
        <_>
          2 12 1 1 2.</_></rects>
      <tilted>0</tilted></_>
    <_>
      <rects>
        <_>
          1 11 6 4 -1.</_>
        <_>
          4 11 3 4 2.</_></rects>
      <tilted>0</tilted></_>
    <_>
      <rects>
        <_>
          1 12 2 2 -1.</_>
        <_>
          1 12 1 1 2.</_>
        <_>
          2 13 1 1 2.</_></rects>
      <tilted>0</tilted></_>
    <_>
      <rects>
        <_>
          1 12 4 6 -1.</_>
        <_>
          1 12 2 3 2.</_>
        <_>
          3 15 2 3 2.</_></rects>
      <tilted>0</tilted></_>
    <_>
      <rects>
        <_>
          1 12 11 4 -1.</_>
        <_>
          1 14 11 2 2.</_></rects>
      <tilted>0</tilted></_>
    <_>
      <rects>
        <_>
          1 12 11 6 -1.</_>
        <_>
          1 15 11 3 2.</_></rects>
      <tilted>0</tilted></_>
    <_>
      <rects>
        <_>
          1 13 6 2 -1.</_>
        <_>
          4 13 3 2 2.</_></rects>
      <tilted>0</tilted></_>
    <_>
      <rects>
        <_>
          1 14 2 4 -1.</_>
        <_>
          1 16 2 2 2.</_></rects>
      <tilted>0</tilted></_>
    <_>
      <rects>
        <_>
          1 14 6 2 -1.</_>
        <_>
          4 14 3 2 2.</_></rects>
      <tilted>0</tilted></_>
    <_>
      <rects>
        <_>
          1 15 1 3 -1.</_>
        <_>
          1 16 1 1 2.</_></rects>
      <tilted>0</tilted></_>
    <_>
      <rects>
        <_>
          1 15 10 4 -1.</_>
        <_>
          6 15 5 4 2.</_></rects>
      <tilted>0</tilted></_>
    <_>
      <rects>
        <_>
          1 15 9 2 -1.</_>
        <_>
          1 16 9 1 2.</_></rects>
      <tilted>0</tilted></_>
    <_>
      <rects>
        <_>
          1 16 2 4 -1.</_>
        <_>
          1 16 1 2 2.</_>
        <_>
          2 18 1 2 2.</_></rects>
      <tilted>0</tilted></_>
    <_>
      <rects>
        <_>
          1 16 10 1 -1.</_>
        <_>
          6 16 5 1 2.</_></rects>
      <tilted>0</tilted></_>
    <_>
      <rects>
        <_>
          1 16 10 4 -1.</_>
        <_>
          1 16 5 2 2.</_>
        <_>
          6 18 5 2 2.</_></rects>
      <tilted>0</tilted></_>
    <_>
      <rects>
        <_>
          1 16 7 2 -1.</_>
        <_>
          1 17 7 1 2.</_></rects>
      <tilted>0</tilted></_>
    <_>
      <rects>
        <_>
          1 16 7 4 -1.</_>
        <_>
          1 18 7 2 2.</_></rects>
      <tilted>0</tilted></_>
    <_>
      <rects>
        <_>
          1 16 9 4 -1.</_>
        <_>
          1 18 9 2 2.</_></rects>
      <tilted>0</tilted></_>
    <_>
      <rects>
        <_>
          1 17 1 2 -1.</_>
        <_>
          1 18 1 1 2.</_></rects>
      <tilted>0</tilted></_>
    <_>
      <rects>
        <_>
          1 17 8 2 -1.</_>
        <_>
          1 17 4 1 2.</_>
        <_>
          5 18 4 1 2.</_></rects>
      <tilted>0</tilted></_>
    <_>
      <rects>
        <_>
          1 17 11 2 -1.</_>
        <_>
          1 18 11 1 2.</_></rects>
      <tilted>0</tilted></_>
    <_>
      <rects>
        <_>
          1 18 2 2 -1.</_>
        <_>
          2 18 1 2 2.</_></rects>
      <tilted>0</tilted></_>
    <_>
      <rects>
        <_>
          1 18 8 2 -1.</_>
        <_>
          1 18 4 1 2.</_>
        <_>
          5 19 4 1 2.</_></rects>
      <tilted>0</tilted></_>
    <_>
      <rects>
        <_>
          1 18 10 2 -1.</_>
        <_>
          1 19 10 1 2.</_></rects>
      <tilted>0</tilted></_>
    <_>
      <rects>
        <_>
          2 0 1 2 -1.</_>
        <_>
          2 1 1 1 2.</_></rects>
      <tilted>0</tilted></_>
    <_>
      <rects>
        <_>
          2 0 2 5 -1.</_>
        <_>
          3 0 1 5 2.</_></rects>
      <tilted>0</tilted></_>
    <_>
      <rects>
        <_>
          2 0 2 6 -1.</_>
        <_>
          3 0 1 6 2.</_></rects>
      <tilted>0</tilted></_>
    <_>
      <rects>
        <_>
          2 0 4 2 -1.</_>
        <_>
          2 0 2 1 2.</_>
        <_>
          4 1 2 1 2.</_></rects>
      <tilted>0</tilted></_>
    <_>
      <rects>
        <_>
          2 0 6 4 -1.</_>
        <_>
          2 0 3 2 2.</_>
        <_>
          5 2 3 2 2.</_></rects>
      <tilted>0</tilted></_>
    <_>
      <rects>
        <_>
          2 0 6 9 -1.</_>
        <_>
          5 0 3 9 2.</_></rects>
      <tilted>0</tilted></_>
    <_>
      <rects>
        <_>
          2 0 4 2 -1.</_>
        <_>
          2 1 4 1 2.</_></rects>
      <tilted>0</tilted></_>
    <_>
      <rects>
        <_>
          2 0 8 2 -1.</_>
        <_>
          2 0 4 1 2.</_>
        <_>
          6 1 4 1 2.</_></rects>
      <tilted>0</tilted></_>
    <_>
      <rects>
        <_>
          2 0 8 8 -1.</_>
        <_>
          2 0 4 4 2.</_>
        <_>
          6 4 4 4 2.</_></rects>
      <tilted>0</tilted></_>
    <_>
      <rects>
        <_>
          2 0 10 18 -1.</_>
        <_>
          2 0 5 9 2.</_>
        <_>
          7 9 5 9 2.</_></rects>
      <tilted>0</tilted></_>
    <_>
      <rects>
        <_>
          2 0 10 19 -1.</_>
        <_>
          7 0 5 19 2.</_></rects>
      <tilted>0</tilted></_>
    <_>
      <rects>
        <_>
          2 0 10 20 -1.</_>
        <_>
          7 0 5 20 2.</_></rects>
      <tilted>0</tilted></_>
    <_>
      <rects>
        <_>
          2 0 10 2 -1.</_>
        <_>
          2 1 10 1 2.</_></rects>
      <tilted>0</tilted></_>
    <_>
      <rects>
        <_>
          2 1 1 2 -1.</_>
        <_>
          2 2 1 1 2.</_></rects>
      <tilted>0</tilted></_>
    <_>
      <rects>
        <_>
          2 1 2 2 -1.</_>
        <_>
          2 2 2 1 2.</_></rects>
      <tilted>0</tilted></_>
    <_>
      <rects>
        <_>
          2 1 3 2 -1.</_>
        <_>
          2 2 3 1 2.</_></rects>
      <tilted>0</tilted></_>
    <_>
      <rects>
        <_>
          2 1 8 2 -1.</_>
        <_>
          2 1 4 1 2.</_>
        <_>
          6 2 4 1 2.</_></rects>
      <tilted>0</tilted></_>
    <_>
      <rects>
        <_>
          2 1 4 9 -1.</_>
        <_>
          2 4 4 3 2.</_></rects>
      <tilted>0</tilted></_>
    <_>
      <rects>
        <_>
          2 1 8 2 -1.</_>
        <_>
          2 2 8 1 2.</_></rects>
      <tilted>0</tilted></_>
    <_>
      <rects>
        <_>
          2 2 2 2 -1.</_>
        <_>
          2 3 2 1 2.</_></rects>
      <tilted>0</tilted></_>
    <_>
      <rects>
        <_>
          2 2 2 8 -1.</_>
        <_>
          2 6 2 4 2.</_></rects>
      <tilted>0</tilted></_>
    <_>
      <rects>
        <_>
          2 2 6 8 -1.</_>
        <_>
          2 2 3 4 2.</_>
        <_>
          5 6 3 4 2.</_></rects>
      <tilted>0</tilted></_>
    <_>
      <rects>
        <_>
          2 2 8 7 -1.</_>
        <_>
          6 2 4 7 2.</_></rects>
      <tilted>0</tilted></_>
    <_>
      <rects>
        <_>
          2 2 8 11 -1.</_>
        <_>
          6 2 4 11 2.</_></rects>
      <tilted>0</tilted></_>
    <_>
      <rects>
        <_>
          2 2 7 4 -1.</_>
        <_>
          2 4 7 2 2.</_></rects>
      <tilted>0</tilted></_>
    <_>
      <rects>
        <_>
          2 2 9 18 -1.</_>
        <_>
          2 11 9 9 2.</_></rects>
      <tilted>0</tilted></_>
    <_>
      <rects>
        <_>
          2 3 9 2 -1.</_>
        <_>
          2 4 9 1 2.</_></rects>
      <tilted>0</tilted></_>
    <_>
      <rects>
        <_>
          2 3 10 6 -1.</_>
        <_>
          2 6 10 3 2.</_></rects>
      <tilted>0</tilted></_>
    <_>
      <rects>
        <_>
          2 4 2 2 -1.</_>
        <_>
          3 4 1 2 2.</_></rects>
      <tilted>0</tilted></_>
    <_>
      <rects>
        <_>
          2 4 2 6 -1.</_>
        <_>
          2 4 1 3 2.</_>
        <_>
          3 7 1 3 2.</_></rects>
      <tilted>0</tilted></_>
    <_>
      <rects>
        <_>
          2 5 2 2 -1.</_>
        <_>
          2 5 1 1 2.</_>
        <_>
          3 6 1 1 2.</_></rects>
      <tilted>0</tilted></_>
    <_>
      <rects>
        <_>
          2 5 2 12 -1.</_>
        <_>
          3 5 1 12 2.</_></rects>
      <tilted>0</tilted></_>
    <_>
      <rects>
        <_>
          2 5 3 2 -1.</_>
        <_>
          2 6 3 1 2.</_></rects>
      <tilted>0</tilted></_>
    <_>
      <rects>
        <_>
          2 6 4 2 -1.</_>
        <_>
          4 6 2 2 2.</_></rects>
      <tilted>0</tilted></_>
    <_>
      <rects>
        <_>
          2 6 6 12 -1.</_>
        <_>
          2 6 3 6 2.</_>
        <_>
          5 12 3 6 2.</_></rects>
      <tilted>0</tilted></_>
    <_>
      <rects>
        <_>
          2 6 6 10 -1.</_>
        <_>
          2 11 6 5 2.</_></rects>
      <tilted>0</tilted></_>
    <_>
      <rects>
        <_>
          2 6 10 2 -1.</_>
        <_>
          2 7 10 1 2.</_></rects>
      <tilted>0</tilted></_>
    <_>
      <rects>
        <_>
          2 7 2 2 -1.</_>
        <_>
          3 7 1 2 2.</_></rects>
      <tilted>0</tilted></_>
    <_>
      <rects>
        <_>
          2 7 2 3 -1.</_>
        <_>
          2 8 2 1 2.</_></rects>
      <tilted>0</tilted></_>
    <_>
      <rects>
        <_>
          2 7 6 4 -1.</_>
        <_>
          2 7 3 2 2.</_>
        <_>
          5 9 3 2 2.</_></rects>
      <tilted>0</tilted></_>
    <_>
      <rects>
        <_>
          2 7 4 3 -1.</_>
        <_>
          2 8 4 1 2.</_></rects>
      <tilted>0</tilted></_>
    <_>
      <rects>
        <_>
          2 7 7 4 -1.</_>
        <_>
          2 9 7 2 2.</_></rects>
      <tilted>0</tilted></_>
    <_>
      <rects>
        <_>
          2 7 7 12 -1.</_>
        <_>
          2 13 7 6 2.</_></rects>
      <tilted>0</tilted></_>
    <_>
      <rects>
        <_>
          2 8 3 1 -1.</_>
        <_>
          3 8 1 1 2.</_></rects>
      <tilted>0</tilted></_>
    <_>
      <rects>
        <_>
          2 8 2 6 -1.</_>
        <_>
          2 8 1 3 2.</_>
        <_>
          3 11 1 3 2.</_></rects>
      <tilted>0</tilted></_>
    <_>
      <rects>
        <_>
          2 8 2 2 -1.</_>
        <_>
          2 9 2 1 2.</_></rects>
      <tilted>0</tilted></_>
    <_>
      <rects>
        <_>
          2 8 4 8 -1.</_>
        <_>
          2 8 2 4 2.</_>
        <_>
          4 12 2 4 2.</_></rects>
      <tilted>0</tilted></_>
    <_>
      <rects>
        <_>
          2 8 6 12 -1.</_>
        <_>
          2 14 6 6 2.</_></rects>
      <tilted>0</tilted></_>
    <_>
      <rects>
        <_>
          2 8 8 6 -1.</_>
        <_>
          2 11 8 3 2.</_></rects>
      <tilted>0</tilted></_>
    <_>
      <rects>
        <_>
          2 8 9 2 -1.</_>
        <_>
          2 9 9 1 2.</_></rects>
      <tilted>0</tilted></_>
    <_>
      <rects>
        <_>
          2 9 4 10 -1.</_>
        <_>
          2 9 2 5 2.</_>
        <_>
          4 14 2 5 2.</_></rects>
      <tilted>0</tilted></_>
    <_>
      <rects>
        <_>
          2 10 2 4 -1.</_>
        <_>
          2 10 1 2 2.</_>
        <_>
          3 12 1 2 2.</_></rects>
      <tilted>0</tilted></_>
    <_>
      <rects>
        <_>
          2 10 2 2 -1.</_>
        <_>
          2 11 2 1 2.</_></rects>
      <tilted>0</tilted></_>
    <_>
      <rects>
        <_>
          2 11 2 2 -1.</_>
        <_>
          2 11 1 1 2.</_>
        <_>
          3 12 1 1 2.</_></rects>
      <tilted>0</tilted></_>
    <_>
      <rects>
        <_>
          2 11 2 5 -1.</_>
        <_>
          3 11 1 5 2.</_></rects>
      <tilted>0</tilted></_>
    <_>
      <rects>
        <_>
          2 11 2 8 -1.</_>
        <_>
          2 15 2 4 2.</_></rects>
      <tilted>0</tilted></_>
    <_>
      <rects>
        <_>
          2 11 4 8 -1.</_>
        <_>
          2 11 2 4 2.</_>
        <_>
          4 15 2 4 2.</_></rects>
      <tilted>0</tilted></_>
    <_>
      <rects>
        <_>
          2 11 10 7 -1.</_>
        <_>
          7 11 5 7 2.</_></rects>
      <tilted>0</tilted></_>
    <_>
      <rects>
        <_>
          2 11 9 6 -1.</_>
        <_>
          2 13 9 2 2.</_></rects>
      <tilted>0</tilted></_>
    <_>
      <rects>
        <_>
          2 12 4 1 -1.</_>
        <_>
          4 12 2 1 2.</_></rects>
      <tilted>0</tilted></_>
    <_>
      <rects>
        <_>
          2 12 2 6 -1.</_>
        <_>
          2 15 2 3 2.</_></rects>
      <tilted>0</tilted></_>
    <_>
      <rects>
        <_>
          2 12 9 4 -1.</_>
        <_>
          2 14 9 2 2.</_></rects>
      <tilted>0</tilted></_>
    <_>
      <rects>
        <_>
          2 13 2 2 -1.</_>
        <_>
          2 13 1 1 2.</_>
        <_>
          3 14 1 1 2.</_></rects>
      <tilted>0</tilted></_>
    <_>
      <rects>
        <_>
          2 14 2 3 -1.</_>
        <_>
          3 14 1 3 2.</_></rects>
      <tilted>0</tilted></_>
    <_>
      <rects>
        <_>
          2 14 6 1 -1.</_>
        <_>
          4 14 2 1 2.</_></rects>
      <tilted>0</tilted></_>
    <_>
      <rects>
        <_>
          2 14 10 4 -1.</_>
        <_>
          7 14 5 4 2.</_></rects>
      <tilted>0</tilted></_>
    <_>
      <rects>
        <_>
          2 15 2 5 -1.</_>
        <_>
          3 15 1 5 2.</_></rects>
      <tilted>0</tilted></_>
    <_>
      <rects>
        <_>
          2 16 4 4 -1.</_>
        <_>
          2 18 4 2 2.</_></rects>
      <tilted>0</tilted></_>
    <_>
      <rects>
        <_>
          2 16 8 3 -1.</_>
        <_>
          6 16 4 3 2.</_></rects>
      <tilted>0</tilted></_>
    <_>
      <rects>
        <_>
          2 17 2 2 -1.</_>
        <_>
          2 17 1 1 2.</_>
        <_>
          3 18 1 1 2.</_></rects>
      <tilted>0</tilted></_>
    <_>
      <rects>
        <_>
          2 17 2 3 -1.</_>
        <_>
          3 17 1 3 2.</_></rects>
      <tilted>0</tilted></_>
    <_>
      <rects>
        <_>
          2 17 3 3 -1.</_>
        <_>
          2 18 3 1 2.</_></rects>
      <tilted>0</tilted></_>
    <_>
      <rects>
        <_>
          2 17 6 2 -1.</_>
        <_>
          2 17 3 1 2.</_>
        <_>
          5 18 3 1 2.</_></rects>
      <tilted>0</tilted></_>
    <_>
      <rects>
        <_>
          2 17 10 2 -1.</_>
        <_>
          7 17 5 2 2.</_></rects>
      <tilted>0</tilted></_>
    <_>
      <rects>
        <_>
          2 18 3 2 -1.</_>
        <_>
          2 19 3 1 2.</_></rects>
      <tilted>0</tilted></_>
    <_>
      <rects>
        <_>
          2 18 6 2 -1.</_>
        <_>
          2 18 3 1 2.</_>
        <_>
          5 19 3 1 2.</_></rects>
      <tilted>0</tilted></_>
    <_>
      <rects>
        <_>
          2 18 10 1 -1.</_>
        <_>
          7 18 5 1 2.</_></rects>
      <tilted>0</tilted></_>
    <_>
      <rects>
        <_>
          2 18 10 2 -1.</_>
        <_>
          2 18 5 1 2.</_>
        <_>
          7 19 5 1 2.</_></rects>
      <tilted>0</tilted></_>
    <_>
      <rects>
        <_>
          3 0 2 4 -1.</_>
        <_>
          4 0 1 4 2.</_></rects>
      <tilted>0</tilted></_>
    <_>
      <rects>
        <_>
          3 0 4 2 -1.</_>
        <_>
          3 0 2 1 2.</_>
        <_>
          5 1 2 1 2.</_></rects>
      <tilted>0</tilted></_>
    <_>
      <rects>
        <_>
          3 0 9 1 -1.</_>
        <_>
          6 0 3 1 2.</_></rects>
      <tilted>0</tilted></_>
    <_>
      <rects>
        <_>
          3 0 3 3 -1.</_>
        <_>
          3 1 3 1 2.</_></rects>
      <tilted>0</tilted></_>
    <_>
      <rects>
        <_>
          3 0 6 2 -1.</_>
        <_>
          3 0 3 1 2.</_>
        <_>
          6 1 3 1 2.</_></rects>
      <tilted>0</tilted></_>
    <_>
      <rects>
        <_>
          3 0 4 2 -1.</_>
        <_>
          3 1 4 1 2.</_></rects>
      <tilted>0</tilted></_>
    <_>
      <rects>
        <_>
          3 0 8 4 -1.</_>
        <_>
          3 0 4 2 2.</_>
        <_>
          7 2 4 2 2.</_></rects>
      <tilted>0</tilted></_>
    <_>
      <rects>
        <_>
          3 0 7 3 -1.</_>
        <_>
          3 1 7 1 2.</_></rects>
      <tilted>0</tilted></_>
    <_>
      <rects>
        <_>
          3 1 2 8 -1.</_>
        <_>
          3 1 1 4 2.</_>
        <_>
          4 5 1 4 2.</_></rects>
      <tilted>0</tilted></_>
    <_>
      <rects>
        <_>
          3 1 2 5 -1.</_>
        <_>
          4 1 1 5 2.</_></rects>
      <tilted>0</tilted></_>
    <_>
      <rects>
        <_>
          3 1 4 2 -1.</_>
        <_>
          3 1 2 1 2.</_>
        <_>
          5 2 2 1 2.</_></rects>
      <tilted>0</tilted></_>
    <_>
      <rects>
        <_>
          3 1 8 4 -1.</_>
        <_>
          3 3 8 2 2.</_></rects>
      <tilted>0</tilted></_>
    <_>
      <rects>
        <_>
          3 2 2 3 -1.</_>
        <_>
          4 2 1 3 2.</_></rects>
      <tilted>0</tilted></_>
    <_>
      <rects>
        <_>
          3 2 3 4 -1.</_>
        <_>
          3 4 3 2 2.</_></rects>
      <tilted>0</tilted></_>
    <_>
      <rects>
        <_>
          3 2 6 8 -1.</_>
        <_>
          6 2 3 8 2.</_></rects>
      <tilted>0</tilted></_>
    <_>
      <rects>
        <_>
          3 3 1 16 -1.</_>
        <_>
          3 11 1 8 2.</_></rects>
      <tilted>0</tilted></_>
    <_>
      <rects>
        <_>
          3 3 4 3 -1.</_>
        <_>
          5 3 2 3 2.</_></rects>
      <tilted>0</tilted></_>
    <_>
      <rects>
        <_>
          3 4 2 2 -1.</_>
        <_>
          3 4 1 1 2.</_>
        <_>
          4 5 1 1 2.</_></rects>
      <tilted>0</tilted></_>
    <_>
      <rects>
        <_>
          3 4 6 14 -1.</_>
        <_>
          3 4 3 7 2.</_>
        <_>
          6 11 3 7 2.</_></rects>
      <tilted>0</tilted></_>
    <_>
      <rects>
        <_>
          3 5 1 6 -1.</_>
        <_>
          3 8 1 3 2.</_></rects>
      <tilted>0</tilted></_>
    <_>
      <rects>
        <_>
          3 5 2 6 -1.</_>
        <_>
          3 5 1 3 2.</_>
        <_>
          4 8 1 3 2.</_></rects>
      <tilted>0</tilted></_>
    <_>
      <rects>
        <_>
          3 5 4 6 -1.</_>
        <_>
          3 5 2 3 2.</_>
        <_>
          5 8 2 3 2.</_></rects>
      <tilted>0</tilted></_>
    <_>
      <rects>
        <_>
          3 5 4 10 -1.</_>
        <_>
          3 5 2 5 2.</_>
        <_>
          5 10 2 5 2.</_></rects>
      <tilted>0</tilted></_>
    <_>
      <rects>
        <_>
          3 5 4 7 -1.</_>
        <_>
          5 5 2 7 2.</_></rects>
      <tilted>0</tilted></_>
    <_>
      <rects>
        <_>
          3 5 3 4 -1.</_>
        <_>
          3 7 3 2 2.</_></rects>
      <tilted>0</tilted></_>
    <_>
      <rects>
        <_>
          3 6 2 2 -1.</_>
        <_>
          3 6 1 1 2.</_>
        <_>
          4 7 1 1 2.</_></rects>
      <tilted>0</tilted></_>
    <_>
      <rects>
        <_>
          3 6 4 12 -1.</_>
        <_>
          3 6 2 6 2.</_>
        <_>
          5 12 2 6 2.</_></rects>
      <tilted>0</tilted></_>
    <_>
      <rects>
        <_>
          3 6 6 12 -1.</_>
        <_>
          3 6 3 6 2.</_>
        <_>
          6 12 3 6 2.</_></rects>
      <tilted>0</tilted></_>
    <_>
      <rects>
        <_>
          3 6 8 12 -1.</_>
        <_>
          3 6 4 6 2.</_>
        <_>
          7 12 4 6 2.</_></rects>
      <tilted>0</tilted></_>
    <_>
      <rects>
        <_>
          3 6 5 2 -1.</_>
        <_>
          3 7 5 1 2.</_></rects>
      <tilted>0</tilted></_>
    <_>
      <rects>
        <_>
          3 7 2 1 -1.</_>
        <_>
          4 7 1 1 2.</_></rects>
      <tilted>0</tilted></_>
    <_>
      <rects>
        <_>
          3 7 4 4 -1.</_>
        <_>
          3 7 2 2 2.</_>
        <_>
          5 9 2 2 2.</_></rects>
      <tilted>0</tilted></_>
    <_>
      <rects>
        <_>
          3 7 4 3 -1.</_>
        <_>
          5 7 2 3 2.</_></rects>
      <tilted>0</tilted></_>
    <_>
      <rects>
        <_>
          3 7 6 1 -1.</_>
        <_>
          6 7 3 1 2.</_></rects>
      <tilted>0</tilted></_>
    <_>
      <rects>
        <_>
          3 7 6 2 -1.</_>
        <_>
          3 8 6 1 2.</_></rects>
      <tilted>0</tilted></_>
    <_>
      <rects>
        <_>
          3 7 6 10 -1.</_>
        <_>
          3 12 6 5 2.</_></rects>
      <tilted>0</tilted></_>
    <_>
      <rects>
        <_>
          3 8 2 2 -1.</_>
        <_>
          4 8 1 2 2.</_></rects>
      <tilted>0</tilted></_>
    <_>
      <rects>
        <_>
          3 8 9 2 -1.</_>
        <_>
          3 9 9 1 2.</_></rects>
      <tilted>0</tilted></_>
    <_>
      <rects>
        <_>
          3 9 4 5 -1.</_>
        <_>
          5 9 2 5 2.</_></rects>
      <tilted>0</tilted></_>
    <_>
      <rects>
        <_>
          3 10 1 2 -1.</_>
        <_>
          3 11 1 1 2.</_></rects>
      <tilted>0</tilted></_>
    <_>
      <rects>
        <_>
          3 10 5 4 -1.</_>
        <_>
          3 12 5 2 2.</_></rects>
      <tilted>0</tilted></_>
    <_>
      <rects>
        <_>
          3 11 2 2 -1.</_>
        <_>
          3 11 1 1 2.</_>
        <_>
          4 12 1 1 2.</_></rects>
      <tilted>0</tilted></_>
    <_>
      <rects>
        <_>
          3 11 4 3 -1.</_>
        <_>
          5 11 2 3 2.</_></rects>
      <tilted>0</tilted></_>
    <_>
      <rects>
        <_>
          3 11 4 4 -1.</_>
        <_>
          5 11 2 4 2.</_></rects>
      <tilted>0</tilted></_>
    <_>
      <rects>
        <_>
          3 11 6 2 -1.</_>
        <_>
          3 11 3 1 2.</_>
        <_>
          6 12 3 1 2.</_></rects>
      <tilted>0</tilted></_>
    <_>
      <rects>
        <_>
          3 12 2 2 -1.</_>
        <_>
          3 12 1 1 2.</_>
        <_>
          4 13 1 1 2.</_></rects>
      <tilted>0</tilted></_>
    <_>
      <rects>
        <_>
          3 12 4 2 -1.</_>
        <_>
          3 12 2 1 2.</_>
        <_>
          5 13 2 1 2.</_></rects>
      <tilted>0</tilted></_>
    <_>
      <rects>
        <_>
          3 12 7 8 -1.</_>
        <_>
          3 16 7 4 2.</_></rects>
      <tilted>0</tilted></_>
    <_>
      <rects>
        <_>
          3 14 2 2 -1.</_>
        <_>
          4 14 1 2 2.</_></rects>
      <tilted>0</tilted></_>
    <_>
      <rects>
        <_>
          3 15 6 4 -1.</_>
        <_>
          3 15 3 2 2.</_>
        <_>
          6 17 3 2 2.</_></rects>
      <tilted>0</tilted></_>
    <_>
      <rects>
        <_>
          3 18 2 1 -1.</_>
        <_>
          4 18 1 1 2.</_></rects>
      <tilted>0</tilted></_>
    <_>
      <rects>
        <_>
          3 18 6 2 -1.</_>
        <_>
          3 18 3 1 2.</_>
        <_>
          6 19 3 1 2.</_></rects>
      <tilted>0</tilted></_>
    <_>
      <rects>
        <_>
          3 18 8 2 -1.</_>
        <_>
          3 18 4 1 2.</_>
        <_>
          7 19 4 1 2.</_></rects>
      <tilted>0</tilted></_>
    <_>
      <rects>
        <_>
          4 0 2 6 -1.</_>
        <_>
          4 0 1 3 2.</_>
        <_>
          5 3 1 3 2.</_></rects>
      <tilted>0</tilted></_>
    <_>
      <rects>
        <_>
          4 0 4 2 -1.</_>
        <_>
          4 0 2 1 2.</_>
        <_>
          6 1 2 1 2.</_></rects>
      <tilted>0</tilted></_>
    <_>
      <rects>
        <_>
          4 0 4 4 -1.</_>
        <_>
          4 0 2 2 2.</_>
        <_>
          6 2 2 2 2.</_></rects>
      <tilted>0</tilted></_>
    <_>
      <rects>
        <_>
          4 0 4 8 -1.</_>
        <_>
          6 0 2 8 2.</_></rects>
      <tilted>0</tilted></_>
    <_>
      <rects>
        <_>
          4 0 4 18 -1.</_>
        <_>
          4 0 2 9 2.</_>
        <_>
          6 9 2 9 2.</_></rects>
      <tilted>0</tilted></_>
    <_>
      <rects>
        <_>
          4 0 4 12 -1.</_>
        <_>
          6 0 2 12 2.</_></rects>
      <tilted>0</tilted></_>
    <_>
      <rects>
        <_>
          4 0 6 4 -1.</_>
        <_>
          4 0 3 2 2.</_>
        <_>
          7 2 3 2 2.</_></rects>
      <tilted>0</tilted></_>
    <_>
      <rects>
        <_>
          4 0 4 2 -1.</_>
        <_>
          4 1 4 1 2.</_></rects>
      <tilted>0</tilted></_>
    <_>
      <rects>
        <_>
          4 0 8 2 -1.</_>
        <_>
          8 0 4 2 2.</_></rects>
      <tilted>0</tilted></_>
    <_>
      <rects>
        <_>
          4 0 8 9 -1.</_>
        <_>
          8 0 4 9 2.</_></rects>
      <tilted>0</tilted></_>
    <_>
      <rects>
        <_>
          4 0 7 2 -1.</_>
        <_>
          4 1 7 1 2.</_></rects>
      <tilted>0</tilted></_>
    <_>
      <rects>
        <_>
          4 1 2 4 -1.</_>
        <_>
          5 1 1 4 2.</_></rects>
      <tilted>0</tilted></_>
    <_>
      <rects>
        <_>
          4 1 2 19 -1.</_>
        <_>
          5 1 1 19 2.</_></rects>
      <tilted>0</tilted></_>
    <_>
      <rects>
        <_>
          4 1 6 2 -1.</_>
        <_>
          4 1 3 1 2.</_>
        <_>
          7 2 3 1 2.</_></rects>
      <tilted>0</tilted></_>
    <_>
      <rects>
        <_>
          4 1 3 14 -1.</_>
        <_>
          4 8 3 7 2.</_></rects>
      <tilted>0</tilted></_>
    <_>
      <rects>
        <_>
          4 1 6 18 -1.</_>
        <_>
          4 1 3 9 2.</_>
        <_>
          7 10 3 9 2.</_></rects>
      <tilted>0</tilted></_>
    <_>
      <rects>
        <_>
          4 2 1 14 -1.</_>
        <_>
          4 9 1 7 2.</_></rects>
      <tilted>0</tilted></_>
    <_>
      <rects>
        <_>
          4 2 4 2 -1.</_>
        <_>
          4 2 2 1 2.</_>
        <_>
          6 3 2 1 2.</_></rects>
      <tilted>0</tilted></_>
    <_>
      <rects>
        <_>
          4 2 4 4 -1.</_>
        <_>
          6 2 2 4 2.</_></rects>
      <tilted>0</tilted></_>
    <_>
      <rects>
        <_>
          4 2 4 14 -1.</_>
        <_>
          4 9 4 7 2.</_></rects>
      <tilted>0</tilted></_>
    <_>
      <rects>
        <_>
          4 3 3 6 -1.</_>
        <_>
          5 3 1 6 2.</_></rects>
      <tilted>0</tilted></_>
    <_>
      <rects>
        <_>
          4 4 6 2 -1.</_>
        <_>
          7 4 3 2 2.</_></rects>
      <tilted>0</tilted></_>
    <_>
      <rects>
        <_>
          4 4 4 2 -1.</_>
        <_>
          4 5 4 1 2.</_></rects>
      <tilted>0</tilted></_>
    <_>
      <rects>
        <_>
          4 4 8 2 -1.</_>
        <_>
          4 4 4 1 2.</_>
        <_>
          8 5 4 1 2.</_></rects>
      <tilted>0</tilted></_>
    <_>
      <rects>
        <_>
          4 4 5 2 -1.</_>
        <_>
          4 5 5 1 2.</_></rects>
      <tilted>0</tilted></_>
    <_>
      <rects>
        <_>
          4 5 2 6 -1.</_>
        <_>
          4 5 1 3 2.</_>
        <_>
          5 8 1 3 2.</_></rects>
      <tilted>0</tilted></_>
    <_>
      <rects>
        <_>
          4 5 4 6 -1.</_>
        <_>
          6 5 2 6 2.</_></rects>
      <tilted>0</tilted></_>
    <_>
      <rects>
        <_>
          4 5 4 7 -1.</_>
        <_>
          6 5 2 7 2.</_></rects>
      <tilted>0</tilted></_>
    <_>
      <rects>
        <_>
          4 6 2 12 -1.</_>
        <_>
          5 6 1 12 2.</_></rects>
      <tilted>0</tilted></_>
    <_>
      <rects>
        <_>
          4 6 4 3 -1.</_>
        <_>
          6 6 2 3 2.</_></rects>
      <tilted>0</tilted></_>
    <_>
      <rects>
        <_>
          4 6 8 2 -1.</_>
        <_>
          4 6 4 1 2.</_>
        <_>
          8 7 4 1 2.</_></rects>
      <tilted>0</tilted></_>
    <_>
      <rects>
        <_>
          4 7 2 1 -1.</_>
        <_>
          5 7 1 1 2.</_></rects>
      <tilted>0</tilted></_>
    <_>
      <rects>
        <_>
          4 7 4 1 -1.</_>
        <_>
          6 7 2 1 2.</_></rects>
      <tilted>0</tilted></_>
    <_>
      <rects>
        <_>
          4 7 4 3 -1.</_>
        <_>
          6 7 2 3 2.</_></rects>
      <tilted>0</tilted></_>
    <_>
      <rects>
        <_>
          4 8 2 1 -1.</_>
        <_>
          5 8 1 1 2.</_></rects>
      <tilted>0</tilted></_>
    <_>
      <rects>
        <_>
          4 8 2 2 -1.</_>
        <_>
          4 8 1 1 2.</_>
        <_>
          5 9 1 1 2.</_></rects>
      <tilted>0</tilted></_>
    <_>
      <rects>
        <_>
          4 8 2 12 -1.</_>
        <_>
          4 8 1 6 2.</_>
        <_>
          5 14 1 6 2.</_></rects>
      <tilted>0</tilted></_>
    <_>
      <rects>
        <_>
          4 8 5 4 -1.</_>
        <_>
          4 10 5 2 2.</_></rects>
      <tilted>0</tilted></_>
    <_>
      <rects>
        <_>
          4 9 2 2 -1.</_>
        <_>
          4 10 2 1 2.</_></rects>
      <tilted>0</tilted></_>
    <_>
      <rects>
        <_>
          4 9 6 2 -1.</_>
        <_>
          4 9 3 1 2.</_>
        <_>
          7 10 3 1 2.</_></rects>
      <tilted>0</tilted></_>
    <_>
      <rects>
        <_>
          4 10 1 3 -1.</_>
        <_>
          4 11 1 1 2.</_></rects>
      <tilted>0</tilted></_>
    <_>
      <rects>
        <_>
          4 10 3 5 -1.</_>
        <_>
          5 10 1 5 2.</_></rects>
      <tilted>0</tilted></_>
    <_>
      <rects>
        <_>
          4 11 2 4 -1.</_>
        <_>
          5 11 1 4 2.</_></rects>
      <tilted>0</tilted></_>
    <_>
      <rects>
        <_>
          4 12 2 2 -1.</_>
        <_>
          4 12 1 1 2.</_>
        <_>
          5 13 1 1 2.</_></rects>
      <tilted>0</tilted></_>
    <_>
      <rects>
        <_>
          4 12 4 2 -1.</_>
        <_>
          4 12 2 1 2.</_>
        <_>
          6 13 2 1 2.</_></rects>
      <tilted>0</tilted></_>
    <_>
      <rects>
        <_>
          4 12 4 3 -1.</_>
        <_>
          6 12 2 3 2.</_></rects>
      <tilted>0</tilted></_>
    <_>
      <rects>
        <_>
          4 12 4 4 -1.</_>
        <_>
          6 12 2 4 2.</_></rects>
      <tilted>0</tilted></_>
    <_>
      <rects>
        <_>
          4 13 2 2 -1.</_>
        <_>
          4 13 1 1 2.</_>
        <_>
          5 14 1 1 2.</_></rects>
      <tilted>0</tilted></_>
    <_>
      <rects>
        <_>
          4 14 6 6 -1.</_>
        <_>
          4 17 6 3 2.</_></rects>
      <tilted>0</tilted></_>
    <_>
      <rects>
        <_>
          4 15 8 2 -1.</_>
        <_>
          4 15 4 1 2.</_>
        <_>
          8 16 4 1 2.</_></rects>
      <tilted>0</tilted></_>
    <_>
      <rects>
        <_>
          4 15 7 2 -1.</_>
        <_>
          4 16 7 1 2.</_></rects>
      <tilted>0</tilted></_>
    <_>
      <rects>
        <_>
          4 16 6 4 -1.</_>
        <_>
          4 16 3 2 2.</_>
        <_>
          7 18 3 2 2.</_></rects>
      <tilted>0</tilted></_>
    <_>
      <rects>
        <_>
          4 18 2 2 -1.</_>
        <_>
          4 19 2 1 2.</_></rects>
      <tilted>0</tilted></_>
    <_>
      <rects>
        <_>
          4 18 6 2 -1.</_>
        <_>
          4 18 3 1 2.</_>
        <_>
          7 19 3 1 2.</_></rects>
      <tilted>0</tilted></_>
    <_>
      <rects>
        <_>
          4 19 3 1 -1.</_>
        <_>
          5 19 1 1 2.</_></rects>
      <tilted>0</tilted></_>
    <_>
      <rects>
        <_>
          5 0 1 6 -1.</_>
        <_>
          5 2 1 2 2.</_></rects>
      <tilted>0</tilted></_>
    <_>
      <rects>
        <_>
          5 0 2 6 -1.</_>
        <_>
          5 0 1 3 2.</_>
        <_>
          6 3 1 3 2.</_></rects>
      <tilted>0</tilted></_>
    <_>
      <rects>
        <_>
          5 0 2 2 -1.</_>
        <_>
          5 1 2 1 2.</_></rects>
      <tilted>0</tilted></_>
    <_>
      <rects>
        <_>
          5 0 4 2 -1.</_>
        <_>
          5 0 2 1 2.</_>
        <_>
          7 1 2 1 2.</_></rects>
      <tilted>0</tilted></_>
    <_>
      <rects>
        <_>
          5 0 6 18 -1.</_>
        <_>
          5 9 6 9 2.</_></rects>
      <tilted>0</tilted></_>
    <_>
      <rects>
        <_>
          5 1 1 6 -1.</_>
        <_>
          5 4 1 3 2.</_></rects>
      <tilted>0</tilted></_>
    <_>
      <rects>
        <_>
          5 1 2 6 -1.</_>
        <_>
          6 1 1 6 2.</_></rects>
      <tilted>0</tilted></_>
    <_>
      <rects>
        <_>
          5 1 2 9 -1.</_>
        <_>
          5 4 2 3 2.</_></rects>
      <tilted>0</tilted></_>
    <_>
      <rects>
        <_>
          5 3 2 17 -1.</_>
        <_>
          6 3 1 17 2.</_></rects>
      <tilted>0</tilted></_>
    <_>
      <rects>
        <_>
          5 4 1 2 -1.</_>
        <_>
          5 5 1 1 2.</_></rects>
      <tilted>0</tilted></_>
    <_>
      <rects>
        <_>
          5 5 4 1 -1.</_>
        <_>
          7 5 2 1 2.</_></rects>
      <tilted>0</tilted></_>
    <_>
      <rects>
        <_>
          5 5 6 6 -1.</_>
        <_>
          5 5 3 3 2.</_>
        <_>
          8 8 3 3 2.</_></rects>
      <tilted>0</tilted></_>
    <_>
      <rects>
        <_>
          5 6 1 2 -1.</_>
        <_>
          5 7 1 1 2.</_></rects>
      <tilted>0</tilted></_>
    <_>
      <rects>
        <_>
          5 6 1 9 -1.</_>
        <_>
          5 9 1 3 2.</_></rects>
      <tilted>0</tilted></_>
    <_>
      <rects>
        <_>
          5 7 6 6 -1.</_>
        <_>
          5 7 3 3 2.</_>
        <_>
          8 10 3 3 2.</_></rects>
      <tilted>0</tilted></_>
    <_>
      <rects>
        <_>
          5 8 2 2 -1.</_>
        <_>
          5 8 1 1 2.</_>
        <_>
          6 9 1 1 2.</_></rects>
      <tilted>0</tilted></_>
    <_>
      <rects>
        <_>
          5 8 6 8 -1.</_>
        <_>
          5 8 3 4 2.</_>
        <_>
          8 12 3 4 2.</_></rects>
      <tilted>0</tilted></_>
    <_>
      <rects>
        <_>
          5 8 6 7 -1.</_>
        <_>
          8 8 3 7 2.</_></rects>
      <tilted>0</tilted></_>
    <_>
      <rects>
        <_>
          5 9 2 2 -1.</_>
        <_>
          5 9 1 1 2.</_>
        <_>
          6 10 1 1 2.</_></rects>
      <tilted>0</tilted></_>
    <_>
      <rects>
        <_>
          5 9 6 3 -1.</_>
        <_>
          8 9 3 3 2.</_></rects>
      <tilted>0</tilted></_>
    <_>
      <rects>
        <_>
          5 10 2 8 -1.</_>
        <_>
          5 10 1 4 2.</_>
        <_>
          6 14 1 4 2.</_></rects>
      <tilted>0</tilted></_>
    <_>
      <rects>
        <_>
          5 11 2 6 -1.</_>
        <_>
          5 11 1 3 2.</_>
        <_>
          6 14 1 3 2.</_></rects>
      <tilted>0</tilted></_>
    <_>
      <rects>
        <_>
          5 11 4 1 -1.</_>
        <_>
          7 11 2 1 2.</_></rects>
      <tilted>0</tilted></_>
    <_>
      <rects>
        <_>
          5 11 2 2 -1.</_>
        <_>
          5 12 2 1 2.</_></rects>
      <tilted>0</tilted></_>
    <_>
      <rects>
        <_>
          5 12 1 2 -1.</_>
        <_>
          5 13 1 1 2.</_></rects>
      <tilted>0</tilted></_>
    <_>
      <rects>
        <_>
          5 12 2 2 -1.</_>
        <_>
          5 12 1 1 2.</_>
        <_>
          6 13 1 1 2.</_></rects>
      <tilted>0</tilted></_>
    <_>
      <rects>
        <_>
          5 12 3 4 -1.</_>
        <_>
          5 14 3 2 2.</_></rects>
      <tilted>0</tilted></_>
    <_>
      <rects>
        <_>
          5 13 4 2 -1.</_>
        <_>
          5 13 2 1 2.</_>
        <_>
          7 14 2 1 2.</_></rects>
      <tilted>0</tilted></_>
    <_>
      <rects>
        <_>
          5 14 4 2 -1.</_>
        <_>
          7 14 2 2 2.</_></rects>
      <tilted>0</tilted></_>
    <_>
      <rects>
        <_>
          5 14 6 6 -1.</_>
        <_>
          5 17 6 3 2.</_></rects>
      <tilted>0</tilted></_>
    <_>
      <rects>
        <_>
          5 16 2 1 -1.</_>
        <_>
          6 16 1 1 2.</_></rects>
      <tilted>0</tilted></_>
    <_>
      <rects>
        <_>
          5 16 4 2 -1.</_>
        <_>
          5 16 2 1 2.</_>
        <_>
          7 17 2 1 2.</_></rects>
      <tilted>0</tilted></_>
    <_>
      <rects>
        <_>
          5 16 3 4 -1.</_>
        <_>
          5 18 3 2 2.</_></rects>
      <tilted>0</tilted></_>
    <_>
      <rects>
        <_>
          5 16 6 4 -1.</_>
        <_>
          5 16 3 2 2.</_>
        <_>
          8 18 3 2 2.</_></rects>
      <tilted>0</tilted></_>
    <_>
      <rects>
        <_>
          5 18 1 2 -1.</_>
        <_>
          5 19 1 1 2.</_></rects>
      <tilted>0</tilted></_>
    <_>
      <rects>
        <_>
          5 18 6 2 -1.</_>
        <_>
          5 18 3 1 2.</_>
        <_>
          8 19 3 1 2.</_></rects>
      <tilted>0</tilted></_>
    <_>
      <rects>
        <_>
          5 19 3 1 -1.</_>
        <_>
          6 19 1 1 2.</_></rects>
      <tilted>0</tilted></_>
    <_>
      <rects>
        <_>
          6 0 2 2 -1.</_>
        <_>
          7 0 1 2 2.</_></rects>
      <tilted>0</tilted></_>
    <_>
      <rects>
        <_>
          6 0 1 6 -1.</_>
        <_>
          6 2 1 2 2.</_></rects>
      <tilted>0</tilted></_>
    <_>
      <rects>
        <_>
          6 0 2 3 -1.</_>
        <_>
          7 0 1 3 2.</_></rects>
      <tilted>0</tilted></_>
    <_>
      <rects>
        <_>
          6 0 6 1 -1.</_>
        <_>
          8 0 2 1 2.</_></rects>
      <tilted>0</tilted></_>
    <_>
      <rects>
        <_>
          6 0 4 4 -1.</_>
        <_>
          6 0 2 2 2.</_>
        <_>
          8 2 2 2 2.</_></rects>
      <tilted>0</tilted></_>
    <_>
      <rects>
        <_>
          6 0 3 2 -1.</_>
        <_>
          6 1 3 1 2.</_></rects>
      <tilted>0</tilted></_>
    <_>
      <rects>
        <_>
          6 0 6 13 -1.</_>
        <_>
          9 0 3 13 2.</_></rects>
      <tilted>0</tilted></_>
    <_>
      <rects>
        <_>
          6 1 2 3 -1.</_>
        <_>
          7 1 1 3 2.</_></rects>
      <tilted>0</tilted></_>
    <_>
      <rects>
        <_>
          6 2 1 6 -1.</_>
        <_>
          6 5 1 3 2.</_></rects>
      <tilted>0</tilted></_>
    <_>
      <rects>
        <_>
          6 4 2 12 -1.</_>
        <_>
          6 4 1 6 2.</_>
        <_>
          7 10 1 6 2.</_></rects>
      <tilted>0</tilted></_>
    <_>
      <rects>
        <_>
          6 4 6 8 -1.</_>
        <_>
          9 4 3 8 2.</_></rects>
      <tilted>0</tilted></_>
    <_>
      <rects>
        <_>
          6 4 3 16 -1.</_>
        <_>
          6 12 3 8 2.</_></rects>
      <tilted>0</tilted></_>
    <_>
      <rects>
        <_>
          6 5 6 8 -1.</_>
        <_>
          6 9 6 4 2.</_></rects>
      <tilted>0</tilted></_>
    <_>
      <rects>
        <_>
          6 6 1 4 -1.</_>
        <_>
          6 8 1 2 2.</_></rects>
      <tilted>0</tilted></_>
    <_>
      <rects>
        <_>
          6 8 6 2 -1.</_>
        <_>
          6 9 6 1 2.</_></rects>
      <tilted>0</tilted></_>
    <_>
      <rects>
        <_>
          6 9 2 2 -1.</_>
        <_>
          6 9 1 1 2.</_>
        <_>
          7 10 1 1 2.</_></rects>
      <tilted>0</tilted></_>
    <_>
      <rects>
        <_>
          6 10 2 2 -1.</_>
        <_>
          6 10 1 1 2.</_>
        <_>
          7 11 1 1 2.</_></rects>
      <tilted>0</tilted></_>
    <_>
      <rects>
        <_>
          6 10 4 8 -1.</_>
        <_>
          6 10 2 4 2.</_>
        <_>
          8 14 2 4 2.</_></rects>
      <tilted>0</tilted></_>
    <_>
      <rects>
        <_>
          6 10 3 2 -1.</_>
        <_>
          6 11 3 1 2.</_></rects>
      <tilted>0</tilted></_>
    <_>
      <rects>
        <_>
          6 10 4 3 -1.</_>
        <_>
          6 11 4 1 2.</_></rects>
      <tilted>0</tilted></_>
    <_>
      <rects>
        <_>
          6 10 5 2 -1.</_>
        <_>
          6 11 5 1 2.</_></rects>
      <tilted>0</tilted></_>
    <_>
      <rects>
        <_>
          6 11 1 2 -1.</_>
        <_>
          6 12 1 1 2.</_></rects>
      <tilted>0</tilted></_>
    <_>
      <rects>
        <_>
          6 12 1 2 -1.</_>
        <_>
          6 13 1 1 2.</_></rects>
      <tilted>0</tilted></_>
    <_>
      <rects>
        <_>
          6 12 2 2 -1.</_>
        <_>
          6 12 1 1 2.</_>
        <_>
          7 13 1 1 2.</_></rects>
      <tilted>0</tilted></_>
    <_>
      <rects>
        <_>
          6 12 2 2 -1.</_>
        <_>
          7 12 1 2 2.</_></rects>
      <tilted>0</tilted></_>
    <_>
      <rects>
        <_>
          6 12 2 4 -1.</_>
        <_>
          7 12 1 4 2.</_></rects>
      <tilted>0</tilted></_>
    <_>
      <rects>
        <_>
          6 12 4 2 -1.</_>
        <_>
          8 12 2 2 2.</_></rects>
      <tilted>0</tilted></_>
    <_>
      <rects>
        <_>
          6 12 4 3 -1.</_>
        <_>
          8 12 2 3 2.</_></rects>
      <tilted>0</tilted></_>
    <_>
      <rects>
        <_>
          6 13 2 2 -1.</_>
        <_>
          6 13 1 1 2.</_>
        <_>
          7 14 1 1 2.</_></rects>
      <tilted>0</tilted></_>
    <_>
      <rects>
        <_>
          6 13 6 2 -1.</_>
        <_>
          9 13 3 2 2.</_></rects>
      <tilted>0</tilted></_>
    <_>
      <rects>
        <_>
          6 14 6 2 -1.</_>
        <_>
          9 14 3 2 2.</_></rects>
      <tilted>0</tilted></_>
    <_>
      <rects>
        <_>
          6 15 6 2 -1.</_>
        <_>
          6 16 6 1 2.</_></rects>
      <tilted>0</tilted></_>
    <_>
      <rects>
        <_>
          6 16 2 1 -1.</_>
        <_>
          7 16 1 1 2.</_></rects>
      <tilted>0</tilted></_>
    <_>
      <rects>
        <_>
          6 16 6 2 -1.</_>
        <_>
          6 17 6 1 2.</_></rects>
      <tilted>0</tilted></_>
    <_>
      <rects>
        <_>
          6 17 2 2 -1.</_>
        <_>
          6 17 1 1 2.</_>
        <_>
          7 18 1 1 2.</_></rects>
      <tilted>0</tilted></_>
    <_>
      <rects>
        <_>
          6 17 3 2 -1.</_>
        <_>
          6 18 3 1 2.</_></rects>
      <tilted>0</tilted></_>
    <_>
      <rects>
        <_>
          6 18 1 2 -1.</_>
        <_>
          6 19 1 1 2.</_></rects>
      <tilted>0</tilted></_>
    <_>
      <rects>
        <_>
          7 0 1 3 -1.</_>
        <_>
          7 1 1 1 2.</_></rects>
      <tilted>0</tilted></_>
    <_>
      <rects>
        <_>
          7 0 2 3 -1.</_>
        <_>
          8 0 1 3 2.</_></rects>
      <tilted>0</tilted></_>
    <_>
      <rects>
        <_>
          7 0 2 5 -1.</_>
        <_>
          8 0 1 5 2.</_></rects>
      <tilted>0</tilted></_>
    <_>
      <rects>
        <_>
          7 0 3 4 -1.</_>
        <_>
          7 2 3 2 2.</_></rects>
      <tilted>0</tilted></_>
    <_>
      <rects>
        <_>
          7 1 1 2 -1.</_>
        <_>
          7 2 1 1 2.</_></rects>
      <tilted>0</tilted></_>
    <_>
      <rects>
        <_>
          7 1 2 16 -1.</_>
        <_>
          7 1 1 8 2.</_>
        <_>
          8 9 1 8 2.</_></rects>
      <tilted>0</tilted></_>
    <_>
      <rects>
        <_>
          7 1 4 12 -1.</_>
        <_>
          9 1 2 12 2.</_></rects>
      <tilted>0</tilted></_>
    <_>
      <rects>
        <_>
          7 2 4 10 -1.</_>
        <_>
          7 2 2 5 2.</_>
        <_>
          9 7 2 5 2.</_></rects>
      <tilted>0</tilted></_>
    <_>
      <rects>
        <_>
          7 3 4 8 -1.</_>
        <_>
          7 3 2 4 2.</_>
        <_>
          9 7 2 4 2.</_></rects>
      <tilted>0</tilted></_>
    <_>
      <rects>
        <_>
          7 4 2 2 -1.</_>
        <_>
          7 5 2 1 2.</_></rects>
      <tilted>0</tilted></_>
    <_>
      <rects>
        <_>
          7 5 2 1 -1.</_>
        <_>
          8 5 1 1 2.</_></rects>
      <tilted>0</tilted></_>
    <_>
      <rects>
        <_>
          7 5 1 6 -1.</_>
        <_>
          7 7 1 2 2.</_></rects>
      <tilted>0</tilted></_>
    <_>
      <rects>
        <_>
          7 5 4 14 -1.</_>
        <_>
          7 5 2 7 2.</_>
        <_>
          9 12 2 7 2.</_></rects>
      <tilted>0</tilted></_>
    <_>
      <rects>
        <_>
          7 7 2 1 -1.</_>
        <_>
          8 7 1 1 2.</_></rects>
      <tilted>0</tilted></_>
    <_>
      <rects>
        <_>
          7 7 1 12 -1.</_>
        <_>
          7 13 1 6 2.</_></rects>
      <tilted>0</tilted></_>
    <_>
      <rects>
        <_>
          7 8 4 6 -1.</_>
        <_>
          7 8 2 3 2.</_>
        <_>
          9 11 2 3 2.</_></rects>
      <tilted>0</tilted></_>
    <_>
      <rects>
        <_>
          7 9 4 2 -1.</_>
        <_>
          7 9 2 1 2.</_>
        <_>
          9 10 2 1 2.</_></rects>
      <tilted>0</tilted></_>
    <_>
      <rects>
        <_>
          7 10 2 1 -1.</_>
        <_>
          8 10 1 1 2.</_></rects>
      <tilted>0</tilted></_>
    <_>
      <rects>
        <_>
          7 10 2 2 -1.</_>
        <_>
          8 10 1 2 2.</_></rects>
      <tilted>0</tilted></_>
    <_>
      <rects>
        <_>
          7 10 4 2 -1.</_>
        <_>
          7 11 4 1 2.</_></rects>
      <tilted>0</tilted></_>
    <_>
      <rects>
        <_>
          7 11 2 2 -1.</_>
        <_>
          7 11 1 1 2.</_>
        <_>
          8 12 1 1 2.</_></rects>
      <tilted>0</tilted></_>
    <_>
      <rects>
        <_>
          7 11 2 4 -1.</_>
        <_>
          7 11 1 2 2.</_>
        <_>
          8 13 1 2 2.</_></rects>
      <tilted>0</tilted></_>
    <_>
      <rects>
        <_>
          7 12 2 2 -1.</_>
        <_>
          7 12 1 1 2.</_>
        <_>
          8 13 1 1 2.</_></rects>
      <tilted>0</tilted></_>
    <_>
      <rects>
        <_>
          7 12 2 4 -1.</_>
        <_>
          7 12 1 2 2.</_>
        <_>
          8 14 1 2 2.</_></rects>
      <tilted>0</tilted></_>
    <_>
      <rects>
        <_>
          7 12 2 4 -1.</_>
        <_>
          8 12 1 4 2.</_></rects>
      <tilted>0</tilted></_>
    <_>
      <rects>
        <_>
          7 12 5 2 -1.</_>
        <_>
          7 13 5 1 2.</_></rects>
      <tilted>0</tilted></_>
    <_>
      <rects>
        <_>
          7 13 2 2 -1.</_>
        <_>
          7 13 1 1 2.</_>
        <_>
          8 14 1 1 2.</_></rects>
      <tilted>0</tilted></_>
    <_>
      <rects>
        <_>
          7 15 5 2 -1.</_>
        <_>
          7 16 5 1 2.</_></rects>
      <tilted>0</tilted></_>
    <_>
      <rects>
        <_>
          7 18 2 2 -1.</_>
        <_>
          7 19 2 1 2.</_></rects>
      <tilted>0</tilted></_>
    <_>
      <rects>
        <_>
          8 0 2 2 -1.</_>
        <_>
          8 0 1 1 2.</_>
        <_>
          9 1 1 1 2.</_></rects>
      <tilted>0</tilted></_>
    <_>
      <rects>
        <_>
          8 0 2 4 -1.</_>
        <_>
          9 0 1 4 2.</_></rects>
      <tilted>0</tilted></_>
    <_>
      <rects>
        <_>
          8 0 4 14 -1.</_>
        <_>
          10 0 2 14 2.</_></rects>
      <tilted>0</tilted></_>
    <_>
      <rects>
        <_>
          8 1 1 2 -1.</_>
        <_>
          8 2 1 1 2.</_></rects>
      <tilted>0</tilted></_>
    <_>
      <rects>
        <_>
          8 1 2 4 -1.</_>
        <_>
          8 1 1 2 2.</_>
        <_>
          9 3 1 2 2.</_></rects>
      <tilted>0</tilted></_>
    <_>
      <rects>
        <_>
          8 1 2 7 -1.</_>
        <_>
          9 1 1 7 2.</_></rects>
      <tilted>0</tilted></_>
    <_>
      <rects>
        <_>
          8 1 4 6 -1.</_>
        <_>
          10 1 2 6 2.</_></rects>
      <tilted>0</tilted></_>
    <_>
      <rects>
        <_>
          8 1 2 14 -1.</_>
        <_>
          8 8 2 7 2.</_></rects>
      <tilted>0</tilted></_>
    <_>
      <rects>
        <_>
          8 1 4 14 -1.</_>
        <_>
          8 1 2 7 2.</_>
        <_>
          10 8 2 7 2.</_></rects>
      <tilted>0</tilted></_>
    <_>
      <rects>
        <_>
          8 2 2 4 -1.</_>
        <_>
          8 4 2 2 2.</_></rects>
      <tilted>0</tilted></_>
    <_>
      <rects>
        <_>
          8 2 4 10 -1.</_>
        <_>
          8 2 2 5 2.</_>
        <_>
          10 7 2 5 2.</_></rects>
      <tilted>0</tilted></_>
    <_>
      <rects>
        <_>
          8 3 2 14 -1.</_>
        <_>
          8 10 2 7 2.</_></rects>
      <tilted>0</tilted></_>
    <_>
      <rects>
        <_>
          8 4 2 2 -1.</_>
        <_>
          8 4 1 1 2.</_>
        <_>
          9 5 1 1 2.</_></rects>
      <tilted>0</tilted></_>
    <_>
      <rects>
        <_>
          8 4 4 2 -1.</_>
        <_>
          8 4 2 1 2.</_>
        <_>
          10 5 2 1 2.</_></rects>
      <tilted>0</tilted></_>
    <_>
      <rects>
        <_>
          8 4 4 2 -1.</_>
        <_>
          8 5 4 1 2.</_></rects>
      <tilted>0</tilted></_>
    <_>
      <rects>
        <_>
          8 5 1 12 -1.</_>
        <_>
          8 11 1 6 2.</_></rects>
      <tilted>0</tilted></_>
    <_>
      <rects>
        <_>
          8 5 4 2 -1.</_>
        <_>
          8 5 2 1 2.</_>
        <_>
          10 6 2 1 2.</_></rects>
      <tilted>0</tilted></_>
    <_>
      <rects>
        <_>
          8 5 3 2 -1.</_>
        <_>
          8 6 3 1 2.</_></rects>
      <tilted>0</tilted></_>
    <_>
      <rects>
        <_>
          8 6 2 13 -1.</_>
        <_>
          9 6 1 13 2.</_></rects>
      <tilted>0</tilted></_>
    <_>
      <rects>
        <_>
          8 6 4 14 -1.</_>
        <_>
          8 6 2 7 2.</_>
        <_>
          10 13 2 7 2.</_></rects>
      <tilted>0</tilted></_>
    <_>
      <rects>
        <_>
          8 6 4 2 -1.</_>
        <_>
          8 7 4 1 2.</_></rects>
      <tilted>0</tilted></_>
    <_>
      <rects>
        <_>
          8 7 3 2 -1.</_>
        <_>
          8 8 3 1 2.</_></rects>
      <tilted>0</tilted></_>
    <_>
      <rects>
        <_>
          8 7 4 2 -1.</_>
        <_>
          8 8 4 1 2.</_></rects>
      <tilted>0</tilted></_>
    <_>
      <rects>
        <_>
          8 9 2 4 -1.</_>
        <_>
          8 9 1 2 2.</_>
        <_>
          9 11 1 2 2.</_></rects>
      <tilted>0</tilted></_>
    <_>
      <rects>
        <_>
          8 9 4 10 -1.</_>
        <_>
          8 9 2 5 2.</_>
        <_>
          10 14 2 5 2.</_></rects>
      <tilted>0</tilted></_>
    <_>
      <rects>
        <_>
          8 9 4 2 -1.</_>
        <_>
          8 10 4 1 2.</_></rects>
      <tilted>0</tilted></_>
    <_>
      <rects>
        <_>
          8 10 2 4 -1.</_>
        <_>
          8 10 1 2 2.</_>
        <_>
          9 12 1 2 2.</_></rects>
      <tilted>0</tilted></_>
    <_>
      <rects>
        <_>
          8 10 3 2 -1.</_>
        <_>
          8 11 3 1 2.</_></rects>
      <tilted>0</tilted></_>
    <_>
      <rects>
        <_>
          8 11 1 2 -1.</_>
        <_>
          8 12 1 1 2.</_></rects>
      <tilted>0</tilted></_>
    <_>
      <rects>
        <_>
          8 11 2 2 -1.</_>
        <_>
          8 11 1 1 2.</_>
        <_>
          9 12 1 1 2.</_></rects>
      <tilted>0</tilted></_>
    <_>
      <rects>
        <_>
          8 11 4 8 -1.</_>
        <_>
          8 11 2 4 2.</_>
        <_>
          10 15 2 4 2.</_></rects>
      <tilted>0</tilted></_>
    <_>
      <rects>
        <_>
          8 11 4 2 -1.</_>
        <_>
          8 12 4 1 2.</_></rects>
      <tilted>0</tilted></_>
    <_>
      <rects>
        <_>
          8 12 2 2 -1.</_>
        <_>
          8 12 1 1 2.</_>
        <_>
          9 13 1 1 2.</_></rects>
      <tilted>0</tilted></_>
    <_>
      <rects>
        <_>
          8 13 2 2 -1.</_>
        <_>
          8 13 1 1 2.</_>
        <_>
          9 14 1 1 2.</_></rects>
      <tilted>0</tilted></_>
    <_>
      <rects>
        <_>
          8 13 2 6 -1.</_>
        <_>
          8 16 2 3 2.</_></rects>
      <tilted>0</tilted></_>
    <_>
      <rects>
        <_>
          8 13 4 4 -1.</_>
        <_>
          8 15 4 2 2.</_></rects>
      <tilted>0</tilted></_>
    <_>
      <rects>
        <_>
          8 14 2 2 -1.</_>
        <_>
          8 14 1 1 2.</_>
        <_>
          9 15 1 1 2.</_></rects>
      <tilted>0</tilted></_>
    <_>
      <rects>
        <_>
          8 17 2 2 -1.</_>
        <_>
          8 17 1 1 2.</_>
        <_>
          9 18 1 1 2.</_></rects>
      <tilted>0</tilted></_>
    <_>
      <rects>
        <_>
          8 17 4 2 -1.</_>
        <_>
          8 18 4 1 2.</_></rects>
      <tilted>0</tilted></_>
    <_>
      <rects>
        <_>
          8 18 2 2 -1.</_>
        <_>
          8 19 2 1 2.</_></rects>
      <tilted>0</tilted></_>
    <_>
      <rects>
        <_>
          8 18 4 2 -1.</_>
        <_>
          8 18 2 1 2.</_>
        <_>
          10 19 2 1 2.</_></rects>
      <tilted>0</tilted></_>
    <_>
      <rects>
        <_>
          8 18 3 2 -1.</_>
        <_>
          8 19 3 1 2.</_></rects>
      <tilted>0</tilted></_>
    <_>
      <rects>
        <_>
          9 0 2 2 -1.</_>
        <_>
          9 0 1 1 2.</_>
        <_>
          10 1 1 1 2.</_></rects>
      <tilted>0</tilted></_>
    <_>
      <rects>
        <_>
          9 0 2 4 -1.</_>
        <_>
          9 0 1 2 2.</_>
        <_>
          10 2 1 2 2.</_></rects>
      <tilted>0</tilted></_>
    <_>
      <rects>
        <_>
          9 0 2 4 -1.</_>
        <_>
          10 0 1 4 2.</_></rects>
      <tilted>0</tilted></_>
    <_>
      <rects>
        <_>
          9 0 3 9 -1.</_>
        <_>
          10 0 1 9 2.</_></rects>
      <tilted>0</tilted></_>
    <_>
      <rects>
        <_>
          9 1 2 2 -1.</_>
        <_>
          9 1 1 1 2.</_>
        <_>
          10 2 1 1 2.</_></rects>
      <tilted>0</tilted></_>
    <_>
      <rects>
        <_>
          9 1 2 4 -1.</_>
        <_>
          9 1 1 2 2.</_>
        <_>
          10 3 1 2 2.</_></rects>
      <tilted>0</tilted></_>
    <_>
      <rects>
        <_>
          9 1 3 12 -1.</_>
        <_>
          9 7 3 6 2.</_></rects>
      <tilted>0</tilted></_>
    <_>
      <rects>
        <_>
          9 2 2 1 -1.</_>
        <_>
          10 2 1 1 2.</_></rects>
      <tilted>0</tilted></_>
    <_>
      <rects>
        <_>
          9 2 2 2 -1.</_>
        <_>
          10 2 1 2 2.</_></rects>
      <tilted>0</tilted></_>
    <_>
      <rects>
        <_>
          9 2 1 4 -1.</_>
        <_>
          9 4 1 2 2.</_></rects>
      <tilted>0</tilted></_>
    <_>
      <rects>
        <_>
          9 3 1 2 -1.</_>
        <_>
          9 4 1 1 2.</_></rects>
      <tilted>0</tilted></_>
    <_>
      <rects>
        <_>
          9 3 2 6 -1.</_>
        <_>
          9 3 1 3 2.</_>
        <_>
          10 6 1 3 2.</_></rects>
      <tilted>0</tilted></_>
    <_>
      <rects>
        <_>
          9 3 2 11 -1.</_>
        <_>
          10 3 1 11 2.</_></rects>
      <tilted>0</tilted></_>
    <_>
      <rects>
        <_>
          9 3 3 2 -1.</_>
        <_>
          9 4 3 1 2.</_></rects>
      <tilted>0</tilted></_>
    <_>
      <rects>
        <_>
          9 4 2 1 -1.</_>
        <_>
          10 4 1 1 2.</_></rects>
      <tilted>0</tilted></_>
    <_>
      <rects>
        <_>
          9 5 2 1 -1.</_>
        <_>
          10 5 1 1 2.</_></rects>
      <tilted>0</tilted></_>
    <_>
      <rects>
        <_>
          9 5 2 2 -1.</_>
        <_>
          10 5 1 2 2.</_></rects>
      <tilted>0</tilted></_>
    <_>
      <rects>
        <_>
          9 5 3 2 -1.</_>
        <_>
          9 6 3 1 2.</_></rects>
      <tilted>0</tilted></_>
    <_>
      <rects>
        <_>
          9 6 2 2 -1.</_>
        <_>
          10 6 1 2 2.</_></rects>
      <tilted>0</tilted></_>
    <_>
      <rects>
        <_>
          9 6 1 4 -1.</_>
        <_>
          9 8 1 2 2.</_></rects>
      <tilted>0</tilted></_>
    <_>
      <rects>
        <_>
          9 6 2 8 -1.</_>
        <_>
          9 6 1 4 2.</_>
        <_>
          10 10 1 4 2.</_></rects>
      <tilted>0</tilted></_>
    <_>
      <rects>
        <_>
          9 6 2 6 -1.</_>
        <_>
          9 9 2 3 2.</_></rects>
      <tilted>0</tilted></_>
    <_>
      <rects>
        <_>
          9 7 1 3 -1.</_>
        <_>
          9 8 1 1 2.</_></rects>
      <tilted>0</tilted></_>
    <_>
      <rects>
        <_>
          9 7 3 2 -1.</_>
        <_>
          9 8 3 1 2.</_></rects>
      <tilted>0</tilted></_>
    <_>
      <rects>
        <_>
          9 9 3 2 -1.</_>
        <_>
          9 10 3 1 2.</_></rects>
      <tilted>0</tilted></_>
    <_>
      <rects>
        <_>
          9 10 2 4 -1.</_>
        <_>
          9 12 2 2 2.</_></rects>
      <tilted>0</tilted></_>
    <_>
      <rects>
        <_>
          9 11 3 2 -1.</_>
        <_>
          9 12 3 1 2.</_></rects>
      <tilted>0</tilted></_>
    <_>
      <rects>
        <_>
          9 12 1 2 -1.</_>
        <_>
          9 13 1 1 2.</_></rects>
      <tilted>0</tilted></_>
    <_>
      <rects>
        <_>
          9 12 2 2 -1.</_>
        <_>
          9 12 1 1 2.</_>
        <_>
          10 13 1 1 2.</_></rects>
      <tilted>0</tilted></_>
    <_>
      <rects>
        <_>
          9 12 2 6 -1.</_>
        <_>
          9 15 2 3 2.</_></rects>
      <tilted>0</tilted></_>
    <_>
      <rects>
        <_>
          9 12 3 2 -1.</_>
        <_>
          9 13 3 1 2.</_></rects>
      <tilted>0</tilted></_>
    <_>
      <rects>
        <_>
          9 16 1 2 -1.</_>
        <_>
          9 17 1 1 2.</_></rects>
      <tilted>0</tilted></_>
    <_>
      <rects>
        <_>
          9 16 1 3 -1.</_>
        <_>
          9 17 1 1 2.</_></rects>
      <tilted>0</tilted></_>
    <_>
      <rects>
        <_>
          9 17 1 2 -1.</_>
        <_>
          9 18 1 1 2.</_></rects>
      <tilted>0</tilted></_>
    <_>
      <rects>
        <_>
          9 17 2 2 -1.</_>
        <_>
          9 17 1 1 2.</_>
        <_>
          10 18 1 1 2.</_></rects>
      <tilted>0</tilted></_>
    <_>
      <rects>
        <_>
          9 17 3 3 -1.</_>
        <_>
          9 18 3 1 2.</_></rects>
      <tilted>0</tilted></_>
    <_>
      <rects>
        <_>
          9 18 2 2 -1.</_>
        <_>
          9 18 1 1 2.</_>
        <_>
          10 19 1 1 2.</_></rects>
      <tilted>0</tilted></_>
    <_>
      <rects>
        <_>
          9 18 2 2 -1.</_>
        <_>
          10 18 1 2 2.</_></rects>
      <tilted>0</tilted></_>
    <_>
      <rects>
        <_>
          10 0 2 1 -1.</_>
        <_>
          11 0 1 1 2.</_></rects>
      <tilted>0</tilted></_>
    <_>
      <rects>
        <_>
          10 0 2 2 -1.</_>
        <_>
          10 0 1 1 2.</_>
        <_>
          11 1 1 1 2.</_></rects>
      <tilted>0</tilted></_>
    <_>
      <rects>
        <_>
          10 0 2 10 -1.</_>
        <_>
          10 0 1 5 2.</_>
        <_>
          11 5 1 5 2.</_></rects>
      <tilted>0</tilted></_>
    <_>
      <rects>
        <_>
          10 0 2 20 -1.</_>
        <_>
          10 0 1 10 2.</_>
        <_>
          11 10 1 10 2.</_></rects>
      <tilted>0</tilted></_>
    <_>
      <rects>
        <_>
          10 1 2 2 -1.</_>
        <_>
          10 1 1 1 2.</_>
        <_>
          11 2 1 1 2.</_></rects>
      <tilted>0</tilted></_>
    <_>
      <rects>
        <_>
          10 1 2 5 -1.</_>
        <_>
          11 1 1 5 2.</_></rects>
      <tilted>0</tilted></_>
    <_>
      <rects>
        <_>
          10 1 1 18 -1.</_>
        <_>
          10 10 1 9 2.</_></rects>
      <tilted>0</tilted></_>
    <_>
      <rects>
        <_>
          10 2 2 2 -1.</_>
        <_>
          11 2 1 2 2.</_></rects>
      <tilted>0</tilted></_>
    <_>
      <rects>
        <_>
          10 2 2 3 -1.</_>
        <_>
          11 2 1 3 2.</_></rects>
      <tilted>0</tilted></_>
    <_>
      <rects>
        <_>
          10 2 2 6 -1.</_>
        <_>
          11 2 1 6 2.</_></rects>
      <tilted>0</tilted></_>
    <_>
      <rects>
        <_>
          10 2 2 10 -1.</_>
        <_>
          11 2 1 10 2.</_></rects>
      <tilted>0</tilted></_>
    <_>
      <rects>
        <_>
          10 2 2 2 -1.</_>
        <_>
          10 3 2 1 2.</_></rects>
      <tilted>0</tilted></_>
    <_>
      <rects>
        <_>
          10 3 2 5 -1.</_>
        <_>
          11 3 1 5 2.</_></rects>
      <tilted>0</tilted></_>
    <_>
      <rects>
        <_>
          10 3 2 16 -1.</_>
        <_>
          10 3 1 8 2.</_>
        <_>
          11 11 1 8 2.</_></rects>
      <tilted>0</tilted></_>
    <_>
      <rects>
        <_>
          10 5 2 14 -1.</_>
        <_>
          11 5 1 14 2.</_></rects>
      <tilted>0</tilted></_>
    <_>
      <rects>
        <_>
          10 5 2 2 -1.</_>
        <_>
          10 6 2 1 2.</_></rects>
      <tilted>0</tilted></_>
    <_>
      <rects>
        <_>
          10 6 2 2 -1.</_>
        <_>
          10 7 2 1 2.</_></rects>
      <tilted>0</tilted></_>
    <_>
      <rects>
        <_>
          10 6 2 6 -1.</_>
        <_>
          10 9 2 3 2.</_></rects>
      <tilted>0</tilted></_>
    <_>
      <rects>
        <_>
          10 8 2 12 -1.</_>
        <_>
          10 8 1 6 2.</_>
        <_>
          11 14 1 6 2.</_></rects>
      <tilted>0</tilted></_>
    <_>
      <rects>
        <_>
          10 9 2 2 -1.</_>
        <_>
          10 10 2 1 2.</_></rects>
      <tilted>0</tilted></_>
    <_>
      <rects>
        <_>
          10 10 2 10 -1.</_>
        <_>
          10 10 1 5 2.</_>
        <_>
          11 15 1 5 2.</_></rects>
      <tilted>0</tilted></_>
    <_>
      <rects>
        <_>
          10 14 2 4 -1.</_>
        <_>
          10 14 1 2 2.</_>
        <_>
          11 16 1 2 2.</_></rects>
      <tilted>0</tilted></_>
    <_>
      <rects>
        <_>
          10 14 2 2 -1.</_>
        <_>
          10 15 2 1 2.</_></rects>
      <tilted>0</tilted></_>
    <_>
      <rects>
        <_>
          10 16 2 2 -1.</_>
        <_>
          10 16 1 1 2.</_>
        <_>
          11 17 1 1 2.</_></rects>
      <tilted>0</tilted></_>
    <_>
      <rects>
        <_>
          10 16 2 4 -1.</_>
        <_>
          10 16 1 2 2.</_>
        <_>
          11 18 1 2 2.</_></rects>
      <tilted>0</tilted></_>
    <_>
      <rects>
        <_>
          10 16 2 2 -1.</_>
        <_>
          10 17 2 1 2.</_></rects>
      <tilted>0</tilted></_>
    <_>
      <rects>
        <_>
          10 19 2 1 -1.</_>
        <_>
          11 19 1 1 2.</_></rects>
      <tilted>0</tilted></_>
    <_>
      <rects>
        <_>
          11 0 1 2 -1.</_>
        <_>
          11 1 1 1 2.</_></rects>
      <tilted>0</tilted></_>
    <_>
      <rects>
        <_>
          11 0 1 4 -1.</_>
        <_>
          11 2 1 2 2.</_></rects>
      <tilted>0</tilted></_>
    <_>
      <rects>
        <_>
          11 0 1 12 -1.</_>
        <_>
          11 4 1 4 2.</_></rects>
      <tilted>0</tilted></_>
    <_>
      <rects>
        <_>
          11 1 1 2 -1.</_>
        <_>
          11 2 1 1 2.</_></rects>
      <tilted>0</tilted></_>
    <_>
      <rects>
        <_>
          11 1 1 12 -1.</_>
        <_>
          11 7 1 6 2.</_></rects>
      <tilted>0</tilted></_>
    <_>
      <rects>
        <_>
          11 2 1 2 -1.</_>
        <_>
          11 3 1 1 2.</_></rects>
      <tilted>0</tilted></_>
    <_>
      <rects>
        <_>
          11 7 1 2 -1.</_>
        <_>
          11 8 1 1 2.</_></rects>
      <tilted>0</tilted></_>
    <_>
      <rects>
        <_>
          11 8 1 2 -1.</_>
        <_>
          11 9 1 1 2.</_></rects>
      <tilted>0</tilted></_>
    <_>
      <rects>
        <_>
          11 9 1 2 -1.</_>
        <_>
          11 10 1 1 2.</_></rects>
      <tilted>0</tilted></_>
    <_>
      <rects>
        <_>
          11 10 1 2 -1.</_>
        <_>
          11 11 1 1 2.</_></rects>
      <tilted>0</tilted></_>
    <_>
      <rects>
        <_>
          11 11 1 2 -1.</_>
        <_>
          11 12 1 1 2.</_></rects>
      <tilted>0</tilted></_>
    <_>
      <rects>
        <_>
          11 12 1 2 -1.</_>
        <_>
          11 13 1 1 2.</_></rects>
      <tilted>0</tilted></_>
    <_>
      <rects>
        <_>
          11 13 1 2 -1.</_>
        <_>
          11 14 1 1 2.</_></rects>
      <tilted>0</tilted></_>
    <_>
      <rects>
        <_>
          11 13 1 6 -1.</_>
        <_>
          11 15 1 2 2.</_></rects>
      <tilted>0</tilted></_>
    <_>
      <rects>
        <_>
          11 14 1 2 -1.</_>
        <_>
          11 15 1 1 2.</_></rects>
      <tilted>0</tilted></_>
    <_>
      <rects>
        <_>
          11 14 1 3 -1.</_>
        <_>
          11 15 1 1 2.</_></rects>
      <tilted>0</tilted></_>
    <_>
      <rects>
        <_>
          11 14 1 4 -1.</_>
        <_>
          11 16 1 2 2.</_></rects>
      <tilted>0</tilted></_>
    <_>
      <rects>
        <_>
          11 15 1 2 -1.</_>
        <_>
          11 16 1 1 2.</_></rects>
      <tilted>0</tilted></_>
    <_>
      <rects>
        <_>
          11 16 1 2 -1.</_>
        <_>
          11 17 1 1 2.</_></rects>
      <tilted>0</tilted></_>
    <_>
      <rects>
        <_>
          11 17 1 2 -1.</_>
        <_>
          11 18 1 1 2.</_></rects>
      <tilted>0</tilted></_>
    <_>
      <rects>
        <_>
          11 18 1 2 -1.</_>
        <_>
          11 19 1 1 2.</_></rects>
      <tilted>0</tilted></_></features></cascade>
</opencv_storage>
