<?xml version="1.0"?>
<opencv_storage>
<stage6>
  <maxWeakCount>46</maxWeakCount>
  <stageThreshold>-1.5680967569351196e+00</stageThreshold>
  <weakClassifiers>
    <_>
      <internalNodes>
        0 -1 28338 -8.5501093417406082e-03</internalNodes>
      <leafValues>
        -7.6848530769348145e-01 1.7977528274059296e-01</leafValues></_>
    <_>
      <internalNodes>
        0 -1 5010 2.8695248067378998e-02</internalNodes>
      <leafValues>
        -3.7414088845252991e-01 1.5499317646026611e-01</leafValues></_>
    <_>
      <internalNodes>
        0 -1 18735 -8.1313075497746468e-03</internalNodes>
      <leafValues>
        -1.5644350647926331e-01 4.0114095807075500e-01</leafValues></_>
    <_>
      <internalNodes>
        0 -1 14304 -3.8506141863763332e-03</internalNodes>
      <leafValues>
        2.1634298563003540e-01 -2.0535103976726532e-01</leafValues></_>
    <_>
      <internalNodes>
        0 -1 11017 3.2446945551782846e-03</internalNodes>
      <leafValues>
        -3.0240085721015930e-01 1.3114041090011597e-01</leafValues></_>
    <_>
      <internalNodes>
        0 -1 24251 -5.6834002025425434e-03</internalNodes>
      <leafValues>
        -6.0746467113494873e-01 8.6225271224975586e-02</leafValues></_>
    <_>
      <internalNodes>
        0 -1 9124 -1.1215470731258392e-02</internalNodes>
      <leafValues>
        3.8861006498336792e-01 -9.3181803822517395e-02</leafValues></_>
    <_>
      <internalNodes>
        0 -1 8581 -9.8187196999788284e-03</internalNodes>
      <leafValues>
        1.7669631540775299e-01 -2.0053632557392120e-01</leafValues></_>
    <_>
      <internalNodes>
        0 -1 25009 -1.0363045334815979e-01</internalNodes>
      <leafValues>
        -1. 2.5186814367771149e-02</leafValues></_>
    <_>
      <internalNodes>
        0 -1 18724 -1.1709827929735184e-02</internalNodes>
      <leafValues>
        3.2146447896957397e-01 -1.2295838445425034e-01</leafValues></_>
    <_>
      <internalNodes>
        0 -1 27831 -2.6045700535178185e-02</internalNodes>
      <leafValues>
        5.2304029464721680e-01 -7.0747070014476776e-02</leafValues></_>
    <_>
      <internalNodes>
        0 -1 27910 -7.5923670083284378e-03</internalNodes>
      <leafValues>
        -8.8359504938125610e-01 5.1645252853631973e-02</leafValues></_>
    <_>
      <internalNodes>
        0 -1 27880 9.3278773128986359e-03</internalNodes>
      <leafValues>
        -1.0907755792140961e-01 3.6440500617027283e-01</leafValues></_>
    <_>
      <internalNodes>
        0 -1 8569 -5.4311353713274002e-02</internalNodes>
      <leafValues>
        3.4437814354896545e-01 -9.4304986298084259e-02</leafValues></_>
    <_>
      <internalNodes>
        0 -1 10574 3.8600494153797626e-03</internalNodes>
      <leafValues>
        -1.3638944923877716e-01 2.9077252745628357e-01</leafValues></_>
    <_>
      <internalNodes>
        0 -1 6465 2.7125149965286255e-02</internalNodes>
      <leafValues>
        -1.5762239694595337e-01 2.6389521360397339e-01</leafValues></_>
    <_>
      <internalNodes>
        0 -1 3906 4.1164541617035866e-03</internalNodes>
      <leafValues>
        6.3423380255699158e-02 -4.4116190075874329e-01</leafValues></_>
    <_>
      <internalNodes>
        0 -1 3901 -3.1784032471477985e-03</internalNodes>
      <leafValues>
        -6.5142607688903809e-01 4.6521279960870743e-02</leafValues></_>
    <_>
      <internalNodes>
        0 -1 26320 -6.5798098221421242e-03</internalNodes>
      <leafValues>
        3.1294587254524231e-01 -1.0540083795785904e-01</leafValues></_>
    <_>
      <internalNodes>
        0 -1 9407 1.7537036910653114e-03</internalNodes>
      <leafValues>
        -1.6217361390590668e-01 2.1371522545814514e-01</leafValues></_>
    <_>
      <internalNodes>
        0 -1 26494 -1.3676267117261887e-03</internalNodes>
      <leafValues>
        -2.1445444226264954e-01 1.5074977278709412e-01</leafValues></_>
    <_>
      <internalNodes>
        0 -1 17898 -4.8256643116474152e-02</internalNodes>
      <leafValues>
        -5.4642456769943237e-01 5.6681554764509201e-02</leafValues></_>
    <_>
      <internalNodes>
        0 -1 200 -4.3287202715873718e-03</internalNodes>
      <leafValues>
        -4.5628681778907776e-02 7.5215369462966919e-01</leafValues></_>
    <_>
      <internalNodes>
        0 -1 493 1.9353151321411133e-02</internalNodes>
      <leafValues>
        -1.0581781715154648e-01 2.8501263260841370e-01</leafValues></_>
    <_>
      <internalNodes>
        0 -1 12575 -8.5397874936461449e-03</internalNodes>
      <leafValues>
        2.9132479429244995e-01 -1.0800411552190781e-01</leafValues></_>
    <_>
      <internalNodes>
        0 -1 28122 4.4468034058809280e-02</internalNodes>
      <leafValues>
        -3.5728059709072113e-02 7.7582883834838867e-01</leafValues></_>
    <_>
      <internalNodes>
        0 -1 28488 1.8490193178877234e-03</internalNodes>
      <leafValues>
        6.3279815018177032e-02 -5.4930353164672852e-01</leafValues></_>
    <_>
      <internalNodes>
        0 -1 3908 -1.3949439162388444e-03</internalNodes>
      <leafValues>
        -3.8085009902715683e-02 9.6823996305465698e-01</leafValues></_>
    <_>
      <internalNodes>
        0 -1 2457 -8.0972537398338318e-03</internalNodes>
      <leafValues>
        -6.1160349845886230e-01 5.8987922966480255e-02</leafValues></_>
    <_>
      <internalNodes>
        0 -1 2457 9.3313381075859070e-03</internalNodes>
      <leafValues>
        3.4200921654701233e-02 -6.3574624061584473e-01</leafValues></_>
    <_>
      <internalNodes>
        0 -1 12509 8.5578467696905136e-03</internalNodes>
      <leafValues>
        -8.7431982159614563e-02 3.5489335656166077e-01</leafValues></_>
    <_>
      <internalNodes>
        0 -1 23480 1.4670180156826973e-02</internalNodes>
      <leafValues>
        -5.0200495868921280e-02 5.5647838115692139e-01</leafValues></_>
    <_>
      <internalNodes>
        0 -1 22992 1.7675615847110748e-02</internalNodes>
      <leafValues>
        4.9103550612926483e-02 -5.8236098289489746e-01</leafValues></_>
    <_>
      <internalNodes>
        0 -1 17784 6.0236506164073944e-02</internalNodes>
      <leafValues>
        -1.0307015478610992e-01 2.7247965335845947e-01</leafValues></_>
    <_>
      <internalNodes>
        0 -1 17201 2.4199215695261955e-03</internalNodes>
      <leafValues>
        -1.3277260959148407e-01 1.9996261596679688e-01</leafValues></_>
    <_>
      <internalNodes>
        0 -1 15097 -1.7139166593551636e-03</internalNodes>
      <leafValues>
        2.9914665222167969e-01 -9.1622628271579742e-02</leafValues></_>
    <_>
      <internalNodes>
        0 -1 15097 2.6306905783712864e-03</internalNodes>
      <leafValues>
        -8.5476748645305634e-02 3.2693910598754883e-01</leafValues></_>
    <_>
      <internalNodes>
        0 -1 9939 1.0548556456342340e-03</internalNodes>
      <leafValues>
        -2.9007536172866821e-01 1.1125229299068451e-01</leafValues></_>
    <_>
      <internalNodes>
        0 -1 17355 -9.0091094374656677e-02</internalNodes>
      <leafValues>
        4.5796340703964233e-01 -5.8118764311075211e-02</leafValues></_>
    <_>
      <internalNodes>
        0 -1 9542 1.1478067934513092e-01</internalNodes>
      <leafValues>
        5.2580680698156357e-02 -5.8864766359329224e-01</leafValues></_>
    <_>
      <internalNodes>
        0 -1 4363 -1.2917693238705397e-03</internalNodes>
      <leafValues>
        -3.7790471315383911e-01 6.4546376466751099e-02</leafValues></_>
    <_>
      <internalNodes>
        0 -1 8613 -1.6605935990810394e-02</internalNodes>
      <leafValues>
        2.7172499895095825e-01 -1.0127171128988266e-01</leafValues></_>
    <_>
      <internalNodes>
        0 -1 12424 1.8423613160848618e-02</internalNodes>
      <leafValues>
        -9.7105152904987335e-02 3.4931337833404541e-01</leafValues></_>
    <_>
      <internalNodes>
        0 -1 9992 -1.7601682338863611e-03</internalNodes>
      <leafValues>
        -4.6983599662780762e-01 5.9621606022119522e-02</leafValues></_>
    <_>
      <internalNodes>
        0 -1 2063 -1.3909809291362762e-02</internalNodes>
      <leafValues>
        3.1010797619819641e-01 -9.0353086590766907e-02</leafValues></_>
    <_>
      <internalNodes>
        0 -1 38 8.6875166743993759e-03</internalNodes>
      <leafValues>
        -1.2457879632711411e-01 2.3788483440876007e-01</leafValues></_></weakClassifiers></stage6>
</opencv_storage>
