<?xml version="1.0"?>
<opencv_storage>
<stage2>
  <maxWeakCount>20</maxWeakCount>
  <stageThreshold>-1.7522042989730835e+00</stageThreshold>
  <weakClassifiers>
    <_>
      <internalNodes>
        0 -1 21227 -5.0781834870576859e-03</internalNodes>
      <leafValues>
        -7.9727518558502197e-01 5.6734693050384521e-01</leafValues></_>
    <_>
      <internalNodes>
        0 -1 5010 2.0701963454484940e-02</internalNodes>
      <leafValues>
        -4.8401033878326416e-01 2.2411707043647766e-01</leafValues></_>
    <_>
      <internalNodes>
        0 -1 9474 -1.7098776996135712e-01</internalNodes>
      <leafValues>
        -6.6677176952362061e-01 1.4819465577602386e-01</leafValues></_>
    <_>
      <internalNodes>
        0 -1 18656 -4.1896026581525803e-02</internalNodes>
      <leafValues>
        5.1644265651702881e-01 -2.2186309099197388e-01</leafValues></_>
    <_>
      <internalNodes>
        0 -1 11261 -6.1409384943544865e-03</internalNodes>
      <leafValues>
        -6.7359805107116699e-01 1.8485973775386810e-01</leafValues></_>
    <_>
      <internalNodes>
        0 -1 2748 -5.6296892464160919e-02</internalNodes>
      <leafValues>
        6.5187907218933105e-01 -1.4679799973964691e-01</leafValues></_>
    <_>
      <internalNodes>
        0 -1 6375 -8.3270501345396042e-03</internalNodes>
      <leafValues>
        -7.7510052919387817e-01 1.1829017847776413e-01</leafValues></_>
    <_>
      <internalNodes>
        0 -1 4225 -1.7783557996153831e-03</internalNodes>
      <leafValues>
        -6.9955420494079590e-01 9.4247661530971527e-02</leafValues></_>
    <_>
      <internalNodes>
        0 -1 1713 1.9287172704935074e-02</internalNodes>
      <leafValues>
        -1.7953214049339294e-01 4.4059377908706665e-01</leafValues></_>
    <_>
      <internalNodes>
        0 -1 28469 -1.4645764604210854e-03</internalNodes>
      <leafValues>
        -5.7606279850006104e-01 1.4409017562866211e-01</leafValues></_>
    <_>
      <internalNodes>
        0 -1 28469 1.5735937049612403e-03</internalNodes>
      <leafValues>
        1.1673456430435181e-01 -6.6418474912643433e-01</leafValues></_>
    <_>
      <internalNodes>
        0 -1 27790 -3.5532776266336441e-02</internalNodes>
      <leafValues>
        7.0271170139312744e-01 -1.2413997203111649e-01</leafValues></_>
    <_>
      <internalNodes>
        0 -1 26025 3.0408471822738647e-02</internalNodes>
      <leafValues>
        -1.4799091219902039e-01 4.6234187483787537e-01</leafValues></_>
    <_>
      <internalNodes>
        0 -1 19931 1.2974901124835014e-02</internalNodes>
      <leafValues>
        -2.0258164405822754e-01 3.4247758984565735e-01</leafValues></_>
    <_>
      <internalNodes>
        0 -1 28446 -1.5706596896052361e-03</internalNodes>
      <leafValues>
        -5.7906955480575562e-01 1.1417463421821594e-01</leafValues></_>
    <_>
      <internalNodes>
        0 -1 28446 2.4703987874090672e-03</internalNodes>
      <leafValues>
        8.7470635771751404e-02 -6.6752767562866211e-01</leafValues></_>
    <_>
      <internalNodes>
        0 -1 8699 5.0203269347548485e-03</internalNodes>
      <leafValues>
        -1.7826522886753082e-01 3.9396232366561890e-01</leafValues></_>
    <_>
      <internalNodes>
        0 -1 8418 -7.5573646463453770e-03</internalNodes>
      <leafValues>
        2.4657729268074036e-01 -2.4318704009056091e-01</leafValues></_>
    <_>
      <internalNodes>
        0 -1 4225 9.5862970920279622e-04</internalNodes>
      <leafValues>
        1.5050199627876282e-01 -4.3241289258003235e-01</leafValues></_>
    <_>
      <internalNodes>
        0 -1 4461 2.2953012958168983e-03</internalNodes>
      <leafValues>
        7.4474163353443146e-02 -6.6340404748916626e-01</leafValues></_></weakClassifiers></stage2>
</opencv_storage>
