<?xml version="1.0"?>
<opencv_storage>
<stage7>
  <maxWeakCount>54</maxWeakCount>
  <stageThreshold>-1.5749307870864868e+00</stageThreshold>
  <weakClassifiers>
    <_>
      <internalNodes>
        0 -1 18228 -2.6500856876373291e-01</internalNodes>
      <leafValues>
        3.2967034727334976e-02 -7.6436781883239746e-01</leafValues></_>
    <_>
      <internalNodes>
        0 -1 16032 1.2532163411378860e-02</internalNodes>
      <leafValues>
        -4.3492755293846130e-01 5.8977216482162476e-02</leafValues></_>
    <_>
      <internalNodes>
        0 -1 14733 -7.0673495531082153e-02</internalNodes>
      <leafValues>
        7.4255347251892090e-02 -5.6090885400772095e-01</leafValues></_>
    <_>
      <internalNodes>
        0 -1 6834 2.1345052123069763e-01</internalNodes>
      <leafValues>
        -4.9433264881372452e-02 5.7886171340942383e-01</leafValues></_>
    <_>
      <internalNodes>
        0 -1 14023 -1.3594025373458862e-01</internalNodes>
      <leafValues>
        4.1407802700996399e-01 -1.0263158380985260e-01</leafValues></_>
    <_>
      <internalNodes>
        0 -1 18995 -5.2586860954761505e-02</internalNodes>
      <leafValues>
        -2.1649938821792603e-01 1.4383262395858765e-01</leafValues></_>
    <_>
      <internalNodes>
        0 -1 6399 6.7991111427545547e-03</internalNodes>
      <leafValues>
        -1.5441770851612091e-01 2.1100120246410370e-01</leafValues></_>
    <_>
      <internalNodes>
        0 -1 25199 -2.1274449303746223e-02</internalNodes>
      <leafValues>
        4.0754553675651550e-01 -7.6352462172508240e-02</leafValues></_>
    <_>
      <internalNodes>
        0 -1 5231 -2.3339556530117989e-02</internalNodes>
      <leafValues>
        4.8416009545326233e-01 -7.3515541851520538e-02</leafValues></_>
    <_>
      <internalNodes>
        0 -1 4904 -5.0658345222473145e-02</internalNodes>
      <leafValues>
        3.5796210169792175e-01 -8.5168421268463135e-02</leafValues></_>
    <_>
      <internalNodes>
        0 -1 3346 -1.0047722607851028e-02</internalNodes>
      <leafValues>
        -6.5303635597229004e-01 5.2319798618555069e-02</leafValues></_>
    <_>
      <internalNodes>
        0 -1 15604 -2.0456682890653610e-02</internalNodes>
      <leafValues>
        2.6299008727073669e-01 -1.1121825873851776e-01</leafValues></_>
    <_>
      <internalNodes>
        0 -1 23574 -1.8500212579965591e-02</internalNodes>
      <leafValues>
        -8.1455284357070923e-01 3.1876284629106522e-02</leafValues></_>
    <_>
      <internalNodes>
        0 -1 15790 1.5896577388048172e-02</internalNodes>
      <leafValues>
        3.4937966614961624e-02 -6.7568206787109375e-01</leafValues></_>
    <_>
      <internalNodes>
        0 -1 26881 1.1068703606724739e-03</internalNodes>
      <leafValues>
        -1.5426047146320343e-01 1.7196328938007355e-01</leafValues></_>
    <_>
      <internalNodes>
        0 -1 11825 -1.2619905173778534e-03</internalNodes>
      <leafValues>
        2.6539453864097595e-01 -1.0157092660665512e-01</leafValues></_>
    <_>
      <internalNodes>
        0 -1 3732 3.7918491289019585e-03</internalNodes>
      <leafValues>
        5.4105091840028763e-02 -5.3138738870620728e-01</leafValues></_>
    <_>
      <internalNodes>
        0 -1 494 4.4661529362201691e-02</internalNodes>
      <leafValues>
        -6.1934366822242737e-02 4.6579965949058533e-01</leafValues></_>
    <_>
      <internalNodes>
        0 -1 3581 -3.9258368313312531e-02</internalNodes>
      <leafValues>
        -7.1412789821624756e-01 4.2529243975877762e-02</leafValues></_>
    <_>
      <internalNodes>
        0 -1 22074 -9.4868015730753541e-04</internalNodes>
      <leafValues>
        1.5544521808624268e-01 -1.7576938867568970e-01</leafValues></_>
    <_>
      <internalNodes>
        0 -1 6055 -8.3716809749603271e-02</internalNodes>
      <leafValues>
        -7.2270166873931885e-01 4.2938191443681717e-02</leafValues></_>
    <_>
      <internalNodes>
        0 -1 18264 -1.0439131874591112e-03</internalNodes>
      <leafValues>
        2.3384004831314087e-01 -1.1846382170915604e-01</leafValues></_>
    <_>
      <internalNodes>
        0 -1 4363 3.1868403311818838e-03</internalNodes>
      <leafValues>
        4.6827949583530426e-02 -6.2054556608200073e-01</leafValues></_>
    <_>
      <internalNodes>
        0 -1 27739 -4.8338798806071281e-03</internalNodes>
      <leafValues>
        1.4681990444660187e-01 -1.9395571947097778e-01</leafValues></_>
    <_>
      <internalNodes>
        0 -1 8918 4.1809082031250000e-01</internalNodes>
      <leafValues>
        -6.6724456846714020e-02 4.1228857636451721e-01</leafValues></_>
    <_>
      <internalNodes>
        0 -1 23291 -1.3424010248854756e-03</internalNodes>
      <leafValues>
        1.5686142444610596e-01 -2.1513825654983521e-01</leafValues></_>
    <_>
      <internalNodes>
        0 -1 27536 -2.7039251290261745e-03</internalNodes>
      <leafValues>
        3.6017003655433655e-01 -7.7917814254760742e-02</leafValues></_>
    <_>
      <internalNodes>
        0 -1 26303 -9.4147101044654846e-03</internalNodes>
      <leafValues>
        -7.2875392436981201e-01 4.2979236692190170e-02</leafValues></_>
    <_>
      <internalNodes>
        0 -1 28469 -2.5165367405861616e-03</internalNodes>
      <leafValues>
        -6.1640959978103638e-01 3.7361141294240952e-02</leafValues></_>
    <_>
      <internalNodes>
        0 -1 12415 1.5078082680702209e-02</internalNodes>
      <leafValues>
        -8.5808470845222473e-02 3.4369739890098572e-01</leafValues></_>
    <_>
      <internalNodes>
        0 -1 26138 -9.6977334469556808e-03</internalNodes>
      <leafValues>
        -8.2223618030548096e-01 3.5150334239006042e-02</leafValues></_>
    <_>
      <internalNodes>
        0 -1 26057 6.6467840224504471e-04</internalNodes>
      <leafValues>
        -1.5813079476356506e-01 1.7026621103286743e-01</leafValues></_>
    <_>
      <internalNodes>
        0 -1 15915 -3.9879340678453445e-02</internalNodes>
      <leafValues>
        4.2622485756874084e-01 -6.2586523592472076e-02</leafValues></_>
    <_>
      <internalNodes>
        0 -1 9188 2.1649196743965149e-02</internalNodes>
      <leafValues>
        -6.8782046437263489e-02 4.1666844487190247e-01</leafValues></_>
    <_>
      <internalNodes>
        0 -1 1346 -6.5360199660062790e-03</internalNodes>
      <leafValues>
        -6.8736922740936279e-01 4.0998023003339767e-02</leafValues></_>
    <_>
      <internalNodes>
        0 -1 4646 3.7308165337890387e-04</internalNodes>
      <leafValues>
        1.1404555290937424e-01 -2.2476486861705780e-01</leafValues></_>
    <_>
      <internalNodes>
        0 -1 5763 -1.2113348202547058e-04</internalNodes>
      <leafValues>
        1.5380859375000000e-01 -1.7377653717994690e-01</leafValues></_>
    <_>
      <internalNodes>
        0 -1 5778 -2.2157272323966026e-02</internalNodes>
      <leafValues>
        -6.1847674846649170e-01 4.2198266834020615e-02</leafValues></_>
    <_>
      <internalNodes>
        0 -1 17867 3.3683188259601593e-02</internalNodes>
      <leafValues>
        2.2293820977210999e-02 -8.4392940998077393e-01</leafValues></_>
    <_>
      <internalNodes>
        0 -1 2002 3.7084884941577911e-02</internalNodes>
      <leafValues>
        1.8725266680121422e-02 -8.9769792556762695e-01</leafValues></_>
    <_>
      <internalNodes>
        0 -1 19632 3.6457116948440671e-04</internalNodes>
      <leafValues>
        -2.2773952782154083e-01 1.1092048138380051e-01</leafValues></_>
    <_>
      <internalNodes>
        0 -1 17524 5.0335330888628960e-03</internalNodes>
      <leafValues>
        -1.0222238302230835e-01 2.3997133970260620e-01</leafValues></_>
    <_>
      <internalNodes>
        0 -1 4079 -3.3863430144265294e-04</internalNodes>
      <leafValues>
        -2.9932383447885513e-02 8.5193389654159546e-01</leafValues></_>
    <_>
      <internalNodes>
        0 -1 23569 6.5054558217525482e-03</internalNodes>
      <leafValues>
        7.1403920650482178e-02 -3.6369192600250244e-01</leafValues></_>
    <_>
      <internalNodes>
        0 -1 247 -2.5782775878906250e-01</internalNodes>
      <leafValues>
        3.4101333469152451e-02 -6.2621098756790161e-01</leafValues></_>
    <_>
      <internalNodes>
        0 -1 28463 -1.1125181335955858e-03</internalNodes>
      <leafValues>
        -3.6397773772478104e-02 7.9562884569168091e-01</leafValues></_>
    <_>
      <internalNodes>
        0 -1 28480 2.3508034646511078e-03</internalNodes>
      <leafValues>
        4.5989606529474258e-02 -6.0100901126861572e-01</leafValues></_>
    <_>
      <internalNodes>
        0 -1 28480 -1.1404694523662329e-03</internalNodes>
      <leafValues>
        -3.5540807247161865e-01 6.5420374274253845e-02</leafValues></_>
    <_>
      <internalNodes>
        0 -1 8696 4.7988500446081161e-03</internalNodes>
      <leafValues>
        -1.1568481475114822e-01 2.1896024048328400e-01</leafValues></_>
    <_>
      <internalNodes>
        0 -1 2748 -5.6596003472805023e-02</internalNodes>
      <leafValues>
        3.4638160467147827e-01 -6.7551702260971069e-02</leafValues></_>
    <_>
      <internalNodes>
        0 -1 8185 3.1394679099321365e-03</internalNodes>
      <leafValues>
        -2.0479524135589600e-01 1.2452764064073563e-01</leafValues></_>
    <_>
      <internalNodes>
        0 -1 1851 -4.3180365115404129e-02</internalNodes>
      <leafValues>
        2.5655972957611084e-01 -9.6310503780841827e-02</leafValues></_>
    <_>
      <internalNodes>
        0 -1 8587 -6.0882926918566227e-03</internalNodes>
      <leafValues>
        1.0079655051231384e-01 -2.4506805837154388e-01</leafValues></_>
    <_>
      <internalNodes>
        0 -1 18717 -3.3627729862928391e-04</internalNodes>
      <leafValues>
        -1.5141126513481140e-01 1.7756018042564392e-01</leafValues></_></weakClassifiers></stage7>
</opencv_storage>
