<?xml version="1.0"?>
<opencv_storage>
<cascade>
  <stageType>BOOST</stageType>
  <featureType>HAAR</featureType>
  <height>20</height>
  <width>12</width>
  <stageParams>
    <boostType>GAB</boostType>
    <minHitRate>9.9000000953674316e-01</minHitRate>
    <maxFalseAlarm>2.9999999329447746e-02</maxFalseAlarm>
    <weightTrimRate>9.4999999999999996e-01</weightTrimRate>
    <maxDepth>1</maxDepth>
    <maxWeakCount>100</maxWeakCount></stageParams>
  <featureParams>
    <maxCatCount>0</maxCatCount>
    <featSize>1</featSize>
    <mode>BASIC</mode></featureParams>
  <stageNum>10</stageNum>
  <stages>
    <!-- stage 0 -->
    <_>
      <maxWeakCount>30</maxWeakCount>
      <stageThreshold>-4.3140956759452820e-01</stageThreshold>
      <weakClassifiers>
        <_>
          <internalNodes>
            0 -1 453 -3.1894415616989136e-02</internalNodes>
          <leafValues>
            4.4307690858840942e-01 -6.4875000715255737e-01</leafValues></_>
        <_>
          <internalNodes>
            0 -1 391 -7.7233776450157166e-02</internalNodes>
          <leafValues>
            -6.1120086908340454e-01 4.3704274296760559e-01</leafValues></_>
        <_>
          <internalNodes>
            0 -1 51 -2.5074234232306480e-02</internalNodes>
          <leafValues>
            6.1805236339569092e-01 -2.9948174953460693e-01</leafValues></_>
        <_>
          <internalNodes>
            0 -1 695 -1.0512528568506241e-01</internalNodes>
          <leafValues>
            -9.3470847606658936e-01 1.7476594448089600e-01</leafValues></_>
        <_>
          <internalNodes>
            0 -1 327 5.0944234244525433e-03</internalNodes>
          <leafValues>
            -3.6667698621749878e-01 4.2358806729316711e-01</leafValues></_>
        <_>
          <internalNodes>
            0 -1 220 -6.8274070508778095e-03</internalNodes>
          <leafValues>
            4.7758731245994568e-01 -3.1243053078651428e-01</leafValues></_>
        <_>
          <internalNodes>
            0 -1 405 6.0781929641962051e-03</internalNodes>
          <leafValues>
            -3.4302723407745361e-01 4.2528676986694336e-01</leafValues></_>
        <_>
          <internalNodes>
            0 -1 487 6.2103844247758389e-03</internalNodes>
          <leafValues>
            -3.3844476938247681e-01 3.5403531789779663e-01</leafValues></_>
        <_>
          <internalNodes>
            0 -1 304 -1.4380829036235809e-01</internalNodes>
          <leafValues>
            5.9989559650421143e-01 -1.7819266021251678e-01</leafValues></_>
        <_>
          <internalNodes>
            0 -1 131 8.7911978363990784e-02</internalNodes>
          <leafValues>
            -2.1353591978549957e-01 6.2556833028793335e-01</leafValues></_>
        <_>
          <internalNodes>
            0 -1 292 -2.1220572292804718e-02</internalNodes>
          <leafValues>
            5.1094871759414673e-01 -1.8338027596473694e-01</leafValues></_>
        <_>
          <internalNodes>
            0 -1 472 3.7191674113273621e-02</internalNodes>
          <leafValues>
            -1.7462591826915741e-01 5.8829563856124878e-01</leafValues></_>
        <_>
          <internalNodes>
            0 -1 60 1.9407536834478378e-02</internalNodes>
          <leafValues>
            -1.5335901081562042e-01 6.5308749675750732e-01</leafValues></_>
        <_>
          <internalNodes>
            0 -1 395 -1.4343814551830292e-01</internalNodes>
          <leafValues>
            5.6456488370895386e-01 -1.6421619057655334e-01</leafValues></_>
        <_>
          <internalNodes>
            0 -1 406 1.6239376273006201e-03</internalNodes>
          <leafValues>
            -3.3164957165718079e-01 3.2726770639419556e-01</leafValues></_>
        <_>
          <internalNodes>
            0 -1 288 1.4693262055516243e-02</internalNodes>
          <leafValues>
            -2.8985196352005005e-01 3.6529460549354553e-01</leafValues></_>
        <_>
          <internalNodes>
            0 -1 230 -5.5980724282562733e-03</internalNodes>
          <leafValues>
            3.3132034540176392e-01 -2.9243609309196472e-01</leafValues></_>
        <_>
          <internalNodes>
            0 -1 78 -3.3862113952636719e-02</internalNodes>
          <leafValues>
            5.3570181131362915e-01 -2.0580498874187469e-01</leafValues></_>
        <_>
          <internalNodes>
            0 -1 141 -1.8001697957515717e-01</internalNodes>
          <leafValues>
            -8.9430093765258789e-01 1.0899703949689865e-01</leafValues></_>
        <_>
          <internalNodes>
            0 -1 565 6.9491082103922963e-04</internalNodes>
          <leafValues>
            -3.0986458063125610e-01 3.5734459757804871e-01</leafValues></_>
        <_>
          <internalNodes>
            0 -1 638 -2.7164962142705917e-02</internalNodes>
          <leafValues>
            4.6428325772285461e-01 -1.9785827398300171e-01</leafValues></_>
        <_>
          <internalNodes>
            0 -1 13 2.9874611645936966e-02</internalNodes>
          <leafValues>
            -1.9133445620536804e-01 4.6300533413887024e-01</leafValues></_>
        <_>
          <internalNodes>
            0 -1 30 -2.3934397846460342e-02</internalNodes>
          <leafValues>
            6.0949766635894775e-01 -2.0506803691387177e-01</leafValues></_>
        <_>
          <internalNodes>
            0 -1 732 -2.5308813899755478e-02</internalNodes>
          <leafValues>
            -1.0461871325969696e-01 8.2646608352661133e-01</leafValues></_>
        <_>
          <internalNodes>
            0 -1 479 7.8594796359539032e-02</internalNodes>
          <leafValues>
            -1.0471367090940475e-01 6.4579200744628906e-01</leafValues></_>
        <_>
          <internalNodes>
            0 -1 527 7.1973338723182678e-02</internalNodes>
          <leafValues>
            -1.8662253022193909e-01 4.7790986299514771e-01</leafValues></_>
        <_>
          <internalNodes>
            0 -1 528 -1.6739121079444885e-01</internalNodes>
          <leafValues>
            7.3911488056182861e-01 -1.2543980777263641e-01</leafValues></_>
        <_>
          <internalNodes>
            0 -1 189 3.6227103322744370e-02</internalNodes>
          <leafValues>
            -1.5463151037693024e-01 4.9969679117202759e-01</leafValues></_>
        <_>
          <internalNodes>
            0 -1 617 6.3015276100486517e-04</internalNodes>
          <leafValues>
            -2.2101843357086182e-01 3.9348083734512329e-01</leafValues></_>
        <_>
          <internalNodes>
            0 -1 442 2.4560838937759399e-03</internalNodes>
          <leafValues>
            -2.8416949510574341e-01 2.8749620914459229e-01</leafValues></_></weakClassifiers></_>
    <!-- stage 1 -->
    <_>
      <maxWeakCount>49</maxWeakCount>
      <stageThreshold>-4.6098747849464417e-01</stageThreshold>
      <weakClassifiers>
        <_>
          <internalNodes>
            0 -1 443 -7.3267251253128052e-02</internalNodes>
          <leafValues>
            2.6031294465065002e-01 -6.0310280323028564e-01</leafValues></_>
        <_>
          <internalNodes>
            0 -1 55 3.0793754849582911e-03</internalNodes>
          <leafValues>
            -4.8493099212646484e-01 2.2476647794246674e-01</leafValues></_>
        <_>
          <internalNodes>
            0 -1 390 9.5558539032936096e-03</internalNodes>
          <leafValues>
            -2.2279979288578033e-01 4.5628136396408081e-01</leafValues></_>
        <_>
          <internalNodes>
            0 -1 620 -3.2543182373046875e-02</internalNodes>
          <leafValues>
            -7.2031438350677490e-01 1.4038331806659698e-01</leafValues></_>
        <_>
          <internalNodes>
            0 -1 231 -2.0906414836645126e-02</internalNodes>
          <leafValues>
            4.4048780202865601e-01 -2.0020900666713715e-01</leafValues></_>
        <_>
          <internalNodes>
            0 -1 161 -2.2243967652320862e-01</internalNodes>
          <leafValues>
            5.4464024305343628e-01 -1.6322724521160126e-01</leafValues></_>
        <_>
          <internalNodes>
            0 -1 456 -9.1186724603176117e-03</internalNodes>
          <leafValues>
            5.1018202304840088e-01 -1.4624512195587158e-01</leafValues></_>
        <_>
          <internalNodes>
            0 -1 584 -6.0581650584936142e-02</internalNodes>
          <leafValues>
            5.3479999303817749e-01 -1.4699018001556396e-01</leafValues></_>
        <_>
          <internalNodes>
            0 -1 736 -1.7906706780195236e-03</internalNodes>
          <leafValues>
            -6.5165686607360840e-01 1.6918630897998810e-01</leafValues></_>
        <_>
          <internalNodes>
            0 -1 412 1.7865728586912155e-02</internalNodes>
          <leafValues>
            -2.5257140398025513e-01 3.0467069149017334e-01</leafValues></_>
        <_>
          <internalNodes>
            0 -1 202 -8.5456389933824539e-03</internalNodes>
          <leafValues>
            -6.3516187667846680e-01 1.3047184050083160e-01</leafValues></_>
        <_>
          <internalNodes>
            0 -1 746 -1.8417255487293005e-03</internalNodes>
          <leafValues>
            -6.1355012655258179e-01 8.4291905164718628e-02</leafValues></_>
        <_>
          <internalNodes>
            0 -1 106 -3.2255796249955893e-03</internalNodes>
          <leafValues>
            -7.8004205226898193e-01 6.6246680915355682e-02</leafValues></_>
        <_>
          <internalNodes>
            0 -1 97 3.3142645843327045e-03</internalNodes>
          <leafValues>
            1.5020908415317535e-01 -4.5635744929313660e-01</leafValues></_>
        <_>
          <internalNodes>
            0 -1 36 1.7220772802829742e-02</internalNodes>
          <leafValues>
            -1.8700970709323883e-01 4.3229150772094727e-01</leafValues></_>
        <_>
          <internalNodes>
            0 -1 746 1.0155069176107645e-03</internalNodes>
          <leafValues>
            1.5755817294120789e-01 -4.6266919374465942e-01</leafValues></_>
        <_>
          <internalNodes>
            0 -1 228 1.3345213606953621e-02</internalNodes>
          <leafValues>
            -1.4897766709327698e-01 4.9318027496337891e-01</leafValues></_>
        <_>
          <internalNodes>
            0 -1 196 1.8146800994873047e-01</internalNodes>
          <leafValues>
            -9.1093376278877258e-02 7.8104710578918457e-01</leafValues></_>
        <_>
          <internalNodes>
            0 -1 284 1.2293393164873123e-01</internalNodes>
          <leafValues>
            -1.8055517971515656e-01 3.7953883409500122e-01</leafValues></_>
        <_>
          <internalNodes>
            0 -1 167 8.2693863660097122e-03</internalNodes>
          <leafValues>
            -1.8648865818977356e-01 4.0552389621734619e-01</leafValues></_>
        <_>
          <internalNodes>
            0 -1 125 2.7028988115489483e-03</internalNodes>
          <leafValues>
            1.0167900472879410e-01 -7.2972542047500610e-01</leafValues></_>
        <_>
          <internalNodes>
            0 -1 184 -1.1475404724478722e-02</internalNodes>
          <leafValues>
            -7.7018368244171143e-01 6.4872786402702332e-02</leafValues></_>
        <_>
          <internalNodes>
            0 -1 571 -3.9719447493553162e-02</internalNodes>
          <leafValues>
            6.5168392658233643e-01 -1.0578498244285583e-01</leafValues></_>
        <_>
          <internalNodes>
            0 -1 303 -2.2247761487960815e-02</internalNodes>
          <leafValues>
            3.7184613943099976e-01 -1.6726374626159668e-01</leafValues></_>
        <_>
          <internalNodes>
            0 -1 687 1.1392780579626560e-03</internalNodes>
          <leafValues>
            1.4263688027858734e-01 -4.4415539503097534e-01</leafValues></_>
        <_>
          <internalNodes>
            0 -1 238 2.9969193041324615e-02</internalNodes>
          <leafValues>
            -1.1417789012193680e-01 5.0841915607452393e-01</leafValues></_>
        <_>
          <internalNodes>
            0 -1 618 -3.3849369734525681e-02</internalNodes>
          <leafValues>
            4.1560545563697815e-01 -1.3764849305152893e-01</leafValues></_>
        <_>
          <internalNodes>
            0 -1 710 -5.3670471534132957e-03</internalNodes>
          <leafValues>
            -7.4817281961441040e-01 8.6668185889720917e-02</leafValues></_>
        <_>
          <internalNodes>
            0 -1 400 4.3414294719696045e-02</internalNodes>
          <leafValues>
            4.4287513941526413e-02 -9.3646603822708130e-01</leafValues></_>
        <_>
          <internalNodes>
            0 -1 447 -1.7891060560941696e-02</internalNodes>
          <leafValues>
            -1.1596433818340302e-01 5.6537401676177979e-01</leafValues></_>
        <_>
          <internalNodes>
            0 -1 14 1.4542767405509949e-01</internalNodes>
          <leafValues>
            -1.1190235614776611e-01 5.4158759117126465e-01</leafValues></_>
        <_>
          <internalNodes>
            0 -1 110 2.8773781657218933e-01</internalNodes>
          <leafValues>
            -8.5326179862022400e-02 6.3126951456069946e-01</leafValues></_>
        <_>
          <internalNodes>
            0 -1 698 -2.0598255097866058e-02</internalNodes>
          <leafValues>
            6.3938754796981812e-01 -8.9768894016742706e-02</leafValues></_>
        <_>
          <internalNodes>
            0 -1 42 -1.2718621641397476e-02</internalNodes>
          <leafValues>
            4.8090711236000061e-01 -1.1178459972143173e-01</leafValues></_>
        <_>
          <internalNodes>
            0 -1 341 -2.2564608603715897e-02</internalNodes>
          <leafValues>
            3.8244572281837463e-01 -1.4188393950462341e-01</leafValues></_>
        <_>
          <internalNodes>
            0 -1 741 2.1099005825817585e-03</internalNodes>
          <leafValues>
            9.3720845878124237e-02 -6.5615051984786987e-01</leafValues></_>
        <_>
          <internalNodes>
            0 -1 357 3.6065731197595596e-02</internalNodes>
          <leafValues>
            -1.6838759183883667e-01 3.5104280710220337e-01</leafValues></_>
        <_>
          <internalNodes>
            0 -1 119 -1.6308754682540894e-02</internalNodes>
          <leafValues>
            -7.7660411596298218e-01 7.7952280640602112e-02</leafValues></_>
        <_>
          <internalNodes>
            0 -1 357 -1.2465706467628479e-01</internalNodes>
          <leafValues>
            8.2253438234329224e-01 -8.3405718207359314e-02</leafValues></_>
        <_>
          <internalNodes>
            0 -1 603 2.1601654589176178e-03</internalNodes>
          <leafValues>
            -1.1788558214902878e-01 4.2492884397506714e-01</leafValues></_>
        <_>
          <internalNodes>
            0 -1 642 -9.1392584145069122e-03</internalNodes>
          <leafValues>
            -8.6266881227493286e-01 6.2439981848001480e-02</leafValues></_>
        <_>
          <internalNodes>
            0 -1 4 6.1932941898703575e-03</internalNodes>
          <leafValues>
            -1.6899625957012177e-01 3.1874272227287292e-01</leafValues></_>
        <_>
          <internalNodes>
            0 -1 178 4.5822225511074066e-03</internalNodes>
          <leafValues>
            7.0153482258319855e-02 -7.8400450944900513e-01</leafValues></_>
        <_>
          <internalNodes>
            0 -1 463 -2.8668498620390892e-02</internalNodes>
          <leafValues>
            4.9127659201622009e-01 -1.1684916168451309e-01</leafValues></_>
        <_>
          <internalNodes>
            0 -1 41 6.5730148926377296e-03</internalNodes>
          <leafValues>
            -1.2812513113021851e-01 3.7987622618675232e-01</leafValues></_>
        <_>
          <internalNodes>
            0 -1 235 -2.2672541439533234e-02</internalNodes>
          <leafValues>
            6.4752596616744995e-01 -9.1843195259571075e-02</leafValues></_>
        <_>
          <internalNodes>
            0 -1 172 -9.1598061844706535e-03</internalNodes>
          <leafValues>
            -8.7286412715911865e-01 7.4028246104717255e-02</leafValues></_>
        <_>
          <internalNodes>
            0 -1 171 -2.2900391370058060e-02</internalNodes>
          <leafValues>
            -6.9302260875701904e-01 5.0594244152307510e-02</leafValues></_>
        <_>
          <internalNodes>
            0 -1 79 -8.7003048975020647e-04</internalNodes>
          <leafValues>
            -3.3226329088211060e-01 1.3359954953193665e-01</leafValues></_></weakClassifiers></_>
    <!-- stage 2 -->
    <_>
      <maxWeakCount>71</maxWeakCount>
      <stageThreshold>-4.6781250834465027e-01</stageThreshold>
      <weakClassifiers>
        <_>
          <internalNodes>
            0 -1 515 -6.1824414879083633e-03</internalNodes>
          <leafValues>
            -4.6291559934616089e-01 5.2542370557785034e-01</leafValues></_>
        <_>
          <internalNodes>
            0 -1 159 2.1699206903576851e-02</internalNodes>
          <leafValues>
            -2.6008224487304688e-01 4.4556945562362671e-01</leafValues></_>
        <_>
          <internalNodes>
            0 -1 741 -1.3758991844952106e-03</internalNodes>
          <leafValues>
            -5.3129404783248901e-01 1.3345409929752350e-01</leafValues></_>
        <_>
          <internalNodes>
            0 -1 452 -4.1829630732536316e-02</internalNodes>
          <leafValues>
            4.3853458762168884e-01 -1.7861983180046082e-01</leafValues></_>
        <_>
          <internalNodes>
            0 -1 636 -9.6913501620292664e-03</internalNodes>
          <leafValues>
            -9.4804441928863525e-01 7.5652427971363068e-02</leafValues></_>
        <_>
          <internalNodes>
            0 -1 118 -2.1977755427360535e-01</internalNodes>
          <leafValues>
            5.5679392814636230e-01 -1.3228867948055267e-01</leafValues></_>
        <_>
          <internalNodes>
            0 -1 739 -1.9548567943274975e-03</internalNodes>
          <leafValues>
            -5.8862400054931641e-01 1.2935353815555573e-01</leafValues></_>
        <_>
          <internalNodes>
            0 -1 633 2.1292857825756073e-02</internalNodes>
          <leafValues>
            -1.8296033143997192e-01 3.3682143688201904e-01</leafValues></_>
        <_>
          <internalNodes>
            0 -1 177 -1.3295626267790794e-03</internalNodes>
          <leafValues>
            -4.3936207890510559e-01 1.6619542241096497e-01</leafValues></_>
        <_>
          <internalNodes>
            0 -1 62 -9.1518051922321320e-03</internalNodes>
          <leafValues>
            -9.1583698987960815e-01 5.1625806838274002e-02</leafValues></_>
        <_>
          <internalNodes>
            0 -1 420 -2.7083650231361389e-02</internalNodes>
          <leafValues>
            -4.2388612031936646e-01 1.3722902536392212e-01</leafValues></_>
        <_>
          <internalNodes>
            0 -1 103 1.6170658636838198e-03</internalNodes>
          <leafValues>
            9.2975281178951263e-02 -5.5475527048110962e-01</leafValues></_>
        <_>
          <internalNodes>
            0 -1 674 -5.9097260236740112e-03</internalNodes>
          <leafValues>
            -7.1925145387649536e-01 7.5205422937870026e-02</leafValues></_>
        <_>
          <internalNodes>
            0 -1 103 -3.5697557032108307e-03</internalNodes>
          <leafValues>
            -7.4632751941680908e-01 6.1383675783872604e-02</leafValues></_>
        <_>
          <internalNodes>
            0 -1 251 -9.7838565707206726e-03</internalNodes>
          <leafValues>
            4.3629285693168640e-01 -1.3418988883495331e-01</leafValues></_>
        <_>
          <internalNodes>
            0 -1 324 -2.0868197083473206e-02</internalNodes>
          <leafValues>
            4.2619085311889648e-01 -1.5396171808242798e-01</leafValues></_>
        <_>
          <internalNodes>
            0 -1 29 1.9963502883911133e-01</internalNodes>
          <leafValues>
            -7.2260737419128418e-02 5.9439986944198608e-01</leafValues></_>
        <_>
          <internalNodes>
            0 -1 61 -5.2978292107582092e-02</internalNodes>
          <leafValues>
            4.2695140838623047e-01 -1.2193465977907181e-01</leafValues></_>
        <_>
          <internalNodes>
            0 -1 634 -6.2451869249343872e-02</internalNodes>
          <leafValues>
            3.9819708466529846e-01 -1.2689468264579773e-01</leafValues></_>
        <_>
          <internalNodes>
            0 -1 72 9.3598626554012299e-03</internalNodes>
          <leafValues>
            6.8069241940975189e-02 -7.5034010410308838e-01</leafValues></_>
        <_>
          <internalNodes>
            0 -1 485 6.6333338618278503e-03</internalNodes>
          <leafValues>
            -2.2616255283355713e-01 2.2593265771865845e-01</leafValues></_>
        <_>
          <internalNodes>
            0 -1 1 -7.2087594307959080e-03</internalNodes>
          <leafValues>
            -9.6601419150829315e-02 5.2348250150680542e-01</leafValues></_>
        <_>
          <internalNodes>
            0 -1 83 -8.5965273901820183e-03</internalNodes>
          <leafValues>
            -8.7053620815277100e-01 5.9278152883052826e-02</leafValues></_>
        <_>
          <internalNodes>
            0 -1 81 2.5537511333823204e-02</internalNodes>
          <leafValues>
            4.7962669283151627e-02 -7.3548138141632080e-01</leafValues></_>
        <_>
          <internalNodes>
            0 -1 723 5.2427977789193392e-04</internalNodes>
          <leafValues>
            1.5529060363769531e-01 -2.9375585913658142e-01</leafValues></_>
        <_>
          <internalNodes>
            0 -1 12 1.9104707986116409e-02</internalNodes>
          <leafValues>
            -8.8954888284206390e-02 4.9426037073135376e-01</leafValues></_>
        <_>
          <internalNodes>
            0 -1 413 1.1574864387512207e-02</internalNodes>
          <leafValues>
            6.9060884416103363e-02 -6.7942720651626587e-01</leafValues></_>
        <_>
          <internalNodes>
            0 -1 739 2.2251387126743793e-03</internalNodes>
          <leafValues>
            5.8650653809309006e-02 -6.2341636419296265e-01</leafValues></_>
        <_>
          <internalNodes>
            0 -1 96 1.2561243493109941e-03</internalNodes>
          <leafValues>
            8.6566142737865448e-02 -4.5165595412254333e-01</leafValues></_>
        <_>
          <internalNodes>
            0 -1 496 1.3371515087783337e-03</internalNodes>
          <leafValues>
            -1.5172144770622253e-01 3.3340466022491455e-01</leafValues></_>
        <_>
          <internalNodes>
            0 -1 49 1.3896117918193340e-02</internalNodes>
          <leafValues>
            -1.0561596602201462e-01 3.9989963173866272e-01</leafValues></_>
        <_>
          <internalNodes>
            0 -1 216 -4.6943709254264832e-02</internalNodes>
          <leafValues>
            -6.1696171760559082e-01 6.7588470876216888e-02</leafValues></_>
        <_>
          <internalNodes>
            0 -1 130 4.7373615205287933e-02</internalNodes>
          <leafValues>
            -1.0641186684370041e-01 4.0404126048088074e-01</leafValues></_>
        <_>
          <internalNodes>
            0 -1 378 -7.0241470821201801e-03</internalNodes>
          <leafValues>
            3.8772517442703247e-01 -1.5900203585624695e-01</leafValues></_>
        <_>
          <internalNodes>
            0 -1 741 5.4061354603618383e-04</internalNodes>
          <leafValues>
            1.2123318016529083e-01 -3.5752338171005249e-01</leafValues></_>
        <_>
          <internalNodes>
            0 -1 619 -7.7838495373725891e-02</internalNodes>
          <leafValues>
            4.4113042950630188e-01 -1.0101421177387238e-01</leafValues></_>
        <_>
          <internalNodes>
            0 -1 730 -7.4561061337590218e-03</internalNodes>
          <leafValues>
            -4.8079672455787659e-01 9.1925017535686493e-02</leafValues></_>
        <_>
          <internalNodes>
            0 -1 107 4.0756575763225555e-03</internalNodes>
          <leafValues>
            7.8167401254177094e-02 -5.0233954191207886e-01</leafValues></_>
        <_>
          <internalNodes>
            0 -1 152 -7.6963298022747040e-02</internalNodes>
          <leafValues>
            7.7180469036102295e-01 -5.5206324905157089e-02</leafValues></_>
        <_>
          <internalNodes>
            0 -1 234 1.4393869787454605e-02</internalNodes>
          <leafValues>
            7.1804516017436981e-02 -6.5259861946105957e-01</leafValues></_>
        <_>
          <internalNodes>
            0 -1 68 -3.4735370427370071e-02</internalNodes>
          <leafValues>
            5.8403080701828003e-01 -7.7352002263069153e-02</leafValues></_>
        <_>
          <internalNodes>
            0 -1 735 -3.5822909558191895e-04</internalNodes>
          <leafValues>
            -2.7612614631652832e-01 1.4158357679843903e-01</leafValues></_>
        <_>
          <internalNodes>
            0 -1 366 -3.6979154683649540e-03</internalNodes>
          <leafValues>
            3.3774083852767944e-01 -1.1588788777589798e-01</leafValues></_>
        <_>
          <internalNodes>
            0 -1 705 -1.1405386030673981e-02</internalNodes>
          <leafValues>
            3.6800062656402588e-01 -1.0758712887763977e-01</leafValues></_>
        <_>
          <internalNodes>
            0 -1 692 -5.5370092391967773e-02</internalNodes>
          <leafValues>
            -6.2796808779239655e-02 6.4941811561584473e-01</leafValues></_>
        <_>
          <internalNodes>
            0 -1 747 4.6209502033889294e-04</internalNodes>
          <leafValues>
            1.3610725104808807e-01 -3.2015639543533325e-01</leafValues></_>
        <_>
          <internalNodes>
            0 -1 658 -1.8559096381068230e-02</internalNodes>
          <leafValues>
            5.4080897569656372e-01 -8.5044890642166138e-02</leafValues></_>
        <_>
          <internalNodes>
            0 -1 314 1.5199483372271061e-02</internalNodes>
          <leafValues>
            -7.8943416476249695e-02 4.4079792499542236e-01</leafValues></_>
        <_>
          <internalNodes>
            0 -1 632 1.6349866986274719e-02</internalNodes>
          <leafValues>
            -8.4827430546283722e-02 4.4242540001869202e-01</leafValues></_>
        <_>
          <internalNodes>
            0 -1 123 -4.4175339862704277e-03</internalNodes>
          <leafValues>
            -5.5801272392272949e-01 7.8721582889556885e-02</leafValues></_>
        <_>
          <internalNodes>
            0 -1 120 2.6174555532634258e-03</internalNodes>
          <leafValues>
            6.5909743309020996e-02 -6.1535114049911499e-01</leafValues></_>
        <_>
          <internalNodes>
            0 -1 513 8.3485608920454979e-03</internalNodes>
          <leafValues>
            -1.0331729799509048e-01 3.9732271432876587e-01</leafValues></_>
        <_>
          <internalNodes>
            0 -1 455 -1.2604474322870374e-03</internalNodes>
          <leafValues>
            -2.2844627499580383e-01 1.8257360160350800e-01</leafValues></_>
        <_>
          <internalNodes>
            0 -1 90 3.0122552998363972e-03</internalNodes>
          <leafValues>
            6.6302374005317688e-02 -6.0284739732742310e-01</leafValues></_>
        <_>
          <internalNodes>
            0 -1 628 -8.6843911558389664e-03</internalNodes>
          <leafValues>
            6.1648890376091003e-02 -5.6714689731597900e-01</leafValues></_>
        <_>
          <internalNodes>
            0 -1 491 -3.8426004350185394e-02</internalNodes>
          <leafValues>
            -5.9816676378250122e-01 6.4908124506473541e-02</leafValues></_>
        <_>
          <internalNodes>
            0 -1 600 3.2583598513156176e-03</internalNodes>
          <leafValues>
            1.4424946904182434e-01 -3.0780082941055298e-01</leafValues></_>
        <_>
          <internalNodes>
            0 -1 681 -1.0351804085075855e-02</internalNodes>
          <leafValues>
            -9.2750245332717896e-01 4.3374367058277130e-02</leafValues></_>
        <_>
          <internalNodes>
            0 -1 63 1.3732918538153172e-02</internalNodes>
          <leafValues>
            3.7085611373186111e-02 -7.5087779760360718e-01</leafValues></_>
        <_>
          <internalNodes>
            0 -1 57 6.0139042325317860e-03</internalNodes>
          <leafValues>
            -1.9988235831260681e-01 1.9088500738143921e-01</leafValues></_>
        <_>
          <internalNodes>
            0 -1 622 1.1158952489495277e-02</internalNodes>
          <leafValues>
            6.4034193754196167e-02 -6.2679439783096313e-01</leafValues></_>
        <_>
          <internalNodes>
            0 -1 735 3.0459286645054817e-03</internalNodes>
          <leafValues>
            6.0320373624563217e-02 -5.9622728824615479e-01</leafValues></_>
        <_>
          <internalNodes>
            0 -1 244 3.0009927228093147e-02</internalNodes>
          <leafValues>
            -1.2497735023498535e-01 3.2668966054916382e-01</leafValues></_>
        <_>
          <internalNodes>
            0 -1 393 -2.4579048156738281e-02</internalNodes>
          <leafValues>
            2.9324755072593689e-01 -1.3350212574005127e-01</leafValues></_>
        <_>
          <internalNodes>
            0 -1 165 5.5390026420354843e-02</internalNodes>
          <leafValues>
            3.8932885974645615e-02 -1.</leafValues></_>
        <_>
          <internalNodes>
            0 -1 113 -6.3714429736137390e-02</internalNodes>
          <leafValues>
            -7.8474026918411255e-01 3.3805079758167267e-02</leafValues></_>
        <_>
          <internalNodes>
            0 -1 312 9.7802504897117615e-03</internalNodes>
          <leafValues>
            4.2498085647821426e-02 -6.8862777948379517e-01</leafValues></_>
        <_>
          <internalNodes>
            0 -1 612 3.2454714179039001e-02</internalNodes>
          <leafValues>
            4.2483553290367126e-02 -6.8609642982482910e-01</leafValues></_>
        <_>
          <internalNodes>
            0 -1 396 4.0858474373817444e-01</internalNodes>
          <leafValues>
            -6.1300192028284073e-02 7.2539222240447998e-01</leafValues></_>
        <_>
          <internalNodes>
            0 -1 625 -7.1068191900849342e-03</internalNodes>
          <leafValues>
            3.9713582396507263e-01 -9.2442072927951813e-02</leafValues></_>
        <_>
          <internalNodes>
            0 -1 207 8.1197898834943771e-03</internalNodes>
          <leafValues>
            -8.1494964659214020e-02 4.8283863067626953e-01</leafValues></_></weakClassifiers></_>
    <!-- stage 3 -->
    <_>
      <maxWeakCount>88</maxWeakCount>
      <stageThreshold>-4.6049779653549194e-01</stageThreshold>
      <weakClassifiers>
        <_>
          <internalNodes>
            0 -1 143 -1.2796372175216675e-02</internalNodes>
          <leafValues>
            7.4718527495861053e-02 -6.4650434255599976e-01</leafValues></_>
        <_>
          <internalNodes>
            0 -1 418 -2.6416266337037086e-03</internalNodes>
          <leafValues>
            3.8725370168685913e-01 -3.5795056819915771e-01</leafValues></_>
        <_>
          <internalNodes>
            0 -1 397 1.2522064149379730e-02</internalNodes>
          <leafValues>
            -2.4052636325359344e-01 3.6565378308296204e-01</leafValues></_>
        <_>
          <internalNodes>
            0 -1 221 -6.4597069285809994e-03</internalNodes>
          <leafValues>
            3.5729271173477173e-01 -1.6570568084716797e-01</leafValues></_>
        <_>
          <internalNodes>
            0 -1 162 -1.5529789961874485e-03</internalNodes>
          <leafValues>
            2.7104833722114563e-01 -2.0635646581649780e-01</leafValues></_>
        <_>
          <internalNodes>
            0 -1 25 4.9856774508953094e-02</internalNodes>
          <leafValues>
            -2.9435265064239502e-01 2.0119103789329529e-01</leafValues></_>
        <_>
          <internalNodes>
            0 -1 697 -2.1540075540542603e-02</internalNodes>
          <leafValues>
            5.6328898668289185e-01 -1.2159299105405807e-01</leafValues></_>
        <_>
          <internalNodes>
            0 -1 381 -1.0573199018836021e-02</internalNodes>
          <leafValues>
            3.6473831534385681e-01 -1.3298128545284271e-01</leafValues></_>
        <_>
          <internalNodes>
            0 -1 606 -1.5748137957416475e-04</internalNodes>
          <leafValues>
            -1.4688600599765778e-01 3.1279668211936951e-01</leafValues></_>
        <_>
          <internalNodes>
            0 -1 26 -3.0992869287729263e-03</internalNodes>
          <leafValues>
            4.4734612107276917e-01 -1.2142112106084824e-01</leafValues></_>
        <_>
          <internalNodes>
            0 -1 663 4.7576841898262501e-03</internalNodes>
          <leafValues>
            -1.1770294606685638e-01 3.5264366865158081e-01</leafValues></_>
        <_>
          <internalNodes>
            0 -1 546 3.0911941081285477e-02</internalNodes>
          <leafValues>
            8.1356957554817200e-02 -6.5493738651275635e-01</leafValues></_>
        <_>
          <internalNodes>
            0 -1 499 4.7609522007405758e-03</internalNodes>
          <leafValues>
            -1.2147566676139832e-01 3.8269722461700439e-01</leafValues></_>
        <_>
          <internalNodes>
            0 -1 454 -3.2136507332324982e-02</internalNodes>
          <leafValues>
            6.6299146413803101e-01 -3.9586536586284637e-02</leafValues></_>
        <_>
          <internalNodes>
            0 -1 26 2.9881664086133242e-03</internalNodes>
          <leafValues>
            -7.6253183186054230e-02 4.9527314305305481e-01</leafValues></_>
        <_>
          <internalNodes>
            0 -1 373 -2.1425992250442505e-02</internalNodes>
          <leafValues>
            -7.1601223945617676e-01 6.5160013735294342e-02</leafValues></_>
        <_>
          <internalNodes>
            0 -1 301 -1.3851347612217069e-03</internalNodes>
          <leafValues>
            2.9281821846961975e-01 -1.4286674559116364e-01</leafValues></_>
        <_>
          <internalNodes>
            0 -1 212 1.7794461920857430e-02</internalNodes>
          <leafValues>
            8.6642421782016754e-02 -6.4497226476669312e-01</leafValues></_>
        <_>
          <internalNodes>
            0 -1 294 7.1968031115829945e-03</internalNodes>
          <leafValues>
            -1.1200483888387680e-01 4.0349903702735901e-01</leafValues></_>
        <_>
          <internalNodes>
            0 -1 224 1.0131449671462178e-03</internalNodes>
          <leafValues>
            9.8091140389442444e-02 -4.3381151556968689e-01</leafValues></_>
        <_>
          <internalNodes>
            0 -1 639 -4.6322806738317013e-03</internalNodes>
          <leafValues>
            3.0975651741027832e-01 -1.2519712746143341e-01</leafValues></_>
        <_>
          <internalNodes>
            0 -1 535 6.8170605227351189e-03</internalNodes>
          <leafValues>
            5.1456924527883530e-02 -9.1422957181930542e-01</leafValues></_>
        <_>
          <internalNodes>
            0 -1 203 5.0908084958791733e-03</internalNodes>
          <leafValues>
            -2.0292404294013977e-01 1.8547968566417694e-01</leafValues></_>
        <_>
          <internalNodes>
            0 -1 198 -2.6854049414396286e-02</internalNodes>
          <leafValues>
            5.9522098302841187e-01 -6.2360364943742752e-02</leafValues></_>
        <_>
          <internalNodes>
            0 -1 127 -3.7564416415989399e-03</internalNodes>
          <leafValues>
            -2.8790467977523804e-01 1.2603145837783813e-01</leafValues></_>
        <_>
          <internalNodes>
            0 -1 192 -1.8311116844415665e-02</internalNodes>
          <leafValues>
            9.3112923204898834e-02 -4.0958374738693237e-01</leafValues></_>
        <_>
          <internalNodes>
            0 -1 382 -2.9605987947434187e-03</internalNodes>
          <leafValues>
            -7.1654587984085083e-02 6.6580706834793091e-01</leafValues></_>
        <_>
          <internalNodes>
            0 -1 424 2.1299640648066998e-03</internalNodes>
          <leafValues>
            -9.2446334660053253e-02 3.7904763221740723e-01</leafValues></_>
        <_>
          <internalNodes>
            0 -1 596 -2.1238420158624649e-03</internalNodes>
          <leafValues>
            3.5107409954071045e-01 -1.1371426284313202e-01</leafValues></_>
        <_>
          <internalNodes>
            0 -1 199 -1.5792103111743927e-01</internalNodes>
          <leafValues>
            -6.2897527217864990e-01 6.2774129211902618e-02</leafValues></_>
        <_>
          <internalNodes>
            0 -1 561 1.3423681259155273e-02</internalNodes>
          <leafValues>
            3.2764945179224014e-02 -7.9069620370864868e-01</leafValues></_>
        <_>
          <internalNodes>
            0 -1 138 -5.8992230333387852e-03</internalNodes>
          <leafValues>
            1.4279840886592865e-01 -2.5968438386917114e-01</leafValues></_>
        <_>
          <internalNodes>
            0 -1 136 -1.4951093494892120e-01</internalNodes>
          <leafValues>
            2.0886194705963135e-01 -1.8216925859451294e-01</leafValues></_>
        <_>
          <internalNodes>
            0 -1 525 -1.3472856022417545e-02</internalNodes>
          <leafValues>
            -4.5863261818885803e-01 7.7983096241950989e-02</leafValues></_>
        <_>
          <internalNodes>
            0 -1 708 -6.2690195627510548e-03</internalNodes>
          <leafValues>
            -8.9995431900024414e-01 2.7158491313457489e-02</leafValues></_>
        <_>
          <internalNodes>
            0 -1 387 -2.8390485793352127e-02</internalNodes>
          <leafValues>
            2.6835376024246216e-01 -1.2374164909124374e-01</leafValues></_>
        <_>
          <internalNodes>
            0 -1 223 -1.0766088962554932e-01</internalNodes>
          <leafValues>
            4.9920189380645752e-01 -6.4452752470970154e-02</leafValues></_>
        <_>
          <internalNodes>
            0 -1 690 4.5036725699901581e-02</internalNodes>
          <leafValues>
            -5.3260099142789841e-02 5.6342059373855591e-01</leafValues></_>
        <_>
          <internalNodes>
            0 -1 473 7.8320299508050084e-04</internalNodes>
          <leafValues>
            -1.8251422047615051e-01 1.8004161119461060e-01</leafValues></_>
        <_>
          <internalNodes>
            0 -1 302 2.1671094000339508e-03</internalNodes>
          <leafValues>
            -1.2513822317123413e-01 2.5873044133186340e-01</leafValues></_>
        <_>
          <internalNodes>
            0 -1 365 -1.7673687543720007e-03</internalNodes>
          <leafValues>
            3.5949110984802246e-01 -1.1590287834405899e-01</leafValues></_>
        <_>
          <internalNodes>
            0 -1 433 -3.3749453723430634e-02</internalNodes>
          <leafValues>
            -9.0586519241333008e-01 4.3468058109283447e-02</leafValues></_>
        <_>
          <internalNodes>
            0 -1 115 -2.7234372100792825e-04</internalNodes>
          <leafValues>
            -4.5887567102909088e-02 9.5903778076171875e-01</leafValues></_>
        <_>
          <internalNodes>
            0 -1 132 -3.9192065596580505e-02</internalNodes>
          <leafValues>
            -7.6820623874664307e-01 5.3510274738073349e-02</leafValues></_>
        <_>
          <internalNodes>
            0 -1 497 1.4237517490983009e-02</internalNodes>
          <leafValues>
            5.2824579179286957e-02 -5.3422528505325317e-01</leafValues></_>
        <_>
          <internalNodes>
            0 -1 572 1.1748967226594687e-03</internalNodes>
          <leafValues>
            -1.0937470942735672e-01 2.9681697487831116e-01</leafValues></_>
        <_>
          <internalNodes>
            0 -1 573 1.3281259685754776e-02</internalNodes>
          <leafValues>
            6.3222706317901611e-02 -6.3090527057647705e-01</leafValues></_>
        <_>
          <internalNodes>
            0 -1 569 -1.0240761563181877e-02</internalNodes>
          <leafValues>
            -5.3731811046600342e-01 5.4995935410261154e-02</leafValues></_>
        <_>
          <internalNodes>
            0 -1 639 2.0020180381834507e-03</internalNodes>
          <leafValues>
            -1.2647232413291931e-01 2.7382642030715942e-01</leafValues></_>
        <_>
          <internalNodes>
            0 -1 114 -2.1931119263172150e-03</internalNodes>
          <leafValues>
            -6.2303376197814941e-01 5.0535526126623154e-02</leafValues></_>
        <_>
          <internalNodes>
            0 -1 187 -1.9972082227468491e-02</internalNodes>
          <leafValues>
            2.8384814038872719e-02 -8.6766445636749268e-01</leafValues></_>
        <_>
          <internalNodes>
            0 -1 631 7.0194457657635212e-04</internalNodes>
          <leafValues>
            -1.5893894433975220e-01 2.0355150103569031e-01</leafValues></_>
        <_>
          <internalNodes>
            0 -1 737 -1.2429360300302505e-02</internalNodes>
          <leafValues>
            -4.0076440572738647e-01 8.3417296409606934e-02</leafValues></_>
        <_>
          <internalNodes>
            0 -1 544 -1.4190310612320900e-02</internalNodes>
          <leafValues>
            -8.0367648601531982e-01 3.3733963966369629e-02</leafValues></_>
        <_>
          <internalNodes>
            0 -1 649 9.5752312336117029e-04</internalNodes>
          <leafValues>
            -1.2472312897443771e-01 2.7177688479423523e-01</leafValues></_>
        <_>
          <internalNodes>
            0 -1 363 -1.3796361163258553e-03</internalNodes>
          <leafValues>
            3.1657415628433228e-01 -1.0142198204994202e-01</leafValues></_>
        <_>
          <internalNodes>
            0 -1 225 -5.4438067600131035e-03</internalNodes>
          <leafValues>
            2.2803731262683868e-01 -1.4997111260890961e-01</leafValues></_>
        <_>
          <internalNodes>
            0 -1 24 1.5424178540706635e-01</internalNodes>
          <leafValues>
            -1.2978224456310272e-01 2.5112062692642212e-01</leafValues></_>
        <_>
          <internalNodes>
            0 -1 142 7.5872791931033134e-03</internalNodes>
          <leafValues>
            -1.1121182888746262e-01 3.0538931488990784e-01</leafValues></_>
        <_>
          <internalNodes>
            0 -1 98 -8.3365533500909805e-03</internalNodes>
          <leafValues>
            -9.0339118242263794e-01 4.1922755539417267e-02</leafValues></_>
        <_>
          <internalNodes>
            0 -1 399 2.0694974809885025e-03</internalNodes>
          <leafValues>
            -1.2634515762329102e-01 3.1234884262084961e-01</leafValues></_>
        <_>
          <internalNodes>
            0 -1 421 8.2883238792419434e-03</internalNodes>
          <leafValues>
            -1.2618695199489594e-01 2.7513343095779419e-01</leafValues></_>
        <_>
          <internalNodes>
            0 -1 661 -8.3197187632322311e-03</internalNodes>
          <leafValues>
            -4.5292556285858154e-02 7.9732304811477661e-01</leafValues></_>
        <_>
          <internalNodes>
            0 -1 157 -1.9892841577529907e-01</internalNodes>
          <leafValues>
            4.7018489241600037e-01 -6.1357427388429642e-02</leafValues></_>
        <_>
          <internalNodes>
            0 -1 423 1.0617515444755554e-01</internalNodes>
          <leafValues>
            -1.1396050453186035e-01 3.1666800379753113e-01</leafValues></_>
        <_>
          <internalNodes>
            0 -1 594 2.7379764243960381e-02</internalNodes>
          <leafValues>
            6.8656727671623230e-02 -4.8419511318206787e-01</leafValues></_>
        <_>
          <internalNodes>
            0 -1 551 2.0495725795626640e-02</internalNodes>
          <leafValues>
            -6.9689124822616577e-02 5.7957196235656738e-01</leafValues></_>
        <_>
          <internalNodes>
            0 -1 383 -7.8121693804860115e-03</internalNodes>
          <leafValues>
            -5.6386238336563110e-01 6.5956391394138336e-02</leafValues></_>
        <_>
          <internalNodes>
            0 -1 402 2.3379710037261248e-03</internalNodes>
          <leafValues>
            -1.3271822035312653e-01 2.5684699416160583e-01</leafValues></_>
        <_>
          <internalNodes>
            0 -1 469 2.2867184132337570e-02</internalNodes>
          <leafValues>
            4.4650606811046600e-02 -6.5881353616714478e-01</leafValues></_>
        <_>
          <internalNodes>
            0 -1 16 1.5196008607745171e-02</internalNodes>
          <leafValues>
            -1.0121196508407593e-01 3.5586464405059814e-01</leafValues></_>
        <_>
          <internalNodes>
            0 -1 720 4.0093436837196350e-04</internalNodes>
          <leafValues>
            1.2887044250965118e-01 -2.5044739246368408e-01</leafValues></_>
        <_>
          <internalNodes>
            0 -1 372 4.3493006378412247e-02</internalNodes>
          <leafValues>
            -5.1598712801933289e-02 6.5289312601089478e-01</leafValues></_>
        <_>
          <internalNodes>
            0 -1 137 -5.2520908415317535e-02</internalNodes>
          <leafValues>
            -8.2862579822540283e-01 4.6884395182132721e-02</leafValues></_>
        <_>
          <internalNodes>
            0 -1 229 -1.3224276714026928e-02</internalNodes>
          <leafValues>
            3.2124620676040649e-01 -1.0860174894332886e-01</leafValues></_>
        <_>
          <internalNodes>
            0 -1 432 -5.2596047520637512e-02</internalNodes>
          <leafValues>
            9.1921798884868622e-02 -3.6922314763069153e-01</leafValues></_>
        <_>
          <internalNodes>
            0 -1 616 -1.1632109060883522e-02</internalNodes>
          <leafValues>
            4.6395960450172424e-01 -7.5361751019954681e-02</leafValues></_>
        <_>
          <internalNodes>
            0 -1 731 -1.0695490986108780e-02</internalNodes>
          <leafValues>
            -5.7468628883361816e-01 7.4298702180385590e-02</leafValues></_>
        <_>
          <internalNodes>
            0 -1 510 -8.2297623157501221e-03</internalNodes>
          <leafValues>
            5.6398868560791016e-01 -6.0245849192142487e-02</leafValues></_>
        <_>
          <internalNodes>
            0 -1 306 -4.9804892390966415e-02</internalNodes>
          <leafValues>
            -7.3626828193664551e-01 4.5304574072360992e-02</leafValues></_>
        <_>
          <internalNodes>
            0 -1 564 -6.2525330577045679e-04</internalNodes>
          <leafValues>
            -2.1594312787055969e-01 1.4157609641551971e-01</leafValues></_>
        <_>
          <internalNodes>
            0 -1 689 -9.0859755873680115e-03</internalNodes>
          <leafValues>
            -9.7378182411193848e-01 3.0493503436446190e-02</leafValues></_>
        <_>
          <internalNodes>
            0 -1 698 -3.1340036541223526e-02</internalNodes>
          <leafValues>
            5.8259952068328857e-01 -6.4165100455284119e-02</leafValues></_>
        <_>
          <internalNodes>
            0 -1 457 -8.1104058772325516e-03</internalNodes>
          <leafValues>
            -8.9445047080516815e-02 3.2907739281654358e-01</leafValues></_>
        <_>
          <internalNodes>
            0 -1 548 1.1632541427388787e-03</internalNodes>
          <leafValues>
            -1.0319980233907700e-01 2.9574021697044373e-01</leafValues></_>
        <_>
          <internalNodes>
            0 -1 646 -1.1640272103250027e-02</internalNodes>
          <leafValues>
            -9.5673209428787231e-01 3.6097455769777298e-02</leafValues></_>
        <_>
          <internalNodes>
            0 -1 56 -5.7440821547061205e-04</internalNodes>
          <leafValues>
            1.9725373387336731e-01 -1.5908247232437134e-01</leafValues></_>
        <_>
          <internalNodes>
            0 -1 76 5.4389373399317265e-03</internalNodes>
          <leafValues>
            -7.6437927782535553e-02 4.8237472772598267e-01</leafValues></_></weakClassifiers></_>
    <!-- stage 4 -->
    <_>
      <maxWeakCount>100</maxWeakCount>
      <stageThreshold>-4.7640717029571533e-01</stageThreshold>
      <weakClassifiers>
        <_>
          <internalNodes>
            0 -1 323 -3.6628576926887035e-03</internalNodes>
          <leafValues>
            -3.9473685622215271e-01 7.3770493268966675e-01</leafValues></_>
        <_>
          <internalNodes>
            0 -1 154 2.2197272628545761e-02</internalNodes>
          <leafValues>
            -1.5104462206363678e-01 4.5573276281356812e-01</leafValues></_>
        <_>
          <internalNodes>
            0 -1 134 5.9094931930303574e-04</internalNodes>
          <leafValues>
            1.2532931566238403e-01 -3.8344079256057739e-01</leafValues></_>
        <_>
          <internalNodes>
            0 -1 691 -1.8265075981616974e-02</internalNodes>
          <leafValues>
            2.9811838269233704e-01 -1.3848595321178436e-01</leafValues></_>
        <_>
          <internalNodes>
            0 -1 466 -1.1204665899276733e-01</internalNodes>
          <leafValues>
            -2.7038455009460449e-01 1.6772603988647461e-01</leafValues></_>
        <_>
          <internalNodes>
            0 -1 44 2.0545814186334610e-02</internalNodes>
          <leafValues>
            -1.1075564473867416e-01 3.3737891912460327e-01</leafValues></_>
        <_>
          <internalNodes>
            0 -1 162 -1.1856347322463989e-02</internalNodes>
          <leafValues>
            2.9328280687332153e-01 -1.5815298259258270e-01</leafValues></_>
        <_>
          <internalNodes>
            0 -1 501 2.1031169220805168e-02</internalNodes>
          <leafValues>
            9.5464281737804413e-02 -4.5988073945045471e-01</leafValues></_>
        <_>
          <internalNodes>
            0 -1 675 6.9508043816313148e-04</internalNodes>
          <leafValues>
            -1.6793555021286011e-01 2.2893068194389343e-01</leafValues></_>
        <_>
          <internalNodes>
            0 -1 168 4.1302178055047989e-02</internalNodes>
          <leafValues>
            -1.5980297327041626e-01 2.1722295880317688e-01</leafValues></_>
        <_>
          <internalNodes>
            0 -1 111 -1.2703036190941930e-03</internalNodes>
          <leafValues>
            -4.2950922250747681e-01 8.6858175694942474e-02</leafValues></_>
        <_>
          <internalNodes>
            0 -1 349 9.8891787230968475e-02</internalNodes>
          <leafValues>
            -6.8261675536632538e-02 5.1579630374908447e-01</leafValues></_>
        <_>
          <internalNodes>
            0 -1 92 3.3825427293777466e-02</internalNodes>
          <leafValues>
            -1.1648160964250565e-01 3.5228204727172852e-01</leafValues></_>
        <_>
          <internalNodes>
            0 -1 325 2.5826008059084415e-03</internalNodes>
          <leafValues>
            -2.1941937506198883e-01 1.4830806851387024e-01</leafValues></_>
        <_>
          <internalNodes>
            0 -1 197 8.8401846587657928e-03</internalNodes>
          <leafValues>
            -2.2175368666648865e-01 1.5848779678344727e-01</leafValues></_>
        <_>
          <internalNodes>
            0 -1 748 3.3022621646523476e-03</internalNodes>
          <leafValues>
            4.2190760374069214e-02 -7.2296911478042603e-01</leafValues></_>
        <_>
          <internalNodes>
            0 -1 725 -1.8979352898895741e-03</internalNodes>
          <leafValues>
            -3.8977566361427307e-01 7.8935585916042328e-02</leafValues></_>
        <_>
          <internalNodes>
            0 -1 707 1.9751243293285370e-02</internalNodes>
          <leafValues>
            -7.1047946810722351e-02 4.5125237107276917e-01</leafValues></_>
        <_>
          <internalNodes>
            0 -1 218 -8.3854887634515762e-04</internalNodes>
          <leafValues>
            -2.9540093615651131e-02 9.6484172344207764e-01</leafValues></_>
        <_>
          <internalNodes>
            0 -1 376 -5.9803009033203125e-02</internalNodes>
          <leafValues>
            3.8413402438163757e-01 -7.6397724449634552e-02</leafValues></_>
        <_>
          <internalNodes>
            0 -1 48 -6.1920816078782082e-03</internalNodes>
          <leafValues>
            2.6967048645019531e-01 -1.1954756826162338e-01</leafValues></_>
        <_>
          <internalNodes>
            0 -1 644 -2.6807696558535099e-03</internalNodes>
          <leafValues>
            3.3650872111320496e-01 -9.3360945582389832e-02</leafValues></_>
        <_>
          <internalNodes>
            0 -1 494 -6.6027673892676830e-03</internalNodes>
          <leafValues>
            -4.1565904021263123e-01 8.4510773420333862e-02</leafValues></_>
        <_>
          <internalNodes>
            0 -1 643 -3.3918497501872480e-04</internalNodes>
          <leafValues>
            2.0597510039806366e-01 -1.5645059943199158e-01</leafValues></_>
        <_>
          <internalNodes>
            0 -1 389 -4.9874864518642426e-02</internalNodes>
          <leafValues>
            3.1610661745071411e-01 -1.0061198472976685e-01</leafValues></_>
        <_>
          <internalNodes>
            0 -1 74 -2.0534086227416992e-01</internalNodes>
          <leafValues>
            -6.3288158178329468e-01 5.0969950854778290e-02</leafValues></_>
        <_>
          <internalNodes>
            0 -1 347 -9.4107193872332573e-03</internalNodes>
          <leafValues>
            2.4963895976543427e-01 -1.2711000442504883e-01</leafValues></_>
        <_>
          <internalNodes>
            0 -1 428 -3.7281328439712524e-01</internalNodes>
          <leafValues>
            8.9747911691665649e-01 -2.7356216683983803e-02</leafValues></_>
        <_>
          <internalNodes>
            0 -1 657 -3.9030361222103238e-04</internalNodes>
          <leafValues>
            -2.1611064672470093e-01 1.4424407482147217e-01</leafValues></_>
        <_>
          <internalNodes>
            0 -1 40 5.6714427471160889e-01</internalNodes>
          <leafValues>
            -5.9531357139348984e-02 5.1516443490982056e-01</leafValues></_>
        <_>
          <internalNodes>
            0 -1 295 5.4236659780144691e-03</internalNodes>
          <leafValues>
            6.2549330294132233e-02 -5.1849961280822754e-01</leafValues></_>
        <_>
          <internalNodes>
            0 -1 84 -9.7068101167678833e-02</internalNodes>
          <leafValues>
            6.0588467121124268e-01 -5.2700754255056381e-02</leafValues></_>
        <_>
          <internalNodes>
            0 -1 111 3.4240097738802433e-04</internalNodes>
          <leafValues>
            1.1124287545681000e-01 -2.5844162702560425e-01</leafValues></_>
        <_>
          <internalNodes>
            0 -1 409 4.6003881841897964e-02</internalNodes>
          <leafValues>
            2.5003012269735336e-02 -9.4177544116973877e-01</leafValues></_>
        <_>
          <internalNodes>
            0 -1 121 -1.7090467736124992e-03</internalNodes>
          <leafValues>
            -4.2171326279640198e-01 5.3072277456521988e-02</leafValues></_>
        <_>
          <internalNodes>
            0 -1 63 1.7998851835727692e-02</internalNodes>
          <leafValues>
            2.2646280005574226e-02 -9.7813344001770020e-01</leafValues></_>
        <_>
          <internalNodes>
            0 -1 254 2.1634455770254135e-02</internalNodes>
          <leafValues>
            -7.4272058904170990e-02 4.0486800670623779e-01</leafValues></_>
        <_>
          <internalNodes>
            0 -1 586 -1.1663949117064476e-03</internalNodes>
          <leafValues>
            2.5304216146469116e-01 -1.0625512897968292e-01</leafValues></_>
        <_>
          <internalNodes>
            0 -1 46 -8.5339676588773727e-03</internalNodes>
          <leafValues>
            -7.6536899805068970e-01 3.7301857024431229e-02</leafValues></_>
        <_>
          <internalNodes>
            0 -1 559 -6.6139131784439087e-02</internalNodes>
          <leafValues>
            5.7329875230789185e-01 -5.2400935441255569e-02</leafValues></_>
        <_>
          <internalNodes>
            0 -1 129 -5.1400117576122284e-02</internalNodes>
          <leafValues>
            4.6215850114822388e-01 -5.1257956773042679e-02</leafValues></_>
        <_>
          <internalNodes>
            0 -1 229 -2.3780453950166702e-02</internalNodes>
          <leafValues>
            3.5452514886856079e-01 -7.0898950099945068e-02</leafValues></_>
        <_>
          <internalNodes>
            0 -1 623 -4.7032602131366730e-02</internalNodes>
          <leafValues>
            -8.2991182804107666e-01 3.7178628146648407e-02</leafValues></_>
        <_>
          <internalNodes>
            0 -1 316 1.4605183154344559e-02</internalNodes>
          <leafValues>
            -1.0154097527265549e-01 2.8077661991119385e-01</leafValues></_>
        <_>
          <internalNodes>
            0 -1 450 -1.3422548770904541e-02</internalNodes>
          <leafValues>
            -4.4379118084907532e-01 5.9078779071569443e-02</leafValues></_>
        <_>
          <internalNodes>
            0 -1 377 -2.7263168245553970e-02</internalNodes>
          <leafValues>
            -5.9164661169052124e-01 4.0278457105159760e-02</leafValues></_>
        <_>
          <internalNodes>
            0 -1 738 -3.7014875560998917e-03</internalNodes>
          <leafValues>
            -7.6375156641006470e-01 3.0550207942724228e-02</leafValues></_>
        <_>
          <internalNodes>
            0 -1 694 1.7939619719982147e-02</internalNodes>
          <leafValues>
            -5.0888303667306900e-02 5.9321850538253784e-01</leafValues></_>
        <_>
          <internalNodes>
            0 -1 145 3.0849336180835962e-03</internalNodes>
          <leafValues>
            -1.1556158214807510e-01 2.1965251863002777e-01</leafValues></_>
        <_>
          <internalNodes>
            0 -1 744 3.5943507682532072e-03</internalNodes>
          <leafValues>
            2.8596255928277969e-02 -8.4395718574523926e-01</leafValues></_>
        <_>
          <internalNodes>
            0 -1 364 -3.4584380686283112e-02</internalNodes>
          <leafValues>
            -6.8203234672546387e-01 3.1305570155382156e-02</leafValues></_>
        <_>
          <internalNodes>
            0 -1 532 -6.7170858383178711e-03</internalNodes>
          <leafValues>
            5.3374892473220825e-01 -5.7489532977342606e-02</leafValues></_>
        <_>
          <internalNodes>
            0 -1 308 1.0162589140236378e-02</internalNodes>
          <leafValues>
            8.9259922504425049e-02 -3.1286787986755371e-01</leafValues></_>
        <_>
          <internalNodes>
            0 -1 498 5.1674880087375641e-03</internalNodes>
          <leafValues>
            -8.0253787338733673e-02 3.4757915139198303e-01</leafValues></_>
        <_>
          <internalNodes>
            0 -1 11 1.3766542077064514e-01</internalNodes>
          <leafValues>
            -7.7392719686031342e-02 4.1479158401489258e-01</leafValues></_>
        <_>
          <internalNodes>
            0 -1 209 1.8679142231121659e-03</internalNodes>
          <leafValues>
            -1.4568541944026947e-01 2.1222358942031860e-01</leafValues></_>
        <_>
          <internalNodes>
            0 -1 164 -5.4132728837430477e-04</internalNodes>
          <leafValues>
            1.5681745111942291e-01 -1.9165024161338806e-01</leafValues></_>
        <_>
          <internalNodes>
            0 -1 683 -1.0481514967978001e-02</internalNodes>
          <leafValues>
            4.5217752456665039e-01 -5.5047228932380676e-02</leafValues></_>
        <_>
          <internalNodes>
            0 -1 285 3.0397023074328899e-03</internalNodes>
          <leafValues>
            -1.0898295789957047e-01 2.2081054747104645e-01</leafValues></_>
        <_>
          <internalNodes>
            0 -1 265 -2.9708263464272022e-03</internalNodes>
          <leafValues>
            1.9859996438026428e-01 -1.3439626991748810e-01</leafValues></_>
        <_>
          <internalNodes>
            0 -1 537 8.6203832179307938e-03</internalNodes>
          <leafValues>
            -1.4315502345561981e-01 1.8853323161602020e-01</leafValues></_>
        <_>
          <internalNodes>
            0 -1 117 2.3152839858084917e-03</internalNodes>
          <leafValues>
            9.5350638031959534e-02 -2.9116526246070862e-01</leafValues></_>
        <_>
          <internalNodes>
            0 -1 120 -1.6033896245062351e-03</internalNodes>
          <leafValues>
            -4.2340695858001709e-01 5.8866050094366074e-02</leafValues></_>
        <_>
          <internalNodes>
            0 -1 588 3.1408537179231644e-02</internalNodes>
          <leafValues>
            -6.0353420674800873e-02 4.2733937501907349e-01</leafValues></_>
        <_>
          <internalNodes>
            0 -1 621 4.4485703110694885e-03</internalNodes>
          <leafValues>
            -1.3589711487293243e-01 1.9685716927051544e-01</leafValues></_>
        <_>
          <internalNodes>
            0 -1 333 -5.2051514387130737e-02</internalNodes>
          <leafValues>
            -5.2103805541992188e-01 5.3490467369556427e-02</leafValues></_>
        <_>
          <internalNodes>
            0 -1 536 3.9548175409436226e-03</internalNodes>
          <leafValues>
            -8.7032102048397064e-02 3.0180099606513977e-01</leafValues></_>
        <_>
          <internalNodes>
            0 -1 545 -5.5261775851249695e-03</internalNodes>
          <leafValues>
            -7.0864111185073853e-01 3.7625979632139206e-02</leafValues></_>
        <_>
          <internalNodes>
            0 -1 176 3.7054687738418579e-02</internalNodes>
          <leafValues>
            2.0281068980693817e-02 -8.6274349689483643e-01</leafValues></_>
        <_>
          <internalNodes>
            0 -1 188 -4.7012106515467167e-03</internalNodes>
          <leafValues>
            1.7685484886169434e-01 -1.3851001858711243e-01</leafValues></_>
        <_>
          <internalNodes>
            0 -1 158 -9.2664062976837158e-02</internalNodes>
          <leafValues>
            -1.0352967679500580e-01 2.4431906640529633e-01</leafValues></_>
        <_>
          <internalNodes>
            0 -1 343 1.2864618003368378e-01</internalNodes>
          <leafValues>
            3.0515193939208984e-02 -8.1319469213485718e-01</leafValues></_>
        <_>
          <internalNodes>
            0 -1 70 -9.2111239209771156e-03</internalNodes>
          <leafValues>
            -8.7060868740081787e-01 1.8175063654780388e-02</leafValues></_>
        <_>
          <internalNodes>
            0 -1 574 7.4063367210328579e-03</internalNodes>
          <leafValues>
            -7.2955176234245300e-02 3.5657882690429688e-01</leafValues></_>
        <_>
          <internalNodes>
            0 -1 67 3.1597562134265900e-02</internalNodes>
          <leafValues>
            -5.0816852599382401e-02 4.6078115701675415e-01</leafValues></_>
        <_>
          <internalNodes>
            0 -1 87 -2.5699856877326965e-01</internalNodes>
          <leafValues>
            4.4418096542358398e-01 -5.2729316055774689e-02</leafValues></_>
        <_>
          <internalNodes>
            0 -1 217 -7.1889581158757210e-04</internalNodes>
          <leafValues>
            -2.1355269849300385e-01 1.2862241268157959e-01</leafValues></_>
        <_>
          <internalNodes>
            0 -1 500 2.3517790250480175e-03</internalNodes>
          <leafValues>
            -1.7395484447479248e-01 1.8530544638633728e-01</leafValues></_>
        <_>
          <internalNodes>
            0 -1 533 -2.0061844587326050e-01</internalNodes>
          <leafValues>
            5.1102393865585327e-01 -5.0703279674053192e-02</leafValues></_>
        <_>
          <internalNodes>
            0 -1 460 -6.9606960751116276e-03</internalNodes>
          <leafValues>
            3.0857434868812561e-01 -7.8080281615257263e-02</leafValues></_>
        <_>
          <internalNodes>
            0 -1 640 -9.7611360251903534e-03</internalNodes>
          <leafValues>
            -7.0103973150253296e-01 3.3286809921264648e-02</leafValues></_>
        <_>
          <internalNodes>
            0 -1 205 -1.1445062234997749e-02</internalNodes>
          <leafValues>
            -8.2370513677597046e-01 2.0830538123846054e-02</leafValues></_>
        <_>
          <internalNodes>
            0 -1 438 -5.6335288099944592e-03</internalNodes>
          <leafValues>
            -4.5711916685104370e-01 4.3975166976451874e-02</leafValues></_>
        <_>
          <internalNodes>
            0 -1 190 2.6197725906968117e-02</internalNodes>
          <leafValues>
            3.2097108662128448e-02 -7.1235954761505127e-01</leafValues></_>
        <_>
          <internalNodes>
            0 -1 352 4.2437240481376648e-03</internalNodes>
          <leafValues>
            -9.0020954608917236e-02 3.0155673623085022e-01</leafValues></_>
        <_>
          <internalNodes>
            0 -1 440 1.4703372493386269e-02</internalNodes>
          <leafValues>
            3.7522442638874054e-02 -5.9561896324157715e-01</leafValues></_>
        <_>
          <internalNodes>
            0 -1 685 -1.9777868874371052e-04</internalNodes>
          <leafValues>
            -1.7126537859439850e-01 1.4947272837162018e-01</leafValues></_>
        <_>
          <internalNodes>
            0 -1 417 3.3917494118213654e-02</internalNodes>
          <leafValues>
            -3.0656954273581505e-02 7.7968472242355347e-01</leafValues></_>
        <_>
          <internalNodes>
            0 -1 334 -4.3924744240939617e-03</internalNodes>
          <leafValues>
            -6.0871005058288574e-01 4.5698236674070358e-02</leafValues></_>
        <_>
          <internalNodes>
            0 -1 464 2.7863182127475739e-02</internalNodes>
          <leafValues>
            1.6376867890357971e-02 -9.8230540752410889e-01</leafValues></_>
        <_>
          <internalNodes>
            0 -1 337 9.5600839704275131e-03</internalNodes>
          <leafValues>
            1.8403314054012299e-02 -7.8368127346038818e-01</leafValues></_>
        <_>
          <internalNodes>
            0 -1 575 1.2453053891658783e-01</internalNodes>
          <leafValues>
            3.3610582351684570e-02 -5.3673076629638672e-01</leafValues></_>
        <_>
          <internalNodes>
            0 -1 354 -2.5406558066606522e-02</internalNodes>
          <leafValues>
            3.4045439958572388e-01 -8.0558843910694122e-02</leafValues></_>
        <_>
          <internalNodes>
            0 -1 696 -8.2481540739536285e-03</internalNodes>
          <leafValues>
            2.8551620244979858e-01 -8.2793720066547394e-02</leafValues></_>
        <_>
          <internalNodes>
            0 -1 111 -2.7844370342791080e-03</internalNodes>
          <leafValues>
            -5.4737168550491333e-01 4.4620461761951447e-02</leafValues></_>
        <_>
          <internalNodes>
            0 -1 570 -2.4219036102294922e-02</internalNodes>
          <leafValues>
            -9.4721740484237671e-01 2.0072570070624352e-02</leafValues></_>
        <_>
          <internalNodes>
            0 -1 552 -3.2517027109861374e-02</internalNodes>
          <leafValues>
            -2.9308971762657166e-01 6.9374926388263702e-02</leafValues></_>
        <_>
          <internalNodes>
            0 -1 505 1.9771829247474670e-03</internalNodes>
          <leafValues>
            1.3231395184993744e-01 -2.2890116274356842e-01</leafValues></_>
        <_>
          <internalNodes>
            0 -1 367 2.1541243791580200e-01</internalNodes>
          <leafValues>
            -4.9366082996129990e-02 5.6348180770874023e-01</leafValues></_>
        <_>
          <internalNodes>
            0 -1 539 -1.5029193600639701e-03</internalNodes>
          <leafValues>
            2.5180914998054504e-01 -9.7567327320575714e-02</leafValues></_></weakClassifiers></_>
    <!-- stage 5 -->
    <_>
      <maxWeakCount>100</maxWeakCount>
      <stageThreshold>-6.4621895551681519e-01</stageThreshold>
      <weakClassifiers>
        <_>
          <internalNodes>
            0 -1 700 -6.9179952144622803e-02</internalNodes>
          <leafValues>
            4.8571428656578064e-01 -4.0240964293479919e-01</leafValues></_>
        <_>
          <internalNodes>
            0 -1 553 -1.0765655338764191e-01</internalNodes>
          <leafValues>
            1.2763832509517670e-01 -4.9377477169036865e-01</leafValues></_>
        <_>
          <internalNodes>
            0 -1 133 -7.8456431627273560e-02</internalNodes>
          <leafValues>
            2.8686922788619995e-01 -1.4339764416217804e-01</leafValues></_>
        <_>
          <internalNodes>
            0 -1 534 -6.7456020042300224e-04</internalNodes>
          <leafValues>
            2.1179513633251190e-01 -1.9585663080215454e-01</leafValues></_>
        <_>
          <internalNodes>
            0 -1 742 -5.3260610438883305e-03</internalNodes>
          <leafValues>
            -4.7066804766654968e-01 1.1959538608789444e-01</leafValues></_>
        <_>
          <internalNodes>
            0 -1 73 -1.3631128706037998e-02</internalNodes>
          <leafValues>
            3.0129237566143274e-03 -8.0437743663787842e-01</leafValues></_>
        <_>
          <internalNodes>
            0 -1 342 -1.3587135076522827e-01</internalNodes>
          <leafValues>
            3.9373028278350830e-01 -7.7519603073596954e-02</leafValues></_>
        <_>
          <internalNodes>
            0 -1 375 -4.6065039932727814e-02</internalNodes>
          <leafValues>
            -6.0805790126323700e-02 4.7149947285652161e-01</leafValues></_>
        <_>
          <internalNodes>
            0 -1 647 -1.9853883422911167e-03</internalNodes>
          <leafValues>
            2.7965554594993591e-01 -1.1372675001621246e-01</leafValues></_>
        <_>
          <internalNodes>
            0 -1 293 5.1770158112049103e-02</internalNodes>
          <leafValues>
            1.8222637474536896e-02 -9.7587692737579346e-01</leafValues></_>
        <_>
          <internalNodes>
            0 -1 329 1.4451583847403526e-02</internalNodes>
          <leafValues>
            -7.8706085681915283e-02 3.7376397848129272e-01</leafValues></_>
        <_>
          <internalNodes>
            0 -1 630 -8.6577646434307098e-03</internalNodes>
          <leafValues>
            -6.4010179042816162e-01 5.0927028059959412e-02</leafValues></_>
        <_>
          <internalNodes>
            0 -1 135 1.5932243317365646e-02</internalNodes>
          <leafValues>
            4.6141736209392548e-02 -5.6303226947784424e-01</leafValues></_>
        <_>
          <internalNodes>
            0 -1 708 6.8110213615000248e-03</internalNodes>
          <leafValues>
            4.0553845465183258e-02 -6.1609137058258057e-01</leafValues></_>
        <_>
          <internalNodes>
            0 -1 315 -2.5298317894339561e-02</internalNodes>
          <leafValues>
            4.3081562966108322e-02 -5.8725494146347046e-01</leafValues></_>
        <_>
          <internalNodes>
            0 -1 282 8.7987340521067381e-04</internalNodes>
          <leafValues>
            -1.7436085641384125e-01 1.4867687225341797e-01</leafValues></_>
        <_>
          <internalNodes>
            0 -1 93 -7.8554730862379074e-03</internalNodes>
          <leafValues>
            -5.3644943237304688e-01 5.4280307143926620e-02</leafValues></_>
        <_>
          <internalNodes>
            0 -1 307 2.2589652799069881e-03</internalNodes>
          <leafValues>
            -8.9703157544136047e-02 3.3069369196891785e-01</leafValues></_>
        <_>
          <internalNodes>
            0 -1 730 1.1006807908415794e-02</internalNodes>
          <leafValues>
            7.0183515548706055e-02 -4.0997955203056335e-01</leafValues></_>
        <_>
          <internalNodes>
            0 -1 662 9.3118497170507908e-04</internalNodes>
          <leafValues>
            -1.3980051875114441e-01 1.9083797931671143e-01</leafValues></_>
        <_>
          <internalNodes>
            0 -1 614 -1.3558079488575459e-02</internalNodes>
          <leafValues>
            2.1966141462326050e-01 -1.3850824534893036e-01</leafValues></_>
        <_>
          <internalNodes>
            0 -1 384 1.7996743321418762e-02</internalNodes>
          <leafValues>
            3.3728174865245819e-02 -6.6422927379608154e-01</leafValues></_>
        <_>
          <internalNodes>
            0 -1 148 -2.2970445454120636e-02</internalNodes>
          <leafValues>
            4.0736240148544312e-01 -6.8119198083877563e-02</leafValues></_>
        <_>
          <internalNodes>
            0 -1 3 1.4663171023130417e-03</internalNodes>
          <leafValues>
            -2.0261000096797943e-01 1.5836866199970245e-01</leafValues></_>
        <_>
          <internalNodes>
            0 -1 94 -3.7915498018264771e-02</internalNodes>
          <leafValues>
            -9.3289458751678467e-01 2.3214574903249741e-02</leafValues></_>
        <_>
          <internalNodes>
            0 -1 88 2.5034278631210327e-01</internalNodes>
          <leafValues>
            -1.0814822465181351e-01 2.7115175127983093e-01</leafValues></_>
        <_>
          <internalNodes>
            0 -1 186 6.4811566844582558e-03</internalNodes>
          <leafValues>
            -1.6793182492256165e-01 2.5247654318809509e-01</leafValues></_>
        <_>
          <internalNodes>
            0 -1 380 8.2352478057146072e-03</internalNodes>
          <leafValues>
            -1.0967744141817093e-01 2.5038841366767883e-01</leafValues></_>
        <_>
          <internalNodes>
            0 -1 317 -1.4501743949949741e-02</internalNodes>
          <leafValues>
            2.9612776637077332e-01 -1.0402015596628189e-01</leafValues></_>
        <_>
          <internalNodes>
            0 -1 269 5.4690446704626083e-03</internalNodes>
          <leafValues>
            3.5160940140485764e-02 -7.0376229286193848e-01</leafValues></_>
        <_>
          <internalNodes>
            0 -1 699 -2.7395378798246384e-02</internalNodes>
          <leafValues>
            3.4074068069458008e-01 -7.8790016472339630e-02</leafValues></_>
        <_>
          <internalNodes>
            0 -1 735 -2.6189801283180714e-03</internalNodes>
          <leafValues>
            -5.8767008781433105e-01 4.3958988040685654e-02</leafValues></_>
        <_>
          <internalNodes>
            0 -1 682 -3.8380720652639866e-03</internalNodes>
          <leafValues>
            5.0281566381454468e-01 -4.7399375587701797e-02</leafValues></_>
        <_>
          <internalNodes>
            0 -1 598 -3.4616957418620586e-03</internalNodes>
          <leafValues>
            3.7598136067390442e-01 -6.8238534033298492e-02</leafValues></_>
        <_>
          <internalNodes>
            0 -1 52 -6.3346149399876595e-03</internalNodes>
          <leafValues>
            -3.7045669555664063e-01 7.0438407361507416e-02</leafValues></_>
        <_>
          <internalNodes>
            0 -1 671 9.2800259590148926e-03</internalNodes>
          <leafValues>
            3.0649073421955109e-02 -7.1867799758911133e-01</leafValues></_>
        <_>
          <internalNodes>
            0 -1 726 6.6523989662528038e-03</internalNodes>
          <leafValues>
            2.3763520643115044e-02 -7.6661884784698486e-01</leafValues></_>
        <_>
          <internalNodes>
            0 -1 280 3.0913013219833374e-01</internalNodes>
          <leafValues>
            3.6376200616359711e-02 -5.3047591447830200e-01</leafValues></_>
        <_>
          <internalNodes>
            0 -1 702 -2.0060006529092789e-02</internalNodes>
          <leafValues>
            2.7454718947410583e-01 -8.4239833056926727e-02</leafValues></_>
        <_>
          <internalNodes>
            0 -1 713 3.0635967850685120e-02</internalNodes>
          <leafValues>
            -3.9270490407943726e-02 5.7720142602920532e-01</leafValues></_>
        <_>
          <internalNodes>
            0 -1 204 9.7420830279588699e-03</internalNodes>
          <leafValues>
            -4.4749174267053604e-02 4.8452171683311462e-01</leafValues></_>
        <_>
          <internalNodes>
            0 -1 140 6.4787891460582614e-04</internalNodes>
          <leafValues>
            1.0267082601785660e-01 -2.4919824302196503e-01</leafValues></_>
        <_>
          <internalNodes>
            0 -1 128 -4.7020807862281799e-02</internalNodes>
          <leafValues>
            7.3046189546585083e-01 -3.6975033581256866e-02</leafValues></_>
        <_>
          <internalNodes>
            0 -1 426 -1.8310433626174927e-01</internalNodes>
          <leafValues>
            8.4764575958251953e-01 -2.0897302776575089e-02</leafValues></_>
        <_>
          <internalNodes>
            0 -1 95 2.3844912648200989e-02</internalNodes>
          <leafValues>
            -1.0823811590671539e-01 2.1760931611061096e-01</leafValues></_>
        <_>
          <internalNodes>
            0 -1 114 1.3539429055526853e-03</internalNodes>
          <leafValues>
            6.4867936074733734e-02 -3.7961792945861816e-01</leafValues></_>
        <_>
          <internalNodes>
            0 -1 85 -2.0709431171417236e-01</internalNodes>
          <leafValues>
            3.3043239265680313e-02 -6.2273848056793213e-01</leafValues></_>
        <_>
          <internalNodes>
            0 -1 569 1.1378703638911247e-02</internalNodes>
          <leafValues>
            4.6791501343250275e-02 -4.7548580169677734e-01</leafValues></_>
        <_>
          <internalNodes>
            0 -1 615 -3.0862295534461737e-03</internalNodes>
          <leafValues>
            3.8240987062454224e-01 -6.8135708570480347e-02</leafValues></_>
        <_>
          <internalNodes>
            0 -1 667 1.4252166263759136e-02</internalNodes>
          <leafValues>
            4.1545517742633820e-02 -6.9603645801544189e-01</leafValues></_>
        <_>
          <internalNodes>
            0 -1 704 -7.5602633878588676e-03</internalNodes>
          <leafValues>
            -9.0509253740310669e-01 1.7098266631364822e-02</leafValues></_>
        <_>
          <internalNodes>
            0 -1 82 1.0315561667084694e-02</internalNodes>
          <leafValues>
            1.6852701082825661e-02 -8.8640767335891724e-01</leafValues></_>
        <_>
          <internalNodes>
            0 -1 449 2.9260108713060617e-03</internalNodes>
          <leafValues>
            6.7584946751594543e-02 -3.1340113282203674e-01</leafValues></_>
        <_>
          <internalNodes>
            0 -1 10 -2.6835285825654864e-04</internalNodes>
          <leafValues>
            -3.4055557101964951e-02 7.2110080718994141e-01</leafValues></_>
        <_>
          <internalNodes>
            0 -1 590 -1.0052662342786789e-02</internalNodes>
          <leafValues>
            -6.5024316310882568e-01 3.9177142083644867e-02</leafValues></_>
        <_>
          <internalNodes>
            0 -1 28 4.0658980607986450e-02</internalNodes>
          <leafValues>
            -9.1866344213485718e-02 2.9346033930778503e-01</leafValues></_>
        <_>
          <internalNodes>
            0 -1 274 2.5141976773738861e-02</internalNodes>
          <leafValues>
            4.5354317873716354e-02 -5.2594381570816040e-01</leafValues></_>
        <_>
          <internalNodes>
            0 -1 473 2.1251840516924858e-03</internalNodes>
          <leafValues>
            -1.1314249783754349e-01 2.0246000587940216e-01</leafValues></_>
        <_>
          <internalNodes>
            0 -1 715 -3.1015422428026795e-04</internalNodes>
          <leafValues>
            -2.2420857846736908e-01 1.0591969639062881e-01</leafValues></_>
        <_>
          <internalNodes>
            0 -1 476 1.3793210964649916e-03</internalNodes>
          <leafValues>
            -1.1990156024694443e-01 1.9089047610759735e-01</leafValues></_>
        <_>
          <internalNodes>
            0 -1 267 5.2953146398067474e-02</internalNodes>
          <leafValues>
            7.5302049517631531e-02 -3.3521652221679688e-01</leafValues></_>
        <_>
          <internalNodes>
            0 -1 605 1.9901720806956291e-03</internalNodes>
          <leafValues>
            -9.7773127257823944e-02 2.3747274279594421e-01</leafValues></_>
        <_>
          <internalNodes>
            0 -1 748 5.3095055045560002e-04</internalNodes>
          <leafValues>
            8.7259486317634583e-02 -2.9666194319725037e-01</leafValues></_>
        <_>
          <internalNodes>
            0 -1 597 7.1999549865722656e-02</internalNodes>
          <leafValues>
            2.9557131230831146e-02 -6.9708615541458130e-01</leafValues></_>
        <_>
          <internalNodes>
            0 -1 191 2.0459506660699844e-02</internalNodes>
          <leafValues>
            2.1969811990857124e-02 -7.1273416280746460e-01</leafValues></_>
        <_>
          <internalNodes>
            0 -1 155 3.1849396228790283e-01</internalNodes>
          <leafValues>
            -5.4934300482273102e-02 3.9306896924972534e-01</leafValues></_>
        <_>
          <internalNodes>
            0 -1 554 -1.8195447046309710e-03</internalNodes>
          <leafValues>
            2.4893225729465485e-01 -8.6625367403030396e-02</leafValues></_>
        <_>
          <internalNodes>
            0 -1 555 -6.9538326933979988e-03</internalNodes>
          <leafValues>
            -3.9354884624481201e-01 6.7894458770751953e-02</leafValues></_>
        <_>
          <internalNodes>
            0 -1 595 -1.2380038388073444e-03</internalNodes>
          <leafValues>
            2.7079588174819946e-01 -9.0074911713600159e-02</leafValues></_>
        <_>
          <internalNodes>
            0 -1 727 3.2672258093953133e-03</internalNodes>
          <leafValues>
            -6.7695595324039459e-02 3.5841318964958191e-01</leafValues></_>
        <_>
          <internalNodes>
            0 -1 458 1.2428756803274155e-02</internalNodes>
          <leafValues>
            4.6847477555274963e-02 -4.6263852715492249e-01</leafValues></_>
        <_>
          <internalNodes>
            0 -1 151 -2.8629712760448456e-02</internalNodes>
          <leafValues>
            2.6947626471519470e-01 -9.5699578523635864e-02</leafValues></_>
        <_>
          <internalNodes>
            0 -1 246 4.7361457347869873e-01</internalNodes>
          <leafValues>
            -5.0497777760028839e-02 4.8505899310112000e-01</leafValues></_>
        <_>
          <internalNodes>
            0 -1 559 -6.1092004179954529e-03</internalNodes>
          <leafValues>
            1.6404896974563599e-01 -1.8112301826477051e-01</leafValues></_>
        <_>
          <internalNodes>
            0 -1 560 -6.9783076643943787e-02</internalNodes>
          <leafValues>
            -3.0375584959983826e-01 7.1921817958354950e-02</leafValues></_>
        <_>
          <internalNodes>
            0 -1 701 3.0904367566108704e-02</internalNodes>
          <leafValues>
            -7.2686217725276947e-02 3.4272637963294983e-01</leafValues></_>
        <_>
          <internalNodes>
            0 -1 648 -4.8345765098929405e-03</internalNodes>
          <leafValues>
            1.8184031546115875e-01 -1.1929727345705032e-01</leafValues></_>
        <_>
          <internalNodes>
            0 -1 160 -1.5438999049365520e-02</internalNodes>
          <leafValues>
            2.9480183124542236e-01 -8.2171738147735596e-02</leafValues></_>
        <_>
          <internalNodes>
            0 -1 745 -3.1332351500168443e-04</internalNodes>
          <leafValues>
            -3.0059572309255600e-02 8.7328088283538818e-01</leafValues></_>
        <_>
          <internalNodes>
            0 -1 430 -8.1637166440486908e-02</internalNodes>
          <leafValues>
            3.9604198187589645e-02 -6.6294527053833008e-01</leafValues></_>
        <_>
          <internalNodes>
            0 -1 611 -1.3697981834411621e-02</internalNodes>
          <leafValues>
            -4.3062654137611389e-01 4.5117519795894623e-02</leafValues></_>
        <_>
          <internalNodes>
            0 -1 403 -2.3942548781633377e-02</internalNodes>
          <leafValues>
            -3.0224129557609558e-01 7.3652990162372589e-02</leafValues></_>
        <_>
          <internalNodes>
            0 -1 392 -7.0014014840126038e-02</internalNodes>
          <leafValues>
            5.2031242847442627e-01 -4.4039227068424225e-02</leafValues></_>
        <_>
          <internalNodes>
            0 -1 664 2.8426956385374069e-02</internalNodes>
          <leafValues>
            -6.1073090881109238e-02 3.3473068475723267e-01</leafValues></_>
        <_>
          <internalNodes>
            0 -1 593 -1.1064261198043823e-02</internalNodes>
          <leafValues>
            -7.4998897314071655e-01 3.2474339008331299e-02</leafValues></_>
        <_>
          <internalNodes>
            0 -1 523 -6.9073461927473545e-03</internalNodes>
          <leafValues>
            -6.3327640295028687e-01 2.5581052526831627e-02</leafValues></_>
        <_>
          <internalNodes>
            0 -1 542 -2.5052032433450222e-03</internalNodes>
          <leafValues>
            1.7156800627708435e-01 -1.1880781501531601e-01</leafValues></_>
        <_>
          <internalNodes>
            0 -1 493 7.3083913885056973e-03</internalNodes>
          <leafValues>
            -3.3486604690551758e-02 5.9316474199295044e-01</leafValues></_>
        <_>
          <internalNodes>
            0 -1 467 -1.6249105334281921e-01</internalNodes>
          <leafValues>
            3.6667022109031677e-01 -5.0696570426225662e-02</leafValues></_>
        <_>
          <internalNodes>
            0 -1 156 2.0678052306175232e-01</internalNodes>
          <leafValues>
            -8.6556516587734222e-02 2.6923152804374695e-01</leafValues></_>
        <_>
          <internalNodes>
            0 -1 64 -2.7213247492909431e-02</internalNodes>
          <leafValues>
            2.2106130421161652e-01 -1.2299562245607376e-01</leafValues></_>
        <_>
          <internalNodes>
            0 -1 332 4.6771183609962463e-02</internalNodes>
          <leafValues>
            3.3471945673227310e-02 -7.2242897748947144e-01</leafValues></_>
        <_>
          <internalNodes>
            0 -1 361 -9.3357181176543236e-03</internalNodes>
          <leafValues>
            -5.0912261009216309e-01 4.3372508138418198e-02</leafValues></_>
        <_>
          <internalNodes>
            0 -1 673 4.9528339877724648e-04</internalNodes>
          <leafValues>
            -1.4404420554637909e-01 1.5035645663738251e-01</leafValues></_>
        <_>
          <internalNodes>
            0 -1 531 2.5878574699163437e-02</internalNodes>
          <leafValues>
            3.4914050251245499e-02 -6.4880675077438354e-01</leafValues></_>
        <_>
          <internalNodes>
            0 -1 736 3.0555082485079765e-03</internalNodes>
          <leafValues>
            3.0826134607195854e-02 -5.6052327156066895e-01</leafValues></_>
        <_>
          <internalNodes>
            0 -1 142 -2.1448228508234024e-02</internalNodes>
          <leafValues>
            4.4461354613304138e-01 -5.1764409989118576e-02</leafValues></_>
        <_>
          <internalNodes>
            0 -1 583 2.4549420922994614e-03</internalNodes>
          <leafValues>
            -9.2936016619205475e-02 2.2984109818935394e-01</leafValues></_>
        <_>
          <internalNodes>
            0 -1 47 -4.2247306555509567e-03</internalNodes>
          <leafValues>
            2.5255623459815979e-01 -8.5413984954357147e-02</leafValues></_>
        <_>
          <internalNodes>
            0 -1 598 7.8835571184754372e-04</internalNodes>
          <leafValues>
            -1.1131435632705688e-01 2.0568966865539551e-01</leafValues></_></weakClassifiers></_>
    <!-- stage 6 -->
    <_>
      <maxWeakCount>100</maxWeakCount>
      <stageThreshold>-7.1419990062713623e-01</stageThreshold>
      <weakClassifiers>
        <_>
          <internalNodes>
            0 -1 313 -1.9808255136013031e-02</internalNodes>
          <leafValues>
            1.9620253145694733e-01 -4.1985523700714111e-01</leafValues></_>
        <_>
          <internalNodes>
            0 -1 21 2.7062121778726578e-02</internalNodes>
          <leafValues>
            -1.6551747918128967e-01 2.3911994695663452e-01</leafValues></_>
        <_>
          <internalNodes>
            0 -1 740 -2.6920340023934841e-03</internalNodes>
          <leafValues>
            -6.2707668542861938e-01 5.0021175295114517e-02</leafValues></_>
        <_>
          <internalNodes>
            0 -1 557 -3.8195139495655894e-04</internalNodes>
          <leafValues>
            1.4223662018775940e-01 -2.1751846373081207e-01</leafValues></_>
        <_>
          <internalNodes>
            0 -1 477 -2.2085565142333508e-03</internalNodes>
          <leafValues>
            1.8687351047992706e-01 -1.5397101640701294e-01</leafValues></_>
        <_>
          <internalNodes>
            0 -1 360 1.1883609840879217e-04</internalNodes>
          <leafValues>
            -2.8786730766296387e-01 9.5340587198734283e-02</leafValues></_>
        <_>
          <internalNodes>
            0 -1 106 9.9269172642379999e-04</internalNodes>
          <leafValues>
            1.0743383318185806e-01 -3.3879533410072327e-01</leafValues></_>
        <_>
          <internalNodes>
            0 -1 624 4.1193119250237942e-03</internalNodes>
          <leafValues>
            3.7245802581310272e-02 -7.1545749902725220e-01</leafValues></_>
        <_>
          <internalNodes>
            0 -1 659 7.8464010730385780e-03</internalNodes>
          <leafValues>
            -8.1270575523376465e-02 3.4903842210769653e-01</leafValues></_>
        <_>
          <internalNodes>
            0 -1 381 -1.5053563751280308e-02</internalNodes>
          <leafValues>
            2.8370320796966553e-01 -1.0983280837535858e-01</leafValues></_>
        <_>
          <internalNodes>
            0 -1 276 4.0005588531494141e-01</internalNodes>
          <leafValues>
            -6.0691580176353455e-02 4.9805989861488342e-01</leafValues></_>
        <_>
          <internalNodes>
            0 -1 240 -9.0458422899246216e-02</internalNodes>
          <leafValues>
            3.3231177926063538e-01 -9.5899730920791626e-02</leafValues></_>
        <_>
          <internalNodes>
            0 -1 336 -4.5391701161861420e-02</internalNodes>
          <leafValues>
            4.1187405586242676e-01 -1.0489492118358612e-01</leafValues></_>
        <_>
          <internalNodes>
            0 -1 385 1.1534579098224640e-02</internalNodes>
          <leafValues>
            -3.8290731608867645e-02 5.3089028596878052e-01</leafValues></_>
        <_>
          <internalNodes>
            0 -1 402 5.5698063224554062e-03</internalNodes>
          <leafValues>
            -7.9153306782245636e-02 3.4051597118377686e-01</leafValues></_>
        <_>
          <internalNodes>
            0 -1 703 -7.3982775211334229e-03</internalNodes>
          <leafValues>
            -8.3436304330825806e-01 2.1722780540585518e-02</leafValues></_>
        <_>
          <internalNodes>
            0 -1 431 -7.6045864261686802e-04</internalNodes>
          <leafValues>
            2.1630603075027466e-01 -1.0938457399606705e-01</leafValues></_>
        <_>
          <internalNodes>
            0 -1 318 -2.0731498952955008e-03</internalNodes>
          <leafValues>
            -2.9085850715637207e-01 8.2248635590076447e-02</leafValues></_>
        <_>
          <internalNodes>
            0 -1 656 9.9548371508717537e-04</internalNodes>
          <leafValues>
            1.0001417994499207e-01 -2.3725390434265137e-01</leafValues></_>
        <_>
          <internalNodes>
            0 -1 655 -2.2109419107437134e-02</internalNodes>
          <leafValues>
            -6.6271936893463135e-01 3.6466792225837708e-02</leafValues></_>
        <_>
          <internalNodes>
            0 -1 368 -1.2313891202211380e-01</internalNodes>
          <leafValues>
            1.7563718557357788e-01 -1.4024218916893005e-01</leafValues></_>
        <_>
          <internalNodes>
            0 -1 105 -7.9637348651885986e-02</internalNodes>
          <leafValues>
            -4.5960429310798645e-01 5.1947560161352158e-02</leafValues></_>
        <_>
          <internalNodes>
            0 -1 369 -1.2143695494160056e-03</internalNodes>
          <leafValues>
            2.2461643815040588e-01 -1.0444802790880203e-01</leafValues></_>
        <_>
          <internalNodes>
            0 -1 271 2.8194333426654339e-03</internalNodes>
          <leafValues>
            -1.5462434291839600e-01 1.4723081886768341e-01</leafValues></_>
        <_>
          <internalNodes>
            0 -1 143 -7.6075673103332520e-02</internalNodes>
          <leafValues>
            -7.3827844858169556e-01 2.9736015945672989e-02</leafValues></_>
        <_>
          <internalNodes>
            0 -1 613 4.5702889561653137e-02</internalNodes>
          <leafValues>
            -5.1905222237110138e-02 4.6389174461364746e-01</leafValues></_>
        <_>
          <internalNodes>
            0 -1 369 3.7426210474222898e-03</internalNodes>
          <leafValues>
            -5.7937983423471451e-02 3.6569553613662720e-01</leafValues></_>
        <_>
          <internalNodes>
            0 -1 298 2.5622296333312988e-01</internalNodes>
          <leafValues>
            2.9062682762742043e-02 -7.6042890548706055e-01</leafValues></_>
        <_>
          <internalNodes>
            0 -1 408 -1.2801888398826122e-02</internalNodes>
          <leafValues>
            -4.0476679801940918e-01 4.7989230602979660e-02</leafValues></_>
        <_>
          <internalNodes>
            0 -1 419 -1.7510411562398076e-03</internalNodes>
          <leafValues>
            2.6620563864707947e-01 -1.0630153864622116e-01</leafValues></_>
        <_>
          <internalNodes>
            0 -1 339 1.7862671986222267e-02</internalNodes>
          <leafValues>
            -1.0690674930810928e-01 2.3970945179462433e-01</leafValues></_>
        <_>
          <internalNodes>
            0 -1 69 -1.6307607293128967e-02</internalNodes>
          <leafValues>
            -5.8866298198699951e-01 3.2508656382560730e-02</leafValues></_>
        <_>
          <internalNodes>
            0 -1 19 -8.0081529915332794e-02</internalNodes>
          <leafValues>
            7.3738574981689453e-01 -3.2995682209730148e-02</leafValues></_>
        <_>
          <internalNodes>
            0 -1 149 -3.3604100346565247e-02</internalNodes>
          <leafValues>
            3.6749356985092163e-01 -5.7846058160066605e-02</leafValues></_>
        <_>
          <internalNodes>
            0 -1 99 -1.0318968445062637e-02</internalNodes>
          <leafValues>
            -5.2447015047073364e-01 3.8590978831052780e-02</leafValues></_>
        <_>
          <internalNodes>
            0 -1 348 -5.4544411599636078e-02</internalNodes>
          <leafValues>
            1.6049487516283989e-02 -1.</leafValues></_>
        <_>
          <internalNodes>
            0 -1 6 -3.2087266445159912e-03</internalNodes>
          <leafValues>
            -4.6574681997299194e-02 5.3873175382614136e-01</leafValues></_>
        <_>
          <internalNodes>
            0 -1 609 -1.6557183116674423e-02</internalNodes>
          <leafValues>
            4.4959780573844910e-01 -4.0222525596618652e-02</leafValues></_>
        <_>
          <internalNodes>
            0 -1 576 2.0656515844166279e-03</internalNodes>
          <leafValues>
            -1.6440846025943756e-01 1.4567953348159790e-01</leafValues></_>
        <_>
          <internalNodes>
            0 -1 540 4.5274724252521992e-03</internalNodes>
          <leafValues>
            -9.0437255799770355e-02 2.4251285195350647e-01</leafValues></_>
        <_>
          <internalNodes>
            0 -1 729 4.9052927643060684e-03</internalNodes>
          <leafValues>
            4.3487589806318283e-02 -5.2760487794876099e-01</leafValues></_>
        <_>
          <internalNodes>
            0 -1 181 -2.5149408727884293e-02</internalNodes>
          <leafValues>
            3.0174800753593445e-01 -7.1974240243434906e-02</leafValues></_>
        <_>
          <internalNodes>
            0 -1 578 -3.5389014519751072e-03</internalNodes>
          <leafValues>
            -7.4439483880996704e-01 3.2679378986358643e-02</leafValues></_>
        <_>
          <internalNodes>
            0 -1 672 -1.8060222268104553e-02</internalNodes>
          <leafValues>
            2.4018044769763947e-01 -8.8244780898094177e-02</leafValues></_>
        <_>
          <internalNodes>
            0 -1 592 7.9033458605408669e-03</internalNodes>
          <leafValues>
            -1.1260683089494705e-01 1.9460633397102356e-01</leafValues></_>
        <_>
          <internalNodes>
            0 -1 577 2.6634294539690018e-02</internalNodes>
          <leafValues>
            -3.0021514743566513e-02 7.7784734964370728e-01</leafValues></_>
        <_>
          <internalNodes>
            0 -1 688 -8.9379940181970596e-03</internalNodes>
          <leafValues>
            -4.4334509968757629e-01 5.2928142249584198e-02</leafValues></_>
        <_>
          <internalNodes>
            0 -1 193 1.6997000575065613e-01</internalNodes>
          <leafValues>
            -4.6127784997224808e-02 5.0822085142135620e-01</leafValues></_>
        <_>
          <internalNodes>
            0 -1 245 3.0098894238471985e-01</internalNodes>
          <leafValues>
            2.9503267258405685e-02 -8.3731836080551147e-01</leafValues></_>
        <_>
          <internalNodes>
            0 -1 486 -1.2779638171195984e-02</internalNodes>
          <leafValues>
            2.3776801303029060e-02 -7.1547865867614746e-01</leafValues></_>
        <_>
          <internalNodes>
            0 -1 75 4.5264810323715210e-01</internalNodes>
          <leafValues>
            -3.5167329013347626e-02 6.4418971538543701e-01</leafValues></_>
        <_>
          <internalNodes>
            0 -1 232 -2.1826982498168945e-02</internalNodes>
          <leafValues>
            1.7070651054382324e-01 -1.2675367295742035e-01</leafValues></_>
        <_>
          <internalNodes>
            0 -1 112 -2.6119896210730076e-04</internalNodes>
          <leafValues>
            -1.7791105806827545e-01 1.1062835901975632e-01</leafValues></_>
        <_>
          <internalNodes>
            0 -1 163 -6.1545737087726593e-02</internalNodes>
          <leafValues>
            -8.8074010610580444e-01 2.0945746451616287e-02</leafValues></_>
        <_>
          <internalNodes>
            0 -1 526 -1.6679581999778748e-01</internalNodes>
          <leafValues>
            -4.5258305966854095e-02 5.0193089246749878e-01</leafValues></_>
        <_>
          <internalNodes>
            0 -1 623 -4.6932911500334740e-03</internalNodes>
          <leafValues>
            3.3914785832166672e-02 -7.2262513637542725e-01</leafValues></_>
        <_>
          <internalNodes>
            0 -1 635 -1.0294301435351372e-02</internalNodes>
          <leafValues>
            -9.6129155158996582e-01 1.5475933440029621e-02</leafValues></_>
        <_>
          <internalNodes>
            0 -1 521 1.0251678526401520e-02</internalNodes>
          <leafValues>
            -1.0731291770935059e-01 2.0714698731899261e-01</leafValues></_>
        <_>
          <internalNodes>
            0 -1 33 3.6156907677650452e-02</internalNodes>
          <leafValues>
            3.9253063499927521e-02 -6.0088145732879639e-01</leafValues></_>
        <_>
          <internalNodes>
            0 -1 134 -3.0004307627677917e-03</internalNodes>
          <leafValues>
            -3.7978535890579224e-01 4.6213239431381226e-02</leafValues></_>
        <_>
          <internalNodes>
            0 -1 582 -7.0690095890313387e-04</internalNodes>
          <leafValues>
            1.7149288952350616e-01 -1.3201798498630524e-01</leafValues></_>
        <_>
          <internalNodes>
            0 -1 482 -1.4927122741937637e-02</internalNodes>
          <leafValues>
            -3.8239198923110962e-01 5.3445104509592056e-02</leafValues></_>
        <_>
          <internalNodes>
            0 -1 174 3.1914100050926208e-02</internalNodes>
          <leafValues>
            -7.7391773462295532e-02 2.5714585185050964e-01</leafValues></_>
        <_>
          <internalNodes>
            0 -1 355 -7.4018505401909351e-03</internalNodes>
          <leafValues>
            2.1521800756454468e-01 -1.0201993584632874e-01</leafValues></_>
        <_>
          <internalNodes>
            0 -1 388 -1.1397930234670639e-01</internalNodes>
          <leafValues>
            4.8811575770378113e-01 -5.7982426136732101e-02</leafValues></_>
        <_>
          <internalNodes>
            0 -1 17 -4.8939067125320435e-01</internalNodes>
          <leafValues>
            -7.7625530958175659e-01 3.2466620206832886e-02</leafValues></_>
        <_>
          <internalNodes>
            0 -1 585 1.1176031082868576e-01</internalNodes>
          <leafValues>
            3.8847424089908600e-02 -5.5769109725952148e-01</leafValues></_>
        <_>
          <internalNodes>
            0 -1 62 -5.3948806598782539e-03</internalNodes>
          <leafValues>
            -4.7576868534088135e-01 4.0372699499130249e-02</leafValues></_>
        <_>
          <internalNodes>
            0 -1 471 3.7054438143968582e-02</internalNodes>
          <leafValues>
            1.8836783245205879e-02 -9.8356741666793823e-01</leafValues></_>
        <_>
          <internalNodes>
            0 -1 451 6.5994756296277046e-03</internalNodes>
          <leafValues>
            -6.5753698348999023e-02 3.3092775940895081e-01</leafValues></_>
        <_>
          <internalNodes>
            0 -1 221 -2.0027174614369869e-03</internalNodes>
          <leafValues>
            1.4321605861186981e-01 -1.8316058814525604e-01</leafValues></_>
        <_>
          <internalNodes>
            0 -1 564 -7.8968470916152000e-03</internalNodes>
          <leafValues>
            3.6502450704574585e-01 -5.6475672870874405e-02</leafValues></_>
        <_>
          <internalNodes>
            0 -1 208 -4.1944608092308044e-03</internalNodes>
          <leafValues>
            -1.8838085234165192e-01 1.1553391069173813e-01</leafValues></_>
        <_>
          <internalNodes>
            0 -1 37 3.9661757647991180e-02</internalNodes>
          <leafValues>
            -8.4084995090961456e-02 2.7992045879364014e-01</leafValues></_>
        <_>
          <internalNodes>
            0 -1 275 -2.1939136087894440e-02</internalNodes>
          <leafValues>
            2.3001794517040253e-01 -9.0177558362483978e-02</leafValues></_>
        <_>
          <internalNodes>
            0 -1 322 -2.1801887080073357e-02</internalNodes>
          <leafValues>
            -1.2315390259027481e-01 1.6808564960956573e-01</leafValues></_>
        <_>
          <internalNodes>
            0 -1 279 1.1444782465696335e-01</internalNodes>
          <leafValues>
            3.0447516590356827e-02 -6.4229691028594971e-01</leafValues></_>
        <_>
          <internalNodes>
            0 -1 476 3.1721888808533549e-04</internalNodes>
          <leafValues>
            -1.4966660737991333e-01 1.3853548467159271e-01</leafValues></_>
        <_>
          <internalNodes>
            0 -1 474 -1.6808935906738043e-03</internalNodes>
          <leafValues>
            1.7510680854320526e-01 -1.2360081076622009e-01</leafValues></_>
        <_>
          <internalNodes>
            0 -1 587 6.3011194579303265e-03</internalNodes>
          <leafValues>
            2.5466246530413628e-02 -7.6808857917785645e-01</leafValues></_>
        <_>
          <internalNodes>
            0 -1 645 1.5119666233658791e-02</internalNodes>
          <leafValues>
            6.0524463653564453e-02 -3.0633917450904846e-01</leafValues></_>
        <_>
          <internalNodes>
            0 -1 558 -8.7168356403708458e-03</internalNodes>
          <leafValues>
            -2.9382368922233582e-01 6.6957764327526093e-02</leafValues></_>
        <_>
          <internalNodes>
            0 -1 54 -6.7528940737247467e-02</internalNodes>
          <leafValues>
            2.1335998177528381e-01 -1.0650250315666199e-01</leafValues></_>
        <_>
          <internalNodes>
            0 -1 709 3.1646126881241798e-03</internalNodes>
          <leafValues>
            -1.3245835900306702e-01 1.8414558470249176e-01</leafValues></_>
        <_>
          <internalNodes>
            0 -1 744 7.4618583312258124e-04</internalNodes>
          <leafValues>
            6.2644757330417633e-02 -3.1075647473335266e-01</leafValues></_>
        <_>
          <internalNodes>
            0 -1 744 -8.7731517851352692e-04</internalNodes>
          <leafValues>
            -2.6282644271850586e-01 7.9804047942161560e-02</leafValues></_>
        <_>
          <internalNodes>
            0 -1 717 -1.0636582970619202e-02</internalNodes>
          <leafValues>
            3.6822524666786194e-01 -7.0988059043884277e-02</leafValues></_>
        <_>
          <internalNodes>
            0 -1 401 5.0216540694236755e-02</internalNodes>
          <leafValues>
            1.1919432878494263e-01 -1.8352870643138885e-01</leafValues></_>
        <_>
          <internalNodes>
            0 -1 116 3.2249609939754009e-03</internalNodes>
          <leafValues>
            -1.0499735921621323e-01 2.0446752011775970e-01</leafValues></_>
        <_>
          <internalNodes>
            0 -1 370 -1.0089976713061333e-02</internalNodes>
          <leafValues>
            -5.1473528146743774e-01 4.1632816195487976e-02</leafValues></_>
        <_>
          <internalNodes>
            0 -1 591 -8.7322816252708435e-03</internalNodes>
          <leafValues>
            4.3597677350044250e-01 -5.0366766750812531e-02</leafValues></_>
        <_>
          <internalNodes>
            0 -1 580 2.8097541071474552e-03</internalNodes>
          <leafValues>
            -2.1534243226051331e-01 1.1077182739973068e-01</leafValues></_>
        <_>
          <internalNodes>
            0 -1 379 1.3481185305863619e-04</internalNodes>
          <leafValues>
            1.1297552287578583e-01 -1.8095369637012482e-01</leafValues></_>
        <_>
          <internalNodes>
            0 -1 410 3.3914245665073395e-02</internalNodes>
          <leafValues>
            -5.7916887104511261e-02 3.1289577484130859e-01</leafValues></_>
        <_>
          <internalNodes>
            0 -1 260 1.4788892865180969e-01</internalNodes>
          <leafValues>
            3.8355782628059387e-02 -5.1583564281463623e-01</leafValues></_>
        <_>
          <internalNodes>
            0 -1 331 -4.5348644256591797e-02</internalNodes>
          <leafValues>
            2.6279962062835693e-01 -8.5696496069431305e-02</leafValues></_>
        <_>
          <internalNodes>
            0 -1 250 -2.9613699764013290e-02</internalNodes>
          <leafValues>
            -3.1476241350173950e-01 7.1229040622711182e-02</leafValues></_>
        <_>
          <internalNodes>
            0 -1 180 1.2488247454166412e-01</internalNodes>
          <leafValues>
            -4.5050345361232758e-02 5.7215797901153564e-01</leafValues></_>
        <_>
          <internalNodes>
            0 -1 124 1.4582837000489235e-02</internalNodes>
          <leafValues>
            4.1412618011236191e-02 -5.7607096433639526e-01</leafValues></_>
        <_>
          <internalNodes>
            0 -1 283 6.0561774298548698e-03</internalNodes>
          <leafValues>
            -6.8879485130310059e-02 3.1307283043861389e-01</leafValues></_></weakClassifiers></_>
    <!-- stage 7 -->
    <_>
      <maxWeakCount>100</maxWeakCount>
      <stageThreshold>-7.2392684221267700e-01</stageThreshold>
      <weakClassifiers>
        <_>
          <internalNodes>
            0 -1 241 9.9310595542192459e-03</internalNodes>
          <leafValues>
            -4.8080947995185852e-01 -7.4663400650024414e-02</leafValues></_>
        <_>
          <internalNodes>
            0 -1 130 6.4371824264526367e-02</internalNodes>
          <leafValues>
            -1.0997889935970306e-01 4.0508639812469482e-01</leafValues></_>
        <_>
          <internalNodes>
            0 -1 182 2.4413596093654633e-01</internalNodes>
          <leafValues>
            -7.0619150996208191e-02 4.4794070720672607e-01</leafValues></_>
        <_>
          <internalNodes>
            0 -1 529 4.0002022869884968e-03</internalNodes>
          <leafValues>
            -1.7861142754554749e-01 1.7751732468605042e-01</leafValues></_>
        <_>
          <internalNodes>
            0 -1 242 6.8350143730640411e-02</internalNodes>
          <leafValues>
            -5.5375169962644577e-02 5.7716673612594604e-01</leafValues></_>
        <_>
          <internalNodes>
            0 -1 435 -2.4440142512321472e-01</internalNodes>
          <leafValues>
            5.1303809881210327e-01 -5.5545218288898468e-02</leafValues></_>
        <_>
          <internalNodes>
            0 -1 350 -3.8472109008580446e-03</internalNodes>
          <leafValues>
            1.5886928141117096e-01 -1.4944723248481750e-01</leafValues></_>
        <_>
          <internalNodes>
            0 -1 34 -1.9663173705339432e-02</internalNodes>
          <leafValues>
            5.9101951122283936e-01 -1.3123426586389542e-02</leafValues></_>
        <_>
          <internalNodes>
            0 -1 626 -3.6066700704395771e-03</internalNodes>
          <leafValues>
            -5.4024648666381836e-01 5.0401408225297928e-02</leafValues></_>
        <_>
          <internalNodes>
            0 -1 7 -1.8672302365303040e-02</internalNodes>
          <leafValues>
            -9.7664177417755127e-02 2.5190505385398865e-01</leafValues></_>
        <_>
          <internalNodes>
            0 -1 445 -6.9953173398971558e-02</internalNodes>
          <leafValues>
            6.5928496420383453e-02 -3.3294337987899780e-01</leafValues></_>
        <_>
          <internalNodes>
            0 -1 508 -5.3494125604629517e-02</internalNodes>
          <leafValues>
            -6.3662111759185791e-02 3.2200321555137634e-01</leafValues></_>
        <_>
          <internalNodes>
            0 -1 684 -1.0366186499595642e-02</internalNodes>
          <leafValues>
            -7.6545500755310059e-01 2.2446634247899055e-02</leafValues></_>
        <_>
          <internalNodes>
            0 -1 437 2.5071164127439260e-03</internalNodes>
          <leafValues>
            -7.7801249921321869e-02 2.9810625314712524e-01</leafValues></_>
        <_>
          <internalNodes>
            0 -1 226 -7.7694043517112732e-02</internalNodes>
          <leafValues>
            4.0935036540031433e-01 -6.8003743886947632e-02</leafValues></_>
        <_>
          <internalNodes>
            0 -1 437 -1.5201973728835583e-03</internalNodes>
          <leafValues>
            2.5818130373954773e-01 -1.0469504445791245e-01</leafValues></_>
        <_>
          <internalNodes>
            0 -1 627 -1.0470115579664707e-02</internalNodes>
          <leafValues>
            -2.9258227348327637e-01 8.4793984889984131e-02</leafValues></_>
        <_>
          <internalNodes>
            0 -1 104 5.4080504924058914e-04</internalNodes>
          <leafValues>
            1.0085223615169525e-01 -2.2689749300479889e-01</leafValues></_>
        <_>
          <internalNodes>
            0 -1 237 -2.1837614476680756e-02</internalNodes>
          <leafValues>
            6.4824879169464111e-01 -3.4570373594760895e-02</leafValues></_>
        <_>
          <internalNodes>
            0 -1 386 4.7277018427848816e-02</internalNodes>
          <leafValues>
            -6.1295695602893829e-02 3.4441009163856506e-01</leafValues></_>
        <_>
          <internalNodes>
            0 -1 604 4.2068753391504288e-03</internalNodes>
          <leafValues>
            -1.3233916461467743e-01 1.8670611083507538e-01</leafValues></_>
        <_>
          <internalNodes>
            0 -1 414 2.1177638322114944e-02</internalNodes>
          <leafValues>
            2.3153413087129593e-02 -9.6658736467361450e-01</leafValues></_>
        <_>
          <internalNodes>
            0 -1 263 -5.7977633550763130e-03</internalNodes>
          <leafValues>
            -6.4050632715225220e-01 2.5185162201523781e-02</leafValues></_>
        <_>
          <internalNodes>
            0 -1 126 -1.0737574193626642e-03</internalNodes>
          <leafValues>
            -3.3281591534614563e-01 6.3662186264991760e-02</leafValues></_>
        <_>
          <internalNodes>
            0 -1 50 -2.9010992497205734e-02</internalNodes>
          <leafValues>
            3.2250840216875076e-02 -6.2568491697311401e-01</leafValues></_>
        <_>
          <internalNodes>
            0 -1 261 -2.2166174650192261e-01</internalNodes>
          <leafValues>
            -6.2681484222412109e-01 2.4883860722184181e-02</leafValues></_>
        <_>
          <internalNodes>
            0 -1 58 -1.2210555374622345e-02</internalNodes>
          <leafValues>
            -4.8385500907897949e-01 3.7257563322782516e-02</leafValues></_>
        <_>
          <internalNodes>
            0 -1 18 -3.0630031228065491e-01</internalNodes>
          <leafValues>
            4.7329533100128174e-01 -4.8925340175628662e-02</leafValues></_>
        <_>
          <internalNodes>
            0 -1 524 1.1993937194347382e-02</internalNodes>
          <leafValues>
            3.9177943021059036e-02 -5.6397354602813721e-01</leafValues></_>
        <_>
          <internalNodes>
            0 -1 326 2.1071806550025940e-01</internalNodes>
          <leafValues>
            -6.1062783002853394e-02 4.0524691343307495e-01</leafValues></_>
        <_>
          <internalNodes>
            0 -1 253 1.6956034302711487e-01</internalNodes>
          <leafValues>
            5.5567469447851181e-02 -4.6469798684120178e-01</leafValues></_>
        <_>
          <internalNodes>
            0 -1 227 -4.2971000075340271e-03</internalNodes>
          <leafValues>
            8.0009788274765015e-02 -2.6853734254837036e-01</leafValues></_>
        <_>
          <internalNodes>
            0 -1 249 -1.0521505028009415e-02</internalNodes>
          <leafValues>
            3.7523290514945984e-01 -6.2400128692388535e-02</leafValues></_>
        <_>
          <internalNodes>
            0 -1 693 -2.3661725223064423e-02</internalNodes>
          <leafValues>
            3.6217480897903442e-01 -6.3803881406784058e-02</leafValues></_>
        <_>
          <internalNodes>
            0 -1 599 5.8096821885555983e-04</internalNodes>
          <leafValues>
            -1.4319023489952087e-01 1.4743141829967499e-01</leafValues></_>
        <_>
          <internalNodes>
            0 -1 686 1.5914781251922250e-03</internalNodes>
          <leafValues>
            7.0833474397659302e-02 -2.9872757196426392e-01</leafValues></_>
        <_>
          <internalNodes>
            0 -1 379 -1.1144978925585747e-03</internalNodes>
          <leafValues>
            -1.8733544647693634e-01 1.1389656364917755e-01</leafValues></_>
        <_>
          <internalNodes>
            0 -1 650 -2.4128409568220377e-03</internalNodes>
          <leafValues>
            3.0320829153060913e-01 -7.4277609586715698e-02</leafValues></_>
        <_>
          <internalNodes>
            0 -1 345 5.7860254310071468e-03</internalNodes>
          <leafValues>
            -8.8138490915298462e-02 2.5523611903190613e-01</leafValues></_>
        <_>
          <internalNodes>
            0 -1 641 9.0952981263399124e-03</internalNodes>
          <leafValues>
            3.2372809946537018e-02 -6.8686312437057495e-01</leafValues></_>
        <_>
          <internalNodes>
            0 -1 647 2.6573471259325743e-03</internalNodes>
          <leafValues>
            -6.0454346239566803e-02 3.5222521424293518e-01</leafValues></_>
        <_>
          <internalNodes>
            0 -1 637 1.1613301467150450e-03</internalNodes>
          <leafValues>
            -1.2079490721225739e-01 1.8133227527141571e-01</leafValues></_>
        <_>
          <internalNodes>
            0 -1 444 6.3797319307923317e-03</internalNodes>
          <leafValues>
            -5.8731641620397568e-02 3.4857606887817383e-01</leafValues></_>
        <_>
          <internalNodes>
            0 -1 121 -1.8757960060611367e-04</internalNodes>
          <leafValues>
            -1.8693251907825470e-01 1.0862986743450165e-01</leafValues></_>
        <_>
          <internalNodes>
            0 -1 581 -8.7850764393806458e-03</internalNodes>
          <leafValues>
            -6.4652043581008911e-01 2.7841728180646896e-02</leafValues></_>
        <_>
          <internalNodes>
            0 -1 214 7.7781574800610542e-03</internalNodes>
          <leafValues>
            -6.4417980611324310e-02 3.0690401792526245e-01</leafValues></_>
        <_>
          <internalNodes>
            0 -1 439 1.1749625205993652e-02</internalNodes>
          <leafValues>
            4.9208953976631165e-02 -3.9037615060806274e-01</leafValues></_>
        <_>
          <internalNodes>
            0 -1 362 1.4929854869842529e-01</internalNodes>
          <leafValues>
            -3.6300905048847198e-02 6.4992296695709229e-01</leafValues></_>
        <_>
          <internalNodes>
            0 -1 291 1.7038933932781219e-02</internalNodes>
          <leafValues>
            7.9709291458129883e-02 -2.6810225844383240e-01</leafValues></_>
        <_>
          <internalNodes>
            0 -1 200 -1.4974460005760193e-02</internalNodes>
          <leafValues>
            1.7972178757190704e-01 -1.1296717822551727e-01</leafValues></_>
        <_>
          <internalNodes>
            0 -1 195 2.8173143044114113e-02</internalNodes>
          <leafValues>
            -6.7611649632453918e-02 3.3644971251487732e-01</leafValues></_>
        <_>
          <internalNodes>
            0 -1 102 1.4465077780187130e-02</internalNodes>
          <leafValues>
            -1.1577362567186356e-01 1.8658405542373657e-01</leafValues></_>
        <_>
          <internalNodes>
            0 -1 351 1.0444240178912878e-03</internalNodes>
          <leafValues>
            -1.1321111023426056e-01 2.0954586565494537e-01</leafValues></_>
        <_>
          <internalNodes>
            0 -1 34 9.8870638757944107e-03</internalNodes>
          <leafValues>
            -6.9490909576416016e-02 3.3398577570915222e-01</leafValues></_>
        <_>
          <internalNodes>
            0 -1 178 -2.2926521487534046e-03</internalNodes>
          <leafValues>
            -5.1402223110198975e-01 4.8336286097764969e-02</leafValues></_>
        <_>
          <internalNodes>
            0 -1 2 -3.4382744343020022e-04</internalNodes>
          <leafValues>
            1.5952524542808533e-01 -1.4677767455577850e-01</leafValues></_>
        <_>
          <internalNodes>
            0 -1 27 -1.6666090115904808e-02</internalNodes>
          <leafValues>
            6.5367168188095093e-01 -3.0528621748089790e-02</leafValues></_>
        <_>
          <internalNodes>
            0 -1 749 1.1875205673277378e-03</internalNodes>
          <leafValues>
            7.0743769407272339e-02 -3.4285393357276917e-01</leafValues></_>
        <_>
          <internalNodes>
            0 -1 484 -5.9950333088636398e-03</internalNodes>
          <leafValues>
            -3.4581142663955688e-01 6.0085713863372803e-02</leafValues></_>
        <_>
          <internalNodes>
            0 -1 114 -2.2529619745910168e-03</internalNodes>
          <leafValues>
            -6.0477274656295776e-01 3.1609978526830673e-02</leafValues></_>
        <_>
          <internalNodes>
            0 -1 507 4.4488124549388885e-02</internalNodes>
          <leafValues>
            2.8487004339694977e-02 -6.5917634963989258e-01</leafValues></_>
        <_>
          <internalNodes>
            0 -1 543 3.9789192378520966e-02</internalNodes>
          <leafValues>
            2.4208333343267441e-02 -7.3873329162597656e-01</leafValues></_>
        <_>
          <internalNodes>
            0 -1 719 -4.2853981722146273e-04</internalNodes>
          <leafValues>
            -1.6107417643070221e-01 1.3819031417369843e-01</leafValues></_>
        <_>
          <internalNodes>
            0 -1 502 -3.4556416794657707e-03</internalNodes>
          <leafValues>
            3.7413102388381958e-01 -5.7579766958951950e-02</leafValues></_>
        <_>
          <internalNodes>
            0 -1 146 2.4737725034356117e-03</internalNodes>
          <leafValues>
            -8.5601344704627991e-02 2.4634400010108948e-01</leafValues></_>
        <_>
          <internalNodes>
            0 -1 262 3.9772950112819672e-02</internalNodes>
          <leafValues>
            -1.2674862146377563e-01 1.6096715629100800e-01</leafValues></_>
        <_>
          <internalNodes>
            0 -1 311 -2.5071660056710243e-03</internalNodes>
          <leafValues>
            -3.5169649124145508e-01 5.9746451675891876e-02</leafValues></_>
        <_>
          <internalNodes>
            0 -1 310 -4.1879102587699890e-02</internalNodes>
          <leafValues>
            6.3121628761291504e-01 -3.3564262092113495e-02</leafValues></_>
        <_>
          <internalNodes>
            0 -1 290 -2.3942217230796814e-02</internalNodes>
          <leafValues>
            -6.6751670837402344e-01 3.3668544143438339e-02</leafValues></_>
        <_>
          <internalNodes>
            0 -1 215 -4.4557698071002960e-02</internalNodes>
          <leafValues>
            5.4057437181472778e-01 -4.1324913501739502e-02</leafValues></_>
        <_>
          <internalNodes>
            0 -1 35 -9.9359881132841110e-03</internalNodes>
          <leafValues>
            -6.7483955621719360e-01 3.0648101121187210e-02</leafValues></_>
        <_>
          <internalNodes>
            0 -1 22 -6.5007589757442474e-02</internalNodes>
          <leafValues>
            3.4290182590484619e-01 -6.1878003180027008e-02</leafValues></_>
        <_>
          <internalNodes>
            0 -1 65 -2.1566584706306458e-02</internalNodes>
          <leafValues>
            -6.2202650308609009e-01 3.8242168724536896e-02</leafValues></_>
        <_>
          <internalNodes>
            0 -1 522 1.5309573151171207e-02</internalNodes>
          <leafValues>
            -9.6831619739532471e-02 2.2515951097011566e-01</leafValues></_>
        <_>
          <internalNodes>
            0 -1 20 8.1888087093830109e-02</internalNodes>
          <leafValues>
            2.6776891201734543e-02 -7.9537987709045410e-01</leafValues></_>
        <_>
          <internalNodes>
            0 -1 502 1.2656203471124172e-03</internalNodes>
          <leafValues>
            -9.4657234847545624e-02 2.2811882197856903e-01</leafValues></_>
        <_>
          <internalNodes>
            0 -1 210 3.3694665879011154e-02</internalNodes>
          <leafValues>
            1.0005579143762589e-01 -1.9558759033679962e-01</leafValues></_>
        <_>
          <internalNodes>
            0 -1 219 7.2682509198784828e-03</internalNodes>
          <leafValues>
            -1.7432491481304169e-01 1.3849037885665894e-01</leafValues></_>
        <_>
          <internalNodes>
            0 -1 206 -2.9454505071043968e-02</internalNodes>
          <leafValues>
            2.9657420516014099e-01 -8.9460305869579315e-02</leafValues></_>
        <_>
          <internalNodes>
            0 -1 300 1.0229844599962234e-02</internalNodes>
          <leafValues>
            -7.3164507746696472e-02 3.0272626876831055e-01</leafValues></_>
        <_>
          <internalNodes>
            0 -1 545 3.9026224985718727e-03</internalNodes>
          <leafValues>
            4.0763072669506073e-02 -5.9014034271240234e-01</leafValues></_>
        <_>
          <internalNodes>
            0 -1 749 -5.4108463227748871e-03</internalNodes>
          <leafValues>
            -5.1017087697982788e-01 3.3622879534959793e-02</leafValues></_>
        <_>
          <internalNodes>
            0 -1 431 -2.1283123642206192e-03</internalNodes>
          <leafValues>
            2.8137189149856567e-01 -7.1596145629882813e-02</leafValues></_>
        <_>
          <internalNodes>
            0 -1 416 -4.0945261716842651e-03</internalNodes>
          <leafValues>
            2.0204757153987885e-01 -1.0033397376537323e-01</leafValues></_>
        <_>
          <internalNodes>
            0 -1 519 1.6140773892402649e-01</internalNodes>
          <leafValues>
            -3.9671875536441803e-02 6.6309577226638794e-01</leafValues></_>
        <_>
          <internalNodes>
            0 -1 243 -1.5008980408310890e-02</internalNodes>
          <leafValues>
            2.0135381817817688e-01 -1.0648225247859955e-01</leafValues></_>
        <_>
          <internalNodes>
            0 -1 330 3.4545809030532837e-02</internalNodes>
          <leafValues>
            6.1565656214952469e-02 -3.8661950826644897e-01</leafValues></_>
        <_>
          <internalNodes>
            0 -1 385 -8.3363819867372513e-03</internalNodes>
          <leafValues>
            3.1476944684982300e-01 -7.3741830885410309e-02</leafValues></_>
        <_>
          <internalNodes>
            0 -1 80 2.3196995258331299e-01</internalNodes>
          <leafValues>
            -4.9719050526618958e-02 4.3740493059158325e-01</leafValues></_>
        <_>
          <internalNodes>
            0 -1 299 4.6696469187736511e-02</internalNodes>
          <leafValues>
            6.6666714847087860e-02 -3.6994183063507080e-01</leafValues></_>
        <_>
          <internalNodes>
            0 -1 378 -1.0138913989067078e-02</internalNodes>
          <leafValues>
            2.9539734125137329e-01 -9.2013932764530182e-02</leafValues></_>
        <_>
          <internalNodes>
            0 -1 724 3.7484497297555208e-03</internalNodes>
          <leafValues>
            5.5648680776357651e-02 -4.3287965655326843e-01</leafValues></_>
        <_>
          <internalNodes>
            0 -1 651 2.8396066278219223e-02</internalNodes>
          <leafValues>
            -3.9709236472845078e-02 5.6076788902282715e-01</leafValues></_>
        <_>
          <internalNodes>
            0 -1 653 -5.8364234864711761e-03</internalNodes>
          <leafValues>
            -5.6490719318389893e-01 4.7648373991250992e-02</leafValues></_>
        <_>
          <internalNodes>
            0 -1 407 1.1524413526058197e-01</internalNodes>
          <leafValues>
            3.1552530825138092e-02 -5.5305463075637817e-01</leafValues></_>
        <_>
          <internalNodes>
            0 -1 734 -5.9194710105657578e-02</internalNodes>
          <leafValues>
            -5.7964873313903809e-01 3.2357979565858841e-02</leafValues></_>
        <_>
          <internalNodes>
            0 -1 668 -5.6653216481208801e-02</internalNodes>
          <leafValues>
            2.7623528242111206e-01 -8.5943743586540222e-02</leafValues></_>
        <_>
          <internalNodes>
            0 -1 549 -3.9384879171848297e-02</internalNodes>
          <leafValues>
            -3.3040973544120789e-01 8.5541829466819763e-02</leafValues></_>
        <_>
          <internalNodes>
            0 -1 436 6.6080972552299500e-02</internalNodes>
          <leafValues>
            3.7683691829442978e-02 -5.5330777168273926e-01</leafValues></_>
        <_>
          <internalNodes>
            0 -1 550 -8.2833737134933472e-02</internalNodes>
          <leafValues>
            2.0499056205153465e-02 -8.2105290889739990e-01</leafValues></_></weakClassifiers></_>
    <!-- stage 8 -->
    <_>
      <maxWeakCount>100</maxWeakCount>
      <stageThreshold>-6.3026309013366699e-01</stageThreshold>
      <weakClassifiers>
        <_>
          <internalNodes>
            0 -1 323 -4.2115390533581376e-04</internalNodes>
          <leafValues>
            -3.7529578804969788e-01 3.1386861205101013e-01</leafValues></_>
        <_>
          <internalNodes>
            0 -1 256 8.6307032033801079e-03</internalNodes>
          <leafValues>
            1.0120570659637451e-01 -2.8505626320838928e-01</leafValues></_>
        <_>
          <internalNodes>
            0 -1 566 -1.0468328744173050e-01</internalNodes>
          <leafValues>
            -1. 2.5405494496226311e-02</leafValues></_>
        <_>
          <internalNodes>
            0 -1 5 -3.6456212401390076e-02</internalNodes>
          <leafValues>
            4.8703557252883911e-01 -6.2680192291736603e-02</leafValues></_>
        <_>
          <internalNodes>
            0 -1 23 1.1874329298734665e-01</internalNodes>
          <leafValues>
            -1.1883956938982010e-01 2.1390558779239655e-01</leafValues></_>
        <_>
          <internalNodes>
            0 -1 278 5.8710537850856781e-03</internalNodes>
          <leafValues>
            -5.4181508719921112e-02 3.2343596220016479e-01</leafValues></_>
        <_>
          <internalNodes>
            0 -1 356 2.7131132781505585e-02</internalNodes>
          <leafValues>
            -1.0683148354291916e-01 3.4616664052009583e-01</leafValues></_>
        <_>
          <internalNodes>
            0 -1 480 -1.6052838182076812e-03</internalNodes>
          <leafValues>
            2.4286226928234100e-01 -1.1945560574531555e-01</leafValues></_>
        <_>
          <internalNodes>
            0 -1 59 3.3031597733497620e-02</internalNodes>
          <leafValues>
            3.8065083324909210e-02 -5.9688246250152588e-01</leafValues></_>
        <_>
          <internalNodes>
            0 -1 381 2.3077178746461868e-02</internalNodes>
          <leafValues>
            -4.8867795616388321e-02 4.1758677363395691e-01</leafValues></_>
        <_>
          <internalNodes>
            0 -1 335 9.9520962685346603e-03</internalNodes>
          <leafValues>
            1.0276214778423309e-01 -2.2486840188503265e-01</leafValues></_>
        <_>
          <internalNodes>
            0 -1 492 -5.1424261182546616e-03</internalNodes>
          <leafValues>
            -5.5413174629211426e-01 4.4718507677316666e-02</leafValues></_>
        <_>
          <internalNodes>
            0 -1 108 6.1142649501562119e-03</internalNodes>
          <leafValues>
            -8.4762305021286011e-02 2.9122945666313171e-01</leafValues></_>
        <_>
          <internalNodes>
            0 -1 309 -3.4505575895309448e-03</internalNodes>
          <leafValues>
            -4.1226271539926529e-02 7.5365191698074341e-01</leafValues></_>
        <_>
          <internalNodes>
            0 -1 475 -4.5861266553401947e-02</internalNodes>
          <leafValues>
            -8.5666841268539429e-01 3.1273212283849716e-02</leafValues></_>
        <_>
          <internalNodes>
            0 -1 465 -1.1672329157590866e-02</internalNodes>
          <leafValues>
            -3.8994863629341125e-01 5.8539494872093201e-02</leafValues></_>
        <_>
          <internalNodes>
            0 -1 630 1.4984562993049622e-02</internalNodes>
          <leafValues>
            2.3481987416744232e-02 -9.2154264450073242e-01</leafValues></_>
        <_>
          <internalNodes>
            0 -1 346 2.5945794768631458e-03</internalNodes>
          <leafValues>
            -1.1194682866334915e-01 2.0405805110931396e-01</leafValues></_>
        <_>
          <internalNodes>
            0 -1 101 -2.3386527597904205e-01</internalNodes>
          <leafValues>
            -8.3086007833480835e-01 2.9754070565104485e-02</leafValues></_>
        <_>
          <internalNodes>
            0 -1 222 -7.2579756379127502e-02</internalNodes>
          <leafValues>
            2.4430572986602783e-01 -1.0698585957288742e-01</leafValues></_>
        <_>
          <internalNodes>
            0 -1 670 -4.1425473988056183e-02</internalNodes>
          <leafValues>
            -4.0373319387435913e-01 6.2697485089302063e-02</leafValues></_>
        <_>
          <internalNodes>
            0 -1 462 -2.6623278856277466e-02</internalNodes>
          <leafValues>
            3.1266072392463684e-01 -7.1856550872325897e-02</leafValues></_>
        <_>
          <internalNodes>
            0 -1 506 4.3481703847646713e-02</internalNodes>
          <leafValues>
            -5.6723129004240036e-02 3.9078545570373535e-01</leafValues></_>
        <_>
          <internalNodes>
            0 -1 538 -4.5326277613639832e-02</internalNodes>
          <leafValues>
            2.2401981055736542e-01 -1.2294484674930573e-01</leafValues></_>
        <_>
          <internalNodes>
            0 -1 394 1.0234937071800232e-01</internalNodes>
          <leafValues>
            -3.5916794091463089e-02 5.8487778902053833e-01</leafValues></_>
        <_>
          <internalNodes>
            0 -1 721 3.0242274515330791e-03</internalNodes>
          <leafValues>
            5.5727966129779816e-02 -4.1481474041938782e-01</leafValues></_>
        <_>
          <internalNodes>
            0 -1 77 9.0247970074415207e-03</internalNodes>
          <leafValues>
            3.0362052842974663e-02 -7.4263775348663330e-01</leafValues></_>
        <_>
          <internalNodes>
            0 -1 554 2.9740768950432539e-03</internalNodes>
          <leafValues>
            -6.7260876297950745e-02 3.6021721363067627e-01</leafValues></_>
        <_>
          <internalNodes>
            0 -1 567 4.1684163734316826e-03</internalNodes>
          <leafValues>
            8.0749422311782837e-02 -2.7420446276664734e-01</leafValues></_>
        <_>
          <internalNodes>
            0 -1 728 -2.0251376554369926e-04</internalNodes>
          <leafValues>
            -2.0527942478656769e-01 1.1121051758527756e-01</leafValues></_>
        <_>
          <internalNodes>
            0 -1 652 -1.2834463268518448e-04</internalNodes>
          <leafValues>
            1.8352299928665161e-01 -1.2826931476593018e-01</leafValues></_>
        <_>
          <internalNodes>
            0 -1 568 5.0868811085820198e-03</internalNodes>
          <leafValues>
            6.9803871214389801e-02 -3.3876165747642517e-01</leafValues></_>
        <_>
          <internalNodes>
            0 -1 211 -9.1039302060380578e-04</internalNodes>
          <leafValues>
            1.9541877508163452e-01 -1.1155127733945847e-01</leafValues></_>
        <_>
          <internalNodes>
            0 -1 90 -2.9836061876267195e-03</internalNodes>
          <leafValues>
            -5.4109579324722290e-01 4.2664602398872375e-02</leafValues></_>
        <_>
          <internalNodes>
            0 -1 204 1.0721756145358086e-02</internalNodes>
          <leafValues>
            -5.6122723966836929e-02 5.0187849998474121e-01</leafValues></_>
        <_>
          <internalNodes>
            0 -1 281 -3.9092954248189926e-03</internalNodes>
          <leafValues>
            2.7256134152412415e-01 -9.5534719526767731e-02</leafValues></_>
        <_>
          <internalNodes>
            0 -1 518 -7.7163637615740299e-04</internalNodes>
          <leafValues>
            -2.5166951119899750e-02 7.9484498500823975e-01</leafValues></_>
        <_>
          <internalNodes>
            0 -1 648 6.4501807093620300e-02</internalNodes>
          <leafValues>
            -2.2694535553455353e-02 8.8896757364273071e-01</leafValues></_>
        <_>
          <internalNodes>
            0 -1 305 4.4588424265384674e-02</internalNodes>
          <leafValues>
            -5.9886470437049866e-02 3.5780766606330872e-01</leafValues></_>
        <_>
          <internalNodes>
            0 -1 434 6.9618903100490570e-02</internalNodes>
          <leafValues>
            3.8189239799976349e-02 -6.6147273778915405e-01</leafValues></_>
        <_>
          <internalNodes>
            0 -1 654 -2.0557674579322338e-03</internalNodes>
          <leafValues>
            -3.1707412004470825e-01 7.2114340960979462e-02</leafValues></_>
        <_>
          <internalNodes>
            0 -1 53 -2.1272784471511841e-01</internalNodes>
          <leafValues>
            -9.1993451118469238e-01 2.0551048219203949e-02</leafValues></_>
        <_>
          <internalNodes>
            0 -1 646 -9.3843713402748108e-03</internalNodes>
          <leafValues>
            -6.0541671514511108e-01 2.6019725948572159e-02</leafValues></_>
        <_>
          <internalNodes>
            0 -1 504 7.9110059887170792e-03</internalNodes>
          <leafValues>
            -5.0518747419118881e-02 4.4103667140007019e-01</leafValues></_>
        <_>
          <internalNodes>
            0 -1 459 -2.2107120603322983e-02</internalNodes>
          <leafValues>
            -2.9646351933479309e-01 6.9260276854038239e-02</leafValues></_>
        <_>
          <internalNodes>
            0 -1 26 -5.2149668335914612e-03</internalNodes>
          <leafValues>
            4.1631665825843811e-01 -5.3594656288623810e-02</leafValues></_>
        <_>
          <internalNodes>
            0 -1 100 -3.2893992960453033e-02</internalNodes>
          <leafValues>
            -5.3697466850280762e-01 4.5161519199609756e-02</leafValues></_>
        <_>
          <internalNodes>
            0 -1 147 -2.7285093441605568e-02</internalNodes>
          <leafValues>
            4.3017163872718811e-01 -5.4948519915342331e-02</leafValues></_>
        <_>
          <internalNodes>
            0 -1 488 3.9126239717006683e-03</internalNodes>
          <leafValues>
            4.1039090603590012e-02 -5.6321561336517334e-01</leafValues></_>
        <_>
          <internalNodes>
            0 -1 319 1.6308840131387115e-03</internalNodes>
          <leafValues>
            -1.1215251684188843e-01 1.7619277536869049e-01</leafValues></_>
        <_>
          <internalNodes>
            0 -1 0 -3.3555319532752037e-03</internalNodes>
          <leafValues>
            -4.7272321581840515e-01 4.3332882225513458e-02</leafValues></_>
        <_>
          <internalNodes>
            0 -1 630 -5.5247806012630463e-03</internalNodes>
          <leafValues>
            -3.5789126157760620e-01 5.4371431469917297e-02</leafValues></_>
        <_>
          <internalNodes>
            0 -1 150 -8.4914147853851318e-02</internalNodes>
          <leafValues>
            -5.9619778394699097e-01 3.3657465130090714e-02</leafValues></_>
        <_>
          <internalNodes>
            0 -1 125 3.9709508419036865e-03</internalNodes>
          <leafValues>
            2.5237303227186203e-02 -7.1112680435180664e-01</leafValues></_>
        <_>
          <internalNodes>
            0 -1 660 3.1310778111219406e-02</internalNodes>
          <leafValues>
            1.6953486949205399e-02 -9.3363958597183228e-01</leafValues></_>
        <_>
          <internalNodes>
            0 -1 338 -5.0416789948940277e-02</internalNodes>
          <leafValues>
            9.1775083541870117e-01 -2.7979407459497452e-02</leafValues></_>
        <_>
          <internalNodes>
            0 -1 185 -3.3959187567234039e-03</internalNodes>
          <leafValues>
            -4.7975549101829529e-01 5.1358032971620560e-02</leafValues></_>
        <_>
          <internalNodes>
            0 -1 589 -3.2338937744498253e-03</internalNodes>
          <leafValues>
            2.3052895069122314e-01 -9.2056564986705780e-02</leafValues></_>
        <_>
          <internalNodes>
            0 -1 589 8.5981434676796198e-04</internalNodes>
          <leafValues>
            -1.4814122021198273e-01 1.8986973166465759e-01</leafValues></_>
        <_>
          <internalNodes>
            0 -1 517 1.2580365873873234e-02</internalNodes>
          <leafValues>
            5.1449861377477646e-02 -4.0776622295379639e-01</leafValues></_>
        <_>
          <internalNodes>
            0 -1 355 2.8884455561637878e-02</internalNodes>
          <leafValues>
            -3.2393917441368103e-02 7.6567804813385010e-01</leafValues></_>
        <_>
          <internalNodes>
            0 -1 607 -9.3247871845960617e-03</internalNodes>
          <leafValues>
            -1.0449112951755524e-01 2.1682548522949219e-01</leafValues></_>
        <_>
          <internalNodes>
            0 -1 268 7.0670515298843384e-02</internalNodes>
          <leafValues>
            8.8810265064239502e-02 -2.6519581675529480e-01</leafValues></_>
        <_>
          <internalNodes>
            0 -1 520 8.6255326867103577e-02</internalNodes>
          <leafValues>
            -4.5883256942033768e-02 5.4682683944702148e-01</leafValues></_>
        <_>
          <internalNodes>
            0 -1 446 4.6006683260202408e-03</internalNodes>
          <leafValues>
            7.9272918403148651e-02 -2.7572539448738098e-01</leafValues></_>
        <_>
          <internalNodes>
            0 -1 266 -3.3701978623867035e-02</internalNodes>
          <leafValues>
            2.6093336939811707e-01 -9.0164035558700562e-02</leafValues></_>
        <_>
          <internalNodes>
            0 -1 277 3.3170324750244617e-03</internalNodes>
          <leafValues>
            6.0039307922124863e-02 -4.1946572065353394e-01</leafValues></_>
        <_>
          <internalNodes>
            0 -1 89 -5.6219734251499176e-02</internalNodes>
          <leafValues>
            4.5045882463455200e-01 -5.7507392019033432e-02</leafValues></_>
        <_>
          <internalNodes>
            0 -1 680 -6.5014916472136974e-03</internalNodes>
          <leafValues>
            -4.4703981280326843e-01 4.8605330288410187e-02</leafValues></_>
        <_>
          <internalNodes>
            0 -1 38 1.5987051650881767e-02</internalNodes>
          <leafValues>
            4.0648687630891800e-02 -4.9752020835876465e-01</leafValues></_>
        <_>
          <internalNodes>
            0 -1 602 -5.7303509674966335e-04</internalNodes>
          <leafValues>
            1.7246660590171814e-01 -1.2329627573490143e-01</leafValues></_>
        <_>
          <internalNodes>
            0 -1 170 -3.8215215317904949e-03</internalNodes>
          <leafValues>
            -2.7023119851946831e-02 7.1872222423553467e-01</leafValues></_>
        <_>
          <internalNodes>
            0 -1 31 -3.4136086702346802e-02</internalNodes>
          <leafValues>
            4.4393563270568848e-01 -4.3433684855699539e-02</leafValues></_>
        <_>
          <internalNodes>
            0 -1 321 -2.0115813240408897e-03</internalNodes>
          <leafValues>
            1.8145127594470978e-01 -1.2941060960292816e-01</leafValues></_>
        <_>
          <internalNodes>
            0 -1 183 -7.8124869614839554e-03</internalNodes>
          <leafValues>
            -6.7481505870819092e-01 3.3182039856910706e-02</leafValues></_>
        <_>
          <internalNodes>
            0 -1 530 2.9876224696636200e-02</internalNodes>
          <leafValues>
            2.0542228594422340e-02 -6.9621640443801880e-01</leafValues></_>
        <_>
          <internalNodes>
            0 -1 258 1.9743866287171841e-03</internalNodes>
          <leafValues>
            -1.1395064741373062e-01 1.7666982114315033e-01</leafValues></_>
        <_>
          <internalNodes>
            0 -1 374 -1.9775822293013334e-03</internalNodes>
          <leafValues>
            1.6850093007087708e-01 -1.2911695241928101e-01</leafValues></_>
        <_>
          <internalNodes>
            0 -1 743 7.5594644295051694e-04</internalNodes>
          <leafValues>
            1.0153742879629135e-01 -2.1421283483505249e-01</leafValues></_>
        <_>
          <internalNodes>
            0 -1 286 1.6406370326876640e-02</internalNodes>
          <leafValues>
            -7.1740344166755676e-02 3.0242639780044556e-01</leafValues></_>
        <_>
          <internalNodes>
            0 -1 289 -2.8855097480118275e-04</internalNodes>
          <leafValues>
            1.9288003444671631e-01 -1.2274913489818573e-01</leafValues></_>
        <_>
          <internalNodes>
            0 -1 294 -2.9978058300912380e-03</internalNodes>
          <leafValues>
            2.6019757986068726e-01 -8.5078030824661255e-02</leafValues></_>
        <_>
          <internalNodes>
            0 -1 509 4.0376503020524979e-03</internalNodes>
          <leafValues>
            5.0255712121725082e-02 -4.3539774417877197e-01</leafValues></_>
        <_>
          <internalNodes>
            0 -1 676 1.4933704398572445e-02</internalNodes>
          <leafValues>
            2.3146731778979301e-02 -7.2979837656021118e-01</leafValues></_>
        <_>
          <internalNodes>
            0 -1 741 -3.4032524563372135e-03</internalNodes>
          <leafValues>
            -7.6563841104507446e-01 2.1094322204589844e-02</leafValues></_>
        <_>
          <internalNodes>
            0 -1 415 6.3585817813873291e-02</internalNodes>
          <leafValues>
            -4.2056906968355179e-02 5.1601976156234741e-01</leafValues></_>
        <_>
          <internalNodes>
            0 -1 669 1.0563323274254799e-02</internalNodes>
          <leafValues>
            -5.7357523590326309e-02 3.5569813847541809e-01</leafValues></_>
        <_>
          <internalNodes>
            0 -1 665 -2.5044877082109451e-02</internalNodes>
          <leafValues>
            3.0349048972129822e-01 -8.1477902829647064e-02</leafValues></_>
        <_>
          <internalNodes>
            0 -1 255 2.1403387188911438e-01</internalNodes>
          <leafValues>
            -7.2930335998535156e-02 3.0036929249763489e-01</leafValues></_>
        <_>
          <internalNodes>
            0 -1 503 2.7163790538907051e-02</internalNodes>
          <leafValues>
            3.8770638406276703e-02 -7.3390311002731323e-01</leafValues></_>
        <_>
          <internalNodes>
            0 -1 252 1.7894528806209564e-02</internalNodes>
          <leafValues>
            -2.1668496727943420e-01 9.1505847871303558e-02</leafValues></_>
        <_>
          <internalNodes>
            0 -1 359 3.9535593241453171e-03</internalNodes>
          <leafValues>
            8.1710398197174072e-02 -2.3292696475982666e-01</leafValues></_>
        <_>
          <internalNodes>
            0 -1 264 -6.0620540753006935e-03</internalNodes>
          <leafValues>
            3.3811709284782410e-01 -6.5723180770874023e-02</leafValues></_>
        <_>
          <internalNodes>
            0 -1 295 -1.1285506479907781e-04</internalNodes>
          <leafValues>
            1.4552614092826843e-01 -1.3914357125759125e-01</leafValues></_>
        <_>
          <internalNodes>
            0 -1 733 -6.4025476574897766e-02</internalNodes>
          <leafValues>
            -5.6453573703765869e-01 3.7461157888174057e-02</leafValues></_>
        <_>
          <internalNodes>
            0 -1 608 3.1186966225504875e-03</internalNodes>
          <leafValues>
            -6.2107048928737640e-02 3.6950406432151794e-01</leafValues></_>
        <_>
          <internalNodes>
            0 -1 91 -2.8340369462966919e-02</internalNodes>
          <leafValues>
            5.7978922128677368e-01 -3.4745894372463226e-02</leafValues></_>
        <_>
          <internalNodes>
            0 -1 425 3.6183381453156471e-03</internalNodes>
          <leafValues>
            4.8572365194559097e-02 -4.4847828149795532e-01</leafValues></_>
        <_>
          <internalNodes>
            0 -1 297 1.9276738166809082e-02</internalNodes>
          <leafValues>
            2.3328686133027077e-02 -7.5081127882003784e-01</leafValues></_>
        <_>
          <internalNodes>
            0 -1 579 2.6200737804174423e-02</internalNodes>
          <leafValues>
            1.5285978093743324e-02 -9.1292399168014526e-01</leafValues></_></weakClassifiers></_>
    <!-- stage 9 -->
    <_>
      <maxWeakCount>100</maxWeakCount>
      <stageThreshold>-6.3792538642883301e-01</stageThreshold>
      <weakClassifiers>
        <_>
          <internalNodes>
            0 -1 344 -2.4823717772960663e-01</internalNodes>
          <leafValues>
            1.0204081982374191e-01 -3.9877301454544067e-01</leafValues></_>
        <_>
          <internalNodes>
            0 -1 411 3.4165596589446068e-03</internalNodes>
          <leafValues>
            -2.1045398712158203e-01 1.5336611866950989e-01</leafValues></_>
        <_>
          <internalNodes>
            0 -1 320 -9.2920009046792984e-03</internalNodes>
          <leafValues>
            -4.5599937438964844e-01 6.4281575381755829e-02</leafValues></_>
        <_>
          <internalNodes>
            0 -1 144 2.0145438611507416e-04</internalNodes>
          <leafValues>
            1.6013921797275543e-01 -2.0243673026561737e-01</leafValues></_>
        <_>
          <internalNodes>
            0 -1 239 1.5607684850692749e-01</internalNodes>
          <leafValues>
            -7.0571430027484894e-02 3.7385198473930359e-01</leafValues></_>
        <_>
          <internalNodes>
            0 -1 340 -1.1586045846343040e-02</internalNodes>
          <leafValues>
            -3.3739030361175537e-01 7.4320681393146515e-02</leafValues></_>
        <_>
          <internalNodes>
            0 -1 254 -2.6210855692625046e-02</internalNodes>
          <leafValues>
            4.8669272661209106e-01 -3.5500567406415939e-02</leafValues></_>
        <_>
          <internalNodes>
            0 -1 353 -1.3238306157290936e-02</internalNodes>
          <leafValues>
            2.5384148955345154e-01 -1.0532636195421219e-01</leafValues></_>
        <_>
          <internalNodes>
            0 -1 712 -2.5143032893538475e-02</internalNodes>
          <leafValues>
            6.6191816329956055e-01 -3.3989846706390381e-02</leafValues></_>
        <_>
          <internalNodes>
            0 -1 398 -1.4095132937654853e-03</internalNodes>
          <leafValues>
            2.0409660041332245e-01 -1.1600435525178909e-01</leafValues></_>
        <_>
          <internalNodes>
            0 -1 516 8.6206465493887663e-04</internalNodes>
          <leafValues>
            -1.8311391770839691e-01 1.3660137355327606e-01</leafValues></_>
        <_>
          <internalNodes>
            0 -1 483 3.6883053835481405e-03</internalNodes>
          <leafValues>
            3.7305716425180435e-02 -5.1775270700454712e-01</leafValues></_>
        <_>
          <internalNodes>
            0 -1 678 9.3406401574611664e-03</internalNodes>
          <leafValues>
            -6.8311654031276703e-02 3.8466322422027588e-01</leafValues></_>
        <_>
          <internalNodes>
            0 -1 677 6.0771917924284935e-04</internalNodes>
          <leafValues>
            -1.3412897288799286e-01 1.7089568078517914e-01</leafValues></_>
        <_>
          <internalNodes>
            0 -1 109 -5.1461353898048401e-02</internalNodes>
          <leafValues>
            -6.6720294952392578e-01 2.4766480550169945e-02</leafValues></_>
        <_>
          <internalNodes>
            0 -1 272 7.8435480594635010e-02</internalNodes>
          <leafValues>
            4.5730844140052795e-02 -4.5993211865425110e-01</leafValues></_>
        <_>
          <internalNodes>
            0 -1 741 2.4920892901718616e-03</internalNodes>
          <leafValues>
            3.3025015145540237e-02 -5.9276074171066284e-01</leafValues></_>
        <_>
          <internalNodes>
            0 -1 490 3.8268506526947021e-02</internalNodes>
          <leafValues>
            5.1516458392143250e-02 -4.0071505308151245e-01</leafValues></_>
        <_>
          <internalNodes>
            0 -1 514 -1.7866205424070358e-02</internalNodes>
          <leafValues>
            2.1311323344707489e-01 -1.0555595904588699e-01</leafValues></_>
        <_>
          <internalNodes>
            0 -1 287 5.9228889644145966e-02</internalNodes>
          <leafValues>
            -1.2458755820989609e-01 2.1476812660694122e-01</leafValues></_>
        <_>
          <internalNodes>
            0 -1 455 -4.1087961290031672e-04</internalNodes>
          <leafValues>
            -1.2958955764770508e-01 1.7812538146972656e-01</leafValues></_>
        <_>
          <internalNodes>
            0 -1 541 -2.4923937395215034e-02</internalNodes>
          <leafValues>
            2.3469960689544678e-01 -1.0840084403753281e-01</leafValues></_>
        <_>
          <internalNodes>
            0 -1 247 5.8073848485946655e-01</internalNodes>
          <leafValues>
            -4.6964842826128006e-02 6.8186825513839722e-01</leafValues></_>
        <_>
          <internalNodes>
            0 -1 610 -1.7741946503520012e-02</internalNodes>
          <leafValues>
            -6.7171657085418701e-01 4.2167264968156815e-02</leafValues></_>
        <_>
          <internalNodes>
            0 -1 259 -1.2689976021647453e-02</internalNodes>
          <leafValues>
            2.4960413575172424e-01 -9.7968101501464844e-02</leafValues></_>
        <_>
          <internalNodes>
            0 -1 236 5.5007026530802250e-03</internalNodes>
          <leafValues>
            -2.6543656364083290e-02 8.4884524345397949e-01</leafValues></_>
        <_>
          <internalNodes>
            0 -1 629 -3.3010072074830532e-03</internalNodes>
          <leafValues>
            1.3082148134708405e-01 -1.5437784790992737e-01</leafValues></_>
        <_>
          <internalNodes>
            0 -1 139 -8.5754711180925369e-03</internalNodes>
          <leafValues>
            -7.5821840763092041e-01 2.9143834486603737e-02</leafValues></_>
        <_>
          <internalNodes>
            0 -1 228 2.3103788495063782e-02</internalNodes>
          <leafValues>
            -7.2862520813941956e-02 3.4339281916618347e-01</leafValues></_>
        <_>
          <internalNodes>
            0 -1 358 1.7876017838716507e-02</internalNodes>
          <leafValues>
            -9.2873036861419678e-02 2.5591579079627991e-01</leafValues></_>
        <_>
          <internalNodes>
            0 -1 194 2.6247024536132813e-02</internalNodes>
          <leafValues>
            -6.8632088601589203e-02 3.2408103346824646e-01</leafValues></_>
        <_>
          <internalNodes>
            0 -1 384 -2.2880509495735168e-02</internalNodes>
          <leafValues>
            -8.9797925949096680e-01 2.3751242086291313e-02</leafValues></_>
        <_>
          <internalNodes>
            0 -1 27 -1.5418965369462967e-02</internalNodes>
          <leafValues>
            5.6812703609466553e-01 -5.0099365413188934e-02</leafValues></_>
        <_>
          <internalNodes>
            0 -1 598 2.2660268004983664e-03</internalNodes>
          <leafValues>
            -6.8855293095111847e-02 2.9058584570884705e-01</leafValues></_>
        <_>
          <internalNodes>
            0 -1 562 2.9777362942695618e-03</internalNodes>
          <leafValues>
            6.1162199825048447e-02 -3.9551532268524170e-01</leafValues></_>
        <_>
          <internalNodes>
            0 -1 489 -1.8988943193107843e-03</internalNodes>
          <leafValues>
            2.0786651968955994e-01 -1.1981808394193649e-01</leafValues></_>
        <_>
          <internalNodes>
            0 -1 45 8.6579322814941406e-03</internalNodes>
          <leafValues>
            4.3271783739328384e-02 -5.3350830078125000e-01</leafValues></_>
        <_>
          <internalNodes>
            0 -1 429 -1.8169958144426346e-02</internalNodes>
          <leafValues>
            -5.7149618864059448e-01 3.1955178827047348e-02</leafValues></_>
        <_>
          <internalNodes>
            0 -1 9 5.4278876632452011e-02</internalNodes>
          <leafValues>
            -7.4492618441581726e-02 2.9593801498413086e-01</leafValues></_>
        <_>
          <internalNodes>
            0 -1 718 -3.6179157905280590e-04</internalNodes>
          <leafValues>
            -1.9485719501972198e-02 9.4632887840270996e-01</leafValues></_>
        <_>
          <internalNodes>
            0 -1 201 3.1899410486221313e-01</internalNodes>
          <leafValues>
            -3.0396485701203346e-02 6.1076253652572632e-01</leafValues></_>
        <_>
          <internalNodes>
            0 -1 15 -3.7226790189743042e-01</internalNodes>
          <leafValues>
            6.5150207281112671e-01 -2.7779066935181618e-02</leafValues></_>
        <_>
          <internalNodes>
            0 -1 173 -1.2980780005455017e-01</internalNodes>
          <leafValues>
            -8.7478303909301758e-01 2.7552448213100433e-02</leafValues></_>
        <_>
          <internalNodes>
            0 -1 547 -3.6944102495908737e-02</internalNodes>
          <leafValues>
            1.2890917062759399e-01 -1.6679589450359344e-01</leafValues></_>
        <_>
          <internalNodes>
            0 -1 97 9.1392192989587784e-03</internalNodes>
          <leafValues>
            5.0808969885110855e-02 -4.1704574227333069e-01</leafValues></_>
        <_>
          <internalNodes>
            0 -1 437 2.8536096215248108e-03</internalNodes>
          <leafValues>
            -7.3630668222904205e-02 2.7562388777732849e-01</leafValues></_>
        <_>
          <internalNodes>
            0 -1 495 -1.2333020567893982e-03</internalNodes>
          <leafValues>
            2.2814394533634186e-01 -8.6914442479610443e-02</leafValues></_>
        <_>
          <internalNodes>
            0 -1 233 2.9939196538180113e-03</internalNodes>
          <leafValues>
            5.1513213664293289e-02 -3.8367047905921936e-01</leafValues></_>
        <_>
          <internalNodes>
            0 -1 556 4.9637383781373501e-03</internalNodes>
          <leafValues>
            5.7083953171968460e-02 -3.5855832695960999e-01</leafValues></_>
        <_>
          <internalNodes>
            0 -1 669 -1.8832173198461533e-02</internalNodes>
          <leafValues>
            3.3183553814888000e-01 -6.1457771807909012e-02</leafValues></_>
        <_>
          <internalNodes>
            0 -1 711 1.0606436990201473e-04</internalNodes>
          <leafValues>
            -1.5217866003513336e-01 1.4689543843269348e-01</leafValues></_>
        <_>
          <internalNodes>
            0 -1 166 -6.9831281900405884e-02</internalNodes>
          <leafValues>
            3.3557656407356262e-01 -7.0889204740524292e-02</leafValues></_>
        <_>
          <internalNodes>
            0 -1 706 -3.4784516319632530e-03</internalNodes>
          <leafValues>
            -4.7551569342613220e-01 5.0287026911973953e-02</leafValues></_>
        <_>
          <internalNodes>
            0 -1 512 -5.5489027872681618e-03</internalNodes>
          <leafValues>
            4.6473270654678345e-01 -4.9379449337720871e-02</leafValues></_>
        <_>
          <internalNodes>
            0 -1 328 -1.6495939344167709e-02</internalNodes>
          <leafValues>
            3.9338195323944092e-01 -5.9007078409194946e-02</leafValues></_>
        <_>
          <internalNodes>
            0 -1 257 6.1388378962874413e-03</internalNodes>
          <leafValues>
            3.6061339080333710e-02 -6.3808268308639526e-01</leafValues></_>
        <_>
          <internalNodes>
            0 -1 422 1.6684692818671465e-03</internalNodes>
          <leafValues>
            -1.1261303722858429e-01 1.9863700866699219e-01</leafValues></_>
        <_>
          <internalNodes>
            0 -1 8 -3.2234616577625275e-02</internalNodes>
          <leafValues>
            5.5134266614913940e-01 -3.6642875522375107e-02</leafValues></_>
        <_>
          <internalNodes>
            0 -1 62 -4.5869643799960613e-03</internalNodes>
          <leafValues>
            -4.1199874877929688e-01 5.1623705774545670e-02</leafValues></_>
        <_>
          <internalNodes>
            0 -1 43 8.0975294113159180e-03</internalNodes>
          <leafValues>
            -1.4513999223709106e-01 1.6270381212234497e-01</leafValues></_>
        <_>
          <internalNodes>
            0 -1 179 -1.3166053686290979e-03</internalNodes>
          <leafValues>
            1.9242179393768311e-01 -1.2095349282026291e-01</leafValues></_>
        <_>
          <internalNodes>
            0 -1 746 4.6794125228188932e-04</internalNodes>
          <leafValues>
            8.7980270385742188e-02 -2.6562663912773132e-01</leafValues></_>
        <_>
          <internalNodes>
            0 -1 722 1.3126428239047527e-03</internalNodes>
          <leafValues>
            -1.1970356106758118e-01 2.2100344300270081e-01</leafValues></_>
        <_>
          <internalNodes>
            0 -1 478 1.8594872672110796e-03</internalNodes>
          <leafValues>
            -1.4495234191417694e-01 1.6205230355262756e-01</leafValues></_>
        <_>
          <internalNodes>
            0 -1 404 -1.7097180709242821e-02</internalNodes>
          <leafValues>
            -4.1368323564529419e-01 5.3570013493299484e-02</leafValues></_>
        <_>
          <internalNodes>
            0 -1 265 2.5418780278414488e-03</internalNodes>
          <leafValues>
            -1.0763442516326904e-01 2.1600423753261566e-01</leafValues></_>
        <_>
          <internalNodes>
            0 -1 296 3.7984356284141541e-02</internalNodes>
          <leafValues>
            1.0744330286979675e-01 -2.0108655095100403e-01</leafValues></_>
        <_>
          <internalNodes>
            0 -1 86 6.7075587809085846e-02</internalNodes>
          <leafValues>
            2.7083039283752441e-02 -7.9785150289535522e-01</leafValues></_>
        <_>
          <internalNodes>
            0 -1 71 -8.9946817606687546e-03</internalNodes>
          <leafValues>
            -3.2338988780975342e-01 6.2844417989253998e-02</leafValues></_>
        <_>
          <internalNodes>
            0 -1 270 -3.2958998344838619e-03</internalNodes>
          <leafValues>
            2.6458069682121277e-01 -9.0617030858993530e-02</leafValues></_>
        <_>
          <internalNodes>
            0 -1 368 1.2101835012435913e-01</internalNodes>
          <leafValues>
            -2.7066864073276520e-02 7.0950037240982056e-01</leafValues></_>
        <_>
          <internalNodes>
            0 -1 32 -4.0800228714942932e-02</internalNodes>
          <leafValues>
            -5.9704238176345825e-01 3.9188828319311142e-02</leafValues></_>
        <_>
          <internalNodes>
            0 -1 66 -3.9937078952789307e-01</internalNodes>
          <leafValues>
            -8.3504635095596313e-01 2.0021844655275345e-02</leafValues></_>
        <_>
          <internalNodes>
            0 -1 739 2.5269869365729392e-04</internalNodes>
          <leafValues>
            9.7033731639385223e-02 -2.0765563845634460e-01</leafValues></_>
        <_>
          <internalNodes>
            0 -1 739 -8.8091369252651930e-04</internalNodes>
          <leafValues>
            -3.2784944772720337e-01 9.3117706477642059e-02</leafValues></_>
        <_>
          <internalNodes>
            0 -1 679 -1.2406668392941356e-03</internalNodes>
          <leafValues>
            1.4535222947597504e-01 -1.5096390247344971e-01</leafValues></_>
        <_>
          <internalNodes>
            0 -1 441 2.4939146824181080e-03</internalNodes>
          <leafValues>
            -1.4765654504299164e-01 1.5308284759521484e-01</leafValues></_>
        <_>
          <internalNodes>
            0 -1 371 6.4770164899528027e-03</internalNodes>
          <leafValues>
            1.0398927330970764e-01 -2.1603848040103912e-01</leafValues></_>
        <_>
          <internalNodes>
            0 -1 666 -4.3079867959022522e-02</internalNodes>
          <leafValues>
            -7.2815966606140137e-01 3.1853076070547104e-02</leafValues></_>
        <_>
          <internalNodes>
            0 -1 248 -1.7868644790723920e-03</internalNodes>
          <leafValues>
            2.2632940113544464e-01 -1.0036934912204742e-01</leafValues></_>
        <_>
          <internalNodes>
            0 -1 714 1.4622375369071960e-02</internalNodes>
          <leafValues>
            -3.8756046444177628e-02 5.9871000051498413e-01</leafValues></_>
        <_>
          <internalNodes>
            0 -1 213 -2.2282636165618896e-01</internalNodes>
          <leafValues>
            2.5756973028182983e-01 -9.1637410223484039e-02</leafValues></_>
        <_>
          <internalNodes>
            0 -1 124 -1.7746739089488983e-02</internalNodes>
          <leafValues>
            -7.2080945968627930e-01 3.3186800777912140e-02</leafValues></_>
        <_>
          <internalNodes>
            0 -1 175 2.4858519434928894e-02</internalNodes>
          <leafValues>
            2.9977915808558464e-02 -6.1299914121627808e-01</leafValues></_>
        <_>
          <internalNodes>
            0 -1 468 -4.1736690327525139e-03</internalNodes>
          <leafValues>
            4.4493487477302551e-01 -5.3907994180917740e-02</leafValues></_>
        <_>
          <internalNodes>
            0 -1 461 -2.9952179640531540e-02</internalNodes>
          <leafValues>
            7.4829548597335815e-01 -2.8702603653073311e-02</leafValues></_>
        <_>
          <internalNodes>
            0 -1 122 4.1848223656415939e-02</internalNodes>
          <leafValues>
            2.7561796829104424e-02 -9.1579872369766235e-01</leafValues></_>
        <_>
          <internalNodes>
            0 -1 601 3.5637635737657547e-03</internalNodes>
          <leafValues>
            3.2771304249763489e-02 -5.2517426013946533e-01</leafValues></_>
        <_>
          <internalNodes>
            0 -1 511 -2.4380160029977560e-03</internalNodes>
          <leafValues>
            2.5102570652961731e-01 -9.0072773396968842e-02</leafValues></_>
        <_>
          <internalNodes>
            0 -1 169 1.9976243376731873e-01</internalNodes>
          <leafValues>
            -1.2792688608169556e-01 1.7724458873271942e-01</leafValues></_>
        <_>
          <internalNodes>
            0 -1 153 -2.9317781329154968e-01</internalNodes>
          <leafValues>
            5.9991604089736938e-01 -4.0485743433237076e-02</leafValues></_>
        <_>
          <internalNodes>
            0 -1 273 1.9079610705375671e-02</internalNodes>
          <leafValues>
            1.1451706290245056e-01 -2.1249987185001373e-01</leafValues></_>
        <_>
          <internalNodes>
            0 -1 39 -3.1043726950883865e-02</internalNodes>
          <leafValues>
            -6.4610105752944946e-01 2.8680372983217239e-02</leafValues></_>
        <_>
          <internalNodes>
            0 -1 716 -2.9609125340357423e-04</internalNodes>
          <leafValues>
            -2.0822256803512573e-01 9.7416341304779053e-02</leafValues></_>
        <_>
          <internalNodes>
            0 -1 740 1.6235287766903639e-03</internalNodes>
          <leafValues>
            5.5529676377773285e-02 -4.6765542030334473e-01</leafValues></_>
        <_>
          <internalNodes>
            0 -1 470 -1.4674391131848097e-03</internalNodes>
          <leafValues>
            3.6675897240638733e-01 -6.2100231647491455e-02</leafValues></_>
        <_>
          <internalNodes>
            0 -1 427 4.5128073543310165e-03</internalNodes>
          <leafValues>
            -1.2071066349744797e-01 1.8756927549839020e-01</leafValues></_>
        <_>
          <internalNodes>
            0 -1 448 -1.0633753612637520e-02</internalNodes>
          <leafValues>
            5.1125133037567139e-01 -4.8124674707651138e-02</leafValues></_>
        <_>
          <internalNodes>
            0 -1 481 3.5132847726345062e-02</internalNodes>
          <leafValues>
            -2.9657864943146706e-02 7.3931139707565308e-01</leafValues></_>
        <_>
          <internalNodes>
            0 -1 563 4.9242023378610611e-03</internalNodes>
          <leafValues>
            -4.9871284514665604e-02 4.1572925448417664e-01</leafValues></_></weakClassifiers></_></stages>
  <features>
    <_>
      <rects>
        <_>
          0 0 1 2 -1.</_>
        <_>
          0 1 1 1 2.</_></rects>
      <tilted>0</tilted></_>
    <_>
      <rects>
        <_>
          0 0 3 1 -1.</_>
        <_>
          1 0 1 1 2.</_></rects>
      <tilted>0</tilted></_>
    <_>
      <rects>
        <_>
          0 0 2 2 -1.</_>
        <_>
          1 0 1 2 2.</_></rects>
      <tilted>0</tilted></_>
    <_>
      <rects>
        <_>
          0 0 1 6 -1.</_>
        <_>
          0 3 1 3 2.</_></rects>
      <tilted>0</tilted></_>
    <_>
      <rects>
        <_>
          0 0 2 7 -1.</_>
        <_>
          1 0 1 7 2.</_></rects>
      <tilted>0</tilted></_>
    <_>
      <rects>
        <_>
          0 0 2 20 -1.</_>
        <_>
          0 0 1 10 2.</_>
        <_>
          1 10 1 10 2.</_></rects>
      <tilted>0</tilted></_>
    <_>
      <rects>
        <_>
          0 0 6 1 -1.</_>
        <_>
          2 0 2 1 2.</_></rects>
      <tilted>0</tilted></_>
    <_>
      <rects>
        <_>
          0 0 2 3 -1.</_>
        <_>
          0 1 2 1 2.</_></rects>
      <tilted>0</tilted></_>
    <_>
      <rects>
        <_>
          0 0 2 6 -1.</_>
        <_>
          0 3 2 3 2.</_></rects>
      <tilted>0</tilted></_>
    <_>
      <rects>
        <_>
          0 0 2 8 -1.</_>
        <_>
          0 4 2 4 2.</_></rects>
      <tilted>0</tilted></_>
    <_>
      <rects>
        <_>
          0 0 9 1 -1.</_>
        <_>
          3 0 3 1 2.</_></rects>
      <tilted>0</tilted></_>
    <_>
      <rects>
        <_>
          0 0 6 12 -1.</_>
        <_>
          3 0 3 12 2.</_></rects>
      <tilted>0</tilted></_>
    <_>
      <rects>
        <_>
          0 0 8 2 -1.</_>
        <_>
          0 0 4 1 2.</_>
        <_>
          4 1 4 1 2.</_></rects>
      <tilted>0</tilted></_>
    <_>
      <rects>
        <_>
          0 0 8 4 -1.</_>
        <_>
          4 0 4 4 2.</_></rects>
      <tilted>0</tilted></_>
    <_>
      <rects>
        <_>
          0 0 4 12 -1.</_>
        <_>
          0 6 4 6 2.</_></rects>
      <tilted>0</tilted></_>
    <_>
      <rects>
        <_>
          0 0 8 18 -1.</_>
        <_>
          4 0 4 18 2.</_></rects>
      <tilted>0</tilted></_>
    <_>
      <rects>
        <_>
          0 0 10 2 -1.</_>
        <_>
          0 0 5 1 2.</_>
        <_>
          5 1 5 1 2.</_></rects>
      <tilted>0</tilted></_>
    <_>
      <rects>
        <_>
          0 0 10 20 -1.</_>
        <_>
          0 0 5 10 2.</_>
        <_>
          5 10 5 10 2.</_></rects>
      <tilted>0</tilted></_>
    <_>
      <rects>
        <_>
          0 0 10 13 -1.</_>
        <_>
          5 0 5 13 2.</_></rects>
      <tilted>0</tilted></_>
    <_>
      <rects>
        <_>
          0 0 12 1 -1.</_>
        <_>
          6 0 6 1 2.</_></rects>
      <tilted>0</tilted></_>
    <_>
      <rects>
        <_>
          0 0 9 2 -1.</_>
        <_>
          0 1 9 1 2.</_></rects>
      <tilted>0</tilted></_>
    <_>
      <rects>
        <_>
          0 0 11 2 -1.</_>
        <_>
          0 1 11 1 2.</_></rects>
      <tilted>0</tilted></_>
    <_>
      <rects>
        <_>
          0 0 11 10 -1.</_>
        <_>
          0 5 11 5 2.</_></rects>
      <tilted>0</tilted></_>
    <_>
      <rects>
        <_>
          0 0 12 6 -1.</_>
        <_>
          0 3 12 3 2.</_></rects>
      <tilted>0</tilted></_>
    <_>
      <rects>
        <_>
          0 0 12 8 -1.</_>
        <_>
          0 4 12 4 2.</_></rects>
      <tilted>0</tilted></_>
    <_>
      <rects>
        <_>
          0 0 12 12 -1.</_>
        <_>
          0 6 12 6 2.</_></rects>
      <tilted>0</tilted></_>
    <_>
      <rects>
        <_>
          0 1 2 2 -1.</_>
        <_>
          0 1 1 1 2.</_>
        <_>
          1 2 1 1 2.</_></rects>
      <tilted>0</tilted></_>
    <_>
      <rects>
        <_>
          0 1 2 4 -1.</_>
        <_>
          0 1 1 2 2.</_>
        <_>
          1 3 1 2 2.</_></rects>
      <tilted>0</tilted></_>
    <_>
      <rects>
        <_>
          0 1 4 10 -1.</_>
        <_>
          0 1 2 5 2.</_>
        <_>
          2 6 2 5 2.</_></rects>
      <tilted>0</tilted></_>
    <_>
      <rects>
        <_>
          0 1 6 16 -1.</_>
        <_>
          3 1 3 16 2.</_></rects>
      <tilted>0</tilted></_>
    <_>
      <rects>
        <_>
          0 1 8 2 -1.</_>
        <_>
          4 1 4 2 2.</_></rects>
      <tilted>0</tilted></_>
    <_>
      <rects>
        <_>
          0 1 10 2 -1.</_>
        <_>
          0 1 5 1 2.</_>
        <_>
          5 2 5 1 2.</_></rects>
      <tilted>0</tilted></_>
    <_>
      <rects>
        <_>
          0 1 8 2 -1.</_>
        <_>
          0 2 8 1 2.</_></rects>
      <tilted>0</tilted></_>
    <_>
      <rects>
        <_>
          0 1 10 2 -1.</_>
        <_>
          0 2 10 1 2.</_></rects>
      <tilted>0</tilted></_>
    <_>
      <rects>
        <_>
          0 2 2 3 -1.</_>
        <_>
          1 2 1 3 2.</_></rects>
      <tilted>0</tilted></_>
    <_>
      <rects>
        <_>
          0 2 2 2 -1.</_>
        <_>
          0 3 2 1 2.</_></rects>
      <tilted>0</tilted></_>
    <_>
      <rects>
        <_>
          0 2 4 8 -1.</_>
        <_>
          0 2 2 4 2.</_>
        <_>
          2 6 2 4 2.</_></rects>
      <tilted>0</tilted></_>
    <_>
      <rects>
        <_>
          0 2 4 10 -1.</_>
        <_>
          0 2 2 5 2.</_>
        <_>
          2 7 2 5 2.</_></rects>
      <tilted>0</tilted></_>
    <_>
      <rects>
        <_>
          0 2 8 2 -1.</_>
        <_>
          0 2 4 1 2.</_>
        <_>
          4 3 4 1 2.</_></rects>
      <tilted>0</tilted></_>
    <_>
      <rects>
        <_>
          0 2 12 2 -1.</_>
        <_>
          0 2 6 1 2.</_>
        <_>
          6 3 6 1 2.</_></rects>
      <tilted>0</tilted></_>
    <_>
      <rects>
        <_>
          0 2 11 18 -1.</_>
        <_>
          0 11 11 9 2.</_></rects>
      <tilted>0</tilted></_>
    <_>
      <rects>
        <_>
          0 3 2 6 -1.</_>
        <_>
          0 3 1 3 2.</_>
        <_>
          1 6 1 3 2.</_></rects>
      <tilted>0</tilted></_>
    <_>
      <rects>
        <_>
          0 3 2 4 -1.</_>
        <_>
          1 3 1 4 2.</_></rects>
      <tilted>0</tilted></_>
    <_>
      <rects>
        <_>
          0 3 2 12 -1.</_>
        <_>
          1 3 1 12 2.</_></rects>
      <tilted>0</tilted></_>
    <_>
      <rects>
        <_>
          0 3 2 15 -1.</_>
        <_>
          1 3 1 15 2.</_></rects>
      <tilted>0</tilted></_>
    <_>
      <rects>
        <_>
          0 3 2 2 -1.</_>
        <_>
          0 4 2 1 2.</_></rects>
      <tilted>0</tilted></_>
    <_>
      <rects>
        <_>
          0 3 3 2 -1.</_>
        <_>
          0 4 3 1 2.</_></rects>
      <tilted>0</tilted></_>
    <_>
      <rects>
        <_>
          0 4 2 6 -1.</_>
        <_>
          0 4 1 3 2.</_>
        <_>
          1 7 1 3 2.</_></rects>
      <tilted>0</tilted></_>
    <_>
      <rects>
        <_>
          0 4 2 4 -1.</_>
        <_>
          1 4 1 4 2.</_></rects>
      <tilted>0</tilted></_>
    <_>
      <rects>
        <_>
          0 4 2 6 -1.</_>
        <_>
          1 4 1 6 2.</_></rects>
      <tilted>0</tilted></_>
    <_>
      <rects>
        <_>
          0 4 2 12 -1.</_>
        <_>
          0 8 2 4 2.</_></rects>
      <tilted>0</tilted></_>
    <_>
      <rects>
        <_>
          0 4 6 6 -1.</_>
        <_>
          0 4 3 3 2.</_>
        <_>
          3 7 3 3 2.</_></rects>
      <tilted>0</tilted></_>
    <_>
      <rects>
        <_>
          0 4 8 2 -1.</_>
        <_>
          0 4 4 1 2.</_>
        <_>
          4 5 4 1 2.</_></rects>
      <tilted>0</tilted></_>
    <_>
      <rects>
        <_>
          0 4 10 10 -1.</_>
        <_>
          0 4 5 5 2.</_>
        <_>
          5 9 5 5 2.</_></rects>
      <tilted>0</tilted></_>
    <_>
      <rects>
        <_>
          0 4 12 10 -1.</_>
        <_>
          0 4 6 5 2.</_>
        <_>
          6 9 6 5 2.</_></rects>
      <tilted>0</tilted></_>
    <_>
      <rects>
        <_>
          0 4 11 2 -1.</_>
        <_>
          0 5 11 1 2.</_></rects>
      <tilted>0</tilted></_>
    <_>
      <rects>
        <_>
          0 5 2 1 -1.</_>
        <_>
          1 5 1 1 2.</_></rects>
      <tilted>0</tilted></_>
    <_>
      <rects>
        <_>
          0 5 2 14 -1.</_>
        <_>
          1 5 1 14 2.</_></rects>
      <tilted>0</tilted></_>
    <_>
      <rects>
        <_>
          0 5 4 1 -1.</_>
        <_>
          2 5 2 1 2.</_></rects>
      <tilted>0</tilted></_>
    <_>
      <rects>
        <_>
          0 5 4 2 -1.</_>
        <_>
          2 5 2 2 2.</_></rects>
      <tilted>0</tilted></_>
    <_>
      <rects>
        <_>
          0 5 4 6 -1.</_>
        <_>
          0 5 2 3 2.</_>
        <_>
          2 8 2 3 2.</_></rects>
      <tilted>0</tilted></_>
    <_>
      <rects>
        <_>
          0 5 4 10 -1.</_>
        <_>
          2 5 2 10 2.</_></rects>
      <tilted>0</tilted></_>
    <_>
      <rects>
        <_>
          0 5 3 2 -1.</_>
        <_>
          0 6 3 1 2.</_></rects>
      <tilted>0</tilted></_>
    <_>
      <rects>
        <_>
          0 5 4 2 -1.</_>
        <_>
          0 6 4 1 2.</_></rects>
      <tilted>0</tilted></_>
    <_>
      <rects>
        <_>
          0 5 10 6 -1.</_>
        <_>
          0 5 5 3 2.</_>
        <_>
          5 8 5 3 2.</_></rects>
      <tilted>0</tilted></_>
    <_>
      <rects>
        <_>
          0 5 10 2 -1.</_>
        <_>
          0 6 10 1 2.</_></rects>
      <tilted>0</tilted></_>
    <_>
      <rects>
        <_>
          0 5 11 14 -1.</_>
        <_>
          0 12 11 7 2.</_></rects>
      <tilted>0</tilted></_>
    <_>
      <rects>
        <_>
          0 6 2 6 -1.</_>
        <_>
          1 6 1 6 2.</_></rects>
      <tilted>0</tilted></_>
    <_>
      <rects>
        <_>
          0 6 2 13 -1.</_>
        <_>
          1 6 1 13 2.</_></rects>
      <tilted>0</tilted></_>
    <_>
      <rects>
        <_>
          0 6 4 1 -1.</_>
        <_>
          2 6 2 1 2.</_></rects>
      <tilted>0</tilted></_>
    <_>
      <rects>
        <_>
          0 6 2 2 -1.</_>
        <_>
          0 7 2 1 2.</_></rects>
      <tilted>0</tilted></_>
    <_>
      <rects>
        <_>
          0 6 6 1 -1.</_>
        <_>
          3 6 3 1 2.</_></rects>
      <tilted>0</tilted></_>
    <_>
      <rects>
        <_>
          0 6 3 2 -1.</_>
        <_>
          0 7 3 1 2.</_></rects>
      <tilted>0</tilted></_>
    <_>
      <rects>
        <_>
          0 6 12 1 -1.</_>
        <_>
          4 6 4 1 2.</_></rects>
      <tilted>0</tilted></_>
    <_>
      <rects>
        <_>
          0 6 12 5 -1.</_>
        <_>
          6 6 6 5 2.</_></rects>
      <tilted>0</tilted></_>
    <_>
      <rects>
        <_>
          0 6 11 14 -1.</_>
        <_>
          0 13 11 7 2.</_></rects>
      <tilted>0</tilted></_>
    <_>
      <rects>
        <_>
          0 7 2 1 -1.</_>
        <_>
          1 7 1 1 2.</_></rects>
      <tilted>0</tilted></_>
    <_>
      <rects>
        <_>
          0 7 2 2 -1.</_>
        <_>
          0 8 2 1 2.</_></rects>
      <tilted>0</tilted></_>
    <_>
      <rects>
        <_>
          0 7 4 7 -1.</_>
        <_>
          2 7 2 7 2.</_></rects>
      <tilted>0</tilted></_>
    <_>
      <rects>
        <_>
          0 7 3 2 -1.</_>
        <_>
          0 8 3 1 2.</_></rects>
      <tilted>0</tilted></_>
    <_>
      <rects>
        <_>
          0 7 6 11 -1.</_>
        <_>
          3 7 3 11 2.</_></rects>
      <tilted>0</tilted></_>
    <_>
      <rects>
        <_>
          0 7 12 2 -1.</_>
        <_>
          0 8 12 1 2.</_></rects>
      <tilted>0</tilted></_>
    <_>
      <rects>
        <_>
          0 8 2 2 -1.</_>
        <_>
          0 9 2 1 2.</_></rects>
      <tilted>0</tilted></_>
    <_>
      <rects>
        <_>
          0 8 4 2 -1.</_>
        <_>
          0 8 2 1 2.</_>
        <_>
          2 9 2 1 2.</_></rects>
      <tilted>0</tilted></_>
    <_>
      <rects>
        <_>
          0 8 4 12 -1.</_>
        <_>
          0 8 2 6 2.</_>
        <_>
          2 14 2 6 2.</_></rects>
      <tilted>0</tilted></_>
    <_>
      <rects>
        <_>
          0 8 9 11 -1.</_>
        <_>
          3 8 3 11 2.</_></rects>
      <tilted>0</tilted></_>
    <_>
      <rects>
        <_>
          0 8 4 6 -1.</_>
        <_>
          0 11 4 3 2.</_></rects>
      <tilted>0</tilted></_>
    <_>
      <rects>
        <_>
          0 8 8 12 -1.</_>
        <_>
          4 8 4 12 2.</_></rects>
      <tilted>0</tilted></_>
    <_>
      <rects>
        <_>
          0 8 12 12 -1.</_>
        <_>
          6 8 6 12 2.</_></rects>
      <tilted>0</tilted></_>
    <_>
      <rects>
        <_>
          0 8 10 6 -1.</_>
        <_>
          0 11 10 3 2.</_></rects>
      <tilted>0</tilted></_>
    <_>
      <rects>
        <_>
          0 9 1 2 -1.</_>
        <_>
          0 10 1 1 2.</_></rects>
      <tilted>0</tilted></_>
    <_>
      <rects>
        <_>
          0 9 2 10 -1.</_>
        <_>
          0 9 1 5 2.</_>
        <_>
          1 14 1 5 2.</_></rects>
      <tilted>0</tilted></_>
    <_>
      <rects>
        <_>
          0 9 4 10 -1.</_>
        <_>
          0 9 2 5 2.</_>
        <_>
          2 14 2 5 2.</_></rects>
      <tilted>0</tilted></_>
    <_>
      <rects>
        <_>
          0 9 6 2 -1.</_>
        <_>
          0 9 3 1 2.</_>
        <_>
          3 10 3 1 2.</_></rects>
      <tilted>0</tilted></_>
    <_>
      <rects>
        <_>
          0 9 3 4 -1.</_>
        <_>
          0 11 3 2 2.</_></rects>
      <tilted>0</tilted></_>
    <_>
      <rects>
        <_>
          0 9 8 4 -1.</_>
        <_>
          0 9 4 2 2.</_>
        <_>
          4 11 4 2 2.</_></rects>
      <tilted>0</tilted></_>
    <_>
      <rects>
        <_>
          0 10 1 2 -1.</_>
        <_>
          0 11 1 1 2.</_></rects>
      <tilted>0</tilted></_>
    <_>
      <rects>
        <_>
          0 10 1 6 -1.</_>
        <_>
          0 13 1 3 2.</_></rects>
      <tilted>0</tilted></_>
    <_>
      <rects>
        <_>
          0 10 2 2 -1.</_>
        <_>
          0 11 2 1 2.</_></rects>
      <tilted>0</tilted></_>
    <_>
      <rects>
        <_>
          0 10 4 2 -1.</_>
        <_>
          0 11 4 1 2.</_></rects>
      <tilted>0</tilted></_>
    <_>
      <rects>
        <_>
          0 10 4 4 -1.</_>
        <_>
          0 12 4 2 2.</_></rects>
      <tilted>0</tilted></_>
    <_>
      <rects>
        <_>
          0 10 12 8 -1.</_>
        <_>
          0 10 6 4 2.</_>
        <_>
          6 14 6 4 2.</_></rects>
      <tilted>0</tilted></_>
    <_>
      <rects>
        <_>
          0 10 8 4 -1.</_>
        <_>
          0 12 8 2 2.</_></rects>
      <tilted>0</tilted></_>
    <_>
      <rects>
        <_>
          0 11 1 2 -1.</_>
        <_>
          0 12 1 1 2.</_></rects>
      <tilted>0</tilted></_>
    <_>
      <rects>
        <_>
          0 11 2 2 -1.</_>
        <_>
          0 12 2 1 2.</_></rects>
      <tilted>0</tilted></_>
    <_>
      <rects>
        <_>
          0 11 9 6 -1.</_>
        <_>
          0 14 9 3 2.</_></rects>
      <tilted>0</tilted></_>
    <_>
      <rects>
        <_>
          0 12 1 2 -1.</_>
        <_>
          0 13 1 1 2.</_></rects>
      <tilted>0</tilted></_>
    <_>
      <rects>
        <_>
          0 12 1 4 -1.</_>
        <_>
          0 14 1 2 2.</_></rects>
      <tilted>0</tilted></_>
    <_>
      <rects>
        <_>
          0 12 2 6 -1.</_>
        <_>
          0 12 1 3 2.</_>
        <_>
          1 15 1 3 2.</_></rects>
      <tilted>0</tilted></_>
    <_>
      <rects>
        <_>
          0 12 6 4 -1.</_>
        <_>
          0 14 6 2 2.</_></rects>
      <tilted>0</tilted></_>
    <_>
      <rects>
        <_>
          0 12 12 7 -1.</_>
        <_>
          6 12 6 7 2.</_></rects>
      <tilted>0</tilted></_>
    <_>
      <rects>
        <_>
          0 13 1 2 -1.</_>
        <_>
          0 14 1 1 2.</_></rects>
      <tilted>0</tilted></_>
    <_>
      <rects>
        <_>
          0 13 2 4 -1.</_>
        <_>
          0 13 1 2 2.</_>
        <_>
          1 15 1 2 2.</_></rects>
      <tilted>0</tilted></_>
    <_>
      <rects>
        <_>
          0 13 10 4 -1.</_>
        <_>
          0 13 5 2 2.</_>
        <_>
          5 15 5 2 2.</_></rects>
      <tilted>0</tilted></_>
    <_>
      <rects>
        <_>
          0 14 1 2 -1.</_>
        <_>
          0 15 1 1 2.</_></rects>
      <tilted>0</tilted></_>
    <_>
      <rects>
        <_>
          0 14 1 3 -1.</_>
        <_>
          0 15 1 1 2.</_></rects>
      <tilted>0</tilted></_>
    <_>
      <rects>
        <_>
          0 14 2 3 -1.</_>
        <_>
          1 14 1 3 2.</_></rects>
      <tilted>0</tilted></_>
    <_>
      <rects>
        <_>
          0 14 1 6 -1.</_>
        <_>
          0 17 1 3 2.</_></rects>
      <tilted>0</tilted></_>
    <_>
      <rects>
        <_>
          0 14 12 5 -1.</_>
        <_>
          6 14 6 5 2.</_></rects>
      <tilted>0</tilted></_>
    <_>
      <rects>
        <_>
          0 14 7 2 -1.</_>
        <_>
          0 15 7 1 2.</_></rects>
      <tilted>0</tilted></_>
    <_>
      <rects>
        <_>
          0 15 1 2 -1.</_>
        <_>
          0 16 1 1 2.</_></rects>
      <tilted>0</tilted></_>
    <_>
      <rects>
        <_>
          0 15 2 2 -1.</_>
        <_>
          0 15 1 1 2.</_>
        <_>
          1 16 1 1 2.</_></rects>
      <tilted>0</tilted></_>
    <_>
      <rects>
        <_>
          0 15 2 5 -1.</_>
        <_>
          1 15 1 5 2.</_></rects>
      <tilted>0</tilted></_>
    <_>
      <rects>
        <_>
          0 15 2 2 -1.</_>
        <_>
          0 16 2 1 2.</_></rects>
      <tilted>0</tilted></_>
    <_>
      <rects>
        <_>
          0 15 6 2 -1.</_>
        <_>
          0 16 6 1 2.</_></rects>
      <tilted>0</tilted></_>
    <_>
      <rects>
        <_>
          0 16 1 2 -1.</_>
        <_>
          0 17 1 1 2.</_></rects>
      <tilted>0</tilted></_>
    <_>
      <rects>
        <_>
          0 16 2 2 -1.</_>
        <_>
          0 16 1 1 2.</_>
        <_>
          1 17 1 1 2.</_></rects>
      <tilted>0</tilted></_>
    <_>
      <rects>
        <_>
          0 16 1 4 -1.</_>
        <_>
          0 18 1 2 2.</_></rects>
      <tilted>0</tilted></_>
    <_>
      <rects>
        <_>
          0 16 4 3 -1.</_>
        <_>
          2 16 2 3 2.</_></rects>
      <tilted>0</tilted></_>
    <_>
      <rects>
        <_>
          0 16 10 1 -1.</_>
        <_>
          5 16 5 1 2.</_></rects>
      <tilted>0</tilted></_>
    <_>
      <rects>
        <_>
          0 16 12 4 -1.</_>
        <_>
          0 16 6 2 2.</_>
        <_>
          6 18 6 2 2.</_></rects>
      <tilted>0</tilted></_>
    <_>
      <rects>
        <_>
          0 16 12 3 -1.</_>
        <_>
          6 16 6 3 2.</_></rects>
      <tilted>0</tilted></_>
    <_>
      <rects>
        <_>
          0 16 11 2 -1.</_>
        <_>
          0 17 11 1 2.</_></rects>
      <tilted>0</tilted></_>
    <_>
      <rects>
        <_>
          0 16 12 4 -1.</_>
        <_>
          0 18 12 2 2.</_></rects>
      <tilted>0</tilted></_>
    <_>
      <rects>
        <_>
          0 17 1 2 -1.</_>
        <_>
          0 18 1 1 2.</_></rects>
      <tilted>0</tilted></_>
    <_>
      <rects>
        <_>
          0 17 4 1 -1.</_>
        <_>
          2 17 2 1 2.</_></rects>
      <tilted>0</tilted></_>
    <_>
      <rects>
        <_>
          0 17 9 3 -1.</_>
        <_>
          3 17 3 3 2.</_></rects>
      <tilted>0</tilted></_>
    <_>
      <rects>
        <_>
          0 17 10 2 -1.</_>
        <_>
          0 18 10 1 2.</_></rects>
      <tilted>0</tilted></_>
    <_>
      <rects>
        <_>
          0 17 12 2 -1.</_>
        <_>
          0 18 12 1 2.</_></rects>
      <tilted>0</tilted></_>
    <_>
      <rects>
        <_>
          0 18 1 2 -1.</_>
        <_>
          0 19 1 1 2.</_></rects>
      <tilted>0</tilted></_>
    <_>
      <rects>
        <_>
          0 18 4 2 -1.</_>
        <_>
          0 18 2 1 2.</_>
        <_>
          2 19 2 1 2.</_></rects>
      <tilted>0</tilted></_>
    <_>
      <rects>
        <_>
          0 18 9 1 -1.</_>
        <_>
          3 18 3 1 2.</_></rects>
      <tilted>0</tilted></_>
    <_>
      <rects>
        <_>
          0 18 8 2 -1.</_>
        <_>
          0 18 4 1 2.</_>
        <_>
          4 19 4 1 2.</_></rects>
      <tilted>0</tilted></_>
    <_>
      <rects>
        <_>
          0 18 12 2 -1.</_>
        <_>
          0 19 12 1 2.</_></rects>
      <tilted>0</tilted></_>
    <_>
      <rects>
        <_>
          0 19 2 1 -1.</_>
        <_>
          1 19 1 1 2.</_></rects>
      <tilted>0</tilted></_>
    <_>
      <rects>
        <_>
          1 0 1 4 -1.</_>
        <_>
          1 2 1 2 2.</_></rects>
      <tilted>0</tilted></_>
    <_>
      <rects>
        <_>
          1 0 2 4 -1.</_>
        <_>
          1 0 1 2 2.</_>
        <_>
          2 2 1 2 2.</_></rects>
      <tilted>0</tilted></_>
    <_>
      <rects>
        <_>
          1 0 4 4 -1.</_>
        <_>
          1 0 2 2 2.</_>
        <_>
          3 2 2 2 2.</_></rects>
      <tilted>0</tilted></_>
    <_>
      <rects>
        <_>
          1 0 6 1 -1.</_>
        <_>
          4 0 3 1 2.</_></rects>
      <tilted>0</tilted></_>
    <_>
      <rects>
        <_>
          1 0 6 4 -1.</_>
        <_>
          1 0 3 2 2.</_>
        <_>
          4 2 3 2 2.</_></rects>
      <tilted>0</tilted></_>
    <_>
      <rects>
        <_>
          1 0 6 8 -1.</_>
        <_>
          1 0 3 4 2.</_>
        <_>
          4 4 3 4 2.</_></rects>
      <tilted>0</tilted></_>
    <_>
      <rects>
        <_>
          1 0 8 2 -1.</_>
        <_>
          5 0 4 2 2.</_></rects>
      <tilted>0</tilted></_>
    <_>
      <rects>
        <_>
          1 0 8 4 -1.</_>
        <_>
          1 0 4 2 2.</_>
        <_>
          5 2 4 2 2.</_></rects>
      <tilted>0</tilted></_>
    <_>
      <rects>
        <_>
          1 0 8 18 -1.</_>
        <_>
          1 0 4 9 2.</_>
        <_>
          5 9 4 9 2.</_></rects>
      <tilted>0</tilted></_>
    <_>
      <rects>
        <_>
          1 0 5 2 -1.</_>
        <_>
          1 1 5 1 2.</_></rects>
      <tilted>0</tilted></_>
    <_>
      <rects>
        <_>
          1 0 5 16 -1.</_>
        <_>
          1 8 5 8 2.</_></rects>
      <tilted>0</tilted></_>
    <_>
      <rects>
        <_>
          1 0 10 18 -1.</_>
        <_>
          1 0 5 9 2.</_>
        <_>
          6 9 5 9 2.</_></rects>
      <tilted>0</tilted></_>
    <_>
      <rects>
        <_>
          1 0 5 20 -1.</_>
        <_>
          1 10 5 10 2.</_></rects>
      <tilted>0</tilted></_>
    <_>
      <rects>
        <_>
          1 0 9 3 -1.</_>
        <_>
          1 1 9 1 2.</_></rects>
      <tilted>0</tilted></_>
    <_>
      <rects>
        <_>
          1 0 10 2 -1.</_>
        <_>
          1 1 10 1 2.</_></rects>
      <tilted>0</tilted></_>
    <_>
      <rects>
        <_>
          1 1 10 2 -1.</_>
        <_>
          1 1 5 1 2.</_>
        <_>
          6 2 5 1 2.</_></rects>
      <tilted>0</tilted></_>
    <_>
      <rects>
        <_>
          1 1 10 18 -1.</_>
        <_>
          1 1 5 9 2.</_>
        <_>
          6 10 5 9 2.</_></rects>
      <tilted>0</tilted></_>
    <_>
      <rects>
        <_>
          1 1 10 2 -1.</_>
        <_>
          1 2 10 1 2.</_></rects>
      <tilted>0</tilted></_>
    <_>
      <rects>
        <_>
          1 1 11 2 -1.</_>
        <_>
          1 2 11 1 2.</_></rects>
      <tilted>0</tilted></_>
    <_>
      <rects>
        <_>
          1 2 2 3 -1.</_>
        <_>
          2 2 1 3 2.</_></rects>
      <tilted>0</tilted></_>
    <_>
      <rects>
        <_>
          1 2 3 4 -1.</_>
        <_>
          1 4 3 2 2.</_></rects>
      <tilted>0</tilted></_>
    <_>
      <rects>
        <_>
          1 2 10 8 -1.</_>
        <_>
          1 2 5 4 2.</_>
        <_>
          6 6 5 4 2.</_></rects>
      <tilted>0</tilted></_>
    <_>
      <rects>
        <_>
          1 2 7 2 -1.</_>
        <_>
          1 3 7 1 2.</_></rects>
      <tilted>0</tilted></_>
    <_>
      <rects>
        <_>
          1 2 11 4 -1.</_>
        <_>
          1 4 11 2 2.</_></rects>
      <tilted>0</tilted></_>
    <_>
      <rects>
        <_>
          1 2 11 14 -1.</_>
        <_>
          1 9 11 7 2.</_></rects>
      <tilted>0</tilted></_>
    <_>
      <rects>
        <_>
          1 3 3 1 -1.</_>
        <_>
          2 3 1 1 2.</_></rects>
      <tilted>0</tilted></_>
    <_>
      <rects>
        <_>
          1 3 2 5 -1.</_>
        <_>
          2 3 1 5 2.</_></rects>
      <tilted>0</tilted></_>
    <_>
      <rects>
        <_>
          1 3 3 2 -1.</_>
        <_>
          1 4 3 1 2.</_></rects>
      <tilted>0</tilted></_>
    <_>
      <rects>
        <_>
          1 3 9 1 -1.</_>
        <_>
          4 3 3 1 2.</_></rects>
      <tilted>0</tilted></_>
    <_>
      <rects>
        <_>
          1 3 8 6 -1.</_>
        <_>
          1 3 4 3 2.</_>
        <_>
          5 6 4 3 2.</_></rects>
      <tilted>0</tilted></_>
    <_>
      <rects>
        <_>
          1 3 6 2 -1.</_>
        <_>
          1 4 6 1 2.</_></rects>
      <tilted>0</tilted></_>
    <_>
      <rects>
        <_>
          1 3 9 2 -1.</_>
        <_>
          1 4 9 1 2.</_></rects>
      <tilted>0</tilted></_>
    <_>
      <rects>
        <_>
          1 3 11 2 -1.</_>
        <_>
          1 4 11 1 2.</_></rects>
      <tilted>0</tilted></_>
    <_>
      <rects>
        <_>
          1 4 1 2 -1.</_>
        <_>
          1 5 1 1 2.</_></rects>
      <tilted>0</tilted></_>
    <_>
      <rects>
        <_>
          1 4 2 2 -1.</_>
        <_>
          2 4 1 2 2.</_></rects>
      <tilted>0</tilted></_>
    <_>
      <rects>
        <_>
          1 4 4 16 -1.</_>
        <_>
          1 4 2 8 2.</_>
        <_>
          3 12 2 8 2.</_></rects>
      <tilted>0</tilted></_>
    <_>
      <rects>
        <_>
          1 4 6 4 -1.</_>
        <_>
          1 4 3 2 2.</_>
        <_>
          4 6 3 2 2.</_></rects>
      <tilted>0</tilted></_>
    <_>
      <rects>
        <_>
          1 4 8 14 -1.</_>
        <_>
          1 4 4 7 2.</_>
        <_>
          5 11 4 7 2.</_></rects>
      <tilted>0</tilted></_>
    <_>
      <rects>
        <_>
          1 4 5 2 -1.</_>
        <_>
          1 5 5 1 2.</_></rects>
      <tilted>0</tilted></_>
    <_>
      <rects>
        <_>
          1 4 9 2 -1.</_>
        <_>
          1 5 9 1 2.</_></rects>
      <tilted>0</tilted></_>
    <_>
      <rects>
        <_>
          1 5 2 2 -1.</_>
        <_>
          1 5 1 1 2.</_>
        <_>
          2 6 1 1 2.</_></rects>
      <tilted>0</tilted></_>
    <_>
      <rects>
        <_>
          1 5 1 6 -1.</_>
        <_>
          1 8 1 3 2.</_></rects>
      <tilted>0</tilted></_>
    <_>
      <rects>
        <_>
          1 5 2 6 -1.</_>
        <_>
          1 7 2 2 2.</_></rects>
      <tilted>0</tilted></_>
    <_>
      <rects>
        <_>
          1 5 10 4 -1.</_>
        <_>
          1 7 10 2 2.</_></rects>
      <tilted>0</tilted></_>
    <_>
      <rects>
        <_>
          1 6 4 12 -1.</_>
        <_>
          1 6 2 6 2.</_>
        <_>
          3 12 2 6 2.</_></rects>
      <tilted>0</tilted></_>
    <_>
      <rects>
        <_>
          1 6 6 1 -1.</_>
        <_>
          4 6 3 1 2.</_></rects>
      <tilted>0</tilted></_>
    <_>
      <rects>
        <_>
          1 6 11 2 -1.</_>
        <_>
          1 7 11 1 2.</_></rects>
      <tilted>0</tilted></_>
    <_>
      <rects>
        <_>
          1 7 1 6 -1.</_>
        <_>
          1 9 1 2 2.</_></rects>
      <tilted>0</tilted></_>
    <_>
      <rects>
        <_>
          1 7 6 12 -1.</_>
        <_>
          1 7 3 6 2.</_>
        <_>
          4 13 3 6 2.</_></rects>
      <tilted>0</tilted></_>
    <_>
      <rects>
        <_>
          1 7 4 4 -1.</_>
        <_>
          1 9 4 2 2.</_></rects>
      <tilted>0</tilted></_>
    <_>
      <rects>
        <_>
          1 7 8 4 -1.</_>
        <_>
          1 7 4 2 2.</_>
        <_>
          5 9 4 2 2.</_></rects>
      <tilted>0</tilted></_>
    <_>
      <rects>
        <_>
          1 7 8 12 -1.</_>
        <_>
          1 7 4 6 2.</_>
        <_>
          5 13 4 6 2.</_></rects>
      <tilted>0</tilted></_>
    <_>
      <rects>
        <_>
          1 7 8 4 -1.</_>
        <_>
          1 9 8 2 2.</_></rects>
      <tilted>0</tilted></_>
    <_>
      <rects>
        <_>
          1 8 4 6 -1.</_>
        <_>
          1 8 2 3 2.</_>
        <_>
          3 11 2 3 2.</_></rects>
      <tilted>0</tilted></_>
    <_>
      <rects>
        <_>
          1 8 5 3 -1.</_>
        <_>
          1 9 5 1 2.</_></rects>
      <tilted>0</tilted></_>
    <_>
      <rects>
        <_>
          1 8 10 4 -1.</_>
        <_>
          1 8 5 2 2.</_>
        <_>
          6 10 5 2 2.</_></rects>
      <tilted>0</tilted></_>
    <_>
      <rects>
        <_>
          1 8 10 9 -1.</_>
        <_>
          6 8 5 9 2.</_></rects>
      <tilted>0</tilted></_>
    <_>
      <rects>
        <_>
          1 8 10 2 -1.</_>
        <_>
          1 9 10 1 2.</_></rects>
      <tilted>0</tilted></_>
    <_>
      <rects>
        <_>
          1 8 11 2 -1.</_>
        <_>
          1 9 11 1 2.</_></rects>
      <tilted>0</tilted></_>
    <_>
      <rects>
        <_>
          1 9 2 4 -1.</_>
        <_>
          1 9 1 2 2.</_>
        <_>
          2 11 1 2 2.</_></rects>
      <tilted>0</tilted></_>
    <_>
      <rects>
        <_>
          1 9 3 2 -1.</_>
        <_>
          1 10 3 1 2.</_></rects>
      <tilted>0</tilted></_>
    <_>
      <rects>
        <_>
          1 9 6 8 -1.</_>
        <_>
          1 9 3 4 2.</_>
        <_>
          4 13 3 4 2.</_></rects>
      <tilted>0</tilted></_>
    <_>
      <rects>
        <_>
          1 10 2 4 -1.</_>
        <_>
          1 10 1 2 2.</_>
        <_>
          2 12 1 2 2.</_></rects>
      <tilted>0</tilted></_>
    <_>
      <rects>
        <_>
          1 10 2 10 -1.</_>
        <_>
          1 10 1 5 2.</_>
        <_>
          2 15 1 5 2.</_></rects>
      <tilted>0</tilted></_>
    <_>
      <rects>
        <_>
          1 10 4 2 -1.</_>
        <_>
          1 10 2 1 2.</_>
        <_>
          3 11 2 1 2.</_></rects>
      <tilted>0</tilted></_>
    <_>
      <rects>
        <_>
          1 10 4 6 -1.</_>
        <_>
          3 10 2 6 2.</_></rects>
      <tilted>0</tilted></_>
    <_>
      <rects>
        <_>
          1 10 6 2 -1.</_>
        <_>
          1 11 6 1 2.</_></rects>
      <tilted>0</tilted></_>
    <_>
      <rects>
        <_>
          1 10 11 2 -1.</_>
        <_>
          1 11 11 1 2.</_></rects>
      <tilted>0</tilted></_>
    <_>
      <rects>
        <_>
          1 10 11 10 -1.</_>
        <_>
          1 15 11 5 2.</_></rects>
      <tilted>0</tilted></_>
    <_>
      <rects>
        <_>
          1 11 2 4 -1.</_>
        <_>
          1 11 1 2 2.</_>
        <_>
          2 13 1 2 2.</_></rects>
      <tilted>0</tilted></_>
    <_>
      <rects>
        <_>
          1 11 4 6 -1.</_>
        <_>
          1 11 2 3 2.</_>
        <_>
          3 14 2 3 2.</_></rects>
      <tilted>0</tilted></_>
    <_>
      <rects>
        <_>
          1 11 11 4 -1.</_>
        <_>
          1 13 11 2 2.</_></rects>
      <tilted>0</tilted></_>
    <_>
      <rects>
        <_>
          1 12 6 1 -1.</_>
        <_>
          4 12 3 1 2.</_></rects>
      <tilted>0</tilted></_>
    <_>
      <rects>
        <_>
          1 13 1 3 -1.</_>
        <_>
          1 14 1 1 2.</_></rects>
      <tilted>0</tilted></_>
    <_>
      <rects>
        <_>
          1 14 6 2 -1.</_>
        <_>
          4 14 3 2 2.</_></rects>
      <tilted>0</tilted></_>
    <_>
      <rects>
        <_>
          1 14 6 4 -1.</_>
        <_>
          1 14 3 2 2.</_>
        <_>
          4 16 3 2 2.</_></rects>
      <tilted>0</tilted></_>
    <_>
      <rects>
        <_>
          1 16 6 2 -1.</_>
        <_>
          1 16 3 1 2.</_>
        <_>
          4 17 3 1 2.</_></rects>
      <tilted>0</tilted></_>
    <_>
      <rects>
        <_>
          1 16 8 3 -1.</_>
        <_>
          5 16 4 3 2.</_></rects>
      <tilted>0</tilted></_>
    <_>
      <rects>
        <_>
          1 16 10 2 -1.</_>
        <_>
          6 16 5 2 2.</_></rects>
      <tilted>0</tilted></_>
    <_>
      <rects>
        <_>
          1 17 1 2 -1.</_>
        <_>
          1 18 1 1 2.</_></rects>
      <tilted>0</tilted></_>
    <_>
      <rects>
        <_>
          1 17 8 2 -1.</_>
        <_>
          1 17 4 1 2.</_>
        <_>
          5 18 4 1 2.</_></rects>
      <tilted>0</tilted></_>
    <_>
      <rects>
        <_>
          1 17 8 2 -1.</_>
        <_>
          5 17 4 2 2.</_></rects>
      <tilted>0</tilted></_>
    <_>
      <rects>
        <_>
          1 17 10 2 -1.</_>
        <_>
          1 18 10 1 2.</_></rects>
      <tilted>0</tilted></_>
    <_>
      <rects>
        <_>
          1 18 8 2 -1.</_>
        <_>
          1 18 4 1 2.</_>
        <_>
          5 19 4 1 2.</_></rects>
      <tilted>0</tilted></_>
    <_>
      <rects>
        <_>
          1 18 10 2 -1.</_>
        <_>
          1 18 5 1 2.</_>
        <_>
          6 19 5 1 2.</_></rects>
      <tilted>0</tilted></_>
    <_>
      <rects>
        <_>
          1 18 9 2 -1.</_>
        <_>
          1 19 9 1 2.</_></rects>
      <tilted>0</tilted></_>
    <_>
      <rects>
        <_>
          1 18 10 2 -1.</_>
        <_>
          1 19 10 1 2.</_></rects>
      <tilted>0</tilted></_>
    <_>
      <rects>
        <_>
          1 18 11 2 -1.</_>
        <_>
          1 19 11 1 2.</_></rects>
      <tilted>0</tilted></_>
    <_>
      <rects>
        <_>
          1 19 2 1 -1.</_>
        <_>
          2 19 1 1 2.</_></rects>
      <tilted>0</tilted></_>
    <_>
      <rects>
        <_>
          2 0 2 4 -1.</_>
        <_>
          3 0 1 4 2.</_></rects>
      <tilted>0</tilted></_>
    <_>
      <rects>
        <_>
          2 0 4 4 -1.</_>
        <_>
          2 0 2 2 2.</_>
        <_>
          4 2 2 2 2.</_></rects>
      <tilted>0</tilted></_>
    <_>
      <rects>
        <_>
          2 0 9 1 -1.</_>
        <_>
          5 0 3 1 2.</_></rects>
      <tilted>0</tilted></_>
    <_>
      <rects>
        <_>
          2 0 6 2 -1.</_>
        <_>
          2 0 3 1 2.</_>
        <_>
          5 1 3 1 2.</_></rects>
      <tilted>0</tilted></_>
    <_>
      <rects>
        <_>
          2 0 6 4 -1.</_>
        <_>
          2 0 3 2 2.</_>
        <_>
          5 2 3 2 2.</_></rects>
      <tilted>0</tilted></_>
    <_>
      <rects>
        <_>
          2 0 6 18 -1.</_>
        <_>
          2 0 3 9 2.</_>
        <_>
          5 9 3 9 2.</_></rects>
      <tilted>0</tilted></_>
    <_>
      <rects>
        <_>
          2 0 6 20 -1.</_>
        <_>
          2 0 3 10 2.</_>
        <_>
          5 10 3 10 2.</_></rects>
      <tilted>0</tilted></_>
    <_>
      <rects>
        <_>
          2 0 4 2 -1.</_>
        <_>
          2 1 4 1 2.</_></rects>
      <tilted>0</tilted></_>
    <_>
      <rects>
        <_>
          2 0 8 4 -1.</_>
        <_>
          2 0 4 2 2.</_>
        <_>
          6 2 4 2 2.</_></rects>
      <tilted>0</tilted></_>
    <_>
      <rects>
        <_>
          2 0 10 2 -1.</_>
        <_>
          7 0 5 2 2.</_></rects>
      <tilted>0</tilted></_>
    <_>
      <rects>
        <_>
          2 0 10 6 -1.</_>
        <_>
          2 0 5 3 2.</_>
        <_>
          7 3 5 3 2.</_></rects>
      <tilted>0</tilted></_>
    <_>
      <rects>
        <_>
          2 0 10 14 -1.</_>
        <_>
          2 0 5 7 2.</_>
        <_>
          7 7 5 7 2.</_></rects>
      <tilted>0</tilted></_>
    <_>
      <rects>
        <_>
          2 0 10 19 -1.</_>
        <_>
          7 0 5 19 2.</_></rects>
      <tilted>0</tilted></_>
    <_>
      <rects>
        <_>
          2 0 10 20 -1.</_>
        <_>
          7 0 5 20 2.</_></rects>
      <tilted>0</tilted></_>
    <_>
      <rects>
        <_>
          2 1 1 2 -1.</_>
        <_>
          2 2 1 1 2.</_></rects>
      <tilted>0</tilted></_>
    <_>
      <rects>
        <_>
          2 1 2 2 -1.</_>
        <_>
          2 2 2 1 2.</_></rects>
      <tilted>0</tilted></_>
    <_>
      <rects>
        <_>
          2 1 4 7 -1.</_>
        <_>
          4 1 2 7 2.</_></rects>
      <tilted>0</tilted></_>
    <_>
      <rects>
        <_>
          2 1 3 2 -1.</_>
        <_>
          2 2 3 1 2.</_></rects>
      <tilted>0</tilted></_>
    <_>
      <rects>
        <_>
          2 1 3 14 -1.</_>
        <_>
          2 8 3 7 2.</_></rects>
      <tilted>0</tilted></_>
    <_>
      <rects>
        <_>
          2 1 6 16 -1.</_>
        <_>
          5 1 3 16 2.</_></rects>
      <tilted>0</tilted></_>
    <_>
      <rects>
        <_>
          2 1 8 2 -1.</_>
        <_>
          2 1 4 1 2.</_>
        <_>
          6 2 4 1 2.</_></rects>
      <tilted>0</tilted></_>
    <_>
      <rects>
        <_>
          2 1 8 18 -1.</_>
        <_>
          2 1 4 9 2.</_>
        <_>
          6 10 4 9 2.</_></rects>
      <tilted>0</tilted></_>
    <_>
      <rects>
        <_>
          2 1 8 2 -1.</_>
        <_>
          2 2 8 1 2.</_></rects>
      <tilted>0</tilted></_>
    <_>
      <rects>
        <_>
          2 2 2 2 -1.</_>
        <_>
          2 2 1 1 2.</_>
        <_>
          3 3 1 1 2.</_></rects>
      <tilted>0</tilted></_>
    <_>
      <rects>
        <_>
          2 2 4 2 -1.</_>
        <_>
          2 2 2 1 2.</_>
        <_>
          4 3 2 1 2.</_></rects>
      <tilted>0</tilted></_>
    <_>
      <rects>
        <_>
          2 2 4 6 -1.</_>
        <_>
          2 2 2 3 2.</_>
        <_>
          4 5 2 3 2.</_></rects>
      <tilted>0</tilted></_>
    <_>
      <rects>
        <_>
          2 2 8 7 -1.</_>
        <_>
          6 2 4 7 2.</_></rects>
      <tilted>0</tilted></_>
    <_>
      <rects>
        <_>
          2 2 8 11 -1.</_>
        <_>
          6 2 4 11 2.</_></rects>
      <tilted>0</tilted></_>
    <_>
      <rects>
        <_>
          2 2 9 4 -1.</_>
        <_>
          2 4 9 2 2.</_></rects>
      <tilted>0</tilted></_>
    <_>
      <rects>
        <_>
          2 3 2 1 -1.</_>
        <_>
          3 3 1 1 2.</_></rects>
      <tilted>0</tilted></_>
    <_>
      <rects>
        <_>
          2 3 1 6 -1.</_>
        <_>
          2 6 1 3 2.</_></rects>
      <tilted>0</tilted></_>
    <_>
      <rects>
        <_>
          2 3 2 6 -1.</_>
        <_>
          2 3 1 3 2.</_>
        <_>
          3 6 1 3 2.</_></rects>
      <tilted>0</tilted></_>
    <_>
      <rects>
        <_>
          2 3 6 6 -1.</_>
        <_>
          2 3 3 3 2.</_>
        <_>
          5 6 3 3 2.</_></rects>
      <tilted>0</tilted></_>
    <_>
      <rects>
        <_>
          2 3 8 4 -1.</_>
        <_>
          6 3 4 4 2.</_></rects>
      <tilted>0</tilted></_>
    <_>
      <rects>
        <_>
          2 3 9 6 -1.</_>
        <_>
          2 6 9 3 2.</_></rects>
      <tilted>0</tilted></_>
    <_>
      <rects>
        <_>
          2 4 2 2 -1.</_>
        <_>
          2 4 1 1 2.</_>
        <_>
          3 5 1 1 2.</_></rects>
      <tilted>0</tilted></_>
    <_>
      <rects>
        <_>
          2 4 2 3 -1.</_>
        <_>
          3 4 1 3 2.</_></rects>
      <tilted>0</tilted></_>
    <_>
      <rects>
        <_>
          2 4 1 6 -1.</_>
        <_>
          2 7 1 3 2.</_></rects>
      <tilted>0</tilted></_>
    <_>
      <rects>
        <_>
          2 4 10 3 -1.</_>
        <_>
          7 4 5 3 2.</_></rects>
      <tilted>0</tilted></_>
    <_>
      <rects>
        <_>
          2 4 5 6 -1.</_>
        <_>
          2 7 5 3 2.</_></rects>
      <tilted>0</tilted></_>
    <_>
      <rects>
        <_>
          2 4 9 2 -1.</_>
        <_>
          2 5 9 1 2.</_></rects>
      <tilted>0</tilted></_>
    <_>
      <rects>
        <_>
          2 4 10 6 -1.</_>
        <_>
          2 7 10 3 2.</_></rects>
      <tilted>0</tilted></_>
    <_>
      <rects>
        <_>
          2 4 10 16 -1.</_>
        <_>
          2 12 10 8 2.</_></rects>
      <tilted>0</tilted></_>
    <_>
      <rects>
        <_>
          2 5 1 2 -1.</_>
        <_>
          2 6 1 1 2.</_></rects>
      <tilted>0</tilted></_>
    <_>
      <rects>
        <_>
          2 5 2 3 -1.</_>
        <_>
          3 5 1 3 2.</_></rects>
      <tilted>0</tilted></_>
    <_>
      <rects>
        <_>
          2 5 8 4 -1.</_>
        <_>
          6 5 4 4 2.</_></rects>
      <tilted>0</tilted></_>
    <_>
      <rects>
        <_>
          2 5 9 12 -1.</_>
        <_>
          2 11 9 6 2.</_></rects>
      <tilted>0</tilted></_>
    <_>
      <rects>
        <_>
          2 6 2 4 -1.</_>
        <_>
          2 6 1 2 2.</_>
        <_>
          3 8 1 2 2.</_></rects>
      <tilted>0</tilted></_>
    <_>
      <rects>
        <_>
          2 6 4 1 -1.</_>
        <_>
          4 6 2 1 2.</_></rects>
      <tilted>0</tilted></_>
    <_>
      <rects>
        <_>
          2 6 6 2 -1.</_>
        <_>
          2 6 3 1 2.</_>
        <_>
          5 7 3 1 2.</_></rects>
      <tilted>0</tilted></_>
    <_>
      <rects>
        <_>
          2 6 5 14 -1.</_>
        <_>
          2 13 5 7 2.</_></rects>
      <tilted>0</tilted></_>
    <_>
      <rects>
        <_>
          2 7 2 3 -1.</_>
        <_>
          3 7 1 3 2.</_></rects>
      <tilted>0</tilted></_>
    <_>
      <rects>
        <_>
          2 7 2 8 -1.</_>
        <_>
          2 7 1 4 2.</_>
        <_>
          3 11 1 4 2.</_></rects>
      <tilted>0</tilted></_>
    <_>
      <rects>
        <_>
          2 7 5 8 -1.</_>
        <_>
          2 11 5 4 2.</_></rects>
      <tilted>0</tilted></_>
    <_>
      <rects>
        <_>
          2 7 10 4 -1.</_>
        <_>
          2 9 10 2 2.</_></rects>
      <tilted>0</tilted></_>
    <_>
      <rects>
        <_>
          2 9 2 2 -1.</_>
        <_>
          2 9 1 1 2.</_>
        <_>
          3 10 1 1 2.</_></rects>
      <tilted>0</tilted></_>
    <_>
      <rects>
        <_>
          2 9 2 4 -1.</_>
        <_>
          2 11 2 2 2.</_></rects>
      <tilted>0</tilted></_>
    <_>
      <rects>
        <_>
          2 9 2 6 -1.</_>
        <_>
          2 12 2 3 2.</_></rects>
      <tilted>0</tilted></_>
    <_>
      <rects>
        <_>
          2 9 4 10 -1.</_>
        <_>
          2 9 2 5 2.</_>
        <_>
          4 14 2 5 2.</_></rects>
      <tilted>0</tilted></_>
    <_>
      <rects>
        <_>
          2 9 10 4 -1.</_>
        <_>
          2 9 5 2 2.</_>
        <_>
          7 11 5 2 2.</_></rects>
      <tilted>0</tilted></_>
    <_>
      <rects>
        <_>
          2 10 2 4 -1.</_>
        <_>
          2 10 1 2 2.</_>
        <_>
          3 12 1 2 2.</_></rects>
      <tilted>0</tilted></_>
    <_>
      <rects>
        <_>
          2 10 2 2 -1.</_>
        <_>
          2 11 2 1 2.</_></rects>
      <tilted>0</tilted></_>
    <_>
      <rects>
        <_>
          2 10 4 10 -1.</_>
        <_>
          4 10 2 10 2.</_></rects>
      <tilted>0</tilted></_>
    <_>
      <rects>
        <_>
          2 10 8 2 -1.</_>
        <_>
          2 10 4 1 2.</_>
        <_>
          6 11 4 1 2.</_></rects>
      <tilted>0</tilted></_>
    <_>
      <rects>
        <_>
          2 10 10 10 -1.</_>
        <_>
          2 10 5 5 2.</_>
        <_>
          7 15 5 5 2.</_></rects>
      <tilted>0</tilted></_>
    <_>
      <rects>
        <_>
          2 11 4 4 -1.</_>
        <_>
          4 11 2 4 2.</_></rects>
      <tilted>0</tilted></_>
    <_>
      <rects>
        <_>
          2 11 6 2 -1.</_>
        <_>
          2 11 3 1 2.</_>
        <_>
          5 12 3 1 2.</_></rects>
      <tilted>0</tilted></_>
    <_>
      <rects>
        <_>
          2 12 2 2 -1.</_>
        <_>
          2 12 1 1 2.</_>
        <_>
          3 13 1 1 2.</_></rects>
      <tilted>0</tilted></_>
    <_>
      <rects>
        <_>
          2 12 4 2 -1.</_>
        <_>
          2 12 2 1 2.</_>
        <_>
          4 13 2 1 2.</_></rects>
      <tilted>0</tilted></_>
    <_>
      <rects>
        <_>
          2 12 6 6 -1.</_>
        <_>
          2 12 3 3 2.</_>
        <_>
          5 15 3 3 2.</_></rects>
      <tilted>0</tilted></_>
    <_>
      <rects>
        <_>
          2 12 10 7 -1.</_>
        <_>
          7 12 5 7 2.</_></rects>
      <tilted>0</tilted></_>
    <_>
      <rects>
        <_>
          2 12 6 8 -1.</_>
        <_>
          2 16 6 4 2.</_></rects>
      <tilted>0</tilted></_>
    <_>
      <rects>
        <_>
          2 12 9 4 -1.</_>
        <_>
          2 14 9 2 2.</_></rects>
      <tilted>0</tilted></_>
    <_>
      <rects>
        <_>
          2 13 2 2 -1.</_>
        <_>
          2 13 1 1 2.</_>
        <_>
          3 14 1 1 2.</_></rects>
      <tilted>0</tilted></_>
    <_>
      <rects>
        <_>
          2 14 4 1 -1.</_>
        <_>
          4 14 2 1 2.</_></rects>
      <tilted>0</tilted></_>
    <_>
      <rects>
        <_>
          2 16 2 3 -1.</_>
        <_>
          2 17 2 1 2.</_></rects>
      <tilted>0</tilted></_>
    <_>
      <rects>
        <_>
          2 16 4 4 -1.</_>
        <_>
          2 16 2 2 2.</_>
        <_>
          4 18 2 2 2.</_></rects>
      <tilted>0</tilted></_>
    <_>
      <rects>
        <_>
          2 17 2 1 -1.</_>
        <_>
          3 17 1 1 2.</_></rects>
      <tilted>0</tilted></_>
    <_>
      <rects>
        <_>
          2 18 2 2 -1.</_>
        <_>
          3 18 1 2 2.</_></rects>
      <tilted>0</tilted></_>
    <_>
      <rects>
        <_>
          2 18 3 2 -1.</_>
        <_>
          2 19 3 1 2.</_></rects>
      <tilted>0</tilted></_>
    <_>
      <rects>
        <_>
          2 18 6 2 -1.</_>
        <_>
          2 18 3 1 2.</_>
        <_>
          5 19 3 1 2.</_></rects>
      <tilted>0</tilted></_>
    <_>
      <rects>
        <_>
          2 18 9 2 -1.</_>
        <_>
          5 18 3 2 2.</_></rects>
      <tilted>0</tilted></_>
    <_>
      <rects>
        <_>
          2 18 8 2 -1.</_>
        <_>
          2 18 4 1 2.</_>
        <_>
          6 19 4 1 2.</_></rects>
      <tilted>0</tilted></_>
    <_>
      <rects>
        <_>
          2 18 10 2 -1.</_>
        <_>
          2 18 5 1 2.</_>
        <_>
          7 19 5 1 2.</_></rects>
      <tilted>0</tilted></_>
    <_>
      <rects>
        <_>
          2 19 2 1 -1.</_>
        <_>
          3 19 1 1 2.</_></rects>
      <tilted>0</tilted></_>
    <_>
      <rects>
        <_>
          3 0 2 2 -1.</_>
        <_>
          3 0 1 1 2.</_>
        <_>
          4 1 1 1 2.</_></rects>
      <tilted>0</tilted></_>
    <_>
      <rects>
        <_>
          3 0 2 4 -1.</_>
        <_>
          4 0 1 4 2.</_></rects>
      <tilted>0</tilted></_>
    <_>
      <rects>
        <_>
          3 0 4 1 -1.</_>
        <_>
          5 0 2 1 2.</_></rects>
      <tilted>0</tilted></_>
    <_>
      <rects>
        <_>
          3 0 2 3 -1.</_>
        <_>
          3 1 2 1 2.</_></rects>
      <tilted>0</tilted></_>
    <_>
      <rects>
        <_>
          3 0 9 1 -1.</_>
        <_>
          6 0 3 1 2.</_></rects>
      <tilted>0</tilted></_>
    <_>
      <rects>
        <_>
          3 0 6 4 -1.</_>
        <_>
          3 0 3 2 2.</_>
        <_>
          6 2 3 2 2.</_></rects>
      <tilted>0</tilted></_>
    <_>
      <rects>
        <_>
          3 0 4 2 -1.</_>
        <_>
          3 1 4 1 2.</_></rects>
      <tilted>0</tilted></_>
    <_>
      <rects>
        <_>
          3 0 8 16 -1.</_>
        <_>
          7 0 4 16 2.</_></rects>
      <tilted>0</tilted></_>
    <_>
      <rects>
        <_>
          3 0 6 2 -1.</_>
        <_>
          3 1 6 1 2.</_></rects>
      <tilted>0</tilted></_>
    <_>
      <rects>
        <_>
          3 1 1 10 -1.</_>
        <_>
          3 6 1 5 2.</_></rects>
      <tilted>0</tilted></_>
    <_>
      <rects>
        <_>
          3 1 6 2 -1.</_>
        <_>
          3 1 3 1 2.</_>
        <_>
          6 2 3 1 2.</_></rects>
      <tilted>0</tilted></_>
    <_>
      <rects>
        <_>
          3 1 8 4 -1.</_>
        <_>
          3 1 4 2 2.</_>
        <_>
          7 3 4 2 2.</_></rects>
      <tilted>0</tilted></_>
    <_>
      <rects>
        <_>
          3 2 6 10 -1.</_>
        <_>
          3 2 3 5 2.</_>
        <_>
          6 7 3 5 2.</_></rects>
      <tilted>0</tilted></_>
    <_>
      <rects>
        <_>
          3 3 1 10 -1.</_>
        <_>
          3 8 1 5 2.</_></rects>
      <tilted>0</tilted></_>
    <_>
      <rects>
        <_>
          3 3 6 6 -1.</_>
        <_>
          3 6 6 3 2.</_></rects>
      <tilted>0</tilted></_>
    <_>
      <rects>
        <_>
          3 4 2 2 -1.</_>
        <_>
          3 5 2 1 2.</_></rects>
      <tilted>0</tilted></_>
    <_>
      <rects>
        <_>
          3 4 8 2 -1.</_>
        <_>
          7 4 4 2 2.</_></rects>
      <tilted>0</tilted></_>
    <_>
      <rects>
        <_>
          3 5 1 14 -1.</_>
        <_>
          3 12 1 7 2.</_></rects>
      <tilted>0</tilted></_>
    <_>
      <rects>
        <_>
          3 5 2 2 -1.</_>
        <_>
          3 6 2 1 2.</_></rects>
      <tilted>0</tilted></_>
    <_>
      <rects>
        <_>
          3 5 4 3 -1.</_>
        <_>
          5 5 2 3 2.</_></rects>
      <tilted>0</tilted></_>
    <_>
      <rects>
        <_>
          3 5 4 4 -1.</_>
        <_>
          5 5 2 4 2.</_></rects>
      <tilted>0</tilted></_>
    <_>
      <rects>
        <_>
          3 5 2 8 -1.</_>
        <_>
          3 9 2 4 2.</_></rects>
      <tilted>0</tilted></_>
    <_>
      <rects>
        <_>
          3 5 4 10 -1.</_>
        <_>
          3 5 2 5 2.</_>
        <_>
          5 10 2 5 2.</_></rects>
      <tilted>0</tilted></_>
    <_>
      <rects>
        <_>
          3 5 6 14 -1.</_>
        <_>
          3 5 3 7 2.</_>
        <_>
          6 12 3 7 2.</_></rects>
      <tilted>0</tilted></_>
    <_>
      <rects>
        <_>
          3 5 8 4 -1.</_>
        <_>
          7 5 4 4 2.</_></rects>
      <tilted>0</tilted></_>
    <_>
      <rects>
        <_>
          3 5 8 14 -1.</_>
        <_>
          3 5 4 7 2.</_>
        <_>
          7 12 4 7 2.</_></rects>
      <tilted>0</tilted></_>
    <_>
      <rects>
        <_>
          3 5 5 2 -1.</_>
        <_>
          3 6 5 1 2.</_></rects>
      <tilted>0</tilted></_>
    <_>
      <rects>
        <_>
          3 6 2 2 -1.</_>
        <_>
          4 6 1 2 2.</_></rects>
      <tilted>0</tilted></_>
    <_>
      <rects>
        <_>
          3 6 4 4 -1.</_>
        <_>
          3 6 2 2 2.</_>
        <_>
          5 8 2 2 2.</_></rects>
      <tilted>0</tilted></_>
    <_>
      <rects>
        <_>
          3 6 6 5 -1.</_>
        <_>
          5 6 2 5 2.</_></rects>
      <tilted>0</tilted></_>
    <_>
      <rects>
        <_>
          3 6 4 12 -1.</_>
        <_>
          3 6 2 6 2.</_>
        <_>
          5 12 2 6 2.</_></rects>
      <tilted>0</tilted></_>
    <_>
      <rects>
        <_>
          3 6 5 2 -1.</_>
        <_>
          3 7 5 1 2.</_></rects>
      <tilted>0</tilted></_>
    <_>
      <rects>
        <_>
          3 7 1 2 -1.</_>
        <_>
          3 8 1 1 2.</_></rects>
      <tilted>0</tilted></_>
    <_>
      <rects>
        <_>
          3 7 2 2 -1.</_>
        <_>
          4 7 1 2 2.</_></rects>
      <tilted>0</tilted></_>
    <_>
      <rects>
        <_>
          3 7 4 2 -1.</_>
        <_>
          5 7 2 2 2.</_></rects>
      <tilted>0</tilted></_>
    <_>
      <rects>
        <_>
          3 7 4 3 -1.</_>
        <_>
          5 7 2 3 2.</_></rects>
      <tilted>0</tilted></_>
    <_>
      <rects>
        <_>
          3 7 6 1 -1.</_>
        <_>
          6 7 3 1 2.</_></rects>
      <tilted>0</tilted></_>
    <_>
      <rects>
        <_>
          3 7 6 2 -1.</_>
        <_>
          6 7 3 2 2.</_></rects>
      <tilted>0</tilted></_>
    <_>
      <rects>
        <_>
          3 7 6 10 -1.</_>
        <_>
          3 7 3 5 2.</_>
        <_>
          6 12 3 5 2.</_></rects>
      <tilted>0</tilted></_>
    <_>
      <rects>
        <_>
          3 7 8 6 -1.</_>
        <_>
          3 7 4 3 2.</_>
        <_>
          7 10 4 3 2.</_></rects>
      <tilted>0</tilted></_>
    <_>
      <rects>
        <_>
          3 8 2 2 -1.</_>
        <_>
          3 9 2 1 2.</_></rects>
      <tilted>0</tilted></_>
    <_>
      <rects>
        <_>
          3 8 6 2 -1.</_>
        <_>
          3 9 6 1 2.</_></rects>
      <tilted>0</tilted></_>
    <_>
      <rects>
        <_>
          3 8 9 2 -1.</_>
        <_>
          3 9 9 1 2.</_></rects>
      <tilted>0</tilted></_>
    <_>
      <rects>
        <_>
          3 10 4 10 -1.</_>
        <_>
          3 15 4 5 2.</_></rects>
      <tilted>0</tilted></_>
    <_>
      <rects>
        <_>
          3 11 2 2 -1.</_>
        <_>
          3 11 1 1 2.</_>
        <_>
          4 12 1 1 2.</_></rects>
      <tilted>0</tilted></_>
    <_>
      <rects>
        <_>
          3 11 4 3 -1.</_>
        <_>
          5 11 2 3 2.</_></rects>
      <tilted>0</tilted></_>
    <_>
      <rects>
        <_>
          3 12 2 2 -1.</_>
        <_>
          3 12 1 1 2.</_>
        <_>
          4 13 1 1 2.</_></rects>
      <tilted>0</tilted></_>
    <_>
      <rects>
        <_>
          3 12 4 2 -1.</_>
        <_>
          3 12 2 1 2.</_>
        <_>
          5 13 2 1 2.</_></rects>
      <tilted>0</tilted></_>
    <_>
      <rects>
        <_>
          3 12 8 7 -1.</_>
        <_>
          7 12 4 7 2.</_></rects>
      <tilted>0</tilted></_>
    <_>
      <rects>
        <_>
          3 12 9 8 -1.</_>
        <_>
          3 16 9 4 2.</_></rects>
      <tilted>0</tilted></_>
    <_>
      <rects>
        <_>
          3 13 2 2 -1.</_>
        <_>
          3 13 1 1 2.</_>
        <_>
          4 14 1 1 2.</_></rects>
      <tilted>0</tilted></_>
    <_>
      <rects>
        <_>
          3 14 2 3 -1.</_>
        <_>
          4 14 1 3 2.</_></rects>
      <tilted>0</tilted></_>
    <_>
      <rects>
        <_>
          3 15 4 1 -1.</_>
        <_>
          5 15 2 1 2.</_></rects>
      <tilted>0</tilted></_>
    <_>
      <rects>
        <_>
          3 15 6 4 -1.</_>
        <_>
          3 15 3 2 2.</_>
        <_>
          6 17 3 2 2.</_></rects>
      <tilted>0</tilted></_>
    <_>
      <rects>
        <_>
          3 15 8 2 -1.</_>
        <_>
          3 16 8 1 2.</_></rects>
      <tilted>0</tilted></_>
    <_>
      <rects>
        <_>
          3 16 6 2 -1.</_>
        <_>
          3 16 3 1 2.</_>
        <_>
          6 17 3 1 2.</_></rects>
      <tilted>0</tilted></_>
    <_>
      <rects>
        <_>
          3 16 9 2 -1.</_>
        <_>
          6 16 3 2 2.</_></rects>
      <tilted>0</tilted></_>
    <_>
      <rects>
        <_>
          3 16 4 4 -1.</_>
        <_>
          3 18 4 2 2.</_></rects>
      <tilted>0</tilted></_>
    <_>
      <rects>
        <_>
          3 16 7 2 -1.</_>
        <_>
          3 17 7 1 2.</_></rects>
      <tilted>0</tilted></_>
    <_>
      <rects>
        <_>
          3 17 6 2 -1.</_>
        <_>
          3 17 3 1 2.</_>
        <_>
          6 18 3 1 2.</_></rects>
      <tilted>0</tilted></_>
    <_>
      <rects>
        <_>
          3 18 2 1 -1.</_>
        <_>
          4 18 1 1 2.</_></rects>
      <tilted>0</tilted></_>
    <_>
      <rects>
        <_>
          3 18 6 2 -1.</_>
        <_>
          3 18 3 1 2.</_>
        <_>
          6 19 3 1 2.</_></rects>
      <tilted>0</tilted></_>
    <_>
      <rects>
        <_>
          3 18 8 2 -1.</_>
        <_>
          3 18 4 1 2.</_>
        <_>
          7 19 4 1 2.</_></rects>
      <tilted>0</tilted></_>
    <_>
      <rects>
        <_>
          3 19 3 1 -1.</_>
        <_>
          4 19 1 1 2.</_></rects>
      <tilted>0</tilted></_>
    <_>
      <rects>
        <_>
          4 0 2 2 -1.</_>
        <_>
          5 0 1 2 2.</_></rects>
      <tilted>0</tilted></_>
    <_>
      <rects>
        <_>
          4 0 2 6 -1.</_>
        <_>
          4 0 1 3 2.</_>
        <_>
          5 3 1 3 2.</_></rects>
      <tilted>0</tilted></_>
    <_>
      <rects>
        <_>
          4 0 4 2 -1.</_>
        <_>
          4 0 2 1 2.</_>
        <_>
          6 1 2 1 2.</_></rects>
      <tilted>0</tilted></_>
    <_>
      <rects>
        <_>
          4 0 4 8 -1.</_>
        <_>
          6 0 2 8 2.</_></rects>
      <tilted>0</tilted></_>
    <_>
      <rects>
        <_>
          4 0 4 10 -1.</_>
        <_>
          6 0 2 10 2.</_></rects>
      <tilted>0</tilted></_>
    <_>
      <rects>
        <_>
          4 0 4 20 -1.</_>
        <_>
          4 0 2 10 2.</_>
        <_>
          6 10 2 10 2.</_></rects>
      <tilted>0</tilted></_>
    <_>
      <rects>
        <_>
          4 0 4 12 -1.</_>
        <_>
          6 0 2 12 2.</_></rects>
      <tilted>0</tilted></_>
    <_>
      <rects>
        <_>
          4 0 3 2 -1.</_>
        <_>
          4 1 3 1 2.</_></rects>
      <tilted>0</tilted></_>
    <_>
      <rects>
        <_>
          4 0 4 3 -1.</_>
        <_>
          4 1 4 1 2.</_></rects>
      <tilted>0</tilted></_>
    <_>
      <rects>
        <_>
          4 0 8 2 -1.</_>
        <_>
          8 0 4 2 2.</_></rects>
      <tilted>0</tilted></_>
    <_>
      <rects>
        <_>
          4 0 8 4 -1.</_>
        <_>
          4 0 4 2 2.</_>
        <_>
          8 2 4 2 2.</_></rects>
      <tilted>0</tilted></_>
    <_>
      <rects>
        <_>
          4 0 8 3 -1.</_>
        <_>
          8 0 4 3 2.</_></rects>
      <tilted>0</tilted></_>
    <_>
      <rects>
        <_>
          4 0 8 20 -1.</_>
        <_>
          4 0 4 10 2.</_>
        <_>
          8 10 4 10 2.</_></rects>
      <tilted>0</tilted></_>
    <_>
      <rects>
        <_>
          4 0 8 19 -1.</_>
        <_>
          8 0 4 19 2.</_></rects>
      <tilted>0</tilted></_>
    <_>
      <rects>
        <_>
          4 0 7 2 -1.</_>
        <_>
          4 1 7 1 2.</_></rects>
      <tilted>0</tilted></_>
    <_>
      <rects>
        <_>
          4 1 1 2 -1.</_>
        <_>
          4 2 1 1 2.</_></rects>
      <tilted>0</tilted></_>
    <_>
      <rects>
        <_>
          4 1 2 2 -1.</_>
        <_>
          4 1 1 1 2.</_>
        <_>
          5 2 1 1 2.</_></rects>
      <tilted>0</tilted></_>
    <_>
      <rects>
        <_>
          4 1 2 15 -1.</_>
        <_>
          5 1 1 15 2.</_></rects>
      <tilted>0</tilted></_>
    <_>
      <rects>
        <_>
          4 1 2 14 -1.</_>
        <_>
          4 8 2 7 2.</_></rects>
      <tilted>0</tilted></_>
    <_>
      <rects>
        <_>
          4 2 4 2 -1.</_>
        <_>
          4 2 2 1 2.</_>
        <_>
          6 3 2 1 2.</_></rects>
      <tilted>0</tilted></_>
    <_>
      <rects>
        <_>
          4 2 4 4 -1.</_>
        <_>
          6 2 2 4 2.</_></rects>
      <tilted>0</tilted></_>
    <_>
      <rects>
        <_>
          4 3 2 8 -1.</_>
        <_>
          4 3 1 4 2.</_>
        <_>
          5 7 1 4 2.</_></rects>
      <tilted>0</tilted></_>
    <_>
      <rects>
        <_>
          4 3 3 4 -1.</_>
        <_>
          4 5 3 2 2.</_></rects>
      <tilted>0</tilted></_>
    <_>
      <rects>
        <_>
          4 3 5 2 -1.</_>
        <_>
          4 4 5 1 2.</_></rects>
      <tilted>0</tilted></_>
    <_>
      <rects>
        <_>
          4 3 8 6 -1.</_>
        <_>
          4 6 8 3 2.</_></rects>
      <tilted>0</tilted></_>
    <_>
      <rects>
        <_>
          4 4 2 6 -1.</_>
        <_>
          4 4 1 3 2.</_>
        <_>
          5 7 1 3 2.</_></rects>
      <tilted>0</tilted></_>
    <_>
      <rects>
        <_>
          4 4 2 16 -1.</_>
        <_>
          5 4 1 16 2.</_></rects>
      <tilted>0</tilted></_>
    <_>
      <rects>
        <_>
          4 4 4 5 -1.</_>
        <_>
          6 4 2 5 2.</_></rects>
      <tilted>0</tilted></_>
    <_>
      <rects>
        <_>
          4 4 3 2 -1.</_>
        <_>
          4 5 3 1 2.</_></rects>
      <tilted>0</tilted></_>
    <_>
      <rects>
        <_>
          4 4 6 6 -1.</_>
        <_>
          4 4 3 3 2.</_>
        <_>
          7 7 3 3 2.</_></rects>
      <tilted>0</tilted></_>
    <_>
      <rects>
        <_>
          4 4 8 2 -1.</_>
        <_>
          4 4 4 1 2.</_>
        <_>
          8 5 4 1 2.</_></rects>
      <tilted>0</tilted></_>
    <_>
      <rects>
        <_>
          4 5 2 6 -1.</_>
        <_>
          4 5 1 3 2.</_>
        <_>
          5 8 1 3 2.</_></rects>
      <tilted>0</tilted></_>
    <_>
      <rects>
        <_>
          4 5 4 6 -1.</_>
        <_>
          6 5 2 6 2.</_></rects>
      <tilted>0</tilted></_>
    <_>
      <rects>
        <_>
          4 6 2 6 -1.</_>
        <_>
          4 6 1 3 2.</_>
        <_>
          5 9 1 3 2.</_></rects>
      <tilted>0</tilted></_>
    <_>
      <rects>
        <_>
          4 6 4 2 -1.</_>
        <_>
          6 6 2 2 2.</_></rects>
      <tilted>0</tilted></_>
    <_>
      <rects>
        <_>
          4 6 3 2 -1.</_>
        <_>
          4 7 3 1 2.</_></rects>
      <tilted>0</tilted></_>
    <_>
      <rects>
        <_>
          4 7 2 1 -1.</_>
        <_>
          5 7 1 1 2.</_></rects>
      <tilted>0</tilted></_>
    <_>
      <rects>
        <_>
          4 7 1 3 -1.</_>
        <_>
          4 8 1 1 2.</_></rects>
      <tilted>0</tilted></_>
    <_>
      <rects>
        <_>
          4 7 4 2 -1.</_>
        <_>
          6 7 2 2 2.</_></rects>
      <tilted>0</tilted></_>
    <_>
      <rects>
        <_>
          4 7 3 2 -1.</_>
        <_>
          4 8 3 1 2.</_></rects>
      <tilted>0</tilted></_>
    <_>
      <rects>
        <_>
          4 7 5 10 -1.</_>
        <_>
          4 12 5 5 2.</_></rects>
      <tilted>0</tilted></_>
    <_>
      <rects>
        <_>
          4 8 2 1 -1.</_>
        <_>
          5 8 1 1 2.</_></rects>
      <tilted>0</tilted></_>
    <_>
      <rects>
        <_>
          4 8 2 2 -1.</_>
        <_>
          4 8 1 1 2.</_>
        <_>
          5 9 1 1 2.</_></rects>
      <tilted>0</tilted></_>
    <_>
      <rects>
        <_>
          4 8 8 4 -1.</_>
        <_>
          8 8 4 4 2.</_></rects>
      <tilted>0</tilted></_>
    <_>
      <rects>
        <_>
          4 8 8 10 -1.</_>
        <_>
          4 8 4 5 2.</_>
        <_>
          8 13 4 5 2.</_></rects>
      <tilted>0</tilted></_>
    <_>
      <rects>
        <_>
          4 8 8 9 -1.</_>
        <_>
          8 8 4 9 2.</_></rects>
      <tilted>0</tilted></_>
    <_>
      <rects>
        <_>
          4 9 8 2 -1.</_>
        <_>
          4 9 4 1 2.</_>
        <_>
          8 10 4 1 2.</_></rects>
      <tilted>0</tilted></_>
    <_>
      <rects>
        <_>
          4 9 5 6 -1.</_>
        <_>
          4 11 5 2 2.</_></rects>
      <tilted>0</tilted></_>
    <_>
      <rects>
        <_>
          4 11 2 2 -1.</_>
        <_>
          4 11 1 1 2.</_>
        <_>
          5 12 1 1 2.</_></rects>
      <tilted>0</tilted></_>
    <_>
      <rects>
        <_>
          4 11 3 4 -1.</_>
        <_>
          5 11 1 4 2.</_></rects>
      <tilted>0</tilted></_>
    <_>
      <rects>
        <_>
          4 11 2 8 -1.</_>
        <_>
          5 11 1 8 2.</_></rects>
      <tilted>0</tilted></_>
    <_>
      <rects>
        <_>
          4 11 6 4 -1.</_>
        <_>
          7 11 3 4 2.</_></rects>
      <tilted>0</tilted></_>
    <_>
      <rects>
        <_>
          4 11 8 6 -1.</_>
        <_>
          8 11 4 6 2.</_></rects>
      <tilted>0</tilted></_>
    <_>
      <rects>
        <_>
          4 11 7 4 -1.</_>
        <_>
          4 13 7 2 2.</_></rects>
      <tilted>0</tilted></_>
    <_>
      <rects>
        <_>
          4 12 2 2 -1.</_>
        <_>
          4 12 1 1 2.</_>
        <_>
          5 13 1 1 2.</_></rects>
      <tilted>0</tilted></_>
    <_>
      <rects>
        <_>
          4 12 2 2 -1.</_>
        <_>
          5 12 1 2 2.</_></rects>
      <tilted>0</tilted></_>
    <_>
      <rects>
        <_>
          4 12 1 4 -1.</_>
        <_>
          4 14 1 2 2.</_></rects>
      <tilted>0</tilted></_>
    <_>
      <rects>
        <_>
          4 12 2 3 -1.</_>
        <_>
          5 12 1 3 2.</_></rects>
      <tilted>0</tilted></_>
    <_>
      <rects>
        <_>
          4 12 2 7 -1.</_>
        <_>
          5 12 1 7 2.</_></rects>
      <tilted>0</tilted></_>
    <_>
      <rects>
        <_>
          4 12 4 4 -1.</_>
        <_>
          4 14 4 2 2.</_></rects>
      <tilted>0</tilted></_>
    <_>
      <rects>
        <_>
          4 12 5 8 -1.</_>
        <_>
          4 16 5 4 2.</_></rects>
      <tilted>0</tilted></_>
    <_>
      <rects>
        <_>
          4 13 2 4 -1.</_>
        <_>
          4 13 1 2 2.</_>
        <_>
          5 15 1 2 2.</_></rects>
      <tilted>0</tilted></_>
    <_>
      <rects>
        <_>
          4 13 5 3 -1.</_>
        <_>
          4 14 5 1 2.</_></rects>
      <tilted>0</tilted></_>
    <_>
      <rects>
        <_>
          4 14 2 2 -1.</_>
        <_>
          5 14 1 2 2.</_></rects>
      <tilted>0</tilted></_>
    <_>
      <rects>
        <_>
          4 14 1 6 -1.</_>
        <_>
          4 16 1 2 2.</_></rects>
      <tilted>0</tilted></_>
    <_>
      <rects>
        <_>
          4 15 4 2 -1.</_>
        <_>
          4 15 2 1 2.</_>
        <_>
          6 16 2 1 2.</_></rects>
      <tilted>0</tilted></_>
    <_>
      <rects>
        <_>
          4 16 2 1 -1.</_>
        <_>
          5 16 1 1 2.</_></rects>
      <tilted>0</tilted></_>
    <_>
      <rects>
        <_>
          4 16 2 4 -1.</_>
        <_>
          5 16 1 4 2.</_></rects>
      <tilted>0</tilted></_>
    <_>
      <rects>
        <_>
          4 16 3 4 -1.</_>
        <_>
          4 18 3 2 2.</_></rects>
      <tilted>0</tilted></_>
    <_>
      <rects>
        <_>
          4 16 4 4 -1.</_>
        <_>
          4 18 4 2 2.</_></rects>
      <tilted>0</tilted></_>
    <_>
      <rects>
        <_>
          4 16 5 4 -1.</_>
        <_>
          4 18 5 2 2.</_></rects>
      <tilted>0</tilted></_>
    <_>
      <rects>
        <_>
          4 17 6 1 -1.</_>
        <_>
          7 17 3 1 2.</_></rects>
      <tilted>0</tilted></_>
    <_>
      <rects>
        <_>
          4 18 2 2 -1.</_>
        <_>
          4 19 2 1 2.</_></rects>
      <tilted>0</tilted></_>
    <_>
      <rects>
        <_>
          4 18 6 2 -1.</_>
        <_>
          4 18 3 1 2.</_>
        <_>
          7 19 3 1 2.</_></rects>
      <tilted>0</tilted></_>
    <_>
      <rects>
        <_>
          4 19 3 1 -1.</_>
        <_>
          5 19 1 1 2.</_></rects>
      <tilted>0</tilted></_>
    <_>
      <rects>
        <_>
          5 0 2 6 -1.</_>
        <_>
          5 0 1 3 2.</_>
        <_>
          6 3 1 3 2.</_></rects>
      <tilted>0</tilted></_>
    <_>
      <rects>
        <_>
          5 0 2 18 -1.</_>
        <_>
          6 0 1 18 2.</_></rects>
      <tilted>0</tilted></_>
    <_>
      <rects>
        <_>
          5 0 4 2 -1.</_>
        <_>
          5 0 2 1 2.</_>
        <_>
          7 1 2 1 2.</_></rects>
      <tilted>0</tilted></_>
    <_>
      <rects>
        <_>
          5 0 6 1 -1.</_>
        <_>
          8 0 3 1 2.</_></rects>
      <tilted>0</tilted></_>
    <_>
      <rects>
        <_>
          5 0 6 2 -1.</_>
        <_>
          8 0 3 2 2.</_></rects>
      <tilted>0</tilted></_>
    <_>
      <rects>
        <_>
          5 0 6 4 -1.</_>
        <_>
          5 0 3 2 2.</_>
        <_>
          8 2 3 2 2.</_></rects>
      <tilted>0</tilted></_>
    <_>
      <rects>
        <_>
          5 1 2 6 -1.</_>
        <_>
          6 1 1 6 2.</_></rects>
      <tilted>0</tilted></_>
    <_>
      <rects>
        <_>
          5 1 1 16 -1.</_>
        <_>
          5 9 1 8 2.</_></rects>
      <tilted>0</tilted></_>
    <_>
      <rects>
        <_>
          5 1 2 9 -1.</_>
        <_>
          5 4 2 3 2.</_></rects>
      <tilted>0</tilted></_>
    <_>
      <rects>
        <_>
          5 1 6 18 -1.</_>
        <_>
          5 10 6 9 2.</_></rects>
      <tilted>0</tilted></_>
    <_>
      <rects>
        <_>
          5 2 2 2 -1.</_>
        <_>
          5 2 1 1 2.</_>
        <_>
          6 3 1 1 2.</_></rects>
      <tilted>0</tilted></_>
    <_>
      <rects>
        <_>
          5 2 2 7 -1.</_>
        <_>
          6 2 1 7 2.</_></rects>
      <tilted>0</tilted></_>
    <_>
      <rects>
        <_>
          5 3 1 2 -1.</_>
        <_>
          5 4 1 1 2.</_></rects>
      <tilted>0</tilted></_>
    <_>
      <rects>
        <_>
          5 3 2 10 -1.</_>
        <_>
          5 3 1 5 2.</_>
        <_>
          6 8 1 5 2.</_></rects>
      <tilted>0</tilted></_>
    <_>
      <rects>
        <_>
          5 3 6 8 -1.</_>
        <_>
          5 3 3 4 2.</_>
        <_>
          8 7 3 4 2.</_></rects>
      <tilted>0</tilted></_>
    <_>
      <rects>
        <_>
          5 4 1 2 -1.</_>
        <_>
          5 5 1 1 2.</_></rects>
      <tilted>0</tilted></_>
    <_>
      <rects>
        <_>
          5 4 2 4 -1.</_>
        <_>
          6 4 1 4 2.</_></rects>
      <tilted>0</tilted></_>
    <_>
      <rects>
        <_>
          5 4 2 15 -1.</_>
        <_>
          6 4 1 15 2.</_></rects>
      <tilted>0</tilted></_>
    <_>
      <rects>
        <_>
          5 6 2 2 -1.</_>
        <_>
          6 6 1 2 2.</_></rects>
      <tilted>0</tilted></_>
    <_>
      <rects>
        <_>
          5 6 1 4 -1.</_>
        <_>
          5 8 1 2 2.</_></rects>
      <tilted>0</tilted></_>
    <_>
      <rects>
        <_>
          5 6 4 2 -1.</_>
        <_>
          5 6 2 1 2.</_>
        <_>
          7 7 2 1 2.</_></rects>
      <tilted>0</tilted></_>
    <_>
      <rects>
        <_>
          5 6 6 14 -1.</_>
        <_>
          5 6 3 7 2.</_>
        <_>
          8 13 3 7 2.</_></rects>
      <tilted>0</tilted></_>
    <_>
      <rects>
        <_>
          5 7 2 1 -1.</_>
        <_>
          6 7 1 1 2.</_></rects>
      <tilted>0</tilted></_>
    <_>
      <rects>
        <_>
          5 7 4 4 -1.</_>
        <_>
          5 7 2 2 2.</_>
        <_>
          7 9 2 2 2.</_></rects>
      <tilted>0</tilted></_>
    <_>
      <rects>
        <_>
          5 7 6 1 -1.</_>
        <_>
          8 7 3 1 2.</_></rects>
      <tilted>0</tilted></_>
    <_>
      <rects>
        <_>
          5 8 2 2 -1.</_>
        <_>
          5 8 1 1 2.</_>
        <_>
          6 9 1 1 2.</_></rects>
      <tilted>0</tilted></_>
    <_>
      <rects>
        <_>
          5 8 2 4 -1.</_>
        <_>
          5 8 1 2 2.</_>
        <_>
          6 10 1 2 2.</_></rects>
      <tilted>0</tilted></_>
    <_>
      <rects>
        <_>
          5 8 1 6 -1.</_>
        <_>
          5 11 1 3 2.</_></rects>
      <tilted>0</tilted></_>
    <_>
      <rects>
        <_>
          5 8 2 3 -1.</_>
        <_>
          5 9 2 1 2.</_></rects>
      <tilted>0</tilted></_>
    <_>
      <rects>
        <_>
          5 8 2 8 -1.</_>
        <_>
          5 12 2 4 2.</_></rects>
      <tilted>0</tilted></_>
    <_>
      <rects>
        <_>
          5 9 2 2 -1.</_>
        <_>
          5 9 1 1 2.</_>
        <_>
          6 10 1 1 2.</_></rects>
      <tilted>0</tilted></_>
    <_>
      <rects>
        <_>
          5 9 2 5 -1.</_>
        <_>
          6 9 1 5 2.</_></rects>
      <tilted>0</tilted></_>
    <_>
      <rects>
        <_>
          5 9 7 4 -1.</_>
        <_>
          5 11 7 2 2.</_></rects>
      <tilted>0</tilted></_>
    <_>
      <rects>
        <_>
          5 10 1 3 -1.</_>
        <_>
          5 11 1 1 2.</_></rects>
      <tilted>0</tilted></_>
    <_>
      <rects>
        <_>
          5 10 2 2 -1.</_>
        <_>
          5 11 2 1 2.</_></rects>
      <tilted>0</tilted></_>
    <_>
      <rects>
        <_>
          5 11 1 2 -1.</_>
        <_>
          5 12 1 1 2.</_></rects>
      <tilted>0</tilted></_>
    <_>
      <rects>
        <_>
          5 11 2 3 -1.</_>
        <_>
          6 11 1 3 2.</_></rects>
      <tilted>0</tilted></_>
    <_>
      <rects>
        <_>
          5 12 1 2 -1.</_>
        <_>
          5 13 1 1 2.</_></rects>
      <tilted>0</tilted></_>
    <_>
      <rects>
        <_>
          5 12 2 2 -1.</_>
        <_>
          5 12 1 1 2.</_>
        <_>
          6 13 1 1 2.</_></rects>
      <tilted>0</tilted></_>
    <_>
      <rects>
        <_>
          5 12 2 4 -1.</_>
        <_>
          6 12 1 4 2.</_></rects>
      <tilted>0</tilted></_>
    <_>
      <rects>
        <_>
          5 12 2 2 -1.</_>
        <_>
          5 13 2 1 2.</_></rects>
      <tilted>0</tilted></_>
    <_>
      <rects>
        <_>
          5 12 4 2 -1.</_>
        <_>
          5 12 2 1 2.</_>
        <_>
          7 13 2 1 2.</_></rects>
      <tilted>0</tilted></_>
    <_>
      <rects>
        <_>
          5 12 2 4 -1.</_>
        <_>
          5 14 2 2 2.</_></rects>
      <tilted>0</tilted></_>
    <_>
      <rects>
        <_>
          5 12 4 3 -1.</_>
        <_>
          7 12 2 3 2.</_></rects>
      <tilted>0</tilted></_>
    <_>
      <rects>
        <_>
          5 13 2 2 -1.</_>
        <_>
          5 13 1 1 2.</_>
        <_>
          6 14 1 1 2.</_></rects>
      <tilted>0</tilted></_>
    <_>
      <rects>
        <_>
          5 13 2 6 -1.</_>
        <_>
          6 13 1 6 2.</_></rects>
      <tilted>0</tilted></_>
    <_>
      <rects>
        <_>
          5 13 4 2 -1.</_>
        <_>
          5 13 2 1 2.</_>
        <_>
          7 14 2 1 2.</_></rects>
      <tilted>0</tilted></_>
    <_>
      <rects>
        <_>
          5 13 4 3 -1.</_>
        <_>
          7 13 2 3 2.</_></rects>
      <tilted>0</tilted></_>
    <_>
      <rects>
        <_>
          5 13 4 6 -1.</_>
        <_>
          7 13 2 6 2.</_></rects>
      <tilted>0</tilted></_>
    <_>
      <rects>
        <_>
          5 13 7 4 -1.</_>
        <_>
          5 15 7 2 2.</_></rects>
      <tilted>0</tilted></_>
    <_>
      <rects>
        <_>
          5 14 3 6 -1.</_>
        <_>
          5 16 3 2 2.</_></rects>
      <tilted>0</tilted></_>
    <_>
      <rects>
        <_>
          5 15 2 2 -1.</_>
        <_>
          5 16 2 1 2.</_></rects>
      <tilted>0</tilted></_>
    <_>
      <rects>
        <_>
          5 16 4 2 -1.</_>
        <_>
          5 16 2 1 2.</_>
        <_>
          7 17 2 1 2.</_></rects>
      <tilted>0</tilted></_>
    <_>
      <rects>
        <_>
          5 17 2 2 -1.</_>
        <_>
          5 17 1 1 2.</_>
        <_>
          6 18 1 1 2.</_></rects>
      <tilted>0</tilted></_>
    <_>
      <rects>
        <_>
          5 18 2 2 -1.</_>
        <_>
          5 18 1 1 2.</_>
        <_>
          6 19 1 1 2.</_></rects>
      <tilted>0</tilted></_>
    <_>
      <rects>
        <_>
          5 18 6 2 -1.</_>
        <_>
          5 18 3 1 2.</_>
        <_>
          8 19 3 1 2.</_></rects>
      <tilted>0</tilted></_>
    <_>
      <rects>
        <_>
          5 18 7 2 -1.</_>
        <_>
          5 19 7 1 2.</_></rects>
      <tilted>0</tilted></_>
    <_>
      <rects>
        <_>
          5 19 3 1 -1.</_>
        <_>
          6 19 1 1 2.</_></rects>
      <tilted>0</tilted></_>
    <_>
      <rects>
        <_>
          6 0 1 2 -1.</_>
        <_>
          6 1 1 1 2.</_></rects>
      <tilted>0</tilted></_>
    <_>
      <rects>
        <_>
          6 0 2 8 -1.</_>
        <_>
          6 0 1 4 2.</_>
        <_>
          7 4 1 4 2.</_></rects>
      <tilted>0</tilted></_>
    <_>
      <rects>
        <_>
          6 0 6 1 -1.</_>
        <_>
          8 0 2 1 2.</_></rects>
      <tilted>0</tilted></_>
    <_>
      <rects>
        <_>
          6 0 2 16 -1.</_>
        <_>
          6 8 2 8 2.</_></rects>
      <tilted>0</tilted></_>
    <_>
      <rects>
        <_>
          6 0 6 4 -1.</_>
        <_>
          9 0 3 4 2.</_></rects>
      <tilted>0</tilted></_>
    <_>
      <rects>
        <_>
          6 0 4 2 -1.</_>
        <_>
          6 1 4 1 2.</_></rects>
      <tilted>0</tilted></_>
    <_>
      <rects>
        <_>
          6 0 5 2 -1.</_>
        <_>
          6 1 5 1 2.</_></rects>
      <tilted>0</tilted></_>
    <_>
      <rects>
        <_>
          6 1 2 1 -1.</_>
        <_>
          7 1 1 1 2.</_></rects>
      <tilted>0</tilted></_>
    <_>
      <rects>
        <_>
          6 1 2 3 -1.</_>
        <_>
          7 1 1 3 2.</_></rects>
      <tilted>0</tilted></_>
    <_>
      <rects>
        <_>
          6 2 2 5 -1.</_>
        <_>
          7 2 1 5 2.</_></rects>
      <tilted>0</tilted></_>
    <_>
      <rects>
        <_>
          6 2 3 18 -1.</_>
        <_>
          7 2 1 18 2.</_></rects>
      <tilted>0</tilted></_>
    <_>
      <rects>
        <_>
          6 3 6 9 -1.</_>
        <_>
          9 3 3 9 2.</_></rects>
      <tilted>0</tilted></_>
    <_>
      <rects>
        <_>
          6 3 6 12 -1.</_>
        <_>
          9 3 3 12 2.</_></rects>
      <tilted>0</tilted></_>
    <_>
      <rects>
        <_>
          6 3 6 2 -1.</_>
        <_>
          6 4 6 1 2.</_></rects>
      <tilted>0</tilted></_>
    <_>
      <rects>
        <_>
          6 4 2 12 -1.</_>
        <_>
          6 4 1 6 2.</_>
        <_>
          7 10 1 6 2.</_></rects>
      <tilted>0</tilted></_>
    <_>
      <rects>
        <_>
          6 4 6 1 -1.</_>
        <_>
          9 4 3 1 2.</_></rects>
      <tilted>0</tilted></_>
    <_>
      <rects>
        <_>
          6 5 2 2 -1.</_>
        <_>
          6 6 2 1 2.</_></rects>
      <tilted>0</tilted></_>
    <_>
      <rects>
        <_>
          6 5 4 14 -1.</_>
        <_>
          6 12 4 7 2.</_></rects>
      <tilted>0</tilted></_>
    <_>
      <rects>
        <_>
          6 6 1 2 -1.</_>
        <_>
          6 7 1 1 2.</_></rects>
      <tilted>0</tilted></_>
    <_>
      <rects>
        <_>
          6 6 2 2 -1.</_>
        <_>
          6 6 1 1 2.</_>
        <_>
          7 7 1 1 2.</_></rects>
      <tilted>0</tilted></_>
    <_>
      <rects>
        <_>
          6 6 2 2 -1.</_>
        <_>
          7 6 1 2 2.</_></rects>
      <tilted>0</tilted></_>
    <_>
      <rects>
        <_>
          6 6 2 6 -1.</_>
        <_>
          6 9 2 3 2.</_></rects>
      <tilted>0</tilted></_>
    <_>
      <rects>
        <_>
          6 6 4 12 -1.</_>
        <_>
          6 6 2 6 2.</_>
        <_>
          8 12 2 6 2.</_></rects>
      <tilted>0</tilted></_>
    <_>
      <rects>
        <_>
          6 7 2 1 -1.</_>
        <_>
          7 7 1 1 2.</_></rects>
      <tilted>0</tilted></_>
    <_>
      <rects>
        <_>
          6 7 2 8 -1.</_>
        <_>
          6 7 1 4 2.</_>
        <_>
          7 11 1 4 2.</_></rects>
      <tilted>0</tilted></_>
    <_>
      <rects>
        <_>
          6 7 6 3 -1.</_>
        <_>
          9 7 3 3 2.</_></rects>
      <tilted>0</tilted></_>
    <_>
      <rects>
        <_>
          6 8 2 5 -1.</_>
        <_>
          7 8 1 5 2.</_></rects>
      <tilted>0</tilted></_>
    <_>
      <rects>
        <_>
          6 8 2 12 -1.</_>
        <_>
          6 8 1 6 2.</_>
        <_>
          7 14 1 6 2.</_></rects>
      <tilted>0</tilted></_>
    <_>
      <rects>
        <_>
          6 8 6 2 -1.</_>
        <_>
          6 8 3 1 2.</_>
        <_>
          9 9 3 1 2.</_></rects>
      <tilted>0</tilted></_>
    <_>
      <rects>
        <_>
          6 9 2 2 -1.</_>
        <_>
          6 9 1 1 2.</_>
        <_>
          7 10 1 1 2.</_></rects>
      <tilted>0</tilted></_>
    <_>
      <rects>
        <_>
          6 9 2 11 -1.</_>
        <_>
          7 9 1 11 2.</_></rects>
      <tilted>0</tilted></_>
    <_>
      <rects>
        <_>
          6 9 2 3 -1.</_>
        <_>
          6 10 2 1 2.</_></rects>
      <tilted>0</tilted></_>
    <_>
      <rects>
        <_>
          6 10 2 2 -1.</_>
        <_>
          6 10 1 1 2.</_>
        <_>
          7 11 1 1 2.</_></rects>
      <tilted>0</tilted></_>
    <_>
      <rects>
        <_>
          6 10 4 5 -1.</_>
        <_>
          8 10 2 5 2.</_></rects>
      <tilted>0</tilted></_>
    <_>
      <rects>
        <_>
          6 10 6 7 -1.</_>
        <_>
          8 10 2 7 2.</_></rects>
      <tilted>0</tilted></_>
    <_>
      <rects>
        <_>
          6 11 4 4 -1.</_>
        <_>
          6 11 2 2 2.</_>
        <_>
          8 13 2 2 2.</_></rects>
      <tilted>0</tilted></_>
    <_>
      <rects>
        <_>
          6 11 4 4 -1.</_>
        <_>
          8 11 2 4 2.</_></rects>
      <tilted>0</tilted></_>
    <_>
      <rects>
        <_>
          6 11 6 4 -1.</_>
        <_>
          8 11 2 4 2.</_></rects>
      <tilted>0</tilted></_>
    <_>
      <rects>
        <_>
          6 12 2 2 -1.</_>
        <_>
          6 12 1 1 2.</_>
        <_>
          7 13 1 1 2.</_></rects>
      <tilted>0</tilted></_>
    <_>
      <rects>
        <_>
          6 13 2 2 -1.</_>
        <_>
          7 13 1 2 2.</_></rects>
      <tilted>0</tilted></_>
    <_>
      <rects>
        <_>
          6 13 2 3 -1.</_>
        <_>
          7 13 1 3 2.</_></rects>
      <tilted>0</tilted></_>
    <_>
      <rects>
        <_>
          6 13 6 1 -1.</_>
        <_>
          9 13 3 1 2.</_></rects>
      <tilted>0</tilted></_>
    <_>
      <rects>
        <_>
          6 14 2 3 -1.</_>
        <_>
          7 14 1 3 2.</_></rects>
      <tilted>0</tilted></_>
    <_>
      <rects>
        <_>
          6 15 6 2 -1.</_>
        <_>
          9 15 3 2 2.</_></rects>
      <tilted>0</tilted></_>
    <_>
      <rects>
        <_>
          6 15 6 5 -1.</_>
        <_>
          9 15 3 5 2.</_></rects>
      <tilted>0</tilted></_>
    <_>
      <rects>
        <_>
          6 15 6 2 -1.</_>
        <_>
          6 16 6 1 2.</_></rects>
      <tilted>0</tilted></_>
    <_>
      <rects>
        <_>
          6 16 2 1 -1.</_>
        <_>
          7 16 1 1 2.</_></rects>
      <tilted>0</tilted></_>
    <_>
      <rects>
        <_>
          6 17 2 2 -1.</_>
        <_>
          6 17 1 1 2.</_>
        <_>
          7 18 1 1 2.</_></rects>
      <tilted>0</tilted></_>
    <_>
      <rects>
        <_>
          6 18 1 2 -1.</_>
        <_>
          6 19 1 1 2.</_></rects>
      <tilted>0</tilted></_>
    <_>
      <rects>
        <_>
          7 0 1 2 -1.</_>
        <_>
          7 1 1 1 2.</_></rects>
      <tilted>0</tilted></_>
    <_>
      <rects>
        <_>
          7 0 1 6 -1.</_>
        <_>
          7 2 1 2 2.</_></rects>
      <tilted>0</tilted></_>
    <_>
      <rects>
        <_>
          7 0 2 4 -1.</_>
        <_>
          7 0 1 2 2.</_>
        <_>
          8 2 1 2 2.</_></rects>
      <tilted>0</tilted></_>
    <_>
      <rects>
        <_>
          7 0 2 3 -1.</_>
        <_>
          8 0 1 3 2.</_></rects>
      <tilted>0</tilted></_>
    <_>
      <rects>
        <_>
          7 0 2 4 -1.</_>
        <_>
          8 0 1 4 2.</_></rects>
      <tilted>0</tilted></_>
    <_>
      <rects>
        <_>
          7 0 2 5 -1.</_>
        <_>
          8 0 1 5 2.</_></rects>
      <tilted>0</tilted></_>
    <_>
      <rects>
        <_>
          7 0 3 4 -1.</_>
        <_>
          7 2 3 2 2.</_></rects>
      <tilted>0</tilted></_>
    <_>
      <rects>
        <_>
          7 1 2 2 -1.</_>
        <_>
          7 1 1 1 2.</_>
        <_>
          8 2 1 1 2.</_></rects>
      <tilted>0</tilted></_>
    <_>
      <rects>
        <_>
          7 1 2 5 -1.</_>
        <_>
          8 1 1 5 2.</_></rects>
      <tilted>0</tilted></_>
    <_>
      <rects>
        <_>
          7 1 4 2 -1.</_>
        <_>
          7 1 2 1 2.</_>
        <_>
          9 2 2 1 2.</_></rects>
      <tilted>0</tilted></_>
    <_>
      <rects>
        <_>
          7 1 4 13 -1.</_>
        <_>
          9 1 2 13 2.</_></rects>
      <tilted>0</tilted></_>
    <_>
      <rects>
        <_>
          7 2 5 2 -1.</_>
        <_>
          7 3 5 1 2.</_></rects>
      <tilted>0</tilted></_>
    <_>
      <rects>
        <_>
          7 3 2 6 -1.</_>
        <_>
          8 3 1 6 2.</_></rects>
      <tilted>0</tilted></_>
    <_>
      <rects>
        <_>
          7 4 1 2 -1.</_>
        <_>
          7 5 1 1 2.</_></rects>
      <tilted>0</tilted></_>
    <_>
      <rects>
        <_>
          7 4 1 6 -1.</_>
        <_>
          7 7 1 3 2.</_></rects>
      <tilted>0</tilted></_>
    <_>
      <rects>
        <_>
          7 4 1 12 -1.</_>
        <_>
          7 10 1 6 2.</_></rects>
      <tilted>0</tilted></_>
    <_>
      <rects>
        <_>
          7 5 4 2 -1.</_>
        <_>
          7 5 2 1 2.</_>
        <_>
          9 6 2 1 2.</_></rects>
      <tilted>0</tilted></_>
    <_>
      <rects>
        <_>
          7 6 2 1 -1.</_>
        <_>
          8 6 1 1 2.</_></rects>
      <tilted>0</tilted></_>
    <_>
      <rects>
        <_>
          7 6 2 2 -1.</_>
        <_>
          8 6 1 2 2.</_></rects>
      <tilted>0</tilted></_>
    <_>
      <rects>
        <_>
          7 6 4 12 -1.</_>
        <_>
          7 6 2 6 2.</_>
        <_>
          9 12 2 6 2.</_></rects>
      <tilted>0</tilted></_>
    <_>
      <rects>
        <_>
          7 6 3 10 -1.</_>
        <_>
          7 11 3 5 2.</_></rects>
      <tilted>0</tilted></_>
    <_>
      <rects>
        <_>
          7 7 2 1 -1.</_>
        <_>
          8 7 1 1 2.</_></rects>
      <tilted>0</tilted></_>
    <_>
      <rects>
        <_>
          7 7 2 2 -1.</_>
        <_>
          7 7 1 1 2.</_>
        <_>
          8 8 1 1 2.</_></rects>
      <tilted>0</tilted></_>
    <_>
      <rects>
        <_>
          7 7 4 8 -1.</_>
        <_>
          7 7 2 4 2.</_>
        <_>
          9 11 2 4 2.</_></rects>
      <tilted>0</tilted></_>
    <_>
      <rects>
        <_>
          7 9 2 2 -1.</_>
        <_>
          8 9 1 2 2.</_></rects>
      <tilted>0</tilted></_>
    <_>
      <rects>
        <_>
          7 9 4 2 -1.</_>
        <_>
          7 9 2 1 2.</_>
        <_>
          9 10 2 1 2.</_></rects>
      <tilted>0</tilted></_>
    <_>
      <rects>
        <_>
          7 10 1 4 -1.</_>
        <_>
          7 12 1 2 2.</_></rects>
      <tilted>0</tilted></_>
    <_>
      <rects>
        <_>
          7 10 2 10 -1.</_>
        <_>
          7 10 1 5 2.</_>
        <_>
          8 15 1 5 2.</_></rects>
      <tilted>0</tilted></_>
    <_>
      <rects>
        <_>
          7 10 4 2 -1.</_>
        <_>
          7 11 4 1 2.</_></rects>
      <tilted>0</tilted></_>
    <_>
      <rects>
        <_>
          7 10 5 4 -1.</_>
        <_>
          7 12 5 2 2.</_></rects>
      <tilted>0</tilted></_>
    <_>
      <rects>
        <_>
          7 11 1 2 -1.</_>
        <_>
          7 12 1 1 2.</_></rects>
      <tilted>0</tilted></_>
    <_>
      <rects>
        <_>
          7 11 2 2 -1.</_>
        <_>
          7 11 1 1 2.</_>
        <_>
          8 12 1 1 2.</_></rects>
      <tilted>0</tilted></_>
    <_>
      <rects>
        <_>
          7 11 5 6 -1.</_>
        <_>
          7 14 5 3 2.</_></rects>
      <tilted>0</tilted></_>
    <_>
      <rects>
        <_>
          7 12 2 2 -1.</_>
        <_>
          7 12 1 1 2.</_>
        <_>
          8 13 1 1 2.</_></rects>
      <tilted>0</tilted></_>
    <_>
      <rects>
        <_>
          7 12 2 4 -1.</_>
        <_>
          7 12 1 2 2.</_>
        <_>
          8 14 1 2 2.</_></rects>
      <tilted>0</tilted></_>
    <_>
      <rects>
        <_>
          7 12 2 8 -1.</_>
        <_>
          8 12 1 8 2.</_></rects>
      <tilted>0</tilted></_>
    <_>
      <rects>
        <_>
          7 13 2 1 -1.</_>
        <_>
          8 13 1 1 2.</_></rects>
      <tilted>0</tilted></_>
    <_>
      <rects>
        <_>
          7 13 1 2 -1.</_>
        <_>
          7 14 1 1 2.</_></rects>
      <tilted>0</tilted></_>
    <_>
      <rects>
        <_>
          7 13 2 2 -1.</_>
        <_>
          7 13 1 1 2.</_>
        <_>
          8 14 1 1 2.</_></rects>
      <tilted>0</tilted></_>
    <_>
      <rects>
        <_>
          7 13 4 4 -1.</_>
        <_>
          7 15 4 2 2.</_></rects>
      <tilted>0</tilted></_>
    <_>
      <rects>
        <_>
          7 15 3 2 -1.</_>
        <_>
          7 16 3 1 2.</_></rects>
      <tilted>0</tilted></_>
    <_>
      <rects>
        <_>
          7 18 2 2 -1.</_>
        <_>
          7 19 2 1 2.</_></rects>
      <tilted>0</tilted></_>
    <_>
      <rects>
        <_>
          8 0 3 1 -1.</_>
        <_>
          9 0 1 1 2.</_></rects>
      <tilted>0</tilted></_>
    <_>
      <rects>
        <_>
          8 0 2 2 -1.</_>
        <_>
          8 0 1 1 2.</_>
        <_>
          9 1 1 1 2.</_></rects>
      <tilted>0</tilted></_>
    <_>
      <rects>
        <_>
          8 0 1 4 -1.</_>
        <_>
          8 2 1 2 2.</_></rects>
      <tilted>0</tilted></_>
    <_>
      <rects>
        <_>
          8 0 2 4 -1.</_>
        <_>
          9 0 1 4 2.</_></rects>
      <tilted>0</tilted></_>
    <_>
      <rects>
        <_>
          8 0 2 5 -1.</_>
        <_>
          9 0 1 5 2.</_></rects>
      <tilted>0</tilted></_>
    <_>
      <rects>
        <_>
          8 0 2 9 -1.</_>
        <_>
          9 0 1 9 2.</_></rects>
      <tilted>0</tilted></_>
    <_>
      <rects>
        <_>
          8 0 4 3 -1.</_>
        <_>
          10 0 2 3 2.</_></rects>
      <tilted>0</tilted></_>
    <_>
      <rects>
        <_>
          8 0 4 6 -1.</_>
        <_>
          10 0 2 6 2.</_></rects>
      <tilted>0</tilted></_>
    <_>
      <rects>
        <_>
          8 1 2 2 -1.</_>
        <_>
          8 1 1 1 2.</_>
        <_>
          9 2 1 1 2.</_></rects>
      <tilted>0</tilted></_>
    <_>
      <rects>
        <_>
          8 1 3 2 -1.</_>
        <_>
          8 2 3 1 2.</_></rects>
      <tilted>0</tilted></_>
    <_>
      <rects>
        <_>
          8 2 1 2 -1.</_>
        <_>
          8 3 1 1 2.</_></rects>
      <tilted>0</tilted></_>
    <_>
      <rects>
        <_>
          8 2 4 12 -1.</_>
        <_>
          8 2 2 6 2.</_>
        <_>
          10 8 2 6 2.</_></rects>
      <tilted>0</tilted></_>
    <_>
      <rects>
        <_>
          8 2 4 11 -1.</_>
        <_>
          10 2 2 11 2.</_></rects>
      <tilted>0</tilted></_>
    <_>
      <rects>
        <_>
          8 3 1 3 -1.</_>
        <_>
          8 4 1 1 2.</_></rects>
      <tilted>0</tilted></_>
    <_>
      <rects>
        <_>
          8 3 2 8 -1.</_>
        <_>
          8 3 1 4 2.</_>
        <_>
          9 7 1 4 2.</_></rects>
      <tilted>0</tilted></_>
    <_>
      <rects>
        <_>
          8 3 4 2 -1.</_>
        <_>
          8 4 4 1 2.</_></rects>
      <tilted>0</tilted></_>
    <_>
      <rects>
        <_>
          8 4 1 3 -1.</_>
        <_>
          8 5 1 1 2.</_></rects>
      <tilted>0</tilted></_>
    <_>
      <rects>
        <_>
          8 4 2 2 -1.</_>
        <_>
          8 4 1 1 2.</_>
        <_>
          9 5 1 1 2.</_></rects>
      <tilted>0</tilted></_>
    <_>
      <rects>
        <_>
          8 4 2 6 -1.</_>
        <_>
          8 4 1 3 2.</_>
        <_>
          9 7 1 3 2.</_></rects>
      <tilted>0</tilted></_>
    <_>
      <rects>
        <_>
          8 4 2 2 -1.</_>
        <_>
          8 5 2 1 2.</_></rects>
      <tilted>0</tilted></_>
    <_>
      <rects>
        <_>
          8 5 1 10 -1.</_>
        <_>
          8 10 1 5 2.</_></rects>
      <tilted>0</tilted></_>
    <_>
      <rects>
        <_>
          8 6 1 3 -1.</_>
        <_>
          8 7 1 1 2.</_></rects>
      <tilted>0</tilted></_>
    <_>
      <rects>
        <_>
          8 6 2 10 -1.</_>
        <_>
          8 6 1 5 2.</_>
        <_>
          9 11 1 5 2.</_></rects>
      <tilted>0</tilted></_>
    <_>
      <rects>
        <_>
          8 6 4 2 -1.</_>
        <_>
          8 7 4 1 2.</_></rects>
      <tilted>0</tilted></_>
    <_>
      <rects>
        <_>
          8 7 2 1 -1.</_>
        <_>
          9 7 1 1 2.</_></rects>
      <tilted>0</tilted></_>
    <_>
      <rects>
        <_>
          8 7 2 5 -1.</_>
        <_>
          9 7 1 5 2.</_></rects>
      <tilted>0</tilted></_>
    <_>
      <rects>
        <_>
          8 7 4 5 -1.</_>
        <_>
          10 7 2 5 2.</_></rects>
      <tilted>0</tilted></_>
    <_>
      <rects>
        <_>
          8 7 4 13 -1.</_>
        <_>
          10 7 2 13 2.</_></rects>
      <tilted>0</tilted></_>
    <_>
      <rects>
        <_>
          8 7 3 2 -1.</_>
        <_>
          8 8 3 1 2.</_></rects>
      <tilted>0</tilted></_>
    <_>
      <rects>
        <_>
          8 7 4 2 -1.</_>
        <_>
          8 8 4 1 2.</_></rects>
      <tilted>0</tilted></_>
    <_>
      <rects>
        <_>
          8 8 2 4 -1.</_>
        <_>
          8 8 1 2 2.</_>
        <_>
          9 10 1 2 2.</_></rects>
      <tilted>0</tilted></_>
    <_>
      <rects>
        <_>
          8 8 4 12 -1.</_>
        <_>
          8 8 2 6 2.</_>
        <_>
          10 14 2 6 2.</_></rects>
      <tilted>0</tilted></_>
    <_>
      <rects>
        <_>
          8 9 2 4 -1.</_>
        <_>
          8 9 1 2 2.</_>
        <_>
          9 11 1 2 2.</_></rects>
      <tilted>0</tilted></_>
    <_>
      <rects>
        <_>
          8 9 4 2 -1.</_>
        <_>
          8 10 4 1 2.</_></rects>
      <tilted>0</tilted></_>
    <_>
      <rects>
        <_>
          8 10 4 2 -1.</_>
        <_>
          8 10 2 1 2.</_>
        <_>
          10 11 2 1 2.</_></rects>
      <tilted>0</tilted></_>
    <_>
      <rects>
        <_>
          8 10 3 2 -1.</_>
        <_>
          8 11 3 1 2.</_></rects>
      <tilted>0</tilted></_>
    <_>
      <rects>
        <_>
          8 11 1 2 -1.</_>
        <_>
          8 12 1 1 2.</_></rects>
      <tilted>0</tilted></_>
    <_>
      <rects>
        <_>
          8 11 2 2 -1.</_>
        <_>
          8 11 1 1 2.</_>
        <_>
          9 12 1 1 2.</_></rects>
      <tilted>0</tilted></_>
    <_>
      <rects>
        <_>
          8 11 1 8 -1.</_>
        <_>
          8 15 1 4 2.</_></rects>
      <tilted>0</tilted></_>
    <_>
      <rects>
        <_>
          8 11 3 2 -1.</_>
        <_>
          8 12 3 1 2.</_></rects>
      <tilted>0</tilted></_>
    <_>
      <rects>
        <_>
          8 12 2 2 -1.</_>
        <_>
          8 12 1 1 2.</_>
        <_>
          9 13 1 1 2.</_></rects>
      <tilted>0</tilted></_>
    <_>
      <rects>
        <_>
          8 12 4 6 -1.</_>
        <_>
          8 12 2 3 2.</_>
        <_>
          10 15 2 3 2.</_></rects>
      <tilted>0</tilted></_>
    <_>
      <rects>
        <_>
          8 13 2 2 -1.</_>
        <_>
          8 13 1 1 2.</_>
        <_>
          9 14 1 1 2.</_></rects>
      <tilted>0</tilted></_>
    <_>
      <rects>
        <_>
          8 14 1 2 -1.</_>
        <_>
          8 15 1 1 2.</_></rects>
      <tilted>0</tilted></_>
    <_>
      <rects>
        <_>
          8 14 4 4 -1.</_>
        <_>
          8 14 2 2 2.</_>
        <_>
          10 16 2 2 2.</_></rects>
      <tilted>0</tilted></_>
    <_>
      <rects>
        <_>
          8 15 4 4 -1.</_>
        <_>
          8 15 2 2 2.</_>
        <_>
          10 17 2 2 2.</_></rects>
      <tilted>0</tilted></_>
    <_>
      <rects>
        <_>
          8 16 1 2 -1.</_>
        <_>
          8 17 1 1 2.</_></rects>
      <tilted>0</tilted></_>
    <_>
      <rects>
        <_>
          8 17 4 2 -1.</_>
        <_>
          8 17 2 1 2.</_>
        <_>
          10 18 2 1 2.</_></rects>
      <tilted>0</tilted></_>
    <_>
      <rects>
        <_>
          8 17 3 2 -1.</_>
        <_>
          8 18 3 1 2.</_></rects>
      <tilted>0</tilted></_>
    <_>
      <rects>
        <_>
          8 18 2 1 -1.</_>
        <_>
          9 18 1 1 2.</_></rects>
      <tilted>0</tilted></_>
    <_>
      <rects>
        <_>
          8 18 2 2 -1.</_>
        <_>
          9 18 1 2 2.</_></rects>
      <tilted>0</tilted></_>
    <_>
      <rects>
        <_>
          8 18 3 2 -1.</_>
        <_>
          8 19 3 1 2.</_></rects>
      <tilted>0</tilted></_>
    <_>
      <rects>
        <_>
          9 0 2 4 -1.</_>
        <_>
          9 0 1 2 2.</_>
        <_>
          10 2 1 2 2.</_></rects>
      <tilted>0</tilted></_>
    <_>
      <rects>
        <_>
          9 0 2 4 -1.</_>
        <_>
          10 0 1 4 2.</_></rects>
      <tilted>0</tilted></_>
    <_>
      <rects>
        <_>
          9 1 3 3 -1.</_>
        <_>
          9 2 3 1 2.</_></rects>
      <tilted>0</tilted></_>
    <_>
      <rects>
        <_>
          9 2 2 1 -1.</_>
        <_>
          10 2 1 1 2.</_></rects>
      <tilted>0</tilted></_>
    <_>
      <rects>
        <_>
          9 2 2 2 -1.</_>
        <_>
          10 2 1 2 2.</_></rects>
      <tilted>0</tilted></_>
    <_>
      <rects>
        <_>
          9 2 1 8 -1.</_>
        <_>
          9 6 1 4 2.</_></rects>
      <tilted>0</tilted></_>
    <_>
      <rects>
        <_>
          9 2 2 12 -1.</_>
        <_>
          9 2 1 6 2.</_>
        <_>
          10 8 1 6 2.</_></rects>
      <tilted>0</tilted></_>
    <_>
      <rects>
        <_>
          9 2 2 8 -1.</_>
        <_>
          10 2 1 8 2.</_></rects>
      <tilted>0</tilted></_>
    <_>
      <rects>
        <_>
          9 2 3 2 -1.</_>
        <_>
          9 3 3 1 2.</_></rects>
      <tilted>0</tilted></_>
    <_>
      <rects>
        <_>
          9 2 3 14 -1.</_>
        <_>
          9 9 3 7 2.</_></rects>
      <tilted>0</tilted></_>
    <_>
      <rects>
        <_>
          9 3 2 8 -1.</_>
        <_>
          9 3 1 4 2.</_>
        <_>
          10 7 1 4 2.</_></rects>
      <tilted>0</tilted></_>
    <_>
      <rects>
        <_>
          9 3 2 12 -1.</_>
        <_>
          10 3 1 12 2.</_></rects>
      <tilted>0</tilted></_>
    <_>
      <rects>
        <_>
          9 3 2 2 -1.</_>
        <_>
          9 4 2 1 2.</_></rects>
      <tilted>0</tilted></_>
    <_>
      <rects>
        <_>
          9 4 2 12 -1.</_>
        <_>
          9 4 1 6 2.</_>
        <_>
          10 10 1 6 2.</_></rects>
      <tilted>0</tilted></_>
    <_>
      <rects>
        <_>
          9 5 2 1 -1.</_>
        <_>
          10 5 1 1 2.</_></rects>
      <tilted>0</tilted></_>
    <_>
      <rects>
        <_>
          9 5 3 2 -1.</_>
        <_>
          9 6 3 1 2.</_></rects>
      <tilted>0</tilted></_>
    <_>
      <rects>
        <_>
          9 6 2 1 -1.</_>
        <_>
          10 6 1 1 2.</_></rects>
      <tilted>0</tilted></_>
    <_>
      <rects>
        <_>
          9 6 2 2 -1.</_>
        <_>
          10 6 1 2 2.</_></rects>
      <tilted>0</tilted></_>
    <_>
      <rects>
        <_>
          9 7 2 2 -1.</_>
        <_>
          10 7 1 2 2.</_></rects>
      <tilted>0</tilted></_>
    <_>
      <rects>
        <_>
          9 7 2 6 -1.</_>
        <_>
          9 7 1 3 2.</_>
        <_>
          10 10 1 3 2.</_></rects>
      <tilted>0</tilted></_>
    <_>
      <rects>
        <_>
          9 8 2 6 -1.</_>
        <_>
          9 11 2 3 2.</_></rects>
      <tilted>0</tilted></_>
    <_>
      <rects>
        <_>
          9 10 3 2 -1.</_>
        <_>
          9 11 3 1 2.</_></rects>
      <tilted>0</tilted></_>
    <_>
      <rects>
        <_>
          9 11 3 2 -1.</_>
        <_>
          9 12 3 1 2.</_></rects>
      <tilted>0</tilted></_>
    <_>
      <rects>
        <_>
          9 12 2 2 -1.</_>
        <_>
          9 12 1 1 2.</_>
        <_>
          10 13 1 1 2.</_></rects>
      <tilted>0</tilted></_>
    <_>
      <rects>
        <_>
          9 12 2 2 -1.</_>
        <_>
          10 12 1 2 2.</_></rects>
      <tilted>0</tilted></_>
    <_>
      <rects>
        <_>
          9 12 3 2 -1.</_>
        <_>
          9 13 3 1 2.</_></rects>
      <tilted>0</tilted></_>
    <_>
      <rects>
        <_>
          9 13 1 4 -1.</_>
        <_>
          9 15 1 2 2.</_></rects>
      <tilted>0</tilted></_>
    <_>
      <rects>
        <_>
          9 17 2 2 -1.</_>
        <_>
          9 17 1 1 2.</_>
        <_>
          10 18 1 1 2.</_></rects>
      <tilted>0</tilted></_>
    <_>
      <rects>
        <_>
          9 17 2 2 -1.</_>
        <_>
          9 18 2 1 2.</_></rects>
      <tilted>0</tilted></_>
    <_>
      <rects>
        <_>
          9 18 2 2 -1.</_>
        <_>
          10 18 1 2 2.</_></rects>
      <tilted>0</tilted></_>
    <_>
      <rects>
        <_>
          10 0 2 1 -1.</_>
        <_>
          11 0 1 1 2.</_></rects>
      <tilted>0</tilted></_>
    <_>
      <rects>
        <_>
          10 0 2 10 -1.</_>
        <_>
          11 0 1 10 2.</_></rects>
      <tilted>0</tilted></_>
    <_>
      <rects>
        <_>
          10 0 2 18 -1.</_>
        <_>
          11 0 1 18 2.</_></rects>
      <tilted>0</tilted></_>
    <_>
      <rects>
        <_>
          10 0 2 12 -1.</_>
        <_>
          10 4 2 4 2.</_></rects>
      <tilted>0</tilted></_>
    <_>
      <rects>
        <_>
          10 1 2 5 -1.</_>
        <_>
          11 1 1 5 2.</_></rects>
      <tilted>0</tilted></_>
    <_>
      <rects>
        <_>
          10 2 2 2 -1.</_>
        <_>
          11 2 1 2 2.</_></rects>
      <tilted>0</tilted></_>
    <_>
      <rects>
        <_>
          10 2 1 6 -1.</_>
        <_>
          10 4 1 2 2.</_></rects>
      <tilted>0</tilted></_>
    <_>
      <rects>
        <_>
          10 2 2 6 -1.</_>
        <_>
          10 2 1 3 2.</_>
        <_>
          11 5 1 3 2.</_></rects>
      <tilted>0</tilted></_>
    <_>
      <rects>
        <_>
          10 2 2 4 -1.</_>
        <_>
          11 2 1 4 2.</_></rects>
      <tilted>0</tilted></_>
    <_>
      <rects>
        <_>
          10 2 2 5 -1.</_>
        <_>
          11 2 1 5 2.</_></rects>
      <tilted>0</tilted></_>
    <_>
      <rects>
        <_>
          10 2 1 14 -1.</_>
        <_>
          10 9 1 7 2.</_></rects>
      <tilted>0</tilted></_>
    <_>
      <rects>
        <_>
          10 2 1 16 -1.</_>
        <_>
          10 10 1 8 2.</_></rects>
      <tilted>0</tilted></_>
    <_>
      <rects>
        <_>
          10 2 2 18 -1.</_>
        <_>
          10 2 1 9 2.</_>
        <_>
          11 11 1 9 2.</_></rects>
      <tilted>0</tilted></_>
    <_>
      <rects>
        <_>
          10 3 2 16 -1.</_>
        <_>
          10 3 1 8 2.</_>
        <_>
          11 11 1 8 2.</_></rects>
      <tilted>0</tilted></_>
    <_>
      <rects>
        <_>
          10 3 2 2 -1.</_>
        <_>
          10 4 2 1 2.</_></rects>
      <tilted>0</tilted></_>
    <_>
      <rects>
        <_>
          10 4 2 2 -1.</_>
        <_>
          10 4 1 1 2.</_>
        <_>
          11 5 1 1 2.</_></rects>
      <tilted>0</tilted></_>
    <_>
      <rects>
        <_>
          10 4 2 8 -1.</_>
        <_>
          10 4 1 4 2.</_>
        <_>
          11 8 1 4 2.</_></rects>
      <tilted>0</tilted></_>
    <_>
      <rects>
        <_>
          10 4 2 2 -1.</_>
        <_>
          10 5 2 1 2.</_></rects>
      <tilted>0</tilted></_>
    <_>
      <rects>
        <_>
          10 5 2 8 -1.</_>
        <_>
          11 5 1 8 2.</_></rects>
      <tilted>0</tilted></_>
    <_>
      <rects>
        <_>
          10 5 2 2 -1.</_>
        <_>
          10 6 2 1 2.</_></rects>
      <tilted>0</tilted></_>
    <_>
      <rects>
        <_>
          10 6 1 6 -1.</_>
        <_>
          10 9 1 3 2.</_></rects>
      <tilted>0</tilted></_>
    <_>
      <rects>
        <_>
          10 6 2 2 -1.</_>
        <_>
          10 7 2 1 2.</_></rects>
      <tilted>0</tilted></_>
    <_>
      <rects>
        <_>
          10 7 1 2 -1.</_>
        <_>
          10 8 1 1 2.</_></rects>
      <tilted>0</tilted></_>
    <_>
      <rects>
        <_>
          10 7 1 6 -1.</_>
        <_>
          10 10 1 3 2.</_></rects>
      <tilted>0</tilted></_>
    <_>
      <rects>
        <_>
          10 8 2 10 -1.</_>
        <_>
          10 8 1 5 2.</_>
        <_>
          11 13 1 5 2.</_></rects>
      <tilted>0</tilted></_>
    <_>
      <rects>
        <_>
          10 9 1 6 -1.</_>
        <_>
          10 12 1 3 2.</_></rects>
      <tilted>0</tilted></_>
    <_>
      <rects>
        <_>
          10 10 2 2 -1.</_>
        <_>
          10 10 1 1 2.</_>
        <_>
          11 11 1 1 2.</_></rects>
      <tilted>0</tilted></_>
    <_>
      <rects>
        <_>
          10 12 2 2 -1.</_>
        <_>
          10 12 1 1 2.</_>
        <_>
          11 13 1 1 2.</_></rects>
      <tilted>0</tilted></_>
    <_>
      <rects>
        <_>
          10 12 2 6 -1.</_>
        <_>
          10 12 1 3 2.</_>
        <_>
          11 15 1 3 2.</_></rects>
      <tilted>0</tilted></_>
    <_>
      <rects>
        <_>
          10 13 1 6 -1.</_>
        <_>
          10 15 1 2 2.</_></rects>
      <tilted>0</tilted></_>
    <_>
      <rects>
        <_>
          10 13 1 6 -1.</_>
        <_>
          10 16 1 3 2.</_></rects>
      <tilted>0</tilted></_>
    <_>
      <rects>
        <_>
          10 13 2 2 -1.</_>
        <_>
          10 14 2 1 2.</_></rects>
      <tilted>0</tilted></_>
    <_>
      <rects>
        <_>
          10 14 2 1 -1.</_>
        <_>
          11 14 1 1 2.</_></rects>
      <tilted>0</tilted></_>
    <_>
      <rects>
        <_>
          10 14 1 4 -1.</_>
        <_>
          10 16 1 2 2.</_></rects>
      <tilted>0</tilted></_>
    <_>
      <rects>
        <_>
          10 14 2 4 -1.</_>
        <_>
          10 14 1 2 2.</_>
        <_>
          11 16 1 2 2.</_></rects>
      <tilted>0</tilted></_>
    <_>
      <rects>
        <_>
          10 15 2 2 -1.</_>
        <_>
          10 16 2 1 2.</_></rects>
      <tilted>0</tilted></_>
    <_>
      <rects>
        <_>
          10 16 2 4 -1.</_>
        <_>
          10 16 1 2 2.</_>
        <_>
          11 18 1 2 2.</_></rects>
      <tilted>0</tilted></_>
    <_>
      <rects>
        <_>
          10 16 2 2 -1.</_>
        <_>
          10 17 2 1 2.</_></rects>
      <tilted>0</tilted></_>
    <_>
      <rects>
        <_>
          10 18 2 2 -1.</_>
        <_>
          10 18 1 1 2.</_>
        <_>
          11 19 1 1 2.</_></rects>
      <tilted>0</tilted></_>
    <_>
      <rects>
        <_>
          10 19 2 1 -1.</_>
        <_>
          11 19 1 1 2.</_></rects>
      <tilted>0</tilted></_>
    <_>
      <rects>
        <_>
          11 0 1 2 -1.</_>
        <_>
          11 1 1 1 2.</_></rects>
      <tilted>0</tilted></_>
    <_>
      <rects>
        <_>
          11 0 1 4 -1.</_>
        <_>
          11 2 1 2 2.</_></rects>
      <tilted>0</tilted></_>
    <_>
      <rects>
        <_>
          11 0 1 6 -1.</_>
        <_>
          11 3 1 3 2.</_></rects>
      <tilted>0</tilted></_>
    <_>
      <rects>
        <_>
          11 0 1 9 -1.</_>
        <_>
          11 3 1 3 2.</_></rects>
      <tilted>0</tilted></_>
    <_>
      <rects>
        <_>
          11 0 1 16 -1.</_>
        <_>
          11 8 1 8 2.</_></rects>
      <tilted>0</tilted></_>
    <_>
      <rects>
        <_>
          11 1 1 14 -1.</_>
        <_>
          11 8 1 7 2.</_></rects>
      <tilted>0</tilted></_>
    <_>
      <rects>
        <_>
          11 8 1 2 -1.</_>
        <_>
          11 9 1 1 2.</_></rects>
      <tilted>0</tilted></_>
    <_>
      <rects>
        <_>
          11 9 1 2 -1.</_>
        <_>
          11 10 1 1 2.</_></rects>
      <tilted>0</tilted></_>
    <_>
      <rects>
        <_>
          11 9 1 8 -1.</_>
        <_>
          11 13 1 4 2.</_></rects>
      <tilted>0</tilted></_>
    <_>
      <rects>
        <_>
          11 10 1 2 -1.</_>
        <_>
          11 11 1 1 2.</_></rects>
      <tilted>0</tilted></_>
    <_>
      <rects>
        <_>
          11 11 1 2 -1.</_>
        <_>
          11 12 1 1 2.</_></rects>
      <tilted>0</tilted></_>
    <_>
      <rects>
        <_>
          11 12 1 2 -1.</_>
        <_>
          11 13 1 1 2.</_></rects>
      <tilted>0</tilted></_>
    <_>
      <rects>
        <_>
          11 13 1 2 -1.</_>
        <_>
          11 14 1 1 2.</_></rects>
      <tilted>0</tilted></_>
    <_>
      <rects>
        <_>
          11 13 1 4 -1.</_>
        <_>
          11 15 1 2 2.</_></rects>
      <tilted>0</tilted></_>
    <_>
      <rects>
        <_>
          11 13 1 6 -1.</_>
        <_>
          11 16 1 3 2.</_></rects>
      <tilted>0</tilted></_>
    <_>
      <rects>
        <_>
          11 14 1 2 -1.</_>
        <_>
          11 15 1 1 2.</_></rects>
      <tilted>0</tilted></_>
    <_>
      <rects>
        <_>
          11 14 1 3 -1.</_>
        <_>
          11 15 1 1 2.</_></rects>
      <tilted>0</tilted></_>
    <_>
      <rects>
        <_>
          11 15 1 2 -1.</_>
        <_>
          11 16 1 1 2.</_></rects>
      <tilted>0</tilted></_>
    <_>
      <rects>
        <_>
          11 16 1 2 -1.</_>
        <_>
          11 17 1 1 2.</_></rects>
      <tilted>0</tilted></_>
    <_>
      <rects>
        <_>
          11 17 1 2 -1.</_>
        <_>
          11 18 1 1 2.</_></rects>
      <tilted>0</tilted></_>
    <_>
      <rects>
        <_>
          11 18 1 2 -1.</_>
        <_>
          11 19 1 1 2.</_></rects>
      <tilted>0</tilted></_></features></cascade>
</opencv_storage>
