<?xml version="1.0"?>
<opencv_storage>
<stage3>
  <maxWeakCount>88</maxWeakCount>
  <stageThreshold>-4.6049779653549194e-01</stageThreshold>
  <weakClassifiers>
    <_>
      <internalNodes>
        0 -1 4645 -1.2796372175216675e-02</internalNodes>
      <leafValues>
        7.4718527495861053e-02 -6.4650434255599976e-01</leafValues></_>
    <_>
      <internalNodes>
        0 -1 17375 -2.6416266337037086e-03</internalNodes>
      <leafValues>
        3.8725370168685913e-01 -3.5795056819915771e-01</leafValues></_>
    <_>
      <internalNodes>
        0 -1 16032 1.2522064149379730e-02</internalNodes>
      <leafValues>
        -2.4052636325359344e-01 3.6565378308296204e-01</leafValues></_>
    <_>
      <internalNodes>
        0 -1 8493 -6.4597069285809994e-03</internalNodes>
      <leafValues>
        3.5729271173477173e-01 -1.6570568084716797e-01</leafValues></_>
    <_>
      <internalNodes>
        0 -1 5374 -1.5529789961874485e-03</internalNodes>
      <leafValues>
        2.7104833722114563e-01 -2.0635646581649780e-01</leafValues></_>
    <_>
      <internalNodes>
        0 -1 446 4.9856774508953094e-02</internalNodes>
      <leafValues>
        -2.9435265064239502e-01 2.0119103789329529e-01</leafValues></_>
    <_>
      <internalNodes>
        0 -1 27827 -2.1540075540542603e-02</internalNodes>
      <leafValues>
        5.6328898668289185e-01 -1.2159299105405807e-01</leafValues></_>
    <_>
      <internalNodes>
        0 -1 15762 -1.0573199018836021e-02</internalNodes>
      <leafValues>
        3.6473831534385681e-01 -1.3298128545284271e-01</leafValues></_>
    <_>
      <internalNodes>
        0 -1 25195 -1.5748137957416475e-04</internalNodes>
      <leafValues>
        -1.4688600599765778e-01 3.1279668211936951e-01</leafValues></_>
    <_>
      <internalNodes>
        0 -1 456 -3.0992869287729263e-03</internalNodes>
      <leafValues>
        4.4734612107276917e-01 -1.2142112106084824e-01</leafValues></_>
    <_>
      <internalNodes>
        0 -1 26881 4.7576841898262501e-03</internalNodes>
      <leafValues>
        -1.1770294606685638e-01 3.5264366865158081e-01</leafValues></_>
    <_>
      <internalNodes>
        0 -1 22884 3.0911941081285477e-02</internalNodes>
      <leafValues>
        8.1356957554817200e-02 -6.5493738651275635e-01</leafValues></_>
    <_>
      <internalNodes>
        0 -1 20858 4.7609522007405758e-03</internalNodes>
      <leafValues>
        -1.2147566676139832e-01 3.8269722461700439e-01</leafValues></_>
    <_>
      <internalNodes>
        0 -1 18690 -3.2136507332324982e-02</internalNodes>
      <leafValues>
        6.6299146413803101e-01 -3.9586536586284637e-02</leafValues></_>
    <_>
      <internalNodes>
        0 -1 456 2.9881664086133242e-03</internalNodes>
      <leafValues>
        -7.6253183186054230e-02 4.9527314305305481e-01</leafValues></_>
    <_>
      <internalNodes>
        0 -1 15630 -2.1425992250442505e-02</internalNodes>
      <leafValues>
        -7.1601223945617676e-01 6.5160013735294342e-02</leafValues></_>
    <_>
      <internalNodes>
        0 -1 11825 -1.3851347612217069e-03</internalNodes>
      <leafValues>
        2.9281821846961975e-01 -1.4286674559116364e-01</leafValues></_>
    <_>
      <internalNodes>
        0 -1 7809 1.7794461920857430e-02</internalNodes>
      <leafValues>
        8.6642421782016754e-02 -6.4497226476669312e-01</leafValues></_>
    <_>
      <internalNodes>
        0 -1 11483 7.1968031115829945e-03</internalNodes>
      <leafValues>
        -1.1200483888387680e-01 4.0349903702735901e-01</leafValues></_>
    <_>
      <internalNodes>
        0 -1 8539 1.0131449671462178e-03</internalNodes>
      <leafValues>
        9.8091140389442444e-02 -4.3381151556968689e-01</leafValues></_>
    <_>
      <internalNodes>
        0 -1 26245 -4.6322806738317013e-03</internalNodes>
      <leafValues>
        3.0975651741027832e-01 -1.2519712746143341e-01</leafValues></_>
    <_>
      <internalNodes>
        0 -1 22417 6.8170605227351189e-03</internalNodes>
      <leafValues>
        5.1456924527883530e-02 -9.1422957181930542e-01</leafValues></_>
    <_>
      <internalNodes>
        0 -1 7413 5.0908084958791733e-03</internalNodes>
      <leafValues>
        -2.0292404294013977e-01 1.8547968566417694e-01</leafValues></_>
    <_>
      <internalNodes>
        0 -1 7241 -2.6854049414396286e-02</internalNodes>
      <leafValues>
        5.9522098302841187e-01 -6.2360364943742752e-02</leafValues></_>
    <_>
      <internalNodes>
        0 -1 4466 -3.7564416415989399e-03</internalNodes>
      <leafValues>
        -2.8790467977523804e-01 1.2603145837783813e-01</leafValues></_>
    <_>
      <internalNodes>
        0 -1 6951 -1.8311116844415665e-02</internalNodes>
      <leafValues>
        9.3112923204898834e-02 -4.0958374738693237e-01</leafValues></_>
    <_>
      <internalNodes>
        0 -1 15770 -2.9605987947434187e-03</internalNodes>
      <leafValues>
        -7.1654587984085083e-02 6.6580706834793091e-01</leafValues></_>
    <_>
      <internalNodes>
        0 -1 17664 2.1299640648066998e-03</internalNodes>
      <leafValues>
        -9.2446334660053253e-02 3.7904763221740723e-01</leafValues></_>
    <_>
      <internalNodes>
        0 -1 24873 -2.1238420158624649e-03</internalNodes>
      <leafValues>
        3.5107409954071045e-01 -1.1371426284313202e-01</leafValues></_>
    <_>
      <internalNodes>
        0 -1 7337 -1.5792103111743927e-01</internalNodes>
      <leafValues>
        -6.2897527217864990e-01 6.2774129211902618e-02</leafValues></_>
    <_>
      <internalNodes>
        0 -1 23458 1.3423681259155273e-02</internalNodes>
      <leafValues>
        3.2764945179224014e-02 -7.9069620370864868e-01</leafValues></_>
    <_>
      <internalNodes>
        0 -1 4606 -5.8992230333387852e-03</internalNodes>
      <leafValues>
        1.4279840886592865e-01 -2.5968438386917114e-01</leafValues></_>
    <_>
      <internalNodes>
        0 -1 4574 -1.4951093494892120e-01</internalNodes>
      <leafValues>
        2.0886194705963135e-01 -1.8216925859451294e-01</leafValues></_>
    <_>
      <internalNodes>
        0 -1 21689 -1.3472856022417545e-02</internalNodes>
      <leafValues>
        -4.5863261818885803e-01 7.7983096241950989e-02</leafValues></_>
    <_>
      <internalNodes>
        0 -1 28007 -6.2690195627510548e-03</internalNodes>
      <leafValues>
        -8.9995431900024414e-01 2.7158491313457489e-02</leafValues></_>
    <_>
      <internalNodes>
        0 -1 15884 -2.8390485793352127e-02</internalNodes>
      <leafValues>
        2.6835376024246216e-01 -1.2374164909124374e-01</leafValues></_>
    <_>
      <internalNodes>
        0 -1 8515 -1.0766088962554932e-01</internalNodes>
      <leafValues>
        4.9920189380645752e-01 -6.4452752470970154e-02</leafValues></_>
    <_>
      <internalNodes>
        0 -1 27728 4.5036725699901581e-02</internalNodes>
      <leafValues>
        -5.3260099142789841e-02 5.6342059373855591e-01</leafValues></_>
    <_>
      <internalNodes>
        0 -1 19632 7.8320299508050084e-04</internalNodes>
      <leafValues>
        -1.8251422047615051e-01 1.8004161119461060e-01</leafValues></_>
    <_>
      <internalNodes>
        0 -1 11851 2.1671094000339508e-03</internalNodes>
      <leafValues>
        -1.2513822317123413e-01 2.5873044133186340e-01</leafValues></_>
    <_>
      <internalNodes>
        0 -1 15239 -1.7673687543720007e-03</internalNodes>
      <leafValues>
        3.5949110984802246e-01 -1.1590287834405899e-01</leafValues></_>
    <_>
      <internalNodes>
        0 -1 18159 -3.3749453723430634e-02</internalNodes>
      <leafValues>
        -9.0586519241333008e-01 4.3468058109283447e-02</leafValues></_>
    <_>
      <internalNodes>
        0 -1 4227 -2.7234372100792825e-04</internalNodes>
      <leafValues>
        -4.5887567102909088e-02 9.5903778076171875e-01</leafValues></_>
    <_>
      <internalNodes>
        0 -1 4542 -3.9192065596580505e-02</internalNodes>
      <leafValues>
        -7.6820623874664307e-01 5.3510274738073349e-02</leafValues></_>
    <_>
      <internalNodes>
        0 -1 20842 1.4237517490983009e-02</internalNodes>
      <leafValues>
        5.2824579179286957e-02 -5.3422528505325317e-01</leafValues></_>
    <_>
      <internalNodes>
        0 -1 23723 1.1748967226594687e-03</internalNodes>
      <leafValues>
        -1.0937470942735672e-01 2.9681697487831116e-01</leafValues></_>
    <_>
      <internalNodes>
        0 -1 23739 1.3281259685754776e-02</internalNodes>
      <leafValues>
        6.3222706317901611e-02 -6.3090527057647705e-01</leafValues></_>
    <_>
      <internalNodes>
        0 -1 23574 -1.0240761563181877e-02</internalNodes>
      <leafValues>
        -5.3731811046600342e-01 5.4995935410261154e-02</leafValues></_>
    <_>
      <internalNodes>
        0 -1 26245 2.0020180381834507e-03</internalNodes>
      <leafValues>
        -1.2647232413291931e-01 2.7382642030715942e-01</leafValues></_>
    <_>
      <internalNodes>
        0 -1 4225 -2.1931119263172150e-03</internalNodes>
      <leafValues>
        -6.2303376197814941e-01 5.0535526126623154e-02</leafValues></_>
    <_>
      <internalNodes>
        0 -1 6445 -1.9972082227468491e-02</internalNodes>
      <leafValues>
        2.8384814038872719e-02 -8.6766445636749268e-01</leafValues></_>
    <_>
      <internalNodes>
        0 -1 26057 7.0194457657635212e-04</internalNodes>
      <leafValues>
        -1.5893894433975220e-01 2.0355150103569031e-01</leafValues></_>
    <_>
      <internalNodes>
        0 -1 28452 -1.2429360300302505e-02</internalNodes>
      <leafValues>
        -4.0076440572738647e-01 8.3417296409606934e-02</leafValues></_>
    <_>
      <internalNodes>
        0 -1 22796 -1.4190310612320900e-02</internalNodes>
      <leafValues>
        -8.0367648601531982e-01 3.3733963966369629e-02</leafValues></_>
    <_>
      <internalNodes>
        0 -1 26506 9.5752312336117029e-04</internalNodes>
      <leafValues>
        -1.2472312897443771e-01 2.7177688479423523e-01</leafValues></_>
    <_>
      <internalNodes>
        0 -1 15097 -1.3796361163258553e-03</internalNodes>
      <leafValues>
        3.1657415628433228e-01 -1.0142198204994202e-01</leafValues></_>
    <_>
      <internalNodes>
        0 -1 8568 -5.4438067600131035e-03</internalNodes>
      <leafValues>
        2.2803731262683868e-01 -1.4997111260890961e-01</leafValues></_>
    <_>
      <internalNodes>
        0 -1 442 1.5424178540706635e-01</internalNodes>
      <leafValues>
        -1.2978224456310272e-01 2.5112062692642212e-01</leafValues></_>
    <_>
      <internalNodes>
        0 -1 4629 7.5872791931033134e-03</internalNodes>
      <leafValues>
        -1.1121182888746262e-01 3.0538931488990784e-01</leafValues></_>
    <_>
      <internalNodes>
        0 -1 3510 -8.3365533500909805e-03</internalNodes>
      <leafValues>
        -9.0339118242263794e-01 4.1922755539417267e-02</leafValues></_>
    <_>
      <internalNodes>
        0 -1 16068 2.0694974809885025e-03</internalNodes>
      <leafValues>
        -1.2634515762329102e-01 3.1234884262084961e-01</leafValues></_>
    <_>
      <internalNodes>
        0 -1 17529 8.2883238792419434e-03</internalNodes>
      <leafValues>
        -1.2618695199489594e-01 2.7513343095779419e-01</leafValues></_>
    <_>
      <internalNodes>
        0 -1 26862 -8.3197187632322311e-03</internalNodes>
      <leafValues>
        -4.5292556285858154e-02 7.9732304811477661e-01</leafValues></_>
    <_>
      <internalNodes>
        0 -1 4934 -1.9892841577529907e-01</internalNodes>
      <leafValues>
        4.7018489241600037e-01 -6.1357427388429642e-02</leafValues></_>
    <_>
      <internalNodes>
        0 -1 17632 1.0617515444755554e-01</internalNodes>
      <leafValues>
        -1.1396050453186035e-01 3.1666800379753113e-01</leafValues></_>
    <_>
      <internalNodes>
        0 -1 24863 2.7379764243960381e-02</internalNodes>
      <leafValues>
        6.8656727671623230e-02 -4.8419511318206787e-01</leafValues></_>
    <_>
      <internalNodes>
        0 -1 23120 2.0495725795626640e-02</internalNodes>
      <leafValues>
        -6.9689124822616577e-02 5.7957196235656738e-01</leafValues></_>
    <_>
      <internalNodes>
        0 -1 15781 -7.8121693804860115e-03</internalNodes>
      <leafValues>
        -5.6386238336563110e-01 6.5956391394138336e-02</leafValues></_>
    <_>
      <internalNodes>
        0 -1 16398 2.3379710037261248e-03</internalNodes>
      <leafValues>
        -1.3271822035312653e-01 2.5684699416160583e-01</leafValues></_>
    <_>
      <internalNodes>
        0 -1 19239 2.2867184132337570e-02</internalNodes>
      <leafValues>
        4.4650606811046600e-02 -6.5881353616714478e-01</leafValues></_>
    <_>
      <internalNodes>
        0 -1 267 1.5196008607745171e-02</internalNodes>
      <leafValues>
        -1.0121196508407593e-01 3.5586464405059814e-01</leafValues></_>
    <_>
      <internalNodes>
        0 -1 28268 4.0093436837196350e-04</internalNodes>
      <leafValues>
        1.2887044250965118e-01 -2.5044739246368408e-01</leafValues></_>
    <_>
      <internalNodes>
        0 -1 15604 4.3493006378412247e-02</internalNodes>
      <leafValues>
        -5.1598712801933289e-02 6.5289312601089478e-01</leafValues></_>
    <_>
      <internalNodes>
        0 -1 4602 -5.2520908415317535e-02</internalNodes>
      <leafValues>
        -8.2862579822540283e-01 4.6884395182132721e-02</leafValues></_>
    <_>
      <internalNodes>
        0 -1 8613 -1.3224276714026928e-02</internalNodes>
      <leafValues>
        3.2124620676040649e-01 -1.0860174894332886e-01</leafValues></_>
    <_>
      <internalNodes>
        0 -1 18151 -5.2596047520637512e-02</internalNodes>
      <leafValues>
        9.1921798884868622e-02 -3.6922314763069153e-01</leafValues></_>
    <_>
      <internalNodes>
        0 -1 25453 -1.1632109060883522e-02</internalNodes>
      <leafValues>
        4.6395960450172424e-01 -7.5361751019954681e-02</leafValues></_>
    <_>
      <internalNodes>
        0 -1 28335 -1.0695490986108780e-02</internalNodes>
      <leafValues>
        -5.7468628883361816e-01 7.4298702180385590e-02</leafValues></_>
    <_>
      <internalNodes>
        0 -1 21144 -8.2297623157501221e-03</internalNodes>
      <leafValues>
        5.6398868560791016e-01 -6.0245849192142487e-02</leafValues></_>
    <_>
      <internalNodes>
        0 -1 11955 -4.9804892390966415e-02</internalNodes>
      <leafValues>
        -7.3626828193664551e-01 4.5304574072360992e-02</leafValues></_>
    <_>
      <internalNodes>
        0 -1 23536 -6.2525330577045679e-04</internalNodes>
      <leafValues>
        -2.1594312787055969e-01 1.4157609641551971e-01</leafValues></_>
    <_>
      <internalNodes>
        0 -1 27695 -9.0859755873680115e-03</internalNodes>
      <leafValues>
        -9.7378182411193848e-01 3.0493503436446190e-02</leafValues></_>
    <_>
      <internalNodes>
        0 -1 27831 -3.1340036541223526e-02</internalNodes>
      <leafValues>
        5.8259952068328857e-01 -6.4165100455284119e-02</leafValues></_>
    <_>
      <internalNodes>
        0 -1 18735 -8.1104058772325516e-03</internalNodes>
      <leafValues>
        -8.9445047080516815e-02 3.2907739281654358e-01</leafValues></_>
    <_>
      <internalNodes>
        0 -1 22973 1.1632541427388787e-03</internalNodes>
      <leafValues>
        -1.0319980233907700e-01 2.9574021697044373e-01</leafValues></_>
    <_>
      <internalNodes>
        0 -1 26432 -1.1640272103250027e-02</internalNodes>
      <leafValues>
        -9.5673209428787231e-01 3.6097455769777298e-02</leafValues></_>
    <_>
      <internalNodes>
        0 -1 2028 -5.7440821547061205e-04</internalNodes>
      <leafValues>
        1.9725373387336731e-01 -1.5908247232437134e-01</leafValues></_>
    <_>
      <internalNodes>
        0 -1 2678 5.4389373399317265e-03</internalNodes>
      <leafValues>
        -7.6437927782535553e-02 4.8237472772598267e-01</leafValues></_></weakClassifiers></stage3>
</opencv_storage>
