<?xml version="1.0"?>
<opencv_storage>
<cascade>
  <stageType>BOOST</stageType>
  <featureType>HAAR</featureType>
  <height>20</height>
  <width>12</width>
  <stageParams>
    <boostType>GAB</boostType>
    <minHitRate>9.9000000953674316e-01</minHitRate>
    <maxFalseAlarm>5.0000000745058060e-02</maxFalseAlarm>
    <weightTrimRate>9.4999999999999996e-01</weightTrimRate>
    <maxDepth>1</maxDepth>
    <maxWeakCount>100</maxWeakCount></stageParams>
  <featureParams>
    <maxCatCount>0</maxCatCount>
    <featSize>1</featSize>
    <mode>BASIC</mode></featureParams>
  <stageNum>10</stageNum>
  <stages>
    <!-- stage 0 -->
    <_>
      <maxWeakCount>26</maxWeakCount>
      <stageThreshold>-6.4742356538772583e-01</stageThreshold>
      <weakClassifiers>
        <_>
          <internalNodes>
            0 -1 430 -3.1894415616989136e-02</internalNodes>
          <leafValues>
            4.4307690858840942e-01 -6.4875000715255737e-01</leafValues></_>
        <_>
          <internalNodes>
            0 -1 377 -7.7233776450157166e-02</internalNodes>
          <leafValues>
            -6.1120086908340454e-01 4.3704274296760559e-01</leafValues></_>
        <_>
          <internalNodes>
            0 -1 54 -2.5074234232306480e-02</internalNodes>
          <leafValues>
            6.1805236339569092e-01 -2.9948174953460693e-01</leafValues></_>
        <_>
          <internalNodes>
            0 -1 666 -1.0512528568506241e-01</internalNodes>
          <leafValues>
            -9.3470847606658936e-01 1.7476594448089600e-01</leafValues></_>
        <_>
          <internalNodes>
            0 -1 321 5.0944234244525433e-03</internalNodes>
          <leafValues>
            -3.6667698621749878e-01 4.2358806729316711e-01</leafValues></_>
        <_>
          <internalNodes>
            0 -1 210 -6.8274070508778095e-03</internalNodes>
          <leafValues>
            4.7758731245994568e-01 -3.1243053078651428e-01</leafValues></_>
        <_>
          <internalNodes>
            0 -1 398 6.0781929641962051e-03</internalNodes>
          <leafValues>
            -3.4302723407745361e-01 4.2528676986694336e-01</leafValues></_>
        <_>
          <internalNodes>
            0 -1 463 6.2103844247758389e-03</internalNodes>
          <leafValues>
            -3.3844476938247681e-01 3.5403531789779663e-01</leafValues></_>
        <_>
          <internalNodes>
            0 -1 290 -1.4380829036235809e-01</internalNodes>
          <leafValues>
            5.9989559650421143e-01 -1.7819266021251678e-01</leafValues></_>
        <_>
          <internalNodes>
            0 -1 135 8.7911978363990784e-02</internalNodes>
          <leafValues>
            -2.1353591978549957e-01 6.2556833028793335e-01</leafValues></_>
        <_>
          <internalNodes>
            0 -1 275 -2.1220572292804718e-02</internalNodes>
          <leafValues>
            5.1094871759414673e-01 -1.8338027596473694e-01</leafValues></_>
        <_>
          <internalNodes>
            0 -1 453 3.7191674113273621e-02</internalNodes>
          <leafValues>
            -1.7462591826915741e-01 5.8829563856124878e-01</leafValues></_>
        <_>
          <internalNodes>
            0 -1 62 1.9407536834478378e-02</internalNodes>
          <leafValues>
            -1.5335901081562042e-01 6.5308749675750732e-01</leafValues></_>
        <_>
          <internalNodes>
            0 -1 380 -1.4343814551830292e-01</internalNodes>
          <leafValues>
            5.6456488370895386e-01 -1.6421619057655334e-01</leafValues></_>
        <_>
          <internalNodes>
            0 -1 399 1.6239376273006201e-03</internalNodes>
          <leafValues>
            -3.3164957165718079e-01 3.2726770639419556e-01</leafValues></_>
        <_>
          <internalNodes>
            0 -1 271 1.4693262055516243e-02</internalNodes>
          <leafValues>
            -2.8985196352005005e-01 3.6529460549354553e-01</leafValues></_>
        <_>
          <internalNodes>
            0 -1 224 -5.5980724282562733e-03</internalNodes>
          <leafValues>
            3.3132034540176392e-01 -2.9243609309196472e-01</leafValues></_>
        <_>
          <internalNodes>
            0 -1 75 -3.3862113952636719e-02</internalNodes>
          <leafValues>
            5.3570181131362915e-01 -2.0580498874187469e-01</leafValues></_>
        <_>
          <internalNodes>
            0 -1 143 -1.8001697957515717e-01</internalNodes>
          <leafValues>
            -8.9430093765258789e-01 1.0899703949689865e-01</leafValues></_>
        <_>
          <internalNodes>
            0 -1 528 6.9491082103922963e-04</internalNodes>
          <leafValues>
            -3.0986458063125610e-01 3.5734459757804871e-01</leafValues></_>
        <_>
          <internalNodes>
            0 -1 602 -2.7164962142705917e-02</internalNodes>
          <leafValues>
            4.6428325772285461e-01 -1.9785827398300171e-01</leafValues></_>
        <_>
          <internalNodes>
            0 -1 9 2.9874611645936966e-02</internalNodes>
          <leafValues>
            -1.9133445620536804e-01 4.6300533413887024e-01</leafValues></_>
        <_>
          <internalNodes>
            0 -1 29 -2.3934397846460342e-02</internalNodes>
          <leafValues>
            6.0949766635894775e-01 -2.0506803691387177e-01</leafValues></_>
        <_>
          <internalNodes>
            0 -1 693 -2.5308813899755478e-02</internalNodes>
          <leafValues>
            -1.0461871325969696e-01 8.2646608352661133e-01</leafValues></_>
        <_>
          <internalNodes>
            0 -1 458 7.8594796359539032e-02</internalNodes>
          <leafValues>
            -1.0471367090940475e-01 6.4579200744628906e-01</leafValues></_>
        <_>
          <internalNodes>
            0 -1 489 7.1973338723182678e-02</internalNodes>
          <leafValues>
            -1.8662253022193909e-01 4.7790986299514771e-01</leafValues></_></weakClassifiers></_>
    <!-- stage 1 -->
    <_>
      <maxWeakCount>49</maxWeakCount>
      <stageThreshold>-5.6832110881805420e-01</stageThreshold>
      <weakClassifiers>
        <_>
          <internalNodes>
            0 -1 429 -5.1182501018047333e-02</internalNodes>
          <leafValues>
            2.6375177502632141e-01 -6.0804671049118042e-01</leafValues></_>
        <_>
          <internalNodes>
            0 -1 57 1.8935925327241421e-03</internalNodes>
          <leafValues>
            -5.0182247161865234e-01 1.9626744091510773e-01</leafValues></_>
        <_>
          <internalNodes>
            0 -1 179 -2.2574360668659210e-01</internalNodes>
          <leafValues>
            6.3295388221740723e-01 -1.5886273980140686e-01</leafValues></_>
        <_>
          <internalNodes>
            0 -1 435 -8.4457769989967346e-03</internalNodes>
          <leafValues>
            5.3538143634796143e-01 -1.7797611653804779e-01</leafValues></_>
        <_>
          <internalNodes>
            0 -1 441 9.1809285804629326e-03</internalNodes>
          <leafValues>
            -1.5888589620590210e-01 5.3075492382049561e-01</leafValues></_>
        <_>
          <internalNodes>
            0 -1 585 -3.2543182373046875e-02</internalNodes>
          <leafValues>
            -7.0989942550659180e-01 1.4994774758815765e-01</leafValues></_>
        <_>
          <internalNodes>
            0 -1 546 -5.6495711207389832e-02</internalNodes>
          <leafValues>
            4.9163061380386353e-01 -1.5499508380889893e-01</leafValues></_>
        <_>
          <internalNodes>
            0 -1 93 3.2940425444394350e-03</internalNodes>
          <leafValues>
            1.8218313157558441e-01 -3.8896363973617554e-01</leafValues></_>
        <_>
          <internalNodes>
            0 -1 170 7.4132666923105717e-03</internalNodes>
          <leafValues>
            -1.9142943620681763e-01 3.4312379360198975e-01</leafValues></_>
        <_>
          <internalNodes>
            0 -1 141 -2.4017840623855591e-03</internalNodes>
          <leafValues>
            2.0308387279510498e-01 -3.4014585614204407e-01</leafValues></_>
        <_>
          <internalNodes>
            0 -1 107 -3.5517727956175804e-03</internalNodes>
          <leafValues>
            -8.4134668111801147e-01 8.4068268537521362e-02</leafValues></_>
        <_>
          <internalNodes>
            0 -1 307 1.2008491903543472e-02</internalNodes>
          <leafValues>
            -1.4343625307083130e-01 5.2095854282379150e-01</leafValues></_>
        <_>
          <internalNodes>
            0 -1 708 1.7859723884612322e-03</internalNodes>
          <leafValues>
            1.0508393496274948e-01 -6.8255805969238281e-01</leafValues></_>
        <_>
          <internalNodes>
            0 -1 708 -1.2613170547410846e-03</internalNodes>
          <leafValues>
            -5.4524612426757813e-01 1.1271563917398453e-01</leafValues></_>
        <_>
          <internalNodes>
            0 -1 190 6.5207369625568390e-02</internalNodes>
          <leafValues>
            -1.4002130925655365e-01 4.9878695607185364e-01</leafValues></_>
        <_>
          <internalNodes>
            0 -1 87 -1.3283106498420238e-02</internalNodes>
          <leafValues>
            -8.2938760519027710e-01 7.1656540036201477e-02</leafValues></_>
        <_>
          <internalNodes>
            0 -1 217 -3.4051444381475449e-02</internalNodes>
          <leafValues>
            -8.8455909490585327e-01 5.2792023867368698e-02</leafValues></_>
        <_>
          <internalNodes>
            0 -1 131 2.3744939826428890e-03</internalNodes>
          <leafValues>
            6.6161729395389557e-02 -7.2888940572738647e-01</leafValues></_>
        <_>
          <internalNodes>
            0 -1 34 1.7220772802829742e-02</internalNodes>
          <leafValues>
            -1.6346760094165802e-01 4.0425997972488403e-01</leafValues></_>
        <_>
          <internalNodes>
            0 -1 456 1.4418082311749458e-02</internalNodes>
          <leafValues>
            -1.6497182846069336e-01 3.9873710274696350e-01</leafValues></_>
        <_>
          <internalNodes>
            0 -1 426 2.8993831947445869e-03</internalNodes>
          <leafValues>
            -1.7762197554111481e-01 3.6409097909927368e-01</leafValues></_>
        <_>
          <internalNodes>
            0 -1 92 -2.6542162522673607e-03</internalNodes>
          <leafValues>
            -7.4798578023910522e-01 9.8032861948013306e-02</leafValues></_>
        <_>
          <internalNodes>
            0 -1 264 -9.8837211728096008e-02</internalNodes>
          <leafValues>
            5.0805419683456421e-01 -1.2340725958347321e-01</leafValues></_>
        <_>
          <internalNodes>
            0 -1 232 9.2975841835141182e-03</internalNodes>
          <leafValues>
            -1.5802609920501709e-01 3.9042085409164429e-01</leafValues></_>
        <_>
          <internalNodes>
            0 -1 407 1.6210757195949554e-01</internalNodes>
          <leafValues>
            -1.5003153681755066e-01 4.5503145456314087e-01</leafValues></_>
        <_>
          <internalNodes>
            0 -1 638 -6.1449231579899788e-03</internalNodes>
          <leafValues>
            -7.5942313671112061e-01 8.6444310843944550e-02</leafValues></_>
        <_>
          <internalNodes>
            0 -1 97 -1.5392106957733631e-02</internalNodes>
          <leafValues>
            -7.2720557451248169e-01 6.5779268741607666e-02</leafValues></_>
        <_>
          <internalNodes>
            0 -1 710 1.5322723193094134e-03</internalNodes>
          <leafValues>
            7.2907537221908569e-02 -6.3436055183410645e-01</leafValues></_>
        <_>
          <internalNodes>
            0 -1 384 4.3703272938728333e-02</internalNodes>
          <leafValues>
            5.6082390248775482e-02 -8.6577129364013672e-01</leafValues></_>
        <_>
          <internalNodes>
            0 -1 665 -1.3185126706957817e-02</internalNodes>
          <leafValues>
            3.6514124274253845e-01 -1.5484143793582916e-01</leafValues></_>
        <_>
          <internalNodes>
            0 -1 580 3.3653765916824341e-02</internalNodes>
          <leafValues>
            -1.4843596518039703e-01 4.9872279167175293e-01</leafValues></_>
        <_>
          <internalNodes>
            0 -1 233 5.0161369144916534e-02</internalNodes>
          <leafValues>
            -7.8843988478183746e-02 7.1573293209075928e-01</leafValues></_>
        <_>
          <internalNodes>
            0 -1 119 1.6130620241165161e-01</internalNodes>
          <leafValues>
            -1.3342984020709991e-01 4.4457456469535828e-01</leafValues></_>
        <_>
          <internalNodes>
            0 -1 12 -2.4160538613796234e-01</internalNodes>
          <leafValues>
            5.9424751996994019e-01 -1.1193707585334778e-01</leafValues></_>
        <_>
          <internalNodes>
            0 -1 90 1.4395722188055515e-02</internalNodes>
          <leafValues>
            6.9902256131172180e-02 -8.9624345302581787e-01</leafValues></_>
        <_>
          <internalNodes>
            0 -1 316 -2.2228132933378220e-02</internalNodes>
          <leafValues>
            -1.8208236992359161e-01 3.1532481312751770e-01</leafValues></_>
        <_>
          <internalNodes>
            0 -1 573 -2.9062192887067795e-02</internalNodes>
          <leafValues>
            7.6279735565185547e-01 -7.4128575623035431e-02</leafValues></_>
        <_>
          <internalNodes>
            0 -1 379 -9.9041424691677094e-02</internalNodes>
          <leafValues>
            4.2004525661468506e-01 -1.1836931109428406e-01</leafValues></_>
        <_>
          <internalNodes>
            0 -1 41 6.6540446132421494e-03</internalNodes>
          <leafValues>
            -1.3367542624473572e-01 3.9830559492111206e-01</leafValues></_>
        <_>
          <internalNodes>
            0 -1 647 9.0405102819204330e-03</internalNodes>
          <leafValues>
            6.9829262793064117e-02 -8.6521846055984497e-01</leafValues></_>
        <_>
          <internalNodes>
            0 -1 358 -1.1160049587488174e-02</internalNodes>
          <leafValues>
            2.7782836556434631e-01 -1.9562713801860809e-01</leafValues></_>
        <_>
          <internalNodes>
            0 -1 259 -1.1816815473139286e-02</internalNodes>
          <leafValues>
            -8.3522003889083862e-01 6.7374408245086670e-02</leafValues></_>
        <_>
          <internalNodes>
            0 -1 86 2.4780051317065954e-03</internalNodes>
          <leafValues>
            -2.5103092193603516e-01 2.0042687654495239e-01</leafValues></_>
        <_>
          <internalNodes>
            0 -1 31 2.4406850337982178e-01</internalNodes>
          <leafValues>
            -1.0793130099773407e-01 5.6688052415847778e-01</leafValues></_>
        <_>
          <internalNodes>
            0 -1 579 1.6587553545832634e-02</internalNodes>
          <leafValues>
            -1.1253207921981812e-01 4.6890524029731750e-01</leafValues></_>
        <_>
          <internalNodes>
            0 -1 386 1.2847205623984337e-02</internalNodes>
          <leafValues>
            -1.4547853171825409e-01 3.5856774449348450e-01</leafValues></_>
        <_>
          <internalNodes>
            0 -1 477 -4.5914640650153160e-03</internalNodes>
          <leafValues>
            -6.8161368370056152e-02 8.0989211797714233e-01</leafValues></_>
        <_>
          <internalNodes>
            0 -1 278 -1.9328254275023937e-03</internalNodes>
          <leafValues>
            3.4177038073539734e-01 -1.6414681077003479e-01</leafValues></_>
        <_>
          <internalNodes>
            0 -1 188 3.5715773701667786e-02</internalNodes>
          <leafValues>
            -1.3498914241790771e-01 4.2754828929901123e-01</leafValues></_></weakClassifiers></_>
    <!-- stage 2 -->
    <_>
      <maxWeakCount>59</maxWeakCount>
      <stageThreshold>-5.6567883491516113e-01</stageThreshold>
      <weakClassifiers>
        <_>
          <internalNodes>
            0 -1 226 -2.0542368292808533e-02</internalNodes>
          <leafValues>
            1.5281501412391663e-01 -5.7446807622909546e-01</leafValues></_>
        <_>
          <internalNodes>
            0 -1 710 -1.0520608630031347e-03</internalNodes>
          <leafValues>
            -5.6946092844009399e-01 1.4929290115833282e-01</leafValues></_>
        <_>
          <internalNodes>
            0 -1 0 -1.0836899280548096e-02</internalNodes>
          <leafValues>
            -2.1367669105529785e-01 4.1641488671302795e-01</leafValues></_>
        <_>
          <internalNodes>
            0 -1 129 -1.4871293306350708e-01</internalNodes>
          <leafValues>
            6.0504519939422607e-01 -1.2296991795301437e-01</leafValues></_>
        <_>
          <internalNodes>
            0 -1 72 1.3857271522283554e-02</internalNodes>
          <leafValues>
            1.7651166021823883e-01 -5.8712303638458252e-01</leafValues></_>
        <_>
          <internalNodes>
            0 -1 642 -5.6079961359500885e-03</internalNodes>
          <leafValues>
            -7.2053080797195435e-01 7.0012696087360382e-02</leafValues></_>
        <_>
          <internalNodes>
            0 -1 705 -2.5082139763981104e-03</internalNodes>
          <leafValues>
            -6.8856775760650635e-01 8.4335178136825562e-02</leafValues></_>
        <_>
          <internalNodes>
            0 -1 341 -3.9737634360790253e-03</internalNodes>
          <leafValues>
            -4.4252577424049377e-01 1.2607274949550629e-01</leafValues></_>
        <_>
          <internalNodes>
            0 -1 48 2.3863431997597218e-03</internalNodes>
          <leafValues>
            -3.5750752687454224e-01 1.7483565211296082e-01</leafValues></_>
        <_>
          <internalNodes>
            0 -1 703 2.4236047174781561e-03</internalNodes>
          <leafValues>
            9.8926506936550140e-02 -6.2788134813308716e-01</leafValues></_>
        <_>
          <internalNodes>
            0 -1 438 3.0948165804147720e-03</internalNodes>
          <leafValues>
            -1.9581283628940582e-01 3.2624322175979614e-01</leafValues></_>
        <_>
          <internalNodes>
            0 -1 688 -1.6016906592994928e-03</internalNodes>
          <leafValues>
            -4.3981850147247314e-01 1.2189953774213791e-01</leafValues></_>
        <_>
          <internalNodes>
            0 -1 63 -7.2271272540092468e-02</internalNodes>
          <leafValues>
            4.9634423851966858e-01 -1.2158550322055817e-01</leafValues></_>
        <_>
          <internalNodes>
            0 -1 437 -5.7745315134525299e-03</internalNodes>
          <leafValues>
            -6.5662726759910583e-02 7.2049021720886230e-01</leafValues></_>
        <_>
          <internalNodes>
            0 -1 120 -2.2497712634503841e-03</internalNodes>
          <leafValues>
            -6.8830525875091553e-01 8.4972299635410309e-02</leafValues></_>
        <_>
          <internalNodes>
            0 -1 71 -7.9515688121318817e-03</internalNodes>
          <leafValues>
            -7.0894342660903931e-01 6.0051761567592621e-02</leafValues></_>
        <_>
          <internalNodes>
            0 -1 587 1.1685561388731003e-02</internalNodes>
          <leafValues>
            6.2949866056442261e-02 -7.3258787393569946e-01</leafValues></_>
        <_>
          <internalNodes>
            0 -1 100 -3.3990289084613323e-03</internalNodes>
          <leafValues>
            -6.8106108903884888e-01 5.5682469159364700e-02</leafValues></_>
        <_>
          <internalNodes>
            0 -1 703 -2.7857269160449505e-03</internalNodes>
          <leafValues>
            -7.2697484493255615e-01 5.4947126656770706e-02</leafValues></_>
        <_>
          <internalNodes>
            0 -1 154 -7.5633466243743896e-02</internalNodes>
          <leafValues>
            7.9573190212249756e-01 -6.7535094916820526e-02</leafValues></_>
        <_>
          <internalNodes>
            0 -1 104 2.2077471017837524e-02</internalNodes>
          <leafValues>
            -1.6226346790790558e-01 2.7718132734298706e-01</leafValues></_>
        <_>
          <internalNodes>
            0 -1 557 -2.0372960716485977e-03</internalNodes>
          <leafValues>
            3.4507742524147034e-01 -1.4696237444877625e-01</leafValues></_>
        <_>
          <internalNodes>
            0 -1 43 -2.6131378486752510e-02</internalNodes>
          <leafValues>
            4.9662798643112183e-01 -9.2008098959922791e-02</leafValues></_>
        <_>
          <internalNodes>
            0 -1 611 -9.8864138126373291e-03</internalNodes>
          <leafValues>
            -7.0598578453063965e-01 6.8449027836322784e-02</leafValues></_>
        <_>
          <internalNodes>
            0 -1 499 -2.1014055609703064e-01</internalNodes>
          <leafValues>
            6.6597622632980347e-01 -7.7200151979923248e-02</leafValues></_>
        <_>
          <internalNodes>
            0 -1 216 1.1740438640117645e-01</internalNodes>
          <leafValues>
            -8.1474259495735168e-02 5.2766591310501099e-01</leafValues></_>
        <_>
          <internalNodes>
            0 -1 628 1.3049482367932796e-03</internalNodes>
          <leafValues>
            -2.2222897410392761e-01 2.3036575317382813e-01</leafValues></_>
        <_>
          <internalNodes>
            0 -1 395 2.9032472521066666e-03</internalNodes>
          <leafValues>
            -2.1301238238811493e-01 2.0795753598213196e-01</leafValues></_>
        <_>
          <internalNodes>
            0 -1 305 5.0026755779981613e-03</internalNodes>
          <leafValues>
            5.6469134986400604e-02 -8.0911970138549805e-01</leafValues></_>
        <_>
          <internalNodes>
            0 -1 533 -5.6331190280616283e-03</internalNodes>
          <leafValues>
            3.5694783926010132e-01 -1.3550776243209839e-01</leafValues></_>
        <_>
          <internalNodes>
            0 -1 428 1.5297114849090576e-02</internalNodes>
          <leafValues>
            6.5514862537384033e-02 -7.1416646242141724e-01</leafValues></_>
        <_>
          <internalNodes>
            0 -1 466 -1.3283939100801945e-02</internalNodes>
          <leafValues>
            2.7149569988250732e-01 -1.5414990484714508e-01</leafValues></_>
        <_>
          <internalNodes>
            0 -1 203 1.7455113120377064e-03</internalNodes>
          <leafValues>
            8.2983501255512238e-02 -5.0434851646423340e-01</leafValues></_>
        <_>
          <internalNodes>
            0 -1 160 -1.2345898896455765e-02</internalNodes>
          <leafValues>
            4.7701740264892578e-01 -9.7326509654521942e-02</leafValues></_>
        <_>
          <internalNodes>
            0 -1 178 1.9231446087360382e-02</internalNodes>
          <leafValues>
            5.4861865937709808e-02 -8.6212360858917236e-01</leafValues></_>
        <_>
          <internalNodes>
            0 -1 46 -7.8289303928613663e-03</internalNodes>
          <leafValues>
            -7.5348687171936035e-01 3.8574241101741791e-02</leafValues></_>
        <_>
          <internalNodes>
            0 -1 317 -7.7754328958690166e-03</internalNodes>
          <leafValues>
            4.5758122205734253e-01 -9.1126047074794769e-02</leafValues></_>
        <_>
          <internalNodes>
            0 -1 714 2.0275204442441463e-03</internalNodes>
          <leafValues>
            7.9894118010997772e-02 -5.2147710323333740e-01</leafValues></_>
        <_>
          <internalNodes>
            0 -1 624 4.1709234938025475e-03</internalNodes>
          <leafValues>
            -1.2481373548507690e-01 3.3311265707015991e-01</leafValues></_>
        <_>
          <internalNodes>
            0 -1 450 -3.1828689575195313e-01</internalNodes>
          <leafValues>
            -4.1836062073707581e-01 1.1407329142093658e-01</leafValues></_>
        <_>
          <internalNodes>
            0 -1 600 -9.0833380818367004e-03</internalNodes>
          <leafValues>
            -7.5874447822570801e-01 4.6250965446233749e-02</leafValues></_>
        <_>
          <internalNodes>
            0 -1 571 7.2201873990707099e-05</internalNodes>
          <leafValues>
            -2.2588305175304413e-01 1.8010574579238892e-01</leafValues></_>
        <_>
          <internalNodes>
            0 -1 669 2.7135334908962250e-02</internalNodes>
          <leafValues>
            -8.6751513183116913e-02 4.7137114405632019e-01</leafValues></_>
        <_>
          <internalNodes>
            0 -1 672 -6.5592965111136436e-03</internalNodes>
          <leafValues>
            2.4772554636001587e-01 -1.9753082096576691e-01</leafValues></_>
        <_>
          <internalNodes>
            0 -1 510 1.2658530846238136e-02</internalNodes>
          <leafValues>
            5.4908167570829391e-02 -7.1250116825103760e-01</leafValues></_>
        <_>
          <internalNodes>
            0 -1 306 -1.1475271312519908e-03</internalNodes>
          <leafValues>
            -3.3565726876258850e-01 1.1304418742656708e-01</leafValues></_>
        <_>
          <internalNodes>
            0 -1 307 1.3475535437464714e-02</internalNodes>
          <leafValues>
            -9.5439538359642029e-02 4.7161951661109924e-01</leafValues></_>
        <_>
          <internalNodes>
            0 -1 125 9.9026272073388100e-04</internalNodes>
          <leafValues>
            1.1375635117292404e-01 -3.7242209911346436e-01</leafValues></_>
        <_>
          <internalNodes>
            0 -1 115 1.2878887355327606e-02</internalNodes>
          <leafValues>
            -9.7230419516563416e-02 4.3619304895401001e-01</leafValues></_>
        <_>
          <internalNodes>
            0 -1 309 -8.1370016559958458e-03</internalNodes>
          <leafValues>
            3.0343803763389587e-01 -1.4010132849216461e-01</leafValues></_>
        <_>
          <internalNodes>
            0 -1 524 7.4200858362019062e-03</internalNodes>
          <leafValues>
            7.3850773274898529e-02 -6.0543566942214966e-01</leafValues></_>
        <_>
          <internalNodes>
            0 -1 88 1.7354588955640793e-02</internalNodes>
          <leafValues>
            8.1535622477531433e-02 -5.2724784612655640e-01</leafValues></_>
        <_>
          <internalNodes>
            0 -1 323 -1.8102414906024933e-02</internalNodes>
          <leafValues>
            6.1436432600021362e-01 -7.6334051787853241e-02</leafValues></_>
        <_>
          <internalNodes>
            0 -1 502 5.1631899550557137e-03</internalNodes>
          <leafValues>
            -1.0044846683740616e-01 4.0488532185554504e-01</leafValues></_>
        <_>
          <internalNodes>
            0 -1 81 2.5885527953505516e-02</internalNodes>
          <leafValues>
            5.7216089218854904e-02 -7.5952714681625366e-01</leafValues></_>
        <_>
          <internalNodes>
            0 -1 76 -5.5874921381473541e-03</internalNodes>
          <leafValues>
            -5.5512076616287231e-01 6.2648601830005646e-02</leafValues></_>
        <_>
          <internalNodes>
            0 -1 67 -1.3436682522296906e-02</internalNodes>
          <leafValues>
            3.0364900827407837e-01 -1.8087671697139740e-01</leafValues></_>
        <_>
          <internalNodes>
            0 -1 272 9.6485367976129055e-04</internalNodes>
          <leafValues>
            -1.6657632589340210e-01 2.4876773357391357e-01</leafValues></_>
        <_>
          <internalNodes>
            0 -1 403 4.0121595375239849e-03</internalNodes>
          <leafValues>
            -1.5619902312755585e-01 2.9838600754737854e-01</leafValues></_></weakClassifiers></_>
    <!-- stage 3 -->
    <_>
      <maxWeakCount>66</maxWeakCount>
      <stageThreshold>-6.1557501554489136e-01</stageThreshold>
      <weakClassifiers>
        <_>
          <internalNodes>
            0 -1 140 -1.1860210448503494e-02</internalNodes>
          <leafValues>
            4.8117153346538544e-02 -6.1514681577682495e-01</leafValues></_>
        <_>
          <internalNodes>
            0 -1 19 1.9740145653486252e-02</internalNodes>
          <leafValues>
            -2.7899408340454102e-01 3.9782321453094482e-01</leafValues></_>
        <_>
          <internalNodes>
            0 -1 406 -2.9520587995648384e-03</internalNodes>
          <leafValues>
            3.2483431696891785e-01 -2.2696885466575623e-01</leafValues></_>
        <_>
          <internalNodes>
            0 -1 230 5.5945608764886856e-03</internalNodes>
          <leafValues>
            -1.4305189251899719e-01 4.1163563728332520e-01</leafValues></_>
        <_>
          <internalNodes>
            0 -1 668 -3.2744333148002625e-02</internalNodes>
          <leafValues>
            7.3994880914688110e-01 -7.2906114161014557e-02</leafValues></_>
        <_>
          <internalNodes>
            0 -1 365 -1.0611416772007942e-02</internalNodes>
          <leafValues>
            3.9559426903724670e-01 -1.7196689546108246e-01</leafValues></_>
        <_>
          <internalNodes>
            0 -1 309 1.0171322152018547e-02</internalNodes>
          <leafValues>
            -1.5134641528129578e-01 4.6108543872833252e-01</leafValues></_>
        <_>
          <internalNodes>
            0 -1 448 7.0623815059661865e-02</internalNodes>
          <leafValues>
            -2.7676725387573242e-01 2.1688488125801086e-01</leafValues></_>
        <_>
          <internalNodes>
            0 -1 713 9.0728839859366417e-04</internalNodes>
          <leafValues>
            1.5023438632488251e-01 -4.1738373041152954e-01</leafValues></_>
        <_>
          <internalNodes>
            0 -1 350 -5.6299614906311035e-01</internalNodes>
          <leafValues>
            -6.1571675539016724e-01 9.4065949320793152e-02</leafValues></_>
        <_>
          <internalNodes>
            0 -1 171 1.5052327886223793e-02</internalNodes>
          <leafValues>
            -1.8704989552497864e-01 3.4826403856277466e-01</leafValues></_>
        <_>
          <internalNodes>
            0 -1 542 -5.6509892456233501e-03</internalNodes>
          <leafValues>
            -7.4254477024078369e-01 9.0452864766120911e-02</leafValues></_>
        <_>
          <internalNodes>
            0 -1 518 1.3507463037967682e-02</internalNodes>
          <leafValues>
            -1.2425713241100311e-01 4.8218497633934021e-01</leafValues></_>
        <_>
          <internalNodes>
            0 -1 24 2.0109567791223526e-02</internalNodes>
          <leafValues>
            -1.0173131525516510e-01 4.8102444410324097e-01</leafValues></_>
        <_>
          <internalNodes>
            0 -1 127 -1.3816752471029758e-03</internalNodes>
          <leafValues>
            -3.6195749044418335e-01 1.3915044069290161e-01</leafValues></_>
        <_>
          <internalNodes>
            0 -1 412 -7.2224304080009460e-02</internalNodes>
          <leafValues>
            1.0765574872493744e-01 -4.7510185837745667e-01</leafValues></_>
        <_>
          <internalNodes>
            0 -1 655 -2.0846370607614517e-03</internalNodes>
          <leafValues>
            -2.8729069232940674e-01 1.6563931107521057e-01</leafValues></_>
        <_>
          <internalNodes>
            0 -1 151 -2.4097528308629990e-02</internalNodes>
          <leafValues>
            6.0803443193435669e-01 -1.0369600355625153e-01</leafValues></_>
        <_>
          <internalNodes>
            0 -1 629 -2.0378686487674713e-02</internalNodes>
          <leafValues>
            3.9930877089500427e-01 -1.1588773876428604e-01</leafValues></_>
        <_>
          <internalNodes>
            0 -1 122 2.8516973834484816e-03</internalNodes>
          <leafValues>
            1.3579580187797546e-01 -3.8368865847587585e-01</leafValues></_>
        <_>
          <internalNodes>
            0 -1 509 5.4457895457744598e-03</internalNodes>
          <leafValues>
            -1.7767810821533203e-01 2.6080924272537231e-01</leafValues></_>
        <_>
          <internalNodes>
            0 -1 220 -8.4139600396156311e-02</internalNodes>
          <leafValues>
            4.7232365608215332e-01 -8.9335113763809204e-02</leafValues></_>
        <_>
          <internalNodes>
            0 -1 144 -1.2783591635525227e-02</internalNodes>
          <leafValues>
            3.4460052847862244e-01 -1.3437749445438385e-01</leafValues></_>
        <_>
          <internalNodes>
            0 -1 511 -1.3557930942624807e-03</internalNodes>
          <leafValues>
            4.4242832064628601e-01 -1.0667984932661057e-01</leafValues></_>
        <_>
          <internalNodes>
            0 -1 696 -3.2035291660577059e-03</internalNodes>
          <leafValues>
            -6.6052389144897461e-01 6.0896344482898712e-02</leafValues></_>
        <_>
          <internalNodes>
            0 -1 294 -2.8783116489648819e-02</internalNodes>
          <leafValues>
            3.6684283614158630e-01 -1.1147356033325195e-01</leafValues></_>
        <_>
          <internalNodes>
            0 -1 436 -7.1189180016517639e-04</internalNodes>
          <leafValues>
            -2.9516628384590149e-01 1.5044158697128296e-01</leafValues></_>
        <_>
          <internalNodes>
            0 -1 155 -2.5115620344877243e-02</internalNodes>
          <leafValues>
            3.0408316850662231e-01 -1.2279456853866577e-01</leafValues></_>
        <_>
          <internalNodes>
            0 -1 381 -1.5056370757520199e-03</internalNodes>
          <leafValues>
            3.0386513471603394e-01 -1.4311484992504120e-01</leafValues></_>
        <_>
          <internalNodes>
            0 -1 51 -6.6938339732587337e-03</internalNodes>
          <leafValues>
            -7.3834294080734253e-01 6.4768128097057343e-02</leafValues></_>
        <_>
          <internalNodes>
            0 -1 435 1.1591617017984390e-02</internalNodes>
          <leafValues>
            -9.7880274057388306e-02 4.9448925256729126e-01</leafValues></_>
        <_>
          <internalNodes>
            0 -1 476 -4.0660420199856162e-04</internalNodes>
          <leafValues>
            -2.2423826158046722e-01 2.0283557474613190e-01</leafValues></_>
        <_>
          <internalNodes>
            0 -1 370 7.7128000557422638e-03</internalNodes>
          <leafValues>
            -7.4551433324813843e-02 5.0451600551605225e-01</leafValues></_>
        <_>
          <internalNodes>
            0 -1 120 1.4644765760749578e-03</internalNodes>
          <leafValues>
            1.0267268866300583e-01 -4.5348682999610901e-01</leafValues></_>
        <_>
          <internalNodes>
            0 -1 644 5.0832610577344894e-03</internalNodes>
          <leafValues>
            -1.2088964134454727e-01 3.6741024255752563e-01</leafValues></_>
        <_>
          <internalNodes>
            0 -1 488 -1.9414417445659637e-02</internalNodes>
          <leafValues>
            -6.1586838960647583e-01 7.1256428956985474e-02</leafValues></_>
        <_>
          <internalNodes>
            0 -1 645 -5.1055680960416794e-03</internalNodes>
          <leafValues>
            -5.5730140209197998e-01 5.5799268186092377e-02</leafValues></_>
        <_>
          <internalNodes>
            0 -1 286 -2.6204297319054604e-03</internalNodes>
          <leafValues>
            4.2448672652244568e-01 -9.6843957901000977e-02</leafValues></_>
        <_>
          <internalNodes>
            0 -1 357 -4.0469560772180557e-03</internalNodes>
          <leafValues>
            3.7180674076080322e-01 -1.0074459761381149e-01</leafValues></_>
        <_>
          <internalNodes>
            0 -1 712 6.2567484565079212e-04</internalNodes>
          <leafValues>
            1.1788786202669144e-01 -3.4048029780387878e-01</leafValues></_>
        <_>
          <internalNodes>
            0 -1 610 -1.6701216809451580e-03</internalNodes>
          <leafValues>
            3.3508020639419556e-01 -1.2110462784767151e-01</leafValues></_>
        <_>
          <internalNodes>
            0 -1 421 2.3627206683158875e-02</internalNodes>
          <leafValues>
            1.0224846750497818e-01 -3.7501710653305054e-01</leafValues></_>
        <_>
          <internalNodes>
            0 -1 366 -2.0708180963993073e-03</internalNodes>
          <leafValues>
            -6.8112343549728394e-02 6.5107822418212891e-01</leafValues></_>
        <_>
          <internalNodes>
            0 -1 554 -3.4247793257236481e-02</internalNodes>
          <leafValues>
            1.1934694647789001e-01 -3.9329391717910767e-01</leafValues></_>
        <_>
          <internalNodes>
            0 -1 211 6.7924819886684418e-02</internalNodes>
          <leafValues>
            -7.0628590881824493e-02 5.4747146368026733e-01</leafValues></_>
        <_>
          <internalNodes>
            0 -1 103 3.1835194677114487e-03</internalNodes>
          <leafValues>
            7.6253280043601990e-02 -5.3616482019424438e-01</leafValues></_>
        <_>
          <internalNodes>
            0 -1 691 -4.2018098756670952e-03</internalNodes>
          <leafValues>
            -7.2439081966876984e-02 5.0803768634796143e-01</leafValues></_>
        <_>
          <internalNodes>
            0 -1 553 -4.9355113878846169e-04</internalNodes>
          <leafValues>
            2.0739792287349701e-01 -1.8142405152320862e-01</leafValues></_>
        <_>
          <internalNodes>
            0 -1 205 -5.4691489785909653e-03</internalNodes>
          <leafValues>
            4.5303377509117126e-01 -7.7504053711891174e-02</leafValues></_>
        <_>
          <internalNodes>
            0 -1 660 3.6536764353513718e-02</internalNodes>
          <leafValues>
            -6.7969486117362976e-02 5.1784825325012207e-01</leafValues></_>
        <_>
          <internalNodes>
            0 -1 707 -2.1393510978668928e-03</internalNodes>
          <leafValues>
            -5.4791826009750366e-01 6.7994005978107452e-02</leafValues></_>
        <_>
          <internalNodes>
            0 -1 218 -1.8147656694054604e-02</internalNodes>
          <leafValues>
            1.3923990726470947e-01 -2.6492136716842651e-01</leafValues></_>
        <_>
          <internalNodes>
            0 -1 17 2.9239293932914734e-01</internalNodes>
          <leafValues>
            -1.6847725212574005e-01 2.5693738460540771e-01</leafValues></_>
        <_>
          <internalNodes>
            0 -1 45 -5.1532197743654251e-02</internalNodes>
          <leafValues>
            8.5892625153064728e-02 -4.2381927371025085e-01</leafValues></_>
        <_>
          <internalNodes>
            0 -1 651 -1.5058856224641204e-03</internalNodes>
          <leafValues>
            3.4101188182830811e-01 -9.8234318196773529e-02</leafValues></_>
        <_>
          <internalNodes>
            0 -1 715 -5.4380861110985279e-03</internalNodes>
          <leafValues>
            -6.7853862047195435e-01 5.6594848632812500e-02</leafValues></_>
        <_>
          <internalNodes>
            0 -1 574 -4.1010577231645584e-02</internalNodes>
          <leafValues>
            2.5493615865707397e-01 -1.3887085020542145e-01</leafValues></_>
        <_>
          <internalNodes>
            0 -1 242 8.1789437681436539e-03</internalNodes>
          <leafValues>
            -6.3524499535560608e-02 5.3968131542205811e-01</leafValues></_>
        <_>
          <internalNodes>
            0 -1 139 -1.2119440361857414e-02</internalNodes>
          <leafValues>
            -4.6454340219497681e-02 6.8921267986297607e-01</leafValues></_>
        <_>
          <internalNodes>
            0 -1 480 -1.9724376499652863e-02</internalNodes>
          <leafValues>
            -7.7415966987609863e-01 4.9085531383752823e-02</leafValues></_>
        <_>
          <internalNodes>
            0 -1 446 6.5533081069588661e-03</internalNodes>
          <leafValues>
            -1.1481757462024689e-01 3.2376337051391602e-01</leafValues></_>
        <_>
          <internalNodes>
            0 -1 690 4.8904828727245331e-03</internalNodes>
          <leafValues>
            5.5666994303464890e-02 -7.1542179584503174e-01</leafValues></_>
        <_>
          <internalNodes>
            0 -1 257 -8.7000690400600433e-03</internalNodes>
          <leafValues>
            3.4507474303245544e-01 -1.0172419995069504e-01</leafValues></_>
        <_>
          <internalNodes>
            0 -1 215 -4.9444682896137238e-02</internalNodes>
          <leafValues>
            4.4142314791679382e-01 -7.8163713216781616e-02</leafValues></_>
        <_>
          <internalNodes>
            0 -1 611 6.7804516293108463e-03</internalNodes>
          <leafValues>
            7.1870192885398865e-02 -5.7728070020675659e-01</leafValues></_>
        <_>
          <internalNodes>
            0 -1 364 1.3684154488146305e-02</internalNodes>
          <leafValues>
            4.4437769800424576e-02 -6.2420296669006348e-01</leafValues></_></weakClassifiers></_>
    <!-- stage 4 -->
    <_>
      <maxWeakCount>93</maxWeakCount>
      <stageThreshold>-5.2922105789184570e-01</stageThreshold>
      <weakClassifiers>
        <_>
          <internalNodes>
            0 -1 457 -1.5498988796025515e-03</internalNodes>
          <leafValues>
            -4.3203372508287430e-02 -5.4496538639068604e-01</leafValues></_>
        <_>
          <internalNodes>
            0 -1 422 -2.5730746984481812e-01</internalNodes>
          <leafValues>
            8.0972552299499512e-01 -1.0155413299798965e-01</leafValues></_>
        <_>
          <internalNodes>
            0 -1 335 1.1827005445957184e-01</internalNodes>
          <leafValues>
            -1.1617682129144669e-01 4.4878199696540833e-01</leafValues></_>
        <_>
          <internalNodes>
            0 -1 583 6.8737519904971123e-03</internalNodes>
          <leafValues>
            -1.9704566895961761e-01 2.3030102252960205e-01</leafValues></_>
        <_>
          <internalNodes>
            0 -1 174 -5.2075052261352539e-01</internalNodes>
          <leafValues>
            -9.0569168329238892e-01 5.2713524550199509e-02</leafValues></_>
        <_>
          <internalNodes>
            0 -1 322 1.5154056251049042e-02</internalNodes>
          <leafValues>
            -1.7516282200813293e-01 2.4649769067764282e-01</leafValues></_>
        <_>
          <internalNodes>
            0 -1 225 -2.5781076401472092e-02</internalNodes>
          <leafValues>
            2.9143336415290833e-01 -1.2927229702472687e-01</leafValues></_>
        <_>
          <internalNodes>
            0 -1 612 -3.2034302130341530e-03</internalNodes>
          <leafValues>
            4.2376345396041870e-01 -8.6711354553699493e-02</leafValues></_>
        <_>
          <internalNodes>
            0 -1 109 -3.0869761481881142e-02</internalNodes>
          <leafValues>
            -3.9916864037513733e-01 1.2106529623270035e-01</leafValues></_>
        <_>
          <internalNodes>
            0 -1 606 6.2592877075076103e-03</internalNodes>
          <leafValues>
            -9.3242518603801727e-02 4.7027775645256042e-01</leafValues></_>
        <_>
          <internalNodes>
            0 -1 603 -4.9987975507974625e-03</internalNodes>
          <leafValues>
            3.1134560704231262e-01 -1.1856578290462494e-01</leafValues></_>
        <_>
          <internalNodes>
            0 -1 11 -6.6726401448249817e-02</internalNodes>
          <leafValues>
            5.0728607177734375e-01 -5.0201836973428726e-02</leafValues></_>
        <_>
          <internalNodes>
            0 -1 3 -3.6878220736980438e-02</internalNodes>
          <leafValues>
            3.9729329943656921e-01 -8.9658118784427643e-02</leafValues></_>
        <_>
          <internalNodes>
            0 -1 26 1.7307791858911514e-02</internalNodes>
          <leafValues>
            -1.5323291718959808e-01 3.1570857763290405e-01</leafValues></_>
        <_>
          <internalNodes>
            0 -1 567 -8.5792317986488342e-03</internalNodes>
          <leafValues>
            -1.0332188755273819e-01 3.1402310729026794e-01</leafValues></_>
        <_>
          <internalNodes>
            0 -1 269 3.3007901161909103e-02</internalNodes>
          <leafValues>
            -1.7811110615730286e-01 2.0453092455863953e-01</leafValues></_>
        <_>
          <internalNodes>
            0 -1 682 -7.7921813353896141e-03</internalNodes>
          <leafValues>
            -8.6950433254241943e-01 4.5011192560195923e-02</leafValues></_>
        <_>
          <internalNodes>
            0 -1 196 -5.2889989456161857e-04</internalNodes>
          <leafValues>
            1.5972404181957245e-01 -1.8735827505588531e-01</leafValues></_>
        <_>
          <internalNodes>
            0 -1 267 1.8301224336028099e-03</internalNodes>
          <leafValues>
            -1.6745860874652863e-01 2.1213106811046600e-01</leafValues></_>
        <_>
          <internalNodes>
            0 -1 408 3.0002733692526817e-03</internalNodes>
          <leafValues>
            -1.0387308895587921e-01 3.0986332893371582e-01</leafValues></_>
        <_>
          <internalNodes>
            0 -1 246 3.5550000611692667e-03</internalNodes>
          <leafValues>
            -2.0354862511157990e-01 1.5909969806671143e-01</leafValues></_>
        <_>
          <internalNodes>
            0 -1 107 1.0506005492061377e-03</internalNodes>
          <leafValues>
            7.7283591032028198e-02 -3.8888651132583618e-01</leafValues></_>
        <_>
          <internalNodes>
            0 -1 50 4.3765679001808167e-03</internalNodes>
          <leafValues>
            4.8435851931571960e-02 -5.7952600717544556e-01</leafValues></_>
        <_>
          <internalNodes>
            0 -1 531 -2.4216601625084877e-02</internalNodes>
          <leafValues>
            -9.6106904745101929e-01 2.5971638038754463e-02</leafValues></_>
        <_>
          <internalNodes>
            0 -1 133 9.9610094912350178e-04</internalNodes>
          <leafValues>
            8.2385137677192688e-02 -3.2182708382606506e-01</leafValues></_>
        <_>
          <internalNodes>
            0 -1 49 -1.0628278832882643e-03</internalNodes>
          <leafValues>
            2.0293883979320526e-01 -1.4175769686698914e-01</leafValues></_>
        <_>
          <internalNodes>
            0 -1 686 -2.1111520472913980e-03</internalNodes>
          <leafValues>
            -2.6718875393271446e-02 9.6287381649017334e-01</leafValues></_>
        <_>
          <internalNodes>
            0 -1 121 -7.0098764263093472e-04</internalNodes>
          <leafValues>
            -2.1140169352293015e-02 8.8730472326278687e-01</leafValues></_>
        <_>
          <internalNodes>
            0 -1 601 1.1955840513110161e-02</internalNodes>
          <leafValues>
            -1.0357014089822769e-01 2.6466628909111023e-01</leafValues></_>
        <_>
          <internalNodes>
            0 -1 661 -1.9332941621541977e-02</internalNodes>
          <leafValues>
            2.6514413952827454e-01 -1.2733305990695953e-01</leafValues></_>
        <_>
          <internalNodes>
            0 -1 572 3.2189786434173584e-02</internalNodes>
          <leafValues>
            4.5512419193983078e-02 -6.7936444282531738e-01</leafValues></_>
        <_>
          <internalNodes>
            0 -1 353 -1.6129729337990284e-03</internalNodes>
          <leafValues>
            3.1903013586997986e-01 -1.0304520279169083e-01</leafValues></_>
        <_>
          <internalNodes>
            0 -1 670 2.1125385537743568e-03</internalNodes>
          <leafValues>
            -1.4006319642066956e-01 2.3351880908012390e-01</leafValues></_>
        <_>
          <internalNodes>
            0 -1 447 4.2060601711273193e-01</internalNodes>
          <leafValues>
            -3.1365621834993362e-02 8.0854499340057373e-01</leafValues></_>
        <_>
          <internalNodes>
            0 -1 163 -2.2427871823310852e-01</internalNodes>
          <leafValues>
            2.9878693819046021e-01 -9.4694279134273529e-02</leafValues></_>
        <_>
          <internalNodes>
            0 -1 25 -1.7724964767694473e-02</internalNodes>
          <leafValues>
            3.5492601990699768e-01 -1.0287976264953613e-01</leafValues></_>
        <_>
          <internalNodes>
            0 -1 459 8.8796066120266914e-03</internalNodes>
          <leafValues>
            -2.5808086991310120e-01 1.1916176229715347e-01</leafValues></_>
        <_>
          <internalNodes>
            0 -1 663 2.2561907768249512e-02</internalNodes>
          <leafValues>
            -6.6131673753261566e-02 4.1528263688087463e-01</leafValues></_>
        <_>
          <internalNodes>
            0 -1 712 -1.8424042500555515e-03</internalNodes>
          <leafValues>
            -4.7410821914672852e-01 6.0026962310075760e-02</leafValues></_>
        <_>
          <internalNodes>
            0 -1 433 -1.7510214820504189e-02</internalNodes>
          <leafValues>
            2.7724725008010864e-01 -1.2973596155643463e-01</leafValues></_>
        <_>
          <internalNodes>
            0 -1 627 -5.3470482816919684e-04</internalNodes>
          <leafValues>
            2.2636000812053680e-01 -1.3299666345119476e-01</leafValues></_>
        <_>
          <internalNodes>
            0 -1 239 5.4935443401336670e-01</internalNodes>
          <leafValues>
            -5.4118689149618149e-02 5.2781188488006592e-01</leafValues></_>
        <_>
          <internalNodes>
            0 -1 13 -3.1253382563591003e-01</internalNodes>
          <leafValues>
            4.8481714725494385e-01 -6.5748818218708038e-02</leafValues></_>
        <_>
          <internalNodes>
            0 -1 215 5.9453144669532776e-02</internalNodes>
          <leafValues>
            -6.0268681496381760e-02 4.3838021159172058e-01</leafValues></_>
        <_>
          <internalNodes>
            0 -1 133 -2.2078794427216053e-03</internalNodes>
          <leafValues>
            -2.7567309141159058e-01 1.3763181865215302e-01</leafValues></_>
        <_>
          <internalNodes>
            0 -1 575 1.1837886646389961e-02</internalNodes>
          <leafValues>
            -7.4165627360343933e-02 3.9678192138671875e-01</leafValues></_>
        <_>
          <internalNodes>
            0 -1 617 6.0753608122467995e-03</internalNodes>
          <leafValues>
            6.2518700957298279e-02 -4.8071640729904175e-01</leafValues></_>
        <_>
          <internalNodes>
            0 -1 498 2.2933694999665022e-03</internalNodes>
          <leafValues>
            -1.1516527831554413e-01 2.5074571371078491e-01</leafValues></_>
        <_>
          <internalNodes>
            0 -1 356 -6.8945775274187326e-04</internalNodes>
          <leafValues>
            2.1998235583305359e-01 -1.2230408936738968e-01</leafValues></_>
        <_>
          <internalNodes>
            0 -1 42 2.6915790513157845e-02</internalNodes>
          <leafValues>
            -4.6111457049846649e-02 5.4504233598709106e-01</leafValues></_>
        <_>
          <internalNodes>
            0 -1 584 7.2187662590295076e-04</internalNodes>
          <leafValues>
            -1.5530072152614594e-01 1.7919103801250458e-01</leafValues></_>
        <_>
          <internalNodes>
            0 -1 410 -5.5074812844395638e-03</internalNodes>
          <leafValues>
            2.9339554905891418e-01 -1.0210338979959488e-01</leafValues></_>
        <_>
          <internalNodes>
            0 -1 636 9.4301849603652954e-03</internalNodes>
          <leafValues>
            5.5191360414028168e-02 -6.1985272169113159e-01</leafValues></_>
        <_>
          <internalNodes>
            0 -1 495 1.0754186660051346e-01</internalNodes>
          <leafValues>
            -6.9989070296287537e-02 4.3088257312774658e-01</leafValues></_>
        <_>
          <internalNodes>
            0 -1 112 6.4594328403472900e-02</internalNodes>
          <leafValues>
            4.4616151601076126e-02 -7.1274846792221069e-01</leafValues></_>
        <_>
          <internalNodes>
            0 -1 356 2.1205458324402571e-03</internalNodes>
          <leafValues>
            -1.0006768256425858e-01 3.0898964405059814e-01</leafValues></_>
        <_>
          <internalNodes>
            0 -1 383 1.2276494817342609e-04</internalNodes>
          <leafValues>
            -1.7911298573017120e-01 1.5890437364578247e-01</leafValues></_>
        <_>
          <internalNodes>
            0 -1 231 -2.3960307240486145e-02</internalNodes>
          <leafValues>
            4.4162100553512573e-01 -6.1799034476280212e-02</leafValues></_>
        <_>
          <internalNodes>
            0 -1 180 4.7533646225929260e-01</internalNodes>
          <leafValues>
            -4.1201487183570862e-02 6.5330147743225098e-01</leafValues></_>
        <_>
          <internalNodes>
            0 -1 621 -1.7479445785284042e-02</internalNodes>
          <leafValues>
            4.2902141809463501e-01 -7.1451552212238312e-02</leafValues></_>
        <_>
          <internalNodes>
            0 -1 708 5.2704778499901295e-04</internalNodes>
          <leafValues>
            9.3051180243492126e-02 -3.1542259454727173e-01</leafValues></_>
        <_>
          <internalNodes>
            0 -1 297 -7.7959157526493073e-02</internalNodes>
          <leafValues>
            3.9801013469696045e-01 -7.6330386102199554e-02</leafValues></_>
        <_>
          <internalNodes>
            0 -1 423 2.5453851558268070e-03</internalNodes>
          <leafValues>
            -9.2161521315574646e-02 3.3007806539535522e-01</leafValues></_>
        <_>
          <internalNodes>
            0 -1 261 2.5086030364036560e-02</internalNodes>
          <leafValues>
            -8.3661042153835297e-02 3.0847477912902832e-01</leafValues></_>
        <_>
          <internalNodes>
            0 -1 221 -4.9879830330610275e-03</internalNodes>
          <leafValues>
            -4.7735682129859924e-01 6.7278429865837097e-02</leafValues></_>
        <_>
          <internalNodes>
            0 -1 556 -9.9212983623147011e-03</internalNodes>
          <leafValues>
            -6.4382147789001465e-01 3.3959884196519852e-02</leafValues></_>
        <_>
          <internalNodes>
            0 -1 557 9.6331955865025520e-04</internalNodes>
          <leafValues>
            -1.1051247268915176e-01 2.6890465617179871e-01</leafValues></_>
        <_>
          <internalNodes>
            0 -1 66 -3.0082527548074722e-02</internalNodes>
          <leafValues>
            -4.9104332923889160e-01 5.4812919348478317e-02</leafValues></_>
        <_>
          <internalNodes>
            0 -1 343 -6.2054344452917576e-03</internalNodes>
          <leafValues>
            -8.0315572023391724e-01 2.6560332626104355e-02</leafValues></_>
        <_>
          <internalNodes>
            0 -1 467 2.9578777030110359e-03</internalNodes>
          <leafValues>
            -7.8178338706493378e-02 3.9656022191047668e-01</leafValues></_>
        <_>
          <internalNodes>
            0 -1 562 6.1980553437024355e-04</internalNodes>
          <leafValues>
            -1.1823436617851257e-01 2.1888199448585510e-01</leafValues></_>
        <_>
          <internalNodes>
            0 -1 111 -1.4116333797574043e-02</internalNodes>
          <leafValues>
            -6.3603591918945313e-01 4.0581129491329193e-02</leafValues></_>
        <_>
          <internalNodes>
            0 -1 415 -2.5121115148067474e-02</internalNodes>
          <leafValues>
            -6.3177782297134399e-01 3.8420248776674271e-02</leafValues></_>
        <_>
          <internalNodes>
            0 -1 213 -9.5367210451513529e-04</internalNodes>
          <leafValues>
            1.2863035500049591e-01 -1.9853052496910095e-01</leafValues></_>
        <_>
          <internalNodes>
            0 -1 464 -8.5788734257221222e-02</internalNodes>
          <leafValues>
            -7.8173059225082397e-01 3.4809719771146774e-02</leafValues></_>
        <_>
          <internalNodes>
            0 -1 529 -1.5348140150308609e-03</internalNodes>
          <leafValues>
            -3.9131134748458862e-02 7.8491121530532837e-01</leafValues></_>
        <_>
          <internalNodes>
            0 -1 634 -9.4540398567914963e-03</internalNodes>
          <leafValues>
            8.2318514585494995e-02 -3.5968074202537537e-01</leafValues></_>
        <_>
          <internalNodes>
            0 -1 700 -2.3112267255783081e-02</internalNodes>
          <leafValues>
            -9.7577571868896484e-02 2.8759193420410156e-01</leafValues></_>
        <_>
          <internalNodes>
            0 -1 525 2.6207065675407648e-03</internalNodes>
          <leafValues>
            -1.0582167655229568e-01 2.8154483437538147e-01</leafValues></_>
        <_>
          <internalNodes>
            0 -1 622 5.7227192446589470e-03</internalNodes>
          <leafValues>
            -3.8278091698884964e-02 6.2765437364578247e-01</leafValues></_>
        <_>
          <internalNodes>
            0 -1 468 9.0326480567455292e-03</internalNodes>
          <leafValues>
            7.0000685751438141e-02 -4.0944895148277283e-01</leafValues></_>
        <_>
          <internalNodes>
            0 -1 549 -2.1521106362342834e-02</internalNodes>
          <leafValues>
            3.5542705655097961e-01 -8.4816746413707733e-02</leafValues></_>
        <_>
          <internalNodes>
            0 -1 560 1.5977895818650723e-03</internalNodes>
          <leafValues>
            -9.0328715741634369e-02 2.9436585307121277e-01</leafValues></_>
        <_>
          <internalNodes>
            0 -1 262 -9.0948399156332016e-03</internalNodes>
          <leafValues>
            3.7472891807556152e-01 -7.3570102453231812e-02</leafValues></_>
        <_>
          <internalNodes>
            0 -1 304 -6.9370837882161140e-03</internalNodes>
          <leafValues>
            1.4175163209438324e-01 -2.1229206025600433e-01</leafValues></_>
        <_>
          <internalNodes>
            0 -1 134 8.7102791294455528e-03</internalNodes>
          <leafValues>
            -9.3332953751087189e-02 3.0577465891838074e-01</leafValues></_>
        <_>
          <internalNodes>
            0 -1 20 1.9551213085651398e-01</internalNodes>
          <leafValues>
            -9.6474461257457733e-02 2.9836368560791016e-01</leafValues></_>
        <_>
          <internalNodes>
            0 -1 166 -1.0161779355257750e-03</internalNodes>
          <leafValues>
            2.0027089118957520e-01 -1.7764487862586975e-01</leafValues></_>
        <_>
          <internalNodes>
            0 -1 591 -6.2191588804125786e-03</internalNodes>
          <leafValues>
            -4.5322343707084656e-01 6.5631762146949768e-02</leafValues></_>
        <_>
          <internalNodes>
            0 -1 207 -5.5920833256095648e-04</internalNodes>
          <leafValues>
            1.7563948035240173e-01 -1.6275937855243683e-01</leafValues></_>
        <_>
          <internalNodes>
            0 -1 219 1.5428686747327447e-03</internalNodes>
          <leafValues>
            6.0551319271326065e-02 -4.6610566973686218e-01</leafValues></_>
        <_>
          <internalNodes>
            0 -1 237 2.2744596004486084e-01</internalNodes>
          <leafValues>
            -5.2013803273439407e-02 6.4367568492889404e-01</leafValues></_>
        <_>
          <internalNodes>
            0 -1 563 3.2721925526857376e-04</internalNodes>
          <leafValues>
            1.3236935436725616e-01 -2.1654412150382996e-01</leafValues></_></weakClassifiers></_>
    <!-- stage 5 -->
    <_>
      <maxWeakCount>100</maxWeakCount>
      <stageThreshold>-6.2251532077789307e-01</stageThreshold>
      <weakClassifiers>
        <_>
          <internalNodes>
            0 -1 473 -3.6724407225847244e-02</internalNodes>
          <leafValues>
            1.3567839562892914e-01 -4.3412527441978455e-01</leafValues></_>
        <_>
          <internalNodes>
            0 -1 161 -3.6381214857101440e-01</internalNodes>
          <leafValues>
            3.9652049541473389e-02 -8.0682653188705444e-01</leafValues></_>
        <_>
          <internalNodes>
            0 -1 64 -9.1388989239931107e-03</internalNodes>
          <leafValues>
            -9.2833244800567627e-01 5.9751037508249283e-02</leafValues></_>
        <_>
          <internalNodes>
            0 -1 318 -2.9535833746194839e-03</internalNodes>
          <leafValues>
            -6.0278411954641342e-02 6.4103651046752930e-01</leafValues></_>
        <_>
          <internalNodes>
            0 -1 18 2.9363388195633888e-02</internalNodes>
          <leafValues>
            -1.3796716928482056e-01 2.9060426354408264e-01</leafValues></_>
        <_>
          <internalNodes>
            0 -1 405 -1.0107134282588959e-01</internalNodes>
          <leafValues>
            6.7389464378356934e-01 -5.4632186889648438e-02</leafValues></_>
        <_>
          <internalNodes>
            0 -1 274 4.4308519136393443e-05</internalNodes>
          <leafValues>
            -3.0127546191215515e-01 1.1968030780553818e-01</leafValues></_>
        <_>
          <internalNodes>
            0 -1 153 -1.7391657829284668e-01</internalNodes>
          <leafValues>
            5.2871650457382202e-01 -7.2211250662803650e-02</leafValues></_>
        <_>
          <internalNodes>
            0 -1 683 -8.0894473940134048e-03</internalNodes>
          <leafValues>
            -8.3995813131332397e-01 3.5196326673030853e-02</leafValues></_>
        <_>
          <internalNodes>
            0 -1 502 -1.3741075526922941e-03</internalNodes>
          <leafValues>
            2.0046693086624146e-01 -1.5036638081073761e-01</leafValues></_>
        <_>
          <internalNodes>
            0 -1 61 9.5259658992290497e-03</internalNodes>
          <leafValues>
            3.9266634732484818e-02 -7.6264119148254395e-01</leafValues></_>
        <_>
          <internalNodes>
            0 -1 243 -1.1438637040555477e-02</internalNodes>
          <leafValues>
            3.6274868249893188e-01 -8.6093530058860779e-02</leafValues></_>
        <_>
          <internalNodes>
            0 -1 668 -4.0705665946006775e-02</internalNodes>
          <leafValues>
            5.2394098043441772e-01 -6.8167194724082947e-02</leafValues></_>
        <_>
          <internalNodes>
            0 -1 113 -1.2761864345520735e-03</internalNodes>
          <leafValues>
            -4.0507030487060547e-01 8.0794230103492737e-02</leafValues></_>
        <_>
          <internalNodes>
            0 -1 113 1.5117302536964417e-03</internalNodes>
          <leafValues>
            7.9189084470272064e-02 -5.0925475358963013e-01</leafValues></_>
        <_>
          <internalNodes>
            0 -1 402 3.2292853575199842e-03</internalNodes>
          <leafValues>
            -2.1477046608924866e-01 1.3304831087589264e-01</leafValues></_>
        <_>
          <internalNodes>
            0 -1 147 -6.8208561278879642e-03</internalNodes>
          <leafValues>
            3.8262058049440384e-02 -7.5694251060485840e-01</leafValues></_>
        <_>
          <internalNodes>
            0 -1 230 1.4042013324797153e-02</internalNodes>
          <leafValues>
            -6.1838407069444656e-02 4.6676149964332581e-01</leafValues></_>
        <_>
          <internalNodes>
            0 -1 314 1.9224319607019424e-02</internalNodes>
          <leafValues>
            4.5869652181863785e-02 -7.4177139997482300e-01</leafValues></_>
        <_>
          <internalNodes>
            0 -1 707 1.6358718276023865e-03</internalNodes>
          <leafValues>
            4.6411801129579544e-02 -5.0175261497497559e-01</leafValues></_>
        <_>
          <internalNodes>
            0 -1 539 -6.8499427288770676e-03</internalNodes>
          <leafValues>
            -5.7123857736587524e-01 4.5198488980531693e-02</leafValues></_>
        <_>
          <internalNodes>
            0 -1 234 1.4773932099342346e-01</internalNodes>
          <leafValues>
            2.2963091731071472e-02 -9.6601766347885132e-01</leafValues></_>
        <_>
          <internalNodes>
            0 -1 181 5.8690048754215240e-03</internalNodes>
          <leafValues>
            2.4011312052607536e-02 -7.7846139669418335e-01</leafValues></_>
        <_>
          <internalNodes>
            0 -1 212 -5.6866719387471676e-04</internalNodes>
          <leafValues>
            -2.0246066153049469e-01 1.3298916816711426e-01</leafValues></_>
        <_>
          <internalNodes>
            0 -1 375 -4.2747281491756439e-02</internalNodes>
          <leafValues>
            4.8666521906852722e-01 -5.8444026857614517e-02</leafValues></_>
        <_>
          <internalNodes>
            0 -1 479 8.6157713085412979e-03</internalNodes>
          <leafValues>
            6.6043138504028320e-02 -5.4640632867813110e-01</leafValues></_>
        <_>
          <internalNodes>
            0 -1 268 -1.8869828432798386e-02</internalNodes>
          <leafValues>
            2.4761255085468292e-01 -1.1111012846231461e-01</leafValues></_>
        <_>
          <internalNodes>
            0 -1 91 -9.1049578040838242e-03</internalNodes>
          <leafValues>
            -5.3858709335327148e-01 5.1376402378082275e-02</leafValues></_>
        <_>
          <internalNodes>
            0 -1 620 -2.2750088828615844e-04</internalNodes>
          <leafValues>
            -1.9861496984958649e-01 1.2367799878120422e-01</leafValues></_>
        <_>
          <internalNodes>
            0 -1 526 -7.9091768711805344e-03</internalNodes>
          <leafValues>
            5.0237071514129639e-01 -5.7497888803482056e-02</leafValues></_>
        <_>
          <internalNodes>
            0 -1 222 1.7305698245763779e-02</internalNodes>
          <leafValues>
            -7.6622359454631805e-02 3.2199838757514954e-01</leafValues></_>
        <_>
          <internalNodes>
            0 -1 425 -1.0924463160336018e-02</internalNodes>
          <leafValues>
            -6.5795224905014038e-01 4.2046763002872467e-02</leafValues></_>
        <_>
          <internalNodes>
            0 -1 604 9.7361356019973755e-03</internalNodes>
          <leafValues>
            4.1674792766571045e-02 -5.6778252124786377e-01</leafValues></_>
        <_>
          <internalNodes>
            0 -1 89 2.7061831206083298e-03</internalNodes>
          <leafValues>
            4.6891152858734131e-02 -5.1067328453063965e-01</leafValues></_>
        <_>
          <internalNodes>
            0 -1 182 6.5249786712229252e-03</internalNodes>
          <leafValues>
            -1.3574658334255219e-01 1.9916670024394989e-01</leafValues></_>
        <_>
          <internalNodes>
            0 -1 365 -1.4451578259468079e-02</internalNodes>
          <leafValues>
            2.8329044580459595e-01 -1.0545731335878372e-01</leafValues></_>
        <_>
          <internalNodes>
            0 -1 37 1.3405266217887402e-02</internalNodes>
          <leafValues>
            -9.2162713408470154e-02 2.7826189994812012e-01</leafValues></_>
        <_>
          <internalNodes>
            0 -1 368 -1.1526347137987614e-02</internalNodes>
          <leafValues>
            -4.7948816418647766e-01 5.6709375232458115e-02</leafValues></_>
        <_>
          <internalNodes>
            0 -1 187 -1.1947248131036758e-02</internalNodes>
          <leafValues>
            4.2157852649688721e-01 -6.9338202476501465e-02</leafValues></_>
        <_>
          <internalNodes>
            0 -1 172 -1.8916164990514517e-03</internalNodes>
          <leafValues>
            1.9937585294246674e-01 -1.5222162008285522e-01</leafValues></_>
        <_>
          <internalNodes>
            0 -1 120 -1.9523407099768519e-03</internalNodes>
          <leafValues>
            -5.5950999259948730e-01 4.8381492495536804e-02</leafValues></_>
        <_>
          <internalNodes>
            0 -1 607 7.3873572051525116e-02</internalNodes>
          <leafValues>
            -4.1288439184427261e-02 7.0746517181396484e-01</leafValues></_>
        <_>
          <internalNodes>
            0 -1 710 6.8684795405715704e-04</internalNodes>
          <leafValues>
            8.9921273291110992e-02 -3.3912912011146545e-01</leafValues></_>
        <_>
          <internalNodes>
            0 -1 639 5.9981830418109894e-04</internalNodes>
          <leafValues>
            -1.5512216091156006e-01 2.0239943265914917e-01</leafValues></_>
        <_>
          <internalNodes>
            0 -1 313 8.9791289065033197e-04</internalNodes>
          <leafValues>
            -1.3694635033607483e-01 2.0008355379104614e-01</leafValues></_>
        <_>
          <internalNodes>
            0 -1 110 -6.6157273948192596e-02</internalNodes>
          <leafValues>
            7.5085449218750000e-01 -3.7357274442911148e-02</leafValues></_>
        <_>
          <internalNodes>
            0 -1 711 -1.3484404189512134e-04</internalNodes>
          <leafValues>
            -2.1981820464134216e-02 9.0175688266754150e-01</leafValues></_>
        <_>
          <internalNodes>
            0 -1 347 -1.1212072335183620e-02</internalNodes>
          <leafValues>
            3.9384654164314270e-01 -6.1527542769908905e-02</leafValues></_>
        <_>
          <internalNodes>
            0 -1 545 -4.7794245183467865e-03</internalNodes>
          <leafValues>
            -3.8473504781723022e-01 7.8658170998096466e-02</leafValues></_>
        <_>
          <internalNodes>
            0 -1 558 2.9016996268182993e-03</internalNodes>
          <leafValues>
            -1.3327726721763611e-01 2.0238196849822998e-01</leafValues></_>
        <_>
          <internalNodes>
            0 -1 94 -9.1314110904932022e-03</internalNodes>
          <leafValues>
            -9.3678730726242065e-01 2.4040941148996353e-02</leafValues></_>
        <_>
          <internalNodes>
            0 -1 564 -1.6879517352208495e-03</internalNodes>
          <leafValues>
            1.3025833666324615e-01 -1.8578955531120300e-01</leafValues></_>
        <_>
          <internalNodes>
            0 -1 513 -3.9050593972206116e-02</internalNodes>
          <leafValues>
            -4.0471675992012024e-01 9.0827286243438721e-02</leafValues></_>
        <_>
          <internalNodes>
            0 -1 208 -2.7603226900100708e-01</internalNodes>
          <leafValues>
            5.1469957828521729e-01 -6.4041435718536377e-02</leafValues></_>
        <_>
          <internalNodes>
            0 -1 263 -6.6136354580521584e-03</internalNodes>
          <leafValues>
            2.8000503778457642e-02 -9.7039425373077393e-01</leafValues></_>
        <_>
          <internalNodes>
            0 -1 657 -3.7323611322790384e-03</internalNodes>
          <leafValues>
            -4.8003739118576050e-01 4.4395897537469864e-02</leafValues></_>
        <_>
          <internalNodes>
            0 -1 382 2.2290102206170559e-03</internalNodes>
          <leafValues>
            -9.7547598183155060e-02 2.8552207350730896e-01</leafValues></_>
        <_>
          <internalNodes>
            0 -1 10 4.9641381949186325e-02</internalNodes>
          <leafValues>
            -4.8032525926828384e-02 5.2886015176773071e-01</leafValues></_>
        <_>
          <internalNodes>
            0 -1 478 -1.1121274903416634e-02</internalNodes>
          <leafValues>
            -1.3145916163921356e-01 2.0062735676765442e-01</leafValues></_>
        <_>
          <internalNodes>
            0 -1 541 -3.5217928234487772e-03</internalNodes>
          <leafValues>
            -6.8601304292678833e-01 3.3181961625814438e-02</leafValues></_>
        <_>
          <internalNodes>
            0 -1 56 -2.5559905916452408e-03</internalNodes>
          <leafValues>
            2.0426413416862488e-01 -1.2314646691083908e-01</leafValues></_>
        <_>
          <internalNodes>
            0 -1 452 -4.4163264334201813e-02</internalNodes>
          <leafValues>
            -8.2119017839431763e-01 3.0130833387374878e-02</leafValues></_>
        <_>
          <internalNodes>
            0 -1 695 -4.8087099567055702e-03</internalNodes>
          <leafValues>
            -6.9220012426376343e-01 2.5827184319496155e-02</leafValues></_>
        <_>
          <internalNodes>
            0 -1 536 8.4179744124412537e-02</internalNodes>
          <leafValues>
            -3.9158146828413010e-02 6.8902403116226196e-01</leafValues></_>
        <_>
          <internalNodes>
            0 -1 462 -4.0131802670657635e-03</internalNodes>
          <leafValues>
            -2.7354598045349121e-01 9.3088820576667786e-02</leafValues></_>
        <_>
          <internalNodes>
            0 -1 519 7.1391901001334190e-03</internalNodes>
          <leafValues>
            4.6676658093929291e-02 -5.2710765600204468e-01</leafValues></_>
        <_>
          <internalNodes>
            0 -1 516 1.5644032973796129e-03</internalNodes>
          <leafValues>
            -9.8743230104446411e-02 2.6846680045127869e-01</leafValues></_>
        <_>
          <internalNodes>
            0 -1 581 -1.7401266843080521e-02</internalNodes>
          <leafValues>
            4.4628149271011353e-01 -6.7930564284324646e-02</leafValues></_>
        <_>
          <internalNodes>
            0 -1 503 -2.0309793949127197e-01</internalNodes>
          <leafValues>
            4.8880595713853836e-02 -5.9581631422042847e-01</leafValues></_>
        <_>
          <internalNodes>
            0 -1 288 1.3793064281344414e-02</internalNodes>
          <leafValues>
            -8.0254167318344116e-02 3.0814570188522339e-01</leafValues></_>
        <_>
          <internalNodes>
            0 -1 559 7.2693400084972382e-02</internalNodes>
          <leafValues>
            3.7752319127321243e-02 -6.8754720687866211e-01</leafValues></_>
        <_>
          <internalNodes>
            0 -1 334 -1.7296951264142990e-02</internalNodes>
          <leafValues>
            2.2886127233505249e-01 -1.0968391597270966e-01</leafValues></_>
        <_>
          <internalNodes>
            0 -1 369 -4.7860154882073402e-03</internalNodes>
          <leafValues>
            2.1789740025997162e-01 -1.1606918275356293e-01</leafValues></_>
        <_>
          <internalNodes>
            0 -1 30 1.1439792811870575e-02</internalNodes>
          <leafValues>
            -1.1120030283927917e-01 2.1941590309143066e-01</leafValues></_>
        <_>
          <internalNodes>
            0 -1 55 -2.1434250473976135e-01</internalNodes>
          <leafValues>
            -1. 2.0462872460484505e-02</leafValues></_>
        <_>
          <internalNodes>
            0 -1 40 6.7591560073196888e-03</internalNodes>
          <leafValues>
            1.8615571781992912e-02 -7.8952592611312866e-01</leafValues></_>
        <_>
          <internalNodes>
            0 -1 292 4.6268613077700138e-03</internalNodes>
          <leafValues>
            9.1595143079757690e-02 -2.3603178560733795e-01</leafValues></_>
        <_>
          <internalNodes>
            0 -1 125 3.3239009790122509e-03</internalNodes>
          <leafValues>
            3.4420635551214218e-02 -6.4897143840789795e-01</leafValues></_>
        <_>
          <internalNodes>
            0 -1 95 3.2897450029850006e-02</internalNodes>
          <leafValues>
            -5.9492781758308411e-02 3.8205593824386597e-01</leafValues></_>
        <_>
          <internalNodes>
            0 -1 648 -1.3038848526775837e-02</internalNodes>
          <leafValues>
            5.4981589317321777e-01 -3.8509845733642578e-02</leafValues></_>
        <_>
          <internalNodes>
            0 -1 653 -9.5279859378933907e-03</internalNodes>
          <leafValues>
            -7.4265581369400024e-01 3.3891968429088593e-02</leafValues></_>
        <_>
          <internalNodes>
            0 -1 176 -1.1609336361289024e-02</internalNodes>
          <leafValues>
            -7.9594367742538452e-01 2.4720717221498489e-02</leafValues></_>
        <_>
          <internalNodes>
            0 -1 597 7.5987470336258411e-04</internalNodes>
          <leafValues>
            -1.4085088670253754e-01 1.5045112371444702e-01</leafValues></_>
        <_>
          <internalNodes>
            0 -1 550 1.9102765247225761e-02</internalNodes>
          <leafValues>
            4.4729147106409073e-02 -7.0887738466262817e-01</leafValues></_>
        <_>
          <internalNodes>
            0 -1 397 1.3068959815427661e-03</internalNodes>
          <leafValues>
            -1.2186177074909210e-01 1.8190369009971619e-01</leafValues></_>
        <_>
          <internalNodes>
            0 -1 116 -1.3857109006494284e-03</internalNodes>
          <leafValues>
            -3.5352874547243118e-02 7.8427946567535400e-01</leafValues></_>
        <_>
          <internalNodes>
            0 -1 236 9.3727916479110718e-02</internalNodes>
          <leafValues>
            -2.9225371778011322e-02 6.0846436023712158e-01</leafValues></_>
        <_>
          <internalNodes>
            0 -1 680 4.4451963156461716e-02</internalNodes>
          <leafValues>
            -2.7947857975959778e-02 6.6389143466949463e-01</leafValues></_>
        <_>
          <internalNodes>
            0 -1 649 -7.9113580286502838e-03</internalNodes>
          <leafValues>
            -5.5094361305236816e-01 4.3733466416597366e-02</leafValues></_>
        <_>
          <internalNodes>
            0 -1 684 3.9022695273160934e-03</internalNodes>
          <leafValues>
            5.4881121963262558e-02 -3.8373973965644836e-01</leafValues></_>
        <_>
          <internalNodes>
            0 -1 698 -1.5157603193074465e-03</internalNodes>
          <leafValues>
            -3.5639432072639465e-01 5.6363631039857864e-02</leafValues></_>
        <_>
          <internalNodes>
            0 -1 610 -3.9431918412446976e-03</internalNodes>
          <leafValues>
            3.5372781753540039e-01 -6.5996155142784119e-02</leafValues></_>
        <_>
          <internalNodes>
            0 -1 251 1.0781839489936829e-02</internalNodes>
          <leafValues>
            -2.0687595009803772e-01 1.1330562084913254e-01</leafValues></_>
        <_>
          <internalNodes>
            0 -1 6 1.6110498458147049e-02</internalNodes>
          <leafValues>
            -8.5251085460186005e-02 2.6914200186729431e-01</leafValues></_>
        <_>
          <internalNodes>
            0 -1 73 -2.0631012739613652e-04</internalNodes>
          <leafValues>
            1.8666490912437439e-01 -1.3483893871307373e-01</leafValues></_>
        <_>
          <internalNodes>
            0 -1 641 2.4665754288434982e-02</internalNodes>
          <leafValues>
            -7.1852438151836395e-02 3.3219206333160400e-01</leafValues></_>
        <_>
          <internalNodes>
            0 -1 643 9.9036274477839470e-03</internalNodes>
          <leafValues>
            4.1766703128814697e-02 -7.2075951099395752e-01</leafValues></_>
        <_>
          <internalNodes>
            0 -1 392 -5.6686129420995712e-02</internalNodes>
          <leafValues>
            8.0394560098648071e-01 -3.5438284277915955e-02</leafValues></_>
        <_>
          <internalNodes>
            0 -1 266 -1.4750655973330140e-03</internalNodes>
          <leafValues>
            2.4292738735675812e-01 -9.4122298061847687e-02</leafValues></_>
        <_>
          <internalNodes>
            0 -1 197 -4.8063337802886963e-02</internalNodes>
          <leafValues>
            2.5845786929130554e-01 -9.3966379761695862e-02</leafValues></_></weakClassifiers></_>
    <!-- stage 6 -->
    <_>
      <maxWeakCount>100</maxWeakCount>
      <stageThreshold>-6.5645867586135864e-01</stageThreshold>
      <weakClassifiers>
        <_>
          <internalNodes>
            0 -1 136 -6.4508616924285889e-02</internalNodes>
          <leafValues>
            -8.7248325347900391e-02 -4.9557521939277649e-01</leafValues></_>
        <_>
          <internalNodes>
            0 -1 320 3.5362502094358206e-03</internalNodes>
          <leafValues>
            -2.4797327816486359e-01 1.2079495936632156e-01</leafValues></_>
        <_>
          <internalNodes>
            0 -1 106 2.7030134201049805e-01</internalNodes>
          <leafValues>
            -5.1283624023199081e-02 5.7708001136779785e-01</leafValues></_>
        <_>
          <internalNodes>
            0 -1 508 -5.9882579371333122e-03</internalNodes>
          <leafValues>
            1.9210763275623322e-01 -1.5353739261627197e-01</leafValues></_>
        <_>
          <internalNodes>
            0 -1 454 1.1838407954201102e-03</internalNodes>
          <leafValues>
            -1.8299123644828796e-01 1.7919026315212250e-01</leafValues></_>
        <_>
          <internalNodes>
            0 -1 652 -1.0289877653121948e-02</internalNodes>
          <leafValues>
            -8.2645404338836670e-01 6.0696884989738464e-02</leafValues></_>
        <_>
          <internalNodes>
            0 -1 124 -1.3812129199504852e-01</internalNodes>
          <leafValues>
            2.6139837503433228e-01 -1.1297303438186646e-01</leafValues></_>
        <_>
          <internalNodes>
            0 -1 613 1.0454140603542328e-02</internalNodes>
          <leafValues>
            -1.3974115252494812e-01 2.9130846261978149e-01</leafValues></_>
        <_>
          <internalNodes>
            0 -1 500 -7.0084035396575928e-02</internalNodes>
          <leafValues>
            -8.1749391555786133e-01 3.1590744853019714e-02</leafValues></_>
        <_>
          <internalNodes>
            0 -1 625 5.3786630742251873e-03</internalNodes>
          <leafValues>
            -6.8088293075561523e-02 4.4128528237342834e-01</leafValues></_>
        <_>
          <internalNodes>
            0 -1 714 8.9226872660219669e-04</internalNodes>
          <leafValues>
            6.5215423703193665e-02 -3.5884222388267517e-01</leafValues></_>
        <_>
          <internalNodes>
            0 -1 113 5.6489167036488652e-04</internalNodes>
          <leafValues>
            8.2604706287384033e-02 -2.8388309478759766e-01</leafValues></_>
        <_>
          <internalNodes>
            0 -1 352 -4.4317007064819336e-02</internalNodes>
          <leafValues>
            -5.6042921543121338e-01 4.3898623436689377e-02</leafValues></_>
        <_>
          <internalNodes>
            0 -1 105 -1.3340294361114502e-02</internalNodes>
          <leafValues>
            -6.9512569904327393e-01 2.7112316340208054e-02</leafValues></_>
        <_>
          <internalNodes>
            0 -1 357 7.8522413969039917e-03</internalNodes>
          <leafValues>
            -7.2807356715202332e-02 3.6233943700790405e-01</leafValues></_>
        <_>
          <internalNodes>
            0 -1 677 -4.0779225528240204e-02</internalNodes>
          <leafValues>
            4.0763524174690247e-01 -5.2432440221309662e-02</leafValues></_>
        <_>
          <internalNodes>
            0 -1 566 -1.1579958954825997e-03</internalNodes>
          <leafValues>
            -2.5080162286758423e-01 9.5625616610050201e-02</leafValues></_>
        <_>
          <internalNodes>
            0 -1 465 -1.8862245604395866e-02</internalNodes>
          <leafValues>
            -6.6823291778564453e-01 3.1353317201137543e-02</leafValues></_>
        <_>
          <internalNodes>
            0 -1 656 2.0455759949982166e-03</internalNodes>
          <leafValues>
            6.3552342355251312e-02 -3.7609490752220154e-01</leafValues></_>
        <_>
          <internalNodes>
            0 -1 114 9.1356970369815826e-03</internalNodes>
          <leafValues>
            -7.0045284926891327e-02 3.3306914567947388e-01</leafValues></_>
        <_>
          <internalNodes>
            0 -1 227 2.5236210785806179e-03</internalNodes>
          <leafValues>
            5.9399381279945374e-02 -3.9394384622573853e-01</leafValues></_>
        <_>
          <internalNodes>
            0 -1 543 -1.7524776048958302e-03</internalNodes>
          <leafValues>
            2.1411430835723877e-01 -1.1277557909488678e-01</leafValues></_>
        <_>
          <internalNodes>
            0 -1 279 -6.9204028695821762e-03</internalNodes>
          <leafValues>
            -5.7116627693176270e-01 4.5966804027557373e-02</leafValues></_>
        <_>
          <internalNodes>
            0 -1 28 4.5349359512329102e-02</internalNodes>
          <leafValues>
            -8.5293523967266083e-02 3.4653335809707642e-01</leafValues></_>
        <_>
          <internalNodes>
            0 -1 340 -2.3427617549896240e-01</internalNodes>
          <leafValues>
            4.5864507555961609e-01 -5.4090835154056549e-02</leafValues></_>
        <_>
          <internalNodes>
            0 -1 302 -1.0400086641311646e-02</internalNodes>
          <leafValues>
            2.6235386729240417e-01 -9.8778553307056427e-02</leafValues></_>
        <_>
          <internalNodes>
            0 -1 156 5.1452451944351196e-01</internalNodes>
          <leafValues>
            -8.2346364855766296e-02 3.5372695326805115e-01</leafValues></_>
        <_>
          <internalNodes>
            0 -1 507 -1.4483868144452572e-03</internalNodes>
          <leafValues>
            2.6768046617507935e-01 -9.2748723924160004e-02</leafValues></_>
        <_>
          <internalNodes>
            0 -1 191 1.1263360083103180e-01</internalNodes>
          <leafValues>
            -7.2727806866168976e-02 3.7754088640213013e-01</leafValues></_>
        <_>
          <internalNodes>
            0 -1 58 4.1189119219779968e-02</internalNodes>
          <leafValues>
            2.6820562779903412e-02 -9.0741389989852905e-01</leafValues></_>
        <_>
          <internalNodes>
            0 -1 82 5.4206429049372673e-03</internalNodes>
          <leafValues>
            2.0723678171634674e-02 -7.6637905836105347e-01</leafValues></_>
        <_>
          <internalNodes>
            0 -1 214 3.0410606414079666e-02</internalNodes>
          <leafValues>
            -8.0271691083908081e-02 2.9688555002212524e-01</leafValues></_>
        <_>
          <internalNodes>
            0 -1 373 -4.8210285604000092e-02</internalNodes>
          <leafValues>
            2.7443933486938477e-01 -9.0893410146236420e-02</leafValues></_>
        <_>
          <internalNodes>
            0 -1 534 1.7580620944499969e-02</internalNodes>
          <leafValues>
            6.1748299747705460e-02 -3.7889611721038818e-01</leafValues></_>
        <_>
          <internalNodes>
            0 -1 410 2.8681904077529907e-03</internalNodes>
          <leafValues>
            -1.3293108344078064e-01 1.9318301975727081e-01</leafValues></_>
        <_>
          <internalNodes>
            0 -1 250 1.1519688367843628e-01</internalNodes>
          <leafValues>
            4.0739707648754120e-02 -5.3193795680999756e-01</leafValues></_>
        <_>
          <internalNodes>
            0 -1 238 2.7204704284667969e-01</internalNodes>
          <leafValues>
            -3.8203015923500061e-02 7.6712214946746826e-01</leafValues></_>
        <_>
          <internalNodes>
            0 -1 141 -5.9576231986284256e-02</internalNodes>
          <leafValues>
            -7.0219194889068604e-01 3.6110725253820419e-02</leafValues></_>
        <_>
          <internalNodes>
            0 -1 152 1.2109708040952682e-02</internalNodes>
          <leafValues>
            -8.4848679602146149e-02 2.7966165542602539e-01</leafValues></_>
        <_>
          <internalNodes>
            0 -1 280 -9.4340555369853973e-03</internalNodes>
          <leafValues>
            -8.2900089025497437e-01 2.9733996838331223e-02</leafValues></_>
        <_>
          <internalNodes>
            0 -1 52 -2.0763490349054337e-02</internalNodes>
          <leafValues>
            2.0021060481667519e-02 -7.4548190832138062e-01</leafValues></_>
        <_>
          <internalNodes>
            0 -1 175 -4.9291115254163742e-02</internalNodes>
          <leafValues>
            -3.1050267815589905e-01 6.6050097346305847e-02</leafValues></_>
        <_>
          <internalNodes>
            0 -1 92 1.1759062763303518e-03</internalNodes>
          <leafValues>
            6.8404503166675568e-02 -3.5015904903411865e-01</leafValues></_>
        <_>
          <internalNodes>
            0 -1 77 -8.9754149317741394e-02</internalNodes>
          <leafValues>
            3.0268880724906921e-01 -7.9430788755416870e-02</leafValues></_>
        <_>
          <internalNodes>
            0 -1 128 2.8668516315519810e-03</internalNodes>
          <leafValues>
            -1.7325928807258606e-01 1.3593152165412903e-01</leafValues></_>
        <_>
          <internalNodes>
            0 -1 605 8.7281892774626613e-04</internalNodes>
          <leafValues>
            -9.3705423176288605e-02 2.4582929909229279e-01</leafValues></_>
        <_>
          <internalNodes>
            0 -1 598 -5.5825468152761459e-03</internalNodes>
          <leafValues>
            1.7155905067920685e-01 -1.6877807676792145e-01</leafValues></_>
        <_>
          <internalNodes>
            0 -1 289 1.7092373222112656e-02</internalNodes>
          <leafValues>
            1.1935090273618698e-01 -1.8162854015827179e-01</leafValues></_>
        <_>
          <internalNodes>
            0 -1 354 -5.7612510863691568e-04</internalNodes>
          <leafValues>
            1.2699247896671295e-01 -1.8306137621402740e-01</leafValues></_>
        <_>
          <internalNodes>
            0 -1 551 1.3183415867388248e-03</internalNodes>
          <leafValues>
            -1.2941808998584747e-01 1.7775285243988037e-01</leafValues></_>
        <_>
          <internalNodes>
            0 -1 608 -8.8067110627889633e-03</internalNodes>
          <leafValues>
            -6.9489705562591553e-01 3.6168731749057770e-02</leafValues></_>
        <_>
          <internalNodes>
            0 -1 204 -1.0787246283143759e-03</internalNodes>
          <leafValues>
            2.3395222425460815e-01 -9.4822771847248077e-02</leafValues></_>
        <_>
          <internalNodes>
            0 -1 692 -7.5487224385142326e-03</internalNodes>
          <leafValues>
            -4.7795817255973816e-01 4.3858941644430161e-02</leafValues></_>
        <_>
          <internalNodes>
            0 -1 291 3.1387796625494957e-03</internalNodes>
          <leafValues>
            -7.1465983986854553e-02 3.6784261465072632e-01</leafValues></_>
        <_>
          <internalNodes>
            0 -1 325 2.5319937616586685e-02</internalNodes>
          <leafValues>
            5.4622638970613480e-02 -4.3737837672233582e-01</leafValues></_>
        <_>
          <internalNodes>
            0 -1 712 2.4945419281721115e-03</internalNodes>
          <leafValues>
            3.4003213047981262e-02 -5.5126184225082397e-01</leafValues></_>
        <_>
          <internalNodes>
            0 -1 244 -2.3929748684167862e-02</internalNodes>
          <leafValues>
            5.5778986215591431e-01 -4.3172556906938553e-02</leafValues></_>
        <_>
          <internalNodes>
            0 -1 256 -1.7424514517188072e-03</internalNodes>
          <leafValues>
            -4.7248286008834839e-01 4.9542132765054703e-02</leafValues></_>
        <_>
          <internalNodes>
            0 -1 664 4.8284780234098434e-02</internalNodes>
          <leafValues>
            -5.5469162762165070e-02 4.2611107230186462e-01</leafValues></_>
        <_>
          <internalNodes>
            0 -1 586 9.3517461791634560e-03</internalNodes>
          <leafValues>
            -8.9108705520629883e-02 2.9049086570739746e-01</leafValues></_>
        <_>
          <internalNodes>
            0 -1 658 -7.8680375590920448e-03</internalNodes>
          <leafValues>
            -7.9721999168395996e-01 3.2456625252962112e-02</leafValues></_>
        <_>
          <internalNodes>
            0 -1 596 9.7695859149098396e-03</internalNodes>
          <leafValues>
            3.0091397464275360e-02 -5.2411180734634399e-01</leafValues></_>
        <_>
          <internalNodes>
            0 -1 642 -9.4730928540229797e-03</internalNodes>
          <leafValues>
            -8.7021934986114502e-01 2.1949898451566696e-02</leafValues></_>
        <_>
          <internalNodes>
            0 -1 565 3.7012891843914986e-03</internalNodes>
          <leafValues>
            -6.5374121069908142e-02 3.3166602253913879e-01</leafValues></_>
        <_>
          <internalNodes>
            0 -1 228 1.0211624205112457e-02</internalNodes>
          <leafValues>
            5.3943615406751633e-02 -4.0925845503807068e-01</leafValues></_>
        <_>
          <internalNodes>
            0 -1 388 1.8604844808578491e-02</internalNodes>
          <leafValues>
            -5.3683437407016754e-02 4.2540138959884644e-01</leafValues></_>
        <_>
          <internalNodes>
            0 -1 172 -2.2173788398504257e-02</internalNodes>
          <leafValues>
            -5.5370491743087769e-01 3.9764054119586945e-02</leafValues></_>
        <_>
          <internalNodes>
            0 -1 270 8.4027564153075218e-03</internalNodes>
          <leafValues>
            -7.7051162719726563e-02 2.7273035049438477e-01</leafValues></_>
        <_>
          <internalNodes>
            0 -1 569 -2.0928112789988518e-03</internalNodes>
          <leafValues>
            2.1056021749973297e-01 -9.7010500729084015e-02</leafValues></_>
        <_>
          <internalNodes>
            0 -1 202 3.7822815775871277e-01</internalNodes>
          <leafValues>
            -2.6706095784902573e-02 7.4679547548294067e-01</leafValues></_>
        <_>
          <internalNodes>
            0 -1 255 3.4521669149398804e-02</internalNodes>
          <leafValues>
            3.2256629317998886e-02 -7.5901156663894653e-01</leafValues></_>
        <_>
          <internalNodes>
            0 -1 702 4.9244826659560204e-03</internalNodes>
          <leafValues>
            1.7296684905886650e-02 -7.9934513568878174e-01</leafValues></_>
        <_>
          <internalNodes>
            0 -1 108 6.2863552011549473e-03</internalNodes>
          <leafValues>
            3.6699086427688599e-02 -4.5050451159477234e-01</leafValues></_>
        <_>
          <internalNodes>
            0 -1 74 -2.6647150516510010e-02</internalNodes>
          <leafValues>
            5.0710368156433105e-01 -4.5101996511220932e-02</leafValues></_>
        <_>
          <internalNodes>
            0 -1 118 -8.4272874519228935e-03</internalNodes>
          <leafValues>
            -3.5479938983917236e-01 6.3859760761260986e-02</leafValues></_>
        <_>
          <internalNodes>
            0 -1 560 -2.0186826586723328e-03</internalNodes>
          <leafValues>
            2.5145691633224487e-01 -8.9414320886135101e-02</leafValues></_>
        <_>
          <internalNodes>
            0 -1 650 2.2852583788335323e-03</internalNodes>
          <leafValues>
            -6.3233628869056702e-02 3.3068200945854187e-01</leafValues></_>
        <_>
          <internalNodes>
            0 -1 681 3.5570986568927765e-02</internalNodes>
          <leafValues>
            -3.4636706113815308e-02 6.2408959865570068e-01</leafValues></_>
        <_>
          <internalNodes>
            0 -1 385 4.8356167972087860e-02</internalNodes>
          <leafValues>
            2.9769975692033768e-02 -8.6200428009033203e-01</leafValues></_>
        <_>
          <internalNodes>
            0 -1 165 -1.8814266659319401e-03</internalNodes>
          <leafValues>
            1.4180202782154083e-01 -1.4462400972843170e-01</leafValues></_>
        <_>
          <internalNodes>
            0 -1 16 1.2891337275505066e-01</internalNodes>
          <leafValues>
            -1.2085656076669693e-01 2.3959581553936005e-01</leafValues></_>
        <_>
          <internalNodes>
            0 -1 85 -4.0254503488540649e-02</internalNodes>
          <leafValues>
            -3.2624661922454834e-02 6.6713058948516846e-01</leafValues></_>
        <_>
          <internalNodes>
            0 -1 614 -2.0674902480095625e-03</internalNodes>
          <leafValues>
            -1.8588197231292725e-01 1.1506412923336029e-01</leafValues></_>
        <_>
          <internalNodes>
            0 -1 337 8.3943991921842098e-04</internalNodes>
          <leafValues>
            -1.3012033700942993e-01 1.7432591319084167e-01</leafValues></_>
        <_>
          <internalNodes>
            0 -1 331 6.6891290247440338e-02</internalNodes>
          <leafValues>
            -6.1339389532804489e-02 4.1168934106826782e-01</leafValues></_>
        <_>
          <internalNodes>
            0 -1 522 -2.3790942505002022e-03</internalNodes>
          <leafValues>
            1.0450447350740433e-01 -1.9910500943660736e-01</leafValues></_>
        <_>
          <internalNodes>
            0 -1 582 6.3255215063691139e-03</internalNodes>
          <leafValues>
            -1.1729444563388824e-01 1.9929637014865875e-01</leafValues></_>
        <_>
          <internalNodes>
            0 -1 276 -1.3722084462642670e-02</internalNodes>
          <leafValues>
            -3.6448800563812256e-01 5.8384712785482407e-02</leafValues></_>
        <_>
          <internalNodes>
            0 -1 310 2.3019991815090179e-02</internalNodes>
          <leafValues>
            -7.2647243738174438e-02 3.1084963679313660e-01</leafValues></_>
        <_>
          <internalNodes>
            0 -1 538 8.6979009211063385e-03</internalNodes>
          <leafValues>
            4.8528980463743210e-02 -4.4217360019683838e-01</leafValues></_>
        <_>
          <internalNodes>
            0 -1 39 -7.7989883720874786e-03</internalNodes>
          <leafValues>
            4.3553000688552856e-01 -5.2114170044660568e-02</leafValues></_>
        <_>
          <internalNodes>
            0 -1 23 9.2206732369959354e-04</internalNodes>
          <leafValues>
            -8.7685383856296539e-02 2.3778076469898224e-01</leafValues></_>
        <_>
          <internalNodes>
            0 -1 248 1.6499411314725876e-02</internalNodes>
          <leafValues>
            3.3197153359651566e-02 -6.9059133529663086e-01</leafValues></_>
        <_>
          <internalNodes>
            0 -1 100 1.5070876106619835e-03</internalNodes>
          <leafValues>
            4.5869410037994385e-02 -3.9528748393058777e-01</leafValues></_>
        <_>
          <internalNodes>
            0 -1 206 -2.3013412952423096e-02</internalNodes>
          <leafValues>
            6.2135517597198486e-01 -3.6229766905307770e-02</leafValues></_>
        <_>
          <internalNodes>
            0 -1 357 -8.4929652512073517e-03</internalNodes>
          <leafValues>
            4.1599887609481812e-01 -4.5757252722978592e-02</leafValues></_>
        <_>
          <internalNodes>
            0 -1 98 -2.1426945924758911e-01</internalNodes>
          <leafValues>
            -7.7742761373519897e-01 2.6190651580691338e-02</leafValues></_>
        <_>
          <internalNodes>
            0 -1 368 1.6642700880765915e-02</internalNodes>
          <leafValues>
            3.3573828637599945e-02 -5.4089218378067017e-01</leafValues></_>
        <_>
          <internalNodes>
            0 -1 688 -2.6618116535246372e-03</internalNodes>
          <leafValues>
            -3.6586019396781921e-01 5.2397932857275009e-02</leafValues></_>
        <_>
          <internalNodes>
            0 -1 130 2.3138873279094696e-02</internalNodes>
          <leafValues>
            2.8620902448892593e-02 -6.5918743610382080e-01</leafValues></_></weakClassifiers></_>
    <!-- stage 7 -->
    <_>
      <maxWeakCount>100</maxWeakCount>
      <stageThreshold>-7.3469519615173340e-01</stageThreshold>
      <weakClassifiers>
        <_>
          <internalNodes>
            0 -1 335 -1.4889162778854370e-01</internalNodes>
          <leafValues>
            1.0055866092443466e-01 -4.1543340682983398e-01</leafValues></_>
        <_>
          <internalNodes>
            0 -1 223 -2.3777391761541367e-02</internalNodes>
          <leafValues>
            4.0679475665092468e-01 -1.1712350696325302e-01</leafValues></_>
        <_>
          <internalNodes>
            0 -1 342 -1.5946163330227137e-03</internalNodes>
          <leafValues>
            1.6337516903877258e-01 -2.1641825139522552e-01</leafValues></_>
        <_>
          <internalNodes>
            0 -1 360 -1.0100775957107544e-01</internalNodes>
          <leafValues>
            1.8324819207191467e-01 -1.5305195748806000e-01</leafValues></_>
        <_>
          <internalNodes>
            0 -1 442 -7.0798061788082123e-03</internalNodes>
          <leafValues>
            2.7033764123916626e-01 -9.4562739133834839e-02</leafValues></_>
        <_>
          <internalNodes>
            0 -1 612 -3.8626559544354677e-03</internalNodes>
          <leafValues>
            3.7481427192687988e-01 -6.9029562175273895e-02</leafValues></_>
        <_>
          <internalNodes>
            0 -1 295 -2.0385298877954483e-02</internalNodes>
          <leafValues>
            -6.2593847513198853e-01 8.6146444082260132e-02</leafValues></_>
        <_>
          <internalNodes>
            0 -1 291 -1.4699643943458796e-03</internalNodes>
          <leafValues>
            2.2183568775653839e-01 -1.2857526540756226e-01</leafValues></_>
        <_>
          <internalNodes>
            0 -1 258 5.2166329696774483e-03</internalNodes>
          <leafValues>
            -1.4394561946392059e-01 2.0317369699478149e-01</leafValues></_>
        <_>
          <internalNodes>
            0 -1 662 -2.3538835346698761e-02</internalNodes>
          <leafValues>
            3.4108367562294006e-01 -7.6937884092330933e-02</leafValues></_>
        <_>
          <internalNodes>
            0 -1 592 5.8180349878966808e-03</internalNodes>
          <leafValues>
            -2.2256830334663391e-01 1.4363084733486176e-01</leafValues></_>
        <_>
          <internalNodes>
            0 -1 647 2.3077158257365227e-03</internalNodes>
          <leafValues>
            1.0054747760295868e-01 -2.5754126906394958e-01</leafValues></_>
        <_>
          <internalNodes>
            0 -1 589 5.2050845697522163e-03</internalNodes>
          <leafValues>
            2.8474858030676842e-02 -7.6206868886947632e-01</leafValues></_>
        <_>
          <internalNodes>
            0 -1 444 2.8231821954250336e-02</internalNodes>
          <leafValues>
            1.4089072123169899e-02 -9.6968626976013184e-01</leafValues></_>
        <_>
          <internalNodes>
            0 -1 361 1.4832498272880912e-03</internalNodes>
          <leafValues>
            -9.0840652585029602e-02 2.3199780285358429e-01</leafValues></_>
        <_>
          <internalNodes>
            0 -1 303 1.0292418301105499e-01</internalNodes>
          <leafValues>
            -8.3282627165317535e-02 3.2878589630126953e-01</leafValues></_>
        <_>
          <internalNodes>
            0 -1 527 -2.0874678157269955e-03</internalNodes>
          <leafValues>
            -1.5136097371578217e-01 1.2646228075027466e-01</leafValues></_>
        <_>
          <internalNodes>
            0 -1 1 6.1849206686019897e-03</internalNodes>
          <leafValues>
            -1.1684720963239670e-01 1.9777734577655792e-01</leafValues></_>
        <_>
          <internalNodes>
            0 -1 434 -1.3129374012351036e-02</internalNodes>
          <leafValues>
            3.7169122695922852e-01 -6.2050797045230865e-02</leafValues></_>
        <_>
          <internalNodes>
            0 -1 167 -9.6871645655483007e-04</internalNodes>
          <leafValues>
            1.8055127561092377e-01 -1.4538168907165527e-01</leafValues></_>
        <_>
          <internalNodes>
            0 -1 113 -1.8473893869668245e-03</internalNodes>
          <leafValues>
            -4.7370806336402893e-01 4.2577277868986130e-02</leafValues></_>
        <_>
          <internalNodes>
            0 -1 173 6.7244976758956909e-02</internalNodes>
          <leafValues>
            2.3970844224095345e-02 -7.6247698068618774e-01</leafValues></_>
        <_>
          <internalNodes>
            0 -1 266 1.9938081968575716e-03</internalNodes>
          <leafValues>
            -8.3737000823020935e-02 2.6019620895385742e-01</leafValues></_>
        <_>
          <internalNodes>
            0 -1 137 2.9821076896041632e-04</internalNodes>
          <leafValues>
            7.8728541731834412e-02 -2.5319918990135193e-01</leafValues></_>
        <_>
          <internalNodes>
            0 -1 7 2.2458929568529129e-02</internalNodes>
          <leafValues>
            -4.3409641832113266e-02 4.3570506572723389e-01</leafValues></_>
        <_>
          <internalNodes>
            0 -1 578 -1.2660332024097443e-02</internalNodes>
          <leafValues>
            4.2508545517921448e-01 -4.6264797449111938e-02</leafValues></_>
        <_>
          <internalNodes>
            0 -1 324 -4.3961636722087860e-02</internalNodes>
          <leafValues>
            -6.6931653022766113e-01 3.2108608633279800e-02</leafValues></_>
        <_>
          <internalNodes>
            0 -1 485 4.2647097259759903e-02</internalNodes>
          <leafValues>
            1.9802406430244446e-02 -7.1816569566726685e-01</leafValues></_>
        <_>
          <internalNodes>
            0 -1 561 5.5240612709894776e-04</internalNodes>
          <leafValues>
            -1.3561560213565826e-01 1.3828723132610321e-01</leafValues></_>
        <_>
          <internalNodes>
            0 -1 646 -1.0337792336940765e-02</internalNodes>
          <leafValues>
            4.6340483427047729e-01 -4.2659547179937363e-02</leafValues></_>
        <_>
          <internalNodes>
            0 -1 626 6.2317170202732086e-02</internalNodes>
          <leafValues>
            2.2012837231159210e-02 -1.</leafValues></_>
        <_>
          <internalNodes>
            0 -1 604 -1.1139267124235630e-02</internalNodes>
          <leafValues>
            -7.9223126173019409e-01 1.6443381085991859e-02</leafValues></_>
        <_>
          <internalNodes>
            0 -1 635 -4.8635303974151611e-02</internalNodes>
          <leafValues>
            6.3115710020065308e-01 -3.6291483789682388e-02</leafValues></_>
        <_>
          <internalNodes>
            0 -1 520 -1.7391238361597061e-02</internalNodes>
          <leafValues>
            -4.8855957388877869e-01 4.8168096691370010e-02</leafValues></_>
        <_>
          <internalNodes>
            0 -1 336 -2.0484003424644470e-01</internalNodes>
          <leafValues>
            4.2191380262374878e-01 -5.4352860897779465e-02</leafValues></_>
        <_>
          <internalNodes>
            0 -1 162 1.4872048050165176e-02</internalNodes>
          <leafValues>
            -8.2739561796188354e-02 3.0976516008377075e-01</leafValues></_>
        <_>
          <internalNodes>
            0 -1 674 8.1791896373033524e-03</internalNodes>
          <leafValues>
            -6.0195636004209518e-02 3.6904087662696838e-01</leafValues></_>
        <_>
          <internalNodes>
            0 -1 631 -3.9821807295084000e-03</internalNodes>
          <leafValues>
            -5.1783043146133423e-01 4.1429817676544189e-02</leafValues></_>
        <_>
          <internalNodes>
            0 -1 348 1.6118355095386505e-02</internalNodes>
          <leafValues>
            -3.2261159271001816e-02 6.8080312013626099e-01</leafValues></_>
        <_>
          <internalNodes>
            0 -1 209 2.1894145756959915e-03</internalNodes>
          <leafValues>
            -9.8452948033809662e-02 1.9781892001628876e-01</leafValues></_>
        <_>
          <internalNodes>
            0 -1 530 5.0772912800312042e-03</internalNodes>
          <leafValues>
            6.0188844799995422e-02 -2.8490489721298218e-01</leafValues></_>
        <_>
          <internalNodes>
            0 -1 514 1.2166511442046613e-04</internalNodes>
          <leafValues>
            -1.3556769490242004e-01 1.4515063166618347e-01</leafValues></_>
        <_>
          <internalNodes>
            0 -1 194 -1.9334460375830531e-04</internalNodes>
          <leafValues>
            1.5963931381702423e-01 -1.1399861425161362e-01</leafValues></_>
        <_>
          <internalNodes>
            0 -1 38 3.1806819140911102e-02</internalNodes>
          <leafValues>
            -1.4182946085929871e-01 1.3595937192440033e-01</leafValues></_>
        <_>
          <internalNodes>
            0 -1 537 -8.9947022497653961e-03</internalNodes>
          <leafValues>
            2.9214903712272644e-01 -6.8357691168785095e-02</leafValues></_>
        <_>
          <internalNodes>
            0 -1 117 4.8135528340935707e-03</internalNodes>
          <leafValues>
            -1.6874882578849792e-01 1.1341338604688644e-01</leafValues></_>
        <_>
          <internalNodes>
            0 -1 473 8.1976819783449173e-03</internalNodes>
          <leafValues>
            -6.3835255801677704e-02 3.8230338692665100e-01</leafValues></_>
        <_>
          <internalNodes>
            0 -1 439 -1.4366738498210907e-02</internalNodes>
          <leafValues>
            -4.6366763114929199e-01 4.4866204261779785e-02</leafValues></_>
        <_>
          <internalNodes>
            0 -1 709 5.9590553864836693e-03</internalNodes>
          <leafValues>
            4.9899604171514511e-02 -3.5370674729347229e-01</leafValues></_>
        <_>
          <internalNodes>
            0 -1 482 -3.5387028008699417e-02</internalNodes>
          <leafValues>
            3.3595296740531921e-01 -5.9200856834650040e-02</leafValues></_>
        <_>
          <internalNodes>
            0 -1 570 -1.6457848250865936e-02</internalNodes>
          <leafValues>
            -6.5526962280273438e-01 3.4776318818330765e-02</leafValues></_>
        <_>
          <internalNodes>
            0 -1 145 -1.6214940696954727e-02</internalNodes>
          <leafValues>
            2.2656443715095520e-01 -9.4967238605022430e-02</leafValues></_>
        <_>
          <internalNodes>
            0 -1 619 -2.5273706763982773e-02</internalNodes>
          <leafValues>
            -6.9089621305465698e-01 2.8081633150577545e-02</leafValues></_>
        <_>
          <internalNodes>
            0 -1 445 -6.4003597944974899e-03</internalNodes>
          <leafValues>
            2.7512404322624207e-01 -7.4071265757083893e-02</leafValues></_>
        <_>
          <internalNodes>
            0 -1 487 -1.0360694432165474e-04</internalNodes>
          <leafValues>
            1.3323342800140381e-01 -1.4324177801609039e-01</leafValues></_>
        <_>
          <internalNodes>
            0 -1 186 3.9335869252681732e-02</internalNodes>
          <leafValues>
            4.3560773134231567e-02 -5.1543778181076050e-01</leafValues></_>
        <_>
          <internalNodes>
            0 -1 678 8.3947889506816864e-03</internalNodes>
          <leafValues>
            2.0010529085993767e-02 -8.2231456041336060e-01</leafValues></_>
        <_>
          <internalNodes>
            0 -1 59 -8.3629996515810490e-04</internalNodes>
          <leafValues>
            1.6832666099071503e-01 -1.1030125617980957e-01</leafValues></_>
        <_>
          <internalNodes>
            0 -1 22 -8.3558820188045502e-03</internalNodes>
          <leafValues>
            -8.2098536193370819e-02 2.7778092026710510e-01</leafValues></_>
        <_>
          <internalNodes>
            0 -1 5 3.7497396115213633e-03</internalNodes>
          <leafValues>
            -9.3160159885883331e-02 2.1687802672386169e-01</leafValues></_>
        <_>
          <internalNodes>
            0 -1 14 -1.2503600120544434e-01</internalNodes>
          <leafValues>
            4.8178118467330933e-01 -3.6781314760446548e-02</leafValues></_>
        <_>
          <internalNodes>
            0 -1 552 -3.7288614548742771e-03</internalNodes>
          <leafValues>
            1.2730175256729126e-01 -1.4240001142024994e-01</leafValues></_>
        <_>
          <internalNodes>
            0 -1 418 -1.2214034795761108e-03</internalNodes>
          <leafValues>
            2.1608075499534607e-01 -8.7548851966857910e-02</leafValues></_>
        <_>
          <internalNodes>
            0 -1 355 -3.0451692873612046e-04</internalNodes>
          <leafValues>
            1.7420046031475067e-01 -1.2802512943744659e-01</leafValues></_>
        <_>
          <internalNodes>
            0 -1 523 3.4903516061604023e-03</internalNodes>
          <leafValues>
            6.6230647265911102e-02 -2.8400841355323792e-01</leafValues></_>
        <_>
          <internalNodes>
            0 -1 287 -1.9601464737206697e-03</internalNodes>
          <leafValues>
            1.8952336907386780e-01 -1.0068866610527039e-01</leafValues></_>
        <_>
          <internalNodes>
            0 -1 469 -1.4838343486189842e-02</internalNodes>
          <leafValues>
            -5.9463888406753540e-01 3.7444282323122025e-02</leafValues></_>
        <_>
          <internalNodes>
            0 -1 200 -1.5049370005726814e-02</internalNodes>
          <leafValues>
            -8.5103338956832886e-01 1.6847928985953331e-02</leafValues></_>
        <_>
          <internalNodes>
            0 -1 400 7.6572470366954803e-02</internalNodes>
          <leafValues>
            -3.8408126682043076e-02 5.4326117038726807e-01</leafValues></_>
        <_>
          <internalNodes>
            0 -1 414 -1.3253808021545410e-02</internalNodes>
          <leafValues>
            -6.6343659162521362e-01 3.2626908272504807e-02</leafValues></_>
        <_>
          <internalNodes>
            0 -1 424 8.6944960057735443e-03</internalNodes>
          <leafValues>
            4.6752084046602249e-02 -3.5066145658493042e-01</leafValues></_>
        <_>
          <internalNodes>
            0 -1 470 -3.3350475132465363e-03</internalNodes>
          <leafValues>
            3.9856994152069092e-01 -5.2801046520471573e-02</leafValues></_>
        <_>
          <internalNodes>
            0 -1 201 2.4832000490278006e-03</internalNodes>
          <leafValues>
            -1.1058523505926132e-01 1.6765983402729034e-01</leafValues></_>
        <_>
          <internalNodes>
            0 -1 314 -7.4131982401013374e-03</internalNodes>
          <leafValues>
            -3.3548653125762939e-01 5.6528452783823013e-02</leafValues></_>
        <_>
          <internalNodes>
            0 -1 486 8.1243403255939484e-02</internalNodes>
          <leafValues>
            -2.6168091222643852e-02 7.4584931135177612e-01</leafValues></_>
        <_>
          <internalNodes>
            0 -1 33 4.6704942360520363e-03</internalNodes>
          <leafValues>
            4.7702465206384659e-02 -4.1445997357368469e-01</leafValues></_>
        <_>
          <internalNodes>
            0 -1 417 2.1758949756622314e-01</internalNodes>
          <leafValues>
            -2.3243116214871407e-02 8.5215324163436890e-01</leafValues></_>
        <_>
          <internalNodes>
            0 -1 293 1.8270094878971577e-03</internalNodes>
          <leafValues>
            5.6549247354269028e-02 -3.6110144853591919e-01</leafValues></_>
        <_>
          <internalNodes>
            0 -1 704 -6.9839507341384888e-04</internalNodes>
          <leafValues>
            -2.8330402448773384e-02 7.0540428161621094e-01</leafValues></_>
        <_>
          <internalNodes>
            0 -1 283 -5.9605397284030914e-02</internalNodes>
          <leafValues>
            6.1818879097700119e-02 -3.5666677355766296e-01</leafValues></_>
        <_>
          <internalNodes>
            0 -1 185 8.8896535336971283e-02</internalNodes>
          <leafValues>
            -2.6746697723865509e-02 9.5014065504074097e-01</leafValues></_>
        <_>
          <internalNodes>
            0 -1 460 4.4382940977811813e-03</internalNodes>
          <leafValues>
            -8.4235496819019318e-02 2.1935077011585236e-01</leafValues></_>
        <_>
          <internalNodes>
            0 -1 455 -1.1951145716011524e-03</internalNodes>
          <leafValues>
            1.6538183391094208e-01 -1.4542914927005768e-01</leafValues></_>
        <_>
          <internalNodes>
            0 -1 595 -8.6394725367426872e-03</internalNodes>
          <leafValues>
            -5.5306071043014526e-01 3.0797962099313736e-02</leafValues></_>
        <_>
          <internalNodes>
            0 -1 576 2.3590838536620140e-03</internalNodes>
          <leafValues>
            -7.5649835169315338e-02 2.7294716238975525e-01</leafValues></_>
        <_>
          <internalNodes>
            0 -1 367 5.8956602588295937e-03</internalNodes>
          <leafValues>
            7.1179270744323730e-02 -2.8725603222846985e-01</leafValues></_>
        <_>
          <internalNodes>
            0 -1 372 2.3606723174452782e-02</internalNodes>
          <leafValues>
            -1.1172345280647278e-01 1.9241605699062347e-01</leafValues></_>
        <_>
          <internalNodes>
            0 -1 199 -1.9424997270107269e-01</internalNodes>
          <leafValues>
            -6.4318370819091797e-01 3.3281929790973663e-02</leafValues></_>
        <_>
          <internalNodes>
            0 -1 593 -4.1152648627758026e-02</internalNodes>
          <leafValues>
            -8.0631530284881592e-01 1.9646542146801949e-02</leafValues></_>
        <_>
          <internalNodes>
            0 -1 363 -2.9921561945229769e-03</internalNodes>
          <leafValues>
            1.9273474812507629e-01 -1.1655873060226440e-01</leafValues></_>
        <_>
          <internalNodes>
            0 -1 689 -5.5607841350138187e-03</internalNodes>
          <leafValues>
            3.5029163956642151e-01 -6.8732947111129761e-02</leafValues></_>
        <_>
          <internalNodes>
            0 -1 265 8.1002712249755859e-02</internalNodes>
          <leafValues>
            3.3411931246519089e-02 -7.1036159992218018e-01</leafValues></_>
        <_>
          <internalNodes>
            0 -1 715 -7.3001026175916195e-03</internalNodes>
          <leafValues>
            -6.8486785888671875e-01 1.9482798874378204e-02</leafValues></_>
        <_>
          <internalNodes>
            0 -1 164 -3.7064689397811890e-01</internalNodes>
          <leafValues>
            -6.9877165555953979e-01 2.1583393216133118e-02</leafValues></_>
        <_>
          <internalNodes>
            0 -1 35 -2.2152554243803024e-02</internalNodes>
          <leafValues>
            2.5992751121520996e-01 -7.2423972189426422e-02</leafValues></_>
        <_>
          <internalNodes>
            0 -1 419 3.1462952494621277e-02</internalNodes>
          <leafValues>
            3.9411645382642746e-02 -5.6457287073135376e-01</leafValues></_>
        <_>
          <internalNodes>
            0 -1 474 -2.1172292530536652e-02</internalNodes>
          <leafValues>
            -4.8072576522827148e-01 3.0474731698632240e-02</leafValues></_>
        <_>
          <internalNodes>
            0 -1 654 -3.5698924213647842e-02</internalNodes>
          <leafValues>
            7.6256877183914185e-01 -2.6608010753989220e-02</leafValues></_>
        <_>
          <internalNodes>
            0 -1 277 5.0970934331417084e-02</internalNodes>
          <leafValues>
            2.7033163234591484e-02 -8.4641307592391968e-01</leafValues></_>
        <_>
          <internalNodes>
            0 -1 615 6.6985547542572021e-02</internalNodes>
          <leafValues>
            -3.8006335496902466e-02 5.9679073095321655e-01</leafValues></_></weakClassifiers></_>
    <!-- stage 8 -->
    <_>
      <maxWeakCount>100</maxWeakCount>
      <stageThreshold>-6.2314558029174805e-01</stageThreshold>
      <weakClassifiers>
        <_>
          <internalNodes>
            0 -1 226 -1.2100507505238056e-02</internalNodes>
          <leafValues>
            -1.7474980652332306e-01 -5.4994744062423706e-01</leafValues></_>
        <_>
          <internalNodes>
            0 -1 496 -1.2453391682356596e-03</internalNodes>
          <leafValues>
            1.2022357434034348e-01 -2.1991090476512909e-01</leafValues></_>
        <_>
          <internalNodes>
            0 -1 4 -3.3551701344549656e-03</internalNodes>
          <leafValues>
            -4.8265945166349411e-02 5.9310787916183472e-01</leafValues></_>
        <_>
          <internalNodes>
            0 -1 667 -7.8096427023410797e-03</internalNodes>
          <leafValues>
            2.9145747423171997e-01 -1.0206648707389832e-01</leafValues></_>
        <_>
          <internalNodes>
            0 -1 517 9.8079098388552666e-03</internalNodes>
          <leafValues>
            3.8215242326259613e-02 -7.0709598064422607e-01</leafValues></_>
        <_>
          <internalNodes>
            0 -1 599 -3.7469223141670227e-02</internalNodes>
          <leafValues>
            2.6799982786178589e-01 -9.7729749977588654e-02</leafValues></_>
        <_>
          <internalNodes>
            0 -1 222 2.2898565977811813e-02</internalNodes>
          <leafValues>
            -7.5101301074028015e-02 3.7367391586303711e-01</leafValues></_>
        <_>
          <internalNodes>
            0 -1 685 -1.3788905926048756e-03</internalNodes>
          <leafValues>
            -2.6325908303260803e-01 1.3207569718360901e-01</leafValues></_>
        <_>
          <internalNodes>
            0 -1 630 3.0549569055438042e-04</internalNodes>
          <leafValues>
            -1.5878750383853912e-01 1.4958333969116211e-01</leafValues></_>
        <_>
          <internalNodes>
            0 -1 107 -2.7177575975656509e-03</internalNodes>
          <leafValues>
            -5.5810719728469849e-01 4.2316332459449768e-02</leafValues></_>
        <_>
          <internalNodes>
            0 -1 284 -1.6066253883764148e-03</internalNodes>
          <leafValues>
            2.9767379164695740e-01 -8.6072131991386414e-02</leafValues></_>
        <_>
          <internalNodes>
            0 -1 278 2.7874563820660114e-03</internalNodes>
          <leafValues>
            -1.3379648327827454e-01 1.9110035896301270e-01</leafValues></_>
        <_>
          <internalNodes>
            0 -1 351 2.7355838567018509e-02</internalNodes>
          <leafValues>
            7.6045945286750793e-02 -3.0074304342269897e-01</leafValues></_>
        <_>
          <internalNodes>
            0 -1 84 -2.3870699107646942e-02</internalNodes>
          <leafValues>
            2.4385052919387817e-01 -1.0008305311203003e-01</leafValues></_>
        <_>
          <internalNodes>
            0 -1 2 6.9706127047538757e-02</internalNodes>
          <leafValues>
            -4.4054672122001648e-02 5.5496424436569214e-01</leafValues></_>
        <_>
          <internalNodes>
            0 -1 515 -1.5044665196910501e-03</internalNodes>
          <leafValues>
            2.9397198557853699e-01 -7.3433779180049896e-02</leafValues></_>
        <_>
          <internalNodes>
            0 -1 707 -9.5948681700974703e-04</internalNodes>
          <leafValues>
            -3.0267038941383362e-01 7.0301741361618042e-02</leafValues></_>
        <_>
          <internalNodes>
            0 -1 472 -7.9805731773376465e-02</internalNodes>
          <leafValues>
            1.6560664772987366e-01 -1.4044655859470367e-01</leafValues></_>
        <_>
          <internalNodes>
            0 -1 315 2.2409748286008835e-02</internalNodes>
          <leafValues>
            -1.6293314099311829e-01 1.5963461995124817e-01</leafValues></_>
        <_>
          <internalNodes>
            0 -1 404 9.6833720803260803e-02</internalNodes>
          <leafValues>
            -6.7726589739322662e-02 5.1092404127120972e-01</leafValues></_>
        <_>
          <internalNodes>
            0 -1 146 -7.7988535165786743e-02</internalNodes>
          <leafValues>
            -8.2665365934371948e-01 2.9750093817710876e-02</leafValues></_>
        <_>
          <internalNodes>
            0 -1 633 9.8532428964972496e-03</internalNodes>
          <leafValues>
            2.3512192070484161e-02 -7.0985251665115356e-01</leafValues></_>
        <_>
          <internalNodes>
            0 -1 240 1.5780430287122726e-02</internalNodes>
          <leafValues>
            -1.2148185819387436e-01 1.9262056052684784e-01</leafValues></_>
        <_>
          <internalNodes>
            0 -1 71 9.2877857387065887e-03</internalNodes>
          <leafValues>
            3.4557156264781952e-02 -5.8051145076751709e-01</leafValues></_>
        <_>
          <internalNodes>
            0 -1 346 -8.1560462713241577e-03</internalNodes>
          <leafValues>
            3.5195821523666382e-01 -6.7348815500736237e-02</leafValues></_>
        <_>
          <internalNodes>
            0 -1 588 -3.4059328027069569e-03</internalNodes>
          <leafValues>
            -6.4409273862838745e-01 3.3391855657100677e-02</leafValues></_>
        <_>
          <internalNodes>
            0 -1 65 -3.0917329713702202e-02</internalNodes>
          <leafValues>
            -3.1171408295631409e-01 6.5513789653778076e-02</leafValues></_>
        <_>
          <internalNodes>
            0 -1 471 2.6347124949097633e-02</internalNodes>
          <leafValues>
            3.3895585685968399e-02 -6.3369506597518921e-01</leafValues></_>
        <_>
          <internalNodes>
            0 -1 99 1.5329071320593357e-02</internalNodes>
          <leafValues>
            4.4469553977251053e-02 -4.0978196263313293e-01</leafValues></_>
        <_>
          <internalNodes>
            0 -1 387 -1.1089056730270386e-02</internalNodes>
          <leafValues>
            3.0277869105339050e-01 -8.1773638725280762e-02</leafValues></_>
        <_>
          <internalNodes>
            0 -1 394 -2.1390976384282112e-02</internalNodes>
          <leafValues>
            -7.5597709417343140e-01 3.0682574957609177e-02</leafValues></_>
        <_>
          <internalNodes>
            0 -1 501 -4.4665513560175896e-03</internalNodes>
          <leafValues>
            -5.9386265277862549e-01 2.8385082259774208e-02</leafValues></_>
        <_>
          <internalNodes>
            0 -1 327 -6.8091470748186111e-03</internalNodes>
          <leafValues>
            3.4338641166687012e-01 -6.4509637653827667e-02</leafValues></_>
        <_>
          <internalNodes>
            0 -1 427 -1.2567407451570034e-02</internalNodes>
          <leafValues>
            -3.4647914767265320e-01 6.6347122192382813e-02</leafValues></_>
        <_>
          <internalNodes>
            0 -1 391 3.1298738904297352e-03</internalNodes>
          <leafValues>
            -1.0988753288984299e-01 2.2130596637725830e-01</leafValues></_>
        <_>
          <internalNodes>
            0 -1 184 -2.6423572562634945e-03</internalNodes>
          <leafValues>
            1.9080373644828796e-01 -1.1069936305284500e-01</leafValues></_>
        <_>
          <internalNodes>
            0 -1 431 4.6334792859852314e-03</internalNodes>
          <leafValues>
            -5.2674598991870880e-02 4.3167024850845337e-01</leafValues></_>
        <_>
          <internalNodes>
            0 -1 535 -1.9292966462671757e-03</internalNodes>
          <leafValues>
            -2.9713675379753113e-01 8.9281484484672546e-02</leafValues></_>
        <_>
          <internalNodes>
            0 -1 132 -1.0184980928897858e-03</internalNodes>
          <leafValues>
            -3.0336248874664307e-01 6.4724206924438477e-02</leafValues></_>
        <_>
          <internalNodes>
            0 -1 345 5.3640272468328476e-02</internalNodes>
          <leafValues>
            -1.3313962519168854e-01 1.6852225363254547e-01</leafValues></_>
        <_>
          <internalNodes>
            0 -1 416 -1.0734824463725090e-03</internalNodes>
          <leafValues>
            2.4325919151306152e-01 -9.4394207000732422e-02</leafValues></_>
        <_>
          <internalNodes>
            0 -1 708 1.8411394557915628e-04</internalNodes>
          <leafValues>
            1.0469258576631546e-01 -2.0403927564620972e-01</leafValues></_>
        <_>
          <internalNodes>
            0 -1 83 1.4181217178702354e-02</internalNodes>
          <leafValues>
            2.2779056802392006e-02 -8.5851925611495972e-01</leafValues></_>
        <_>
          <internalNodes>
            0 -1 374 7.0839198306202888e-03</internalNodes>
          <leafValues>
            -7.4936360120773315e-02 2.8081160783767700e-01</leafValues></_>
        <_>
          <internalNodes>
            0 -1 420 1.5494572930037975e-02</internalNodes>
          <leafValues>
            -2.7250235900282860e-02 7.4926584959030151e-01</leafValues></_>
        <_>
          <internalNodes>
            0 -1 312 -2.7163868071511388e-04</internalNodes>
          <leafValues>
            1.5478204190731049e-01 -1.2986466288566589e-01</leafValues></_>
        <_>
          <internalNodes>
            0 -1 8 1.0168253444135189e-02</internalNodes>
          <leafValues>
            -1.6606047749519348e-01 1.4156603813171387e-01</leafValues></_>
        <_>
          <internalNodes>
            0 -1 451 -5.1328102126717567e-03</internalNodes>
          <leafValues>
            2.0067901909351349e-01 -9.9309250712394714e-02</leafValues></_>
        <_>
          <internalNodes>
            0 -1 32 -2.8551286458969116e-01</internalNodes>
          <leafValues>
            2.7868604660034180e-01 -1.1058407276868820e-01</leafValues></_>
        <_>
          <internalNodes>
            0 -1 311 8.8465930894017220e-03</internalNodes>
          <leafValues>
            -9.8787665367126465e-02 2.4617664515972137e-01</leafValues></_>
        <_>
          <internalNodes>
            0 -1 326 -1.4881261158734560e-03</internalNodes>
          <leafValues>
            2.7693688869476318e-01 -7.6696738600730896e-02</leafValues></_>
        <_>
          <internalNodes>
            0 -1 159 6.1729815788567066e-03</internalNodes>
          <leafValues>
            -1.1623125523328781e-01 2.1682035923004150e-01</leafValues></_>
        <_>
          <internalNodes>
            0 -1 690 8.5558965802192688e-03</internalNodes>
          <leafValues>
            2.5446558371186256e-02 -8.1967860460281372e-01</leafValues></_>
        <_>
          <internalNodes>
            0 -1 183 -4.1118979454040527e-02</internalNodes>
          <leafValues>
            8.7670058012008667e-01 -2.9091365635395050e-02</leafValues></_>
        <_>
          <internalNodes>
            0 -1 252 -6.7308517172932625e-03</internalNodes>
          <leafValues>
            -3.2372725009918213e-01 6.9646947085857391e-02</leafValues></_>
        <_>
          <internalNodes>
            0 -1 694 1.0775937698781490e-03</internalNodes>
          <leafValues>
            -2.8783464804291725e-02 8.1043833494186401e-01</leafValues></_>
        <_>
          <internalNodes>
            0 -1 195 -2.6710592210292816e-03</internalNodes>
          <leafValues>
            -1.7716439440846443e-02 8.8713741302490234e-01</leafValues></_>
        <_>
          <internalNodes>
            0 -1 296 -1.9083015620708466e-02</internalNodes>
          <leafValues>
            1.3270072638988495e-01 -1.5697565674781799e-01</leafValues></_>
        <_>
          <internalNodes>
            0 -1 126 -5.0433941185474396e-02</internalNodes>
          <leafValues>
            -2.6400119066238403e-01 9.1955192387104034e-02</leafValues></_>
        <_>
          <internalNodes>
            0 -1 253 -1.9502940773963928e-01</internalNodes>
          <leafValues>
            -8.4031742811203003e-01 2.1762803196907043e-02</leafValues></_>
        <_>
          <internalNodes>
            0 -1 157 -1.5065620839595795e-01</internalNodes>
          <leafValues>
            5.3553855419158936e-01 -4.3342433869838715e-02</leafValues></_>
        <_>
          <internalNodes>
            0 -1 577 1.0293389670550823e-02</internalNodes>
          <leafValues>
            5.0506033003330231e-02 -4.2011457681655884e-01</leafValues></_>
        <_>
          <internalNodes>
            0 -1 298 -2.1337909623980522e-02</internalNodes>
          <leafValues>
            1.9912928342819214e-01 -9.9052891135215759e-02</leafValues></_>
        <_>
          <internalNodes>
            0 -1 568 4.1438560001552105e-03</internalNodes>
          <leafValues>
            -4.5942973345518112e-02 4.3284776806831360e-01</leafValues></_>
        <_>
          <internalNodes>
            0 -1 390 -5.2037388086318970e-03</internalNodes>
          <leafValues>
            -2.8524965047836304e-01 7.1536980569362640e-02</leafValues></_>
        <_>
          <internalNodes>
            0 -1 229 -1.7082383856177330e-02</internalNodes>
          <leafValues>
            -6.4145237207412720e-01 3.0079923570156097e-02</leafValues></_>
        <_>
          <internalNodes>
            0 -1 281 -9.6914137247949839e-04</internalNodes>
          <leafValues>
            1.4249934256076813e-01 -1.5297332406044006e-01</leafValues></_>
        <_>
          <internalNodes>
            0 -1 420 -2.4002620484679937e-03</internalNodes>
          <leafValues>
            2.4776391685009003e-01 -1.0285782814025879e-01</leafValues></_>
        <_>
          <internalNodes>
            0 -1 15 -4.4432777166366577e-01</internalNodes>
          <leafValues>
            4.9885129928588867e-01 -4.3102309107780457e-02</leafValues></_>
        <_>
          <internalNodes>
            0 -1 393 -1.0153333842754364e-01</internalNodes>
          <leafValues>
            8.1215435266494751e-01 -2.0375149324536324e-02</leafValues></_>
        <_>
          <internalNodes>
            0 -1 675 -4.0322709828615189e-03</internalNodes>
          <leafValues>
            -4.7091752290725708e-01 4.4938515871763229e-02</leafValues></_>
        <_>
          <internalNodes>
            0 -1 630 1.9175539491698146e-03</internalNodes>
          <leafValues>
            -9.7575925290584564e-02 2.2808155417442322e-01</leafValues></_>
        <_>
          <internalNodes>
            0 -1 68 -1.1581467464566231e-02</internalNodes>
          <leafValues>
            3.7354037165641785e-01 -5.8107905089855194e-02</leafValues></_>
        <_>
          <internalNodes>
            0 -1 492 -1.7314042896032333e-02</internalNodes>
          <leafValues>
            -8.0471247434616089e-01 2.5134256109595299e-02</leafValues></_>
        <_>
          <internalNodes>
            0 -1 676 -4.3940953910350800e-03</internalNodes>
          <leafValues>
            1.6922500729560852e-01 -1.1703585088253021e-01</leafValues></_>
        <_>
          <internalNodes>
            0 -1 547 2.2786283865571022e-02</internalNodes>
          <leafValues>
            -1.2469705194234848e-01 1.6302230954170227e-01</leafValues></_>
        <_>
          <internalNodes>
            0 -1 555 5.8841793797910213e-03</internalNodes>
          <leafValues>
            7.0394665002822876e-02 -3.9135244488716125e-01</leafValues></_>
        <_>
          <internalNodes>
            0 -1 273 3.1974193453788757e-01</internalNodes>
          <leafValues>
            2.1067352965474129e-02 -7.9719567298889160e-01</leafValues></_>
        <_>
          <internalNodes>
            0 -1 432 6.2248684465885162e-02</internalNodes>
          <leafValues>
            -5.2855230867862701e-02 5.2267724275588989e-01</leafValues></_>
        <_>
          <internalNodes>
            0 -1 249 -1.8792867660522461e-01</internalNodes>
          <leafValues>
            -9.1666662693023682e-01 2.1932478994131088e-02</leafValues></_>
        <_>
          <internalNodes>
            0 -1 594 1.1563967913389206e-02</internalNodes>
          <leafValues>
            3.1437329947948456e-02 -5.1335710287094116e-01</leafValues></_>
        <_>
          <internalNodes>
            0 -1 493 6.3091397285461426e-02</internalNodes>
          <leafValues>
            -5.1298189908266068e-02 4.6630167961120605e-01</leafValues></_>
        <_>
          <internalNodes>
            0 -1 490 -1.0434027016162872e-01</internalNodes>
          <leafValues>
            -4.2944256216287613e-02 4.7519245743751526e-01</leafValues></_>
        <_>
          <internalNodes>
            0 -1 198 -1.4450222253799438e-01</internalNodes>
          <leafValues>
            9.8366826772689819e-02 -2.3997962474822998e-01</leafValues></_>
        <_>
          <internalNodes>
            0 -1 299 -2.4939365684986115e-03</internalNodes>
          <leafValues>
            -3.6068853735923767e-01 6.2172785401344299e-02</leafValues></_>
        <_>
          <internalNodes>
            0 -1 123 -1.0789528489112854e-01</internalNodes>
          <leafValues>
            7.5727128982543945e-01 -3.2106827944517136e-02</leafValues></_>
        <_>
          <internalNodes>
            0 -1 359 -1.3378125149756670e-03</internalNodes>
          <leafValues>
            1.9699537754058838e-01 -1.0584601759910583e-01</leafValues></_>
        <_>
          <internalNodes>
            0 -1 371 4.9776904284954071e-02</internalNodes>
          <leafValues>
            -6.2473852187395096e-02 3.5601842403411865e-01</leafValues></_>
        <_>
          <internalNodes>
            0 -1 409 -1.4995619654655457e-02</internalNodes>
          <leafValues>
            -7.6890081167221069e-01 2.5830917060375214e-02</leafValues></_>
        <_>
          <internalNodes>
            0 -1 483 6.0582528822124004e-03</internalNodes>
          <leafValues>
            5.2846714854240417e-02 -3.4317225217819214e-01</leafValues></_>
        <_>
          <internalNodes>
            0 -1 401 1.1583437211811543e-02</internalNodes>
          <leafValues>
            4.0584351867437363e-02 -5.0200027227401733e-01</leafValues></_>
        <_>
          <internalNodes>
            0 -1 158 3.5713031888008118e-02</internalNodes>
          <leafValues>
            -3.1880799680948257e-02 7.1722322702407837e-01</leafValues></_>
        <_>
          <internalNodes>
            0 -1 706 3.0196730513125658e-03</internalNodes>
          <leafValues>
            4.0476493537425995e-02 -5.6663697957992554e-01</leafValues></_>
        <_>
          <internalNodes>
            0 -1 512 2.0649714395403862e-02</internalNodes>
          <leafValues>
            1.3905622996389866e-02 -1.</leafValues></_>
        <_>
          <internalNodes>
            0 -1 484 -2.2821825742721558e-01</internalNodes>
          <leafValues>
            -8.8210010528564453e-01 1.3846711255609989e-02</leafValues></_>
        <_>
          <internalNodes>
            0 -1 590 1.6246165614575148e-03</internalNodes>
          <leafValues>
            -1.1670089513063431e-01 1.8360221385955811e-01</leafValues></_>
        <_>
          <internalNodes>
            0 -1 376 -1.4345851540565491e-01</internalNodes>
          <leafValues>
            5.9701770544052124e-01 -3.6477845162153244e-02</leafValues></_>
        <_>
          <internalNodes>
            0 -1 632 3.9497733116149902e-02</internalNodes>
          <leafValues>
            4.9444135278463364e-02 -4.3436837196350098e-01</leafValues></_>
        <_>
          <internalNodes>
            0 -1 609 -4.5432284241542220e-04</internalNodes>
          <leafValues>
            1.6150002181529999e-01 -1.3118833303451538e-01</leafValues></_>
        <_>
          <internalNodes>
            0 -1 53 9.3236878514289856e-02</internalNodes>
          <leafValues>
            2.3099819198250771e-02 -9.1480821371078491e-01</leafValues></_></weakClassifiers></_>
    <!-- stage 9 -->
    <_>
      <maxWeakCount>100</maxWeakCount>
      <stageThreshold>-7.4181908369064331e-01</stageThreshold>
      <weakClassifiers>
        <_>
          <internalNodes>
            0 -1 333 -2.1663810312747955e-01</internalNodes>
          <leafValues>
            6.4425773918628693e-02 -4.0834653377532959e-01</leafValues></_>
        <_>
          <internalNodes>
            0 -1 443 8.6105177178978920e-03</internalNodes>
          <leafValues>
            -1.7878206074237823e-01 1.6442708671092987e-01</leafValues></_>
        <_>
          <internalNodes>
            0 -1 411 -3.3635042607784271e-02</internalNodes>
          <leafValues>
            -5.3903323411941528e-01 4.7631982713937759e-02</leafValues></_>
        <_>
          <internalNodes>
            0 -1 396 -1.2659230828285217e-01</internalNodes>
          <leafValues>
            7.8016942739486694e-01 -1.0687887668609619e-02</leafValues></_>
        <_>
          <internalNodes>
            0 -1 192 -1.2903094291687012e-01</internalNodes>
          <leafValues>
            -6.9013828039169312e-01 1.0051169432699680e-02</leafValues></_>
        <_>
          <internalNodes>
            0 -1 413 -6.7290864884853363e-02</internalNodes>
          <leafValues>
            7.1022331714630127e-01 -1.9156388938426971e-02</leafValues></_>
        <_>
          <internalNodes>
            0 -1 285 -6.5282046794891357e-02</internalNodes>
          <leafValues>
            -6.7620557546615601e-01 1.3703884556889534e-02</leafValues></_>
        <_>
          <internalNodes>
            0 -1 349 1.9276048988103867e-02</internalNodes>
          <leafValues>
            -1.1932719498872757e-01 2.2656714916229248e-01</leafValues></_>
        <_>
          <internalNodes>
            0 -1 329 -8.1970438361167908e-02</internalNodes>
          <leafValues>
            -6.0381704568862915e-01 3.3770341426134109e-02</leafValues></_>
        <_>
          <internalNodes>
            0 -1 408 -2.9647951014339924e-03</internalNodes>
          <leafValues>
            2.5732952356338501e-01 -1.0115145146846771e-01</leafValues></_>
        <_>
          <internalNodes>
            0 -1 168 -1.0596346110105515e-02</internalNodes>
          <leafValues>
            3.0106660723686218e-01 -1.0866315662860870e-01</leafValues></_>
        <_>
          <internalNodes>
            0 -1 101 1.9042860367335379e-04</internalNodes>
          <leafValues>
            1.0797020792961121e-01 -2.3205739259719849e-01</leafValues></_>
        <_>
          <internalNodes>
            0 -1 703 1.9090154673904181e-03</internalNodes>
          <leafValues>
            7.8919470310211182e-02 -3.7850201129913330e-01</leafValues></_>
        <_>
          <internalNodes>
            0 -1 640 8.8900290429592133e-03</internalNodes>
          <leafValues>
            -8.5416391491889954e-02 3.3590266108512878e-01</leafValues></_>
        <_>
          <internalNodes>
            0 -1 80 2.7295503765344620e-02</internalNodes>
          <leafValues>
            -8.9484699070453644e-02 2.8574168682098389e-01</leafValues></_>
        <_>
          <internalNodes>
            0 -1 338 1.4286865480244160e-02</internalNodes>
          <leafValues>
            -1.0284096747636795e-01 2.7338558435440063e-01</leafValues></_>
        <_>
          <internalNodes>
            0 -1 23 -6.5252855420112610e-03</internalNodes>
          <leafValues>
            5.2402079105377197e-01 -5.5366396903991699e-02</leafValues></_>
        <_>
          <internalNodes>
            0 -1 142 4.5428005978465080e-04</internalNodes>
          <leafValues>
            8.5613586008548737e-02 -2.8569597005844116e-01</leafValues></_>
        <_>
          <internalNodes>
            0 -1 44 -1.0440660640597343e-02</internalNodes>
          <leafValues>
            -1. 2.3135315626859665e-02</leafValues></_>
        <_>
          <internalNodes>
            0 -1 254 -8.4581919014453888e-02</internalNodes>
          <leafValues>
            -7.5522297620773315e-01 2.1873686462640762e-02</leafValues></_>
        <_>
          <internalNodes>
            0 -1 282 1.0527050122618675e-02</internalNodes>
          <leafValues>
            7.1177937090396881e-02 -3.1978073716163635e-01</leafValues></_>
        <_>
          <internalNodes>
            0 -1 521 -3.5154841840267181e-02</internalNodes>
          <leafValues>
            6.6634398698806763e-01 -3.9280418306589127e-02</leafValues></_>
        <_>
          <internalNodes>
            0 -1 21 -8.9575487375259399e-01</internalNodes>
          <leafValues>
            -1.3834013044834137e-01 1.7470607161521912e-01</leafValues></_>
        <_>
          <internalNodes>
            0 -1 671 -3.5447068512439728e-02</internalNodes>
          <leafValues>
            7.2725042700767517e-02 -4.4718962907791138e-01</leafValues></_>
        <_>
          <internalNodes>
            0 -1 127 -3.2875314354896545e-04</internalNodes>
          <leafValues>
            -2.1629005670547485e-01 1.0058584064245224e-01</leafValues></_>
        <_>
          <internalNodes>
            0 -1 328 6.5735615789890289e-02</internalNodes>
          <leafValues>
            -6.2683440744876862e-02 3.8283175230026245e-01</leafValues></_>
        <_>
          <internalNodes>
            0 -1 481 -2.9419526457786560e-02</internalNodes>
          <leafValues>
            -5.2055984735488892e-02 4.4225314259529114e-01</leafValues></_>
        <_>
          <internalNodes>
            0 -1 245 -1.6799937188625336e-01</internalNodes>
          <leafValues>
            6.1560023576021194e-02 -3.8714432716369629e-01</leafValues></_>
        <_>
          <internalNodes>
            0 -1 319 -2.5832820683717728e-02</internalNodes>
          <leafValues>
            -6.6175624728202820e-02 4.1121047735214233e-01</leafValues></_>
        <_>
          <internalNodes>
            0 -1 687 8.5954740643501282e-04</internalNodes>
          <leafValues>
            8.2573831081390381e-02 -2.7139228582382202e-01</leafValues></_>
        <_>
          <internalNodes>
            0 -1 475 -1.2426492758095264e-02</internalNodes>
          <leafValues>
            1.7598161101341248e-01 -1.4358177781105042e-01</leafValues></_>
        <_>
          <internalNodes>
            0 -1 618 8.0700987018644810e-04</internalNodes>
          <leafValues>
            1.1560016870498657e-01 -2.1587383747100830e-01</leafValues></_>
        <_>
          <internalNodes>
            0 -1 69 -3.0020084232091904e-02</internalNodes>
          <leafValues>
            6.6975325345993042e-01 -3.6761175841093063e-02</leafValues></_>
        <_>
          <internalNodes>
            0 -1 27 7.1861280594021082e-04</internalNodes>
          <leafValues>
            -1.3593722879886627e-01 1.5060132741928101e-01</leafValues></_>
        <_>
          <internalNodes>
            0 -1 233 4.8639416694641113e-02</internalNodes>
          <leafValues>
            -6.0618568211793900e-02 3.6802944540977478e-01</leafValues></_>
        <_>
          <internalNodes>
            0 -1 70 8.6820544674992561e-03</internalNodes>
          <leafValues>
            3.2276075333356857e-02 -7.0720708370208740e-01</leafValues></_>
        <_>
          <internalNodes>
            0 -1 701 3.2673175446689129e-03</internalNodes>
          <leafValues>
            4.0813121944665909e-02 -5.0406473875045776e-01</leafValues></_>
        <_>
          <internalNodes>
            0 -1 659 -1.1354573071002960e-02</internalNodes>
          <leafValues>
            5.6751602888107300e-01 -4.6663656830787659e-02</leafValues></_>
        <_>
          <internalNodes>
            0 -1 697 -1.0791473835706711e-01</internalNodes>
          <leafValues>
            -1. 2.4856507778167725e-02</leafValues></_>
        <_>
          <internalNodes>
            0 -1 96 -3.3722873777151108e-02</internalNodes>
          <leafValues>
            -5.2782052755355835e-01 2.9096104204654694e-02</leafValues></_>
        <_>
          <internalNodes>
            0 -1 150 -3.8988687098026276e-02</internalNodes>
          <leafValues>
            -6.0298556089401245e-01 2.9932830482721329e-02</leafValues></_>
        <_>
          <internalNodes>
            0 -1 177 1.0592127218842506e-02</internalNodes>
          <leafValues>
            3.7260733544826508e-02 -5.1331746578216553e-01</leafValues></_>
        <_>
          <internalNodes>
            0 -1 491 3.2339431345462799e-02</internalNodes>
          <leafValues>
            -3.4617424011230469e-02 7.3740458488464355e-01</leafValues></_>
        <_>
          <internalNodes>
            0 -1 79 -1.4943210780620575e-01</internalNodes>
          <leafValues>
            -7.6159381866455078e-01 3.2930757850408554e-02</leafValues></_>
        <_>
          <internalNodes>
            0 -1 235 -2.6712977886199951e-01</internalNodes>
          <leafValues>
            4.1530221700668335e-01 -6.1170745640993118e-02</leafValues></_>
        <_>
          <internalNodes>
            0 -1 344 -7.1504800580441952e-03</internalNodes>
          <leafValues>
            2.2034156322479248e-01 -1.0990744084119797e-01</leafValues></_>
        <_>
          <internalNodes>
            0 -1 461 9.3973111361265182e-03</internalNodes>
          <leafValues>
            -1.1493024975061417e-01 1.9719438254833221e-01</leafValues></_>
        <_>
          <internalNodes>
            0 -1 497 1.0624088346958160e-02</internalNodes>
          <leafValues>
            4.4001996517181396e-02 -5.4657220840454102e-01</leafValues></_>
        <_>
          <internalNodes>
            0 -1 250 5.0436522811651230e-02</internalNodes>
          <leafValues>
            7.7629126608371735e-02 -2.5483223795890808e-01</leafValues></_>
        <_>
          <internalNodes>
            0 -1 378 5.3490832448005676e-02</internalNodes>
          <leafValues>
            -5.2185654640197754e-02 4.3160864710807800e-01</leafValues></_>
        <_>
          <internalNodes>
            0 -1 636 -4.7168987803161144e-03</internalNodes>
          <leafValues>
            -4.7805586457252502e-01 4.5220822095870972e-02</leafValues></_>
        <_>
          <internalNodes>
            0 -1 391 3.6982977762818336e-03</internalNodes>
          <leafValues>
            -1.0014204680919647e-01 2.0731294155120850e-01</leafValues></_>
        <_>
          <internalNodes>
            0 -1 301 -1.6557987779378891e-02</internalNodes>
          <leafValues>
            -1.4042508602142334e-01 1.5499961376190186e-01</leafValues></_>
        <_>
          <internalNodes>
            0 -1 82 -1.9382166210561991e-03</internalNodes>
          <leafValues>
            -3.8907152414321899e-01 5.9826400130987167e-02</leafValues></_>
        <_>
          <internalNodes>
            0 -1 449 -2.3871879093348980e-03</internalNodes>
          <leafValues>
            3.0061641335487366e-01 -7.4913792312145233e-02</leafValues></_>
        <_>
          <internalNodes>
            0 -1 169 -3.1615638732910156e-01</internalNodes>
          <leafValues>
            -6.3147628307342529e-01 3.4216340631246567e-02</leafValues></_>
        <_>
          <internalNodes>
            0 -1 616 -2.1039310377091169e-03</internalNodes>
          <leafValues>
            1.5825714170932770e-01 -1.5337914228439331e-01</leafValues></_>
        <_>
          <internalNodes>
            0 -1 440 2.3599050939083099e-02</internalNodes>
          <leafValues>
            6.5023154020309448e-02 -3.6761897802352905e-01</leafValues></_>
        <_>
          <internalNodes>
            0 -1 544 1.2386026792228222e-03</internalNodes>
          <leafValues>
            -1.0562328249216080e-01 2.3240779340267181e-01</leafValues></_>
        <_>
          <internalNodes>
            0 -1 532 3.4584186971187592e-02</internalNodes>
          <leafValues>
            8.1061646342277527e-02 -3.3158159255981445e-01</leafValues></_>
        <_>
          <internalNodes>
            0 -1 494 7.7470600605010986e-02</internalNodes>
          <leafValues>
            -6.4144633710384369e-02 4.1789200901985168e-01</leafValues></_>
        <_>
          <internalNodes>
            0 -1 36 1.0206426680088043e-01</internalNodes>
          <leafValues>
            -8.0621391534805298e-02 2.4629658460617065e-01</leafValues></_>
        <_>
          <internalNodes>
            0 -1 703 -1.8178552854806185e-03</internalNodes>
          <leafValues>
            -4.0744045376777649e-01 5.6104712188243866e-02</leafValues></_>
        <_>
          <internalNodes>
            0 -1 623 -2.8112828731536865e-02</internalNodes>
          <leafValues>
            -7.3889571428298950e-01 2.4389514699578285e-02</leafValues></_>
        <_>
          <internalNodes>
            0 -1 362 -2.9605035670101643e-03</internalNodes>
          <leafValues>
            1.8638278543949127e-01 -1.1506471782922745e-01</leafValues></_>
        <_>
          <internalNodes>
            0 -1 619 -7.2417901828885078e-03</internalNodes>
          <leafValues>
            2.3304052650928497e-01 -1.0447562485933304e-01</leafValues></_>
        <_>
          <internalNodes>
            0 -1 713 -8.7599398102611303e-04</internalNodes>
          <leafValues>
            -2.7233281731605530e-01 1.0029686242341995e-01</leafValues></_>
        <_>
          <internalNodes>
            0 -1 102 -1.5997253358364105e-02</internalNodes>
          <leafValues>
            3.8532376289367676e-01 -6.0132961720228195e-02</leafValues></_>
        <_>
          <internalNodes>
            0 -1 391 1.3697018846869469e-02</internalNodes>
          <leafValues>
            -3.4546170383691788e-02 6.0427927970886230e-01</leafValues></_>
        <_>
          <internalNodes>
            0 -1 706 1.6696790407877415e-04</internalNodes>
          <leafValues>
            1.1686234921216965e-01 -1.8349874019622803e-01</leafValues></_>
        <_>
          <internalNodes>
            0 -1 506 5.0591952167451382e-03</internalNodes>
          <leafValues>
            7.7071316540241241e-02 -2.7369225025177002e-01</leafValues></_>
        <_>
          <internalNodes>
            0 -1 189 7.9555794596672058e-02</internalNodes>
          <leafValues>
            -7.8794062137603760e-02 2.9860511422157288e-01</leafValues></_>
        <_>
          <internalNodes>
            0 -1 47 -3.1088036485016346e-03</internalNodes>
          <leafValues>
            -3.5357531905174255e-01 7.2023086249828339e-02</leafValues></_>
        <_>
          <internalNodes>
            0 -1 540 1.9979323260486126e-03</internalNodes>
          <leafValues>
            -6.9231383502483368e-02 3.2497245073318481e-01</leafValues></_>
        <_>
          <internalNodes>
            0 -1 44 8.1470534205436707e-03</internalNodes>
          <leafValues>
            4.5433841645717621e-02 -4.7341206669807434e-01</leafValues></_>
        <_>
          <internalNodes>
            0 -1 516 -3.2510473392903805e-03</internalNodes>
          <leafValues>
            3.5150873661041260e-01 -6.4694844186306000e-02</leafValues></_>
        <_>
          <internalNodes>
            0 -1 548 -4.1919192299246788e-03</internalNodes>
          <leafValues>
            3.0338609218597412e-01 -7.0263795554637909e-02</leafValues></_>
        <_>
          <internalNodes>
            0 -1 247 3.7406980991363525e-02</internalNodes>
          <leafValues>
            8.0198541283607483e-02 -2.9314798116683960e-01</leafValues></_>
        <_>
          <internalNodes>
            0 -1 673 -4.8440885730087757e-03</internalNodes>
          <leafValues>
            -6.1787569522857666e-01 3.7604492157697678e-02</leafValues></_>
        <_>
          <internalNodes>
            0 -1 679 3.9357103407382965e-02</internalNodes>
          <leafValues>
            -4.7644425183534622e-02 5.5386793613433838e-01</leafValues></_>
        <_>
          <internalNodes>
            0 -1 389 -2.1226938813924789e-02</internalNodes>
          <leafValues>
            9.2092663049697876e-02 -2.4624547362327576e-01</leafValues></_>
        <_>
          <internalNodes>
            0 -1 330 -1.1436310410499573e-01</internalNodes>
          <leafValues>
            -5.5829823017120361e-02 5.2451270818710327e-01</leafValues></_>
        <_>
          <internalNodes>
            0 -1 332 -1.1341974139213562e-02</internalNodes>
          <leafValues>
            3.0099523067474365e-01 -7.9042360186576843e-02</leafValues></_>
        <_>
          <internalNodes>
            0 -1 138 -1.6729101538658142e-02</internalNodes>
          <leafValues>
            -8.5666245222091675e-01 2.7493400499224663e-02</leafValues></_>
        <_>
          <internalNodes>
            0 -1 505 2.9465720057487488e-02</internalNodes>
          <leafValues>
            2.2882955148816109e-02 -7.1342134475708008e-01</leafValues></_>
        <_>
          <internalNodes>
            0 -1 78 7.6525256037712097e-02</internalNodes>
          <leafValues>
            2.5639699772000313e-02 -6.5104919672012329e-01</leafValues></_>
        <_>
          <internalNodes>
            0 -1 40 -4.9831336364150047e-03</internalNodes>
          <leafValues>
            -7.9343968629837036e-01 2.0717242732644081e-02</leafValues></_>
        <_>
          <internalNodes>
            0 -1 504 -4.0951490402221680e-02</internalNodes>
          <leafValues>
            4.0185141563415527e-01 -5.6995745748281479e-02</leafValues></_>
        <_>
          <internalNodes>
            0 -1 193 2.9481314122676849e-03</internalNodes>
          <leafValues>
            -2.0222395658493042e-01 1.3940167427062988e-01</leafValues></_>
        <_>
          <internalNodes>
            0 -1 637 3.0367288738489151e-02</internalNodes>
          <leafValues>
            2.0691666752099991e-02 -7.9164314270019531e-01</leafValues></_>
        <_>
          <internalNodes>
            0 -1 60 3.4894172102212906e-02</internalNodes>
          <leafValues>
            -2.7114026248455048e-02 8.5656195878982544e-01</leafValues></_>
        <_>
          <internalNodes>
            0 -1 300 1.3106893748044968e-03</internalNodes>
          <leafValues>
            6.0020320117473602e-02 -3.4625136852264404e-01</leafValues></_>
        <_>
          <internalNodes>
            0 -1 436 1.7178876441903412e-04</internalNodes>
          <leafValues>
            1.1414127796888351e-01 -1.7799067497253418e-01</leafValues></_>
        <_>
          <internalNodes>
            0 -1 308 3.8184706121683121e-02</internalNodes>
          <leafValues>
            -5.4980795830488205e-02 4.8486176133155823e-01</leafValues></_>
        <_>
          <internalNodes>
            0 -1 699 2.5066081434488297e-02</internalNodes>
          <leafValues>
            -4.5366555452346802e-02 4.5227274298667908e-01</leafValues></_>
        <_>
          <internalNodes>
            0 -1 339 -5.4088309407234192e-02</internalNodes>
          <leafValues>
            -3.6117106676101685e-02 5.6578689813613892e-01</leafValues></_>
        <_>
          <internalNodes>
            0 -1 241 -1.2804298102855682e-01</internalNodes>
          <leafValues>
            8.3953931927680969e-02 -3.2227453589439392e-01</leafValues></_>
        <_>
          <internalNodes>
            0 -1 260 5.5252322927117348e-03</internalNodes>
          <leafValues>
            2.1203169599175453e-02 -7.8540641069412231e-01</leafValues></_>
        <_>
          <internalNodes>
            0 -1 149 8.9204162359237671e-03</internalNodes>
          <leafValues>
            6.5663799643516541e-02 -3.3019843697547913e-01</leafValues></_>
        <_>
          <internalNodes>
            0 -1 148 -9.7165675833821297e-03</internalNodes>
          <leafValues>
            -1.0256903618574142e-01 2.2651733458042145e-01</leafValues></_></weakClassifiers></_></stages>
  <features>
    <_>
      <rects>
        <_>
          0 0 3 1 -1.</_>
        <_>
          1 0 1 1 2.</_></rects>
      <tilted>0</tilted></_>
    <_>
      <rects>
        <_>
          0 0 2 7 -1.</_>
        <_>
          1 0 1 7 2.</_></rects>
      <tilted>0</tilted></_>
    <_>
      <rects>
        <_>
          0 0 2 15 -1.</_>
        <_>
          1 0 1 15 2.</_></rects>
      <tilted>0</tilted></_>
    <_>
      <rects>
        <_>
          0 0 2 20 -1.</_>
        <_>
          1 0 1 20 2.</_></rects>
      <tilted>0</tilted></_>
    <_>
      <rects>
        <_>
          0 0 6 1 -1.</_>
        <_>
          2 0 2 1 2.</_></rects>
      <tilted>0</tilted></_>
    <_>
      <rects>
        <_>
          0 0 4 2 -1.</_>
        <_>
          0 0 2 1 2.</_>
        <_>
          2 1 2 1 2.</_></rects>
      <tilted>0</tilted></_>
    <_>
      <rects>
        <_>
          0 0 4 3 -1.</_>
        <_>
          2 0 2 3 2.</_></rects>
      <tilted>0</tilted></_>
    <_>
      <rects>
        <_>
          0 0 6 1 -1.</_>
        <_>
          3 0 3 1 2.</_></rects>
      <tilted>0</tilted></_>
    <_>
      <rects>
        <_>
          0 0 3 6 -1.</_>
        <_>
          0 3 3 3 2.</_></rects>
      <tilted>0</tilted></_>
    <_>
      <rects>
        <_>
          0 0 8 4 -1.</_>
        <_>
          4 0 4 4 2.</_></rects>
      <tilted>0</tilted></_>
    <_>
      <rects>
        <_>
          0 0 10 1 -1.</_>
        <_>
          5 0 5 1 2.</_></rects>
      <tilted>0</tilted></_>
    <_>
      <rects>
        <_>
          0 0 10 4 -1.</_>
        <_>
          0 0 5 2 2.</_>
        <_>
          5 2 5 2 2.</_></rects>
      <tilted>0</tilted></_>
    <_>
      <rects>
        <_>
          0 0 10 18 -1.</_>
        <_>
          0 0 5 9 2.</_>
        <_>
          5 9 5 9 2.</_></rects>
      <tilted>0</tilted></_>
    <_>
      <rects>
        <_>
          0 0 10 14 -1.</_>
        <_>
          5 0 5 14 2.</_></rects>
      <tilted>0</tilted></_>
    <_>
      <rects>
        <_>
          0 0 12 2 -1.</_>
        <_>
          6 0 6 2 2.</_></rects>
      <tilted>0</tilted></_>
    <_>
      <rects>
        <_>
          0 0 12 15 -1.</_>
        <_>
          6 0 6 15 2.</_></rects>
      <tilted>0</tilted></_>
    <_>
      <rects>
        <_>
          0 0 8 8 -1.</_>
        <_>
          0 4 8 4 2.</_></rects>
      <tilted>0</tilted></_>
    <_>
      <rects>
        <_>
          0 0 8 20 -1.</_>
        <_>
          0 10 8 10 2.</_></rects>
      <tilted>0</tilted></_>
    <_>
      <rects>
        <_>
          0 0 10 2 -1.</_>
        <_>
          0 1 10 1 2.</_></rects>
      <tilted>0</tilted></_>
    <_>
      <rects>
        <_>
          0 0 11 2 -1.</_>
        <_>
          0 1 11 1 2.</_></rects>
      <tilted>0</tilted></_>
    <_>
      <rects>
        <_>
          0 0 11 8 -1.</_>
        <_>
          0 4 11 4 2.</_></rects>
      <tilted>0</tilted></_>
    <_>
      <rects>
        <_>
          0 0 12 15 -1.</_>
        <_>
          0 5 12 5 2.</_></rects>
      <tilted>0</tilted></_>
    <_>
      <rects>
        <_>
          0 1 1 3 -1.</_>
        <_>
          0 2 1 1 2.</_></rects>
      <tilted>0</tilted></_>
    <_>
      <rects>
        <_>
          0 1 2 2 -1.</_>
        <_>
          0 1 1 1 2.</_>
        <_>
          1 2 1 1 2.</_></rects>
      <tilted>0</tilted></_>
    <_>
      <rects>
        <_>
          0 1 2 9 -1.</_>
        <_>
          1 1 1 9 2.</_></rects>
      <tilted>0</tilted></_>
    <_>
      <rects>
        <_>
          0 1 2 18 -1.</_>
        <_>
          0 1 1 9 2.</_>
        <_>
          1 10 1 9 2.</_></rects>
      <tilted>0</tilted></_>
    <_>
      <rects>
        <_>
          0 1 2 17 -1.</_>
        <_>
          1 1 1 17 2.</_></rects>
      <tilted>0</tilted></_>
    <_>
      <rects>
        <_>
          0 1 2 2 -1.</_>
        <_>
          0 2 2 1 2.</_></rects>
      <tilted>0</tilted></_>
    <_>
      <rects>
        <_>
          0 1 4 10 -1.</_>
        <_>
          0 1 2 5 2.</_>
        <_>
          2 6 2 5 2.</_></rects>
      <tilted>0</tilted></_>
    <_>
      <rects>
        <_>
          0 1 8 2 -1.</_>
        <_>
          4 1 4 2 2.</_></rects>
      <tilted>0</tilted></_>
    <_>
      <rects>
        <_>
          0 1 10 1 -1.</_>
        <_>
          5 1 5 1 2.</_></rects>
      <tilted>0</tilted></_>
    <_>
      <rects>
        <_>
          0 1 10 16 -1.</_>
        <_>
          0 1 5 8 2.</_>
        <_>
          5 9 5 8 2.</_></rects>
      <tilted>0</tilted></_>
    <_>
      <rects>
        <_>
          0 1 12 18 -1.</_>
        <_>
          0 1 6 9 2.</_>
        <_>
          6 10 6 9 2.</_></rects>
      <tilted>0</tilted></_>
    <_>
      <rects>
        <_>
          0 2 1 2 -1.</_>
        <_>
          0 3 1 1 2.</_></rects>
      <tilted>0</tilted></_>
    <_>
      <rects>
        <_>
          0 2 4 8 -1.</_>
        <_>
          0 2 2 4 2.</_>
        <_>
          2 6 2 4 2.</_></rects>
      <tilted>0</tilted></_>
    <_>
      <rects>
        <_>
          0 2 2 10 -1.</_>
        <_>
          0 7 2 5 2.</_></rects>
      <tilted>0</tilted></_>
    <_>
      <rects>
        <_>
          0 2 10 8 -1.</_>
        <_>
          5 2 5 8 2.</_></rects>
      <tilted>0</tilted></_>
    <_>
      <rects>
        <_>
          0 2 8 2 -1.</_>
        <_>
          0 3 8 1 2.</_></rects>
      <tilted>0</tilted></_>
    <_>
      <rects>
        <_>
          0 2 9 4 -1.</_>
        <_>
          0 4 9 2 2.</_></rects>
      <tilted>0</tilted></_>
    <_>
      <rects>
        <_>
          0 3 2 1 -1.</_>
        <_>
          1 3 1 1 2.</_></rects>
      <tilted>0</tilted></_>
    <_>
      <rects>
        <_>
          0 3 1 2 -1.</_>
        <_>
          0 4 1 1 2.</_></rects>
      <tilted>0</tilted></_>
    <_>
      <rects>
        <_>
          0 3 2 6 -1.</_>
        <_>
          0 3 1 3 2.</_>
        <_>
          1 6 1 3 2.</_></rects>
      <tilted>0</tilted></_>
    <_>
      <rects>
        <_>
          0 3 2 8 -1.</_>
        <_>
          0 3 1 4 2.</_>
        <_>
          1 7 1 4 2.</_></rects>
      <tilted>0</tilted></_>
    <_>
      <rects>
        <_>
          0 3 2 11 -1.</_>
        <_>
          1 3 1 11 2.</_></rects>
      <tilted>0</tilted></_>
    <_>
      <rects>
        <_>
          0 3 2 2 -1.</_>
        <_>
          0 4 2 1 2.</_></rects>
      <tilted>0</tilted></_>
    <_>
      <rects>
        <_>
          0 3 2 9 -1.</_>
        <_>
          0 6 2 3 2.</_></rects>
      <tilted>0</tilted></_>
    <_>
      <rects>
        <_>
          0 3 3 2 -1.</_>
        <_>
          0 4 3 1 2.</_></rects>
      <tilted>0</tilted></_>
    <_>
      <rects>
        <_>
          0 3 5 2 -1.</_>
        <_>
          0 4 5 1 2.</_></rects>
      <tilted>0</tilted></_>
    <_>
      <rects>
        <_>
          0 3 12 2 -1.</_>
        <_>
          0 4 12 1 2.</_></rects>
      <tilted>0</tilted></_>
    <_>
      <rects>
        <_>
          0 4 2 1 -1.</_>
        <_>
          1 4 1 1 2.</_></rects>
      <tilted>0</tilted></_>
    <_>
      <rects>
        <_>
          0 4 1 2 -1.</_>
        <_>
          0 5 1 1 2.</_></rects>
      <tilted>0</tilted></_>
    <_>
      <rects>
        <_>
          0 4 3 2 -1.</_>
        <_>
          0 5 3 1 2.</_></rects>
      <tilted>0</tilted></_>
    <_>
      <rects>
        <_>
          0 4 9 2 -1.</_>
        <_>
          3 4 3 2 2.</_></rects>
      <tilted>0</tilted></_>
    <_>
      <rects>
        <_>
          0 4 6 3 -1.</_>
        <_>
          3 4 3 3 2.</_></rects>
      <tilted>0</tilted></_>
    <_>
      <rects>
        <_>
          0 4 6 6 -1.</_>
        <_>
          0 4 3 3 2.</_>
        <_>
          3 7 3 3 2.</_></rects>
      <tilted>0</tilted></_>
    <_>
      <rects>
        <_>
          0 4 10 10 -1.</_>
        <_>
          0 4 5 5 2.</_>
        <_>
          5 9 5 5 2.</_></rects>
      <tilted>0</tilted></_>
    <_>
      <rects>
        <_>
          0 4 7 4 -1.</_>
        <_>
          0 6 7 2 2.</_></rects>
      <tilted>0</tilted></_>
    <_>
      <rects>
        <_>
          0 4 11 2 -1.</_>
        <_>
          0 5 11 1 2.</_></rects>
      <tilted>0</tilted></_>
    <_>
      <rects>
        <_>
          0 4 12 2 -1.</_>
        <_>
          0 5 12 1 2.</_></rects>
      <tilted>0</tilted></_>
    <_>
      <rects>
        <_>
          0 5 2 1 -1.</_>
        <_>
          1 5 1 1 2.</_></rects>
      <tilted>0</tilted></_>
    <_>
      <rects>
        <_>
          0 5 2 8 -1.</_>
        <_>
          0 5 1 4 2.</_>
        <_>
          1 9 1 4 2.</_></rects>
      <tilted>0</tilted></_>
    <_>
      <rects>
        <_>
          0 5 4 2 -1.</_>
        <_>
          0 5 2 1 2.</_>
        <_>
          2 6 2 1 2.</_></rects>
      <tilted>0</tilted></_>
    <_>
      <rects>
        <_>
          0 5 4 6 -1.</_>
        <_>
          0 5 2 3 2.</_>
        <_>
          2 8 2 3 2.</_></rects>
      <tilted>0</tilted></_>
    <_>
      <rects>
        <_>
          0 5 4 11 -1.</_>
        <_>
          2 5 2 11 2.</_></rects>
      <tilted>0</tilted></_>
    <_>
      <rects>
        <_>
          0 5 3 2 -1.</_>
        <_>
          0 6 3 1 2.</_></rects>
      <tilted>0</tilted></_>
    <_>
      <rects>
        <_>
          0 5 6 3 -1.</_>
        <_>
          3 5 3 3 2.</_></rects>
      <tilted>0</tilted></_>
    <_>
      <rects>
        <_>
          0 5 10 1 -1.</_>
        <_>
          5 5 5 1 2.</_></rects>
      <tilted>0</tilted></_>
    <_>
      <rects>
        <_>
          0 5 11 4 -1.</_>
        <_>
          0 7 11 2 2.</_></rects>
      <tilted>0</tilted></_>
    <_>
      <rects>
        <_>
          0 5 12 2 -1.</_>
        <_>
          0 6 12 1 2.</_></rects>
      <tilted>0</tilted></_>
    <_>
      <rects>
        <_>
          0 6 2 4 -1.</_>
        <_>
          1 6 1 4 2.</_></rects>
      <tilted>0</tilted></_>
    <_>
      <rects>
        <_>
          0 6 4 2 -1.</_>
        <_>
          0 6 2 1 2.</_>
        <_>
          2 7 2 1 2.</_></rects>
      <tilted>0</tilted></_>
    <_>
      <rects>
        <_>
          0 6 3 2 -1.</_>
        <_>
          0 7 3 1 2.</_></rects>
      <tilted>0</tilted></_>
    <_>
      <rects>
        <_>
          0 6 12 2 -1.</_>
        <_>
          0 7 12 1 2.</_></rects>
      <tilted>0</tilted></_>
    <_>
      <rects>
        <_>
          0 7 2 2 -1.</_>
        <_>
          1 7 1 2 2.</_></rects>
      <tilted>0</tilted></_>
    <_>
      <rects>
        <_>
          0 7 2 8 -1.</_>
        <_>
          0 7 1 4 2.</_>
        <_>
          1 11 1 4 2.</_></rects>
      <tilted>0</tilted></_>
    <_>
      <rects>
        <_>
          0 7 4 7 -1.</_>
        <_>
          2 7 2 7 2.</_></rects>
      <tilted>0</tilted></_>
    <_>
      <rects>
        <_>
          0 7 3 2 -1.</_>
        <_>
          0 8 3 1 2.</_></rects>
      <tilted>0</tilted></_>
    <_>
      <rects>
        <_>
          0 7 6 10 -1.</_>
        <_>
          3 7 3 10 2.</_></rects>
      <tilted>0</tilted></_>
    <_>
      <rects>
        <_>
          0 7 10 2 -1.</_>
        <_>
          5 7 5 2 2.</_></rects>
      <tilted>0</tilted></_>
    <_>
      <rects>
        <_>
          0 7 10 8 -1.</_>
        <_>
          0 7 5 4 2.</_>
        <_>
          5 11 5 4 2.</_></rects>
      <tilted>0</tilted></_>
    <_>
      <rects>
        <_>
          0 7 12 4 -1.</_>
        <_>
          0 7 6 2 2.</_>
        <_>
          6 9 6 2 2.</_></rects>
      <tilted>0</tilted></_>
    <_>
      <rects>
        <_>
          0 7 11 2 -1.</_>
        <_>
          0 8 11 1 2.</_></rects>
      <tilted>0</tilted></_>
    <_>
      <rects>
        <_>
          0 8 1 2 -1.</_>
        <_>
          0 9 1 1 2.</_></rects>
      <tilted>0</tilted></_>
    <_>
      <rects>
        <_>
          0 8 4 2 -1.</_>
        <_>
          0 8 2 1 2.</_>
        <_>
          2 9 2 1 2.</_></rects>
      <tilted>0</tilted></_>
    <_>
      <rects>
        <_>
          0 8 4 5 -1.</_>
        <_>
          2 8 2 5 2.</_></rects>
      <tilted>0</tilted></_>
    <_>
      <rects>
        <_>
          0 8 12 3 -1.</_>
        <_>
          4 8 4 3 2.</_></rects>
      <tilted>0</tilted></_>
    <_>
      <rects>
        <_>
          0 8 6 2 -1.</_>
        <_>
          0 9 6 1 2.</_></rects>
      <tilted>0</tilted></_>
    <_>
      <rects>
        <_>
          0 8 8 2 -1.</_>
        <_>
          0 9 8 1 2.</_></rects>
      <tilted>0</tilted></_>
    <_>
      <rects>
        <_>
          0 8 9 2 -1.</_>
        <_>
          0 9 9 1 2.</_></rects>
      <tilted>0</tilted></_>
    <_>
      <rects>
        <_>
          0 9 1 2 -1.</_>
        <_>
          0 10 1 1 2.</_></rects>
      <tilted>0</tilted></_>
    <_>
      <rects>
        <_>
          0 9 4 2 -1.</_>
        <_>
          0 10 4 1 2.</_></rects>
      <tilted>0</tilted></_>
    <_>
      <rects>
        <_>
          0 9 6 2 -1.</_>
        <_>
          0 10 6 1 2.</_></rects>
      <tilted>0</tilted></_>
    <_>
      <rects>
        <_>
          0 10 1 2 -1.</_>
        <_>
          0 11 1 1 2.</_></rects>
      <tilted>0</tilted></_>
    <_>
      <rects>
        <_>
          0 10 1 6 -1.</_>
        <_>
          0 13 1 3 2.</_></rects>
      <tilted>0</tilted></_>
    <_>
      <rects>
        <_>
          0 10 2 2 -1.</_>
        <_>
          0 11 2 1 2.</_></rects>
      <tilted>0</tilted></_>
    <_>
      <rects>
        <_>
          0 10 4 6 -1.</_>
        <_>
          0 10 2 3 2.</_>
        <_>
          2 13 2 3 2.</_></rects>
      <tilted>0</tilted></_>
    <_>
      <rects>
        <_>
          0 10 4 4 -1.</_>
        <_>
          0 12 4 2 2.</_></rects>
      <tilted>0</tilted></_>
    <_>
      <rects>
        <_>
          0 10 12 2 -1.</_>
        <_>
          0 10 6 1 2.</_>
        <_>
          6 11 6 1 2.</_></rects>
      <tilted>0</tilted></_>
    <_>
      <rects>
        <_>
          0 10 12 8 -1.</_>
        <_>
          0 10 6 4 2.</_>
        <_>
          6 14 6 4 2.</_></rects>
      <tilted>0</tilted></_>
    <_>
      <rects>
        <_>
          0 10 12 2 -1.</_>
        <_>
          0 11 12 1 2.</_></rects>
      <tilted>0</tilted></_>
    <_>
      <rects>
        <_>
          0 11 1 2 -1.</_>
        <_>
          0 12 1 1 2.</_></rects>
      <tilted>0</tilted></_>
    <_>
      <rects>
        <_>
          0 11 2 2 -1.</_>
        <_>
          0 11 1 1 2.</_>
        <_>
          1 12 1 1 2.</_></rects>
      <tilted>0</tilted></_>
    <_>
      <rects>
        <_>
          0 11 2 9 -1.</_>
        <_>
          1 11 1 9 2.</_></rects>
      <tilted>0</tilted></_>
    <_>
      <rects>
        <_>
          0 11 2 2 -1.</_>
        <_>
          0 12 2 1 2.</_></rects>
      <tilted>0</tilted></_>
    <_>
      <rects>
        <_>
          0 11 4 8 -1.</_>
        <_>
          2 11 2 8 2.</_></rects>
      <tilted>0</tilted></_>
    <_>
      <rects>
        <_>
          0 11 4 2 -1.</_>
        <_>
          0 12 4 1 2.</_></rects>
      <tilted>0</tilted></_>
    <_>
      <rects>
        <_>
          0 11 8 7 -1.</_>
        <_>
          4 11 4 7 2.</_></rects>
      <tilted>0</tilted></_>
    <_>
      <rects>
        <_>
          0 12 1 2 -1.</_>
        <_>
          0 13 1 1 2.</_></rects>
      <tilted>0</tilted></_>
    <_>
      <rects>
        <_>
          0 12 1 4 -1.</_>
        <_>
          0 14 1 2 2.</_></rects>
      <tilted>0</tilted></_>
    <_>
      <rects>
        <_>
          0 12 2 8 -1.</_>
        <_>
          0 16 2 4 2.</_></rects>
      <tilted>0</tilted></_>
    <_>
      <rects>
        <_>
          0 12 4 8 -1.</_>
        <_>
          0 12 2 4 2.</_>
        <_>
          2 16 2 4 2.</_></rects>
      <tilted>0</tilted></_>
    <_>
      <rects>
        <_>
          0 12 6 2 -1.</_>
        <_>
          0 13 6 1 2.</_></rects>
      <tilted>0</tilted></_>
    <_>
      <rects>
        <_>
          0 12 12 4 -1.</_>
        <_>
          0 12 6 2 2.</_>
        <_>
          6 14 6 2 2.</_></rects>
      <tilted>0</tilted></_>
    <_>
      <rects>
        <_>
          0 13 1 2 -1.</_>
        <_>
          0 14 1 1 2.</_></rects>
      <tilted>0</tilted></_>
    <_>
      <rects>
        <_>
          0 13 2 6 -1.</_>
        <_>
          0 13 1 3 2.</_>
        <_>
          1 16 1 3 2.</_></rects>
      <tilted>0</tilted></_>
    <_>
      <rects>
        <_>
          0 13 2 5 -1.</_>
        <_>
          1 13 1 5 2.</_></rects>
      <tilted>0</tilted></_>
    <_>
      <rects>
        <_>
          0 13 2 3 -1.</_>
        <_>
          0 14 2 1 2.</_></rects>
      <tilted>0</tilted></_>
    <_>
      <rects>
        <_>
          0 13 6 3 -1.</_>
        <_>
          3 13 3 3 2.</_></rects>
      <tilted>0</tilted></_>
    <_>
      <rects>
        <_>
          0 13 6 2 -1.</_>
        <_>
          0 14 6 1 2.</_></rects>
      <tilted>0</tilted></_>
    <_>
      <rects>
        <_>
          0 13 12 6 -1.</_>
        <_>
          6 13 6 6 2.</_></rects>
      <tilted>0</tilted></_>
    <_>
      <rects>
        <_>
          0 14 1 2 -1.</_>
        <_>
          0 15 1 1 2.</_></rects>
      <tilted>0</tilted></_>
    <_>
      <rects>
        <_>
          0 14 1 3 -1.</_>
        <_>
          0 15 1 1 2.</_></rects>
      <tilted>0</tilted></_>
    <_>
      <rects>
        <_>
          0 14 1 6 -1.</_>
        <_>
          0 17 1 3 2.</_></rects>
      <tilted>0</tilted></_>
    <_>
      <rects>
        <_>
          0 14 6 6 -1.</_>
        <_>
          0 14 3 3 2.</_>
        <_>
          3 17 3 3 2.</_></rects>
      <tilted>0</tilted></_>
    <_>
      <rects>
        <_>
          0 14 12 4 -1.</_>
        <_>
          6 14 6 4 2.</_></rects>
      <tilted>0</tilted></_>
    <_>
      <rects>
        <_>
          0 15 1 2 -1.</_>
        <_>
          0 16 1 1 2.</_></rects>
      <tilted>0</tilted></_>
    <_>
      <rects>
        <_>
          0 15 3 2 -1.</_>
        <_>
          1 15 1 2 2.</_></rects>
      <tilted>0</tilted></_>
    <_>
      <rects>
        <_>
          0 15 2 2 -1.</_>
        <_>
          0 16 2 1 2.</_></rects>
      <tilted>0</tilted></_>
    <_>
      <rects>
        <_>
          0 15 8 1 -1.</_>
        <_>
          4 15 4 1 2.</_></rects>
      <tilted>0</tilted></_>
    <_>
      <rects>
        <_>
          0 15 12 3 -1.</_>
        <_>
          6 15 6 3 2.</_></rects>
      <tilted>0</tilted></_>
    <_>
      <rects>
        <_>
          0 15 12 2 -1.</_>
        <_>
          0 16 12 1 2.</_></rects>
      <tilted>0</tilted></_>
    <_>
      <rects>
        <_>
          0 16 1 2 -1.</_>
        <_>
          0 17 1 1 2.</_></rects>
      <tilted>0</tilted></_>
    <_>
      <rects>
        <_>
          0 16 2 2 -1.</_>
        <_>
          0 16 1 1 2.</_>
        <_>
          1 17 1 1 2.</_></rects>
      <tilted>0</tilted></_>
    <_>
      <rects>
        <_>
          0 16 1 4 -1.</_>
        <_>
          0 18 1 2 2.</_></rects>
      <tilted>0</tilted></_>
    <_>
      <rects>
        <_>
          0 16 6 4 -1.</_>
        <_>
          0 18 6 2 2.</_></rects>
      <tilted>0</tilted></_>
    <_>
      <rects>
        <_>
          0 16 12 3 -1.</_>
        <_>
          6 16 6 3 2.</_></rects>
      <tilted>0</tilted></_>
    <_>
      <rects>
        <_>
          0 16 9 4 -1.</_>
        <_>
          0 18 9 2 2.</_></rects>
      <tilted>0</tilted></_>
    <_>
      <rects>
        <_>
          0 17 1 2 -1.</_>
        <_>
          0 18 1 1 2.</_></rects>
      <tilted>0</tilted></_>
    <_>
      <rects>
        <_>
          0 17 2 2 -1.</_>
        <_>
          0 18 2 1 2.</_></rects>
      <tilted>0</tilted></_>
    <_>
      <rects>
        <_>
          0 17 4 3 -1.</_>
        <_>
          0 18 4 1 2.</_></rects>
      <tilted>0</tilted></_>
    <_>
      <rects>
        <_>
          0 17 9 2 -1.</_>
        <_>
          0 18 9 1 2.</_></rects>
      <tilted>0</tilted></_>
    <_>
      <rects>
        <_>
          0 17 12 2 -1.</_>
        <_>
          0 18 12 1 2.</_></rects>
      <tilted>0</tilted></_>
    <_>
      <rects>
        <_>
          0 18 2 2 -1.</_>
        <_>
          0 18 1 1 2.</_>
        <_>
          1 19 1 1 2.</_></rects>
      <tilted>0</tilted></_>
    <_>
      <rects>
        <_>
          0 18 9 1 -1.</_>
        <_>
          3 18 3 1 2.</_></rects>
      <tilted>0</tilted></_>
    <_>
      <rects>
        <_>
          0 18 10 2 -1.</_>
        <_>
          0 18 5 1 2.</_>
        <_>
          5 19 5 1 2.</_></rects>
      <tilted>0</tilted></_>
    <_>
      <rects>
        <_>
          0 18 12 2 -1.</_>
        <_>
          0 18 6 1 2.</_>
        <_>
          6 19 6 1 2.</_></rects>
      <tilted>0</tilted></_>
    <_>
      <rects>
        <_>
          0 18 12 2 -1.</_>
        <_>
          0 19 12 1 2.</_></rects>
      <tilted>0</tilted></_>
    <_>
      <rects>
        <_>
          0 19 12 1 -1.</_>
        <_>
          4 19 4 1 2.</_></rects>
      <tilted>0</tilted></_>
    <_>
      <rects>
        <_>
          1 0 1 3 -1.</_>
        <_>
          1 1 1 1 2.</_></rects>
      <tilted>0</tilted></_>
    <_>
      <rects>
        <_>
          1 0 2 4 -1.</_>
        <_>
          2 0 1 4 2.</_></rects>
      <tilted>0</tilted></_>
    <_>
      <rects>
        <_>
          1 0 2 20 -1.</_>
        <_>
          1 0 1 10 2.</_>
        <_>
          2 10 1 10 2.</_></rects>
      <tilted>0</tilted></_>
    <_>
      <rects>
        <_>
          1 0 2 4 -1.</_>
        <_>
          1 2 2 2 2.</_></rects>
      <tilted>0</tilted></_>
    <_>
      <rects>
        <_>
          1 0 3 2 -1.</_>
        <_>
          1 1 3 1 2.</_></rects>
      <tilted>0</tilted></_>
    <_>
      <rects>
        <_>
          1 0 3 20 -1.</_>
        <_>
          1 10 3 10 2.</_></rects>
      <tilted>0</tilted></_>
    <_>
      <rects>
        <_>
          1 0 8 4 -1.</_>
        <_>
          1 0 4 2 2.</_>
        <_>
          5 2 4 2 2.</_></rects>
      <tilted>0</tilted></_>
    <_>
      <rects>
        <_>
          1 0 10 4 -1.</_>
        <_>
          1 0 5 2 2.</_>
        <_>
          6 2 5 2 2.</_></rects>
      <tilted>0</tilted></_>
    <_>
      <rects>
        <_>
          1 0 10 20 -1.</_>
        <_>
          1 10 10 10 2.</_></rects>
      <tilted>0</tilted></_>
    <_>
      <rects>
        <_>
          1 0 11 12 -1.</_>
        <_>
          1 6 11 6 2.</_></rects>
      <tilted>0</tilted></_>
    <_>
      <rects>
        <_>
          1 1 1 6 -1.</_>
        <_>
          1 4 1 3 2.</_></rects>
      <tilted>0</tilted></_>
    <_>
      <rects>
        <_>
          1 1 4 4 -1.</_>
        <_>
          1 1 2 2 2.</_>
        <_>
          3 3 2 2 2.</_></rects>
      <tilted>0</tilted></_>
    <_>
      <rects>
        <_>
          1 1 3 2 -1.</_>
        <_>
          1 2 3 1 2.</_></rects>
      <tilted>0</tilted></_>
    <_>
      <rects>
        <_>
          1 1 9 19 -1.</_>
        <_>
          4 1 3 19 2.</_></rects>
      <tilted>0</tilted></_>
    <_>
      <rects>
        <_>
          1 1 8 2 -1.</_>
        <_>
          1 1 4 1 2.</_>
        <_>
          5 2 4 1 2.</_></rects>
      <tilted>0</tilted></_>
    <_>
      <rects>
        <_>
          1 1 10 18 -1.</_>
        <_>
          1 1 5 9 2.</_>
        <_>
          6 10 5 9 2.</_></rects>
      <tilted>0</tilted></_>
    <_>
      <rects>
        <_>
          1 1 10 14 -1.</_>
        <_>
          6 1 5 14 2.</_></rects>
      <tilted>0</tilted></_>
    <_>
      <rects>
        <_>
          1 1 9 2 -1.</_>
        <_>
          1 2 9 1 2.</_></rects>
      <tilted>0</tilted></_>
    <_>
      <rects>
        <_>
          1 1 11 2 -1.</_>
        <_>
          1 2 11 1 2.</_></rects>
      <tilted>0</tilted></_>
    <_>
      <rects>
        <_>
          1 2 2 2 -1.</_>
        <_>
          2 2 1 2 2.</_></rects>
      <tilted>0</tilted></_>
    <_>
      <rects>
        <_>
          1 2 2 10 -1.</_>
        <_>
          1 2 1 5 2.</_>
        <_>
          2 7 1 5 2.</_></rects>
      <tilted>0</tilted></_>
    <_>
      <rects>
        <_>
          1 2 10 13 -1.</_>
        <_>
          6 2 5 13 2.</_></rects>
      <tilted>0</tilted></_>
    <_>
      <rects>
        <_>
          1 2 8 2 -1.</_>
        <_>
          1 3 8 1 2.</_></rects>
      <tilted>0</tilted></_>
    <_>
      <rects>
        <_>
          1 3 1 8 -1.</_>
        <_>
          1 7 1 4 2.</_></rects>
      <tilted>0</tilted></_>
    <_>
      <rects>
        <_>
          1 3 2 5 -1.</_>
        <_>
          2 3 1 5 2.</_></rects>
      <tilted>0</tilted></_>
    <_>
      <rects>
        <_>
          1 3 2 14 -1.</_>
        <_>
          2 3 1 14 2.</_></rects>
      <tilted>0</tilted></_>
    <_>
      <rects>
        <_>
          1 3 9 4 -1.</_>
        <_>
          4 3 3 4 2.</_></rects>
      <tilted>0</tilted></_>
    <_>
      <rects>
        <_>
          1 3 6 6 -1.</_>
        <_>
          4 3 3 6 2.</_></rects>
      <tilted>0</tilted></_>
    <_>
      <rects>
        <_>
          1 3 4 2 -1.</_>
        <_>
          1 4 4 1 2.</_></rects>
      <tilted>0</tilted></_>
    <_>
      <rects>
        <_>
          1 4 3 2 -1.</_>
        <_>
          1 5 3 1 2.</_></rects>
      <tilted>0</tilted></_>
    <_>
      <rects>
        <_>
          1 4 4 2 -1.</_>
        <_>
          1 5 4 1 2.</_></rects>
      <tilted>0</tilted></_>
    <_>
      <rects>
        <_>
          1 4 10 16 -1.</_>
        <_>
          1 4 5 8 2.</_>
        <_>
          6 12 5 8 2.</_></rects>
      <tilted>0</tilted></_>
    <_>
      <rects>
        <_>
          1 4 10 16 -1.</_>
        <_>
          1 12 10 8 2.</_></rects>
      <tilted>0</tilted></_>
    <_>
      <rects>
        <_>
          1 5 1 2 -1.</_>
        <_>
          1 6 1 1 2.</_></rects>
      <tilted>0</tilted></_>
    <_>
      <rects>
        <_>
          1 5 1 6 -1.</_>
        <_>
          1 8 1 3 2.</_></rects>
      <tilted>0</tilted></_>
    <_>
      <rects>
        <_>
          1 5 4 4 -1.</_>
        <_>
          1 5 2 2 2.</_>
        <_>
          3 7 2 2 2.</_></rects>
      <tilted>0</tilted></_>
    <_>
      <rects>
        <_>
          1 6 2 3 -1.</_>
        <_>
          2 6 1 3 2.</_></rects>
      <tilted>0</tilted></_>
    <_>
      <rects>
        <_>
          1 6 1 14 -1.</_>
        <_>
          1 13 1 7 2.</_></rects>
      <tilted>0</tilted></_>
    <_>
      <rects>
        <_>
          1 6 6 2 -1.</_>
        <_>
          4 6 3 2 2.</_></rects>
      <tilted>0</tilted></_>
    <_>
      <rects>
        <_>
          1 7 2 6 -1.</_>
        <_>
          1 7 1 3 2.</_>
        <_>
          2 10 1 3 2.</_></rects>
      <tilted>0</tilted></_>
    <_>
      <rects>
        <_>
          1 7 4 10 -1.</_>
        <_>
          1 7 2 5 2.</_>
        <_>
          3 12 2 5 2.</_></rects>
      <tilted>0</tilted></_>
    <_>
      <rects>
        <_>
          1 7 10 6 -1.</_>
        <_>
          1 10 10 3 2.</_></rects>
      <tilted>0</tilted></_>
    <_>
      <rects>
        <_>
          1 8 6 8 -1.</_>
        <_>
          1 8 3 4 2.</_>
        <_>
          4 12 3 4 2.</_></rects>
      <tilted>0</tilted></_>
    <_>
      <rects>
        <_>
          1 8 6 10 -1.</_>
        <_>
          1 8 3 5 2.</_>
        <_>
          4 13 3 5 2.</_></rects>
      <tilted>0</tilted></_>
    <_>
      <rects>
        <_>
          1 8 4 3 -1.</_>
        <_>
          1 9 4 1 2.</_></rects>
      <tilted>0</tilted></_>
    <_>
      <rects>
        <_>
          1 8 11 2 -1.</_>
        <_>
          1 9 11 1 2.</_></rects>
      <tilted>0</tilted></_>
    <_>
      <rects>
        <_>
          1 9 2 2 -1.</_>
        <_>
          1 9 1 1 2.</_>
        <_>
          2 10 1 1 2.</_></rects>
      <tilted>0</tilted></_>
    <_>
      <rects>
        <_>
          1 9 1 9 -1.</_>
        <_>
          1 12 1 3 2.</_></rects>
      <tilted>0</tilted></_>
    <_>
      <rects>
        <_>
          1 9 2 4 -1.</_>
        <_>
          1 11 2 2 2.</_></rects>
      <tilted>0</tilted></_>
    <_>
      <rects>
        <_>
          1 9 6 10 -1.</_>
        <_>
          1 9 3 5 2.</_>
        <_>
          4 14 3 5 2.</_></rects>
      <tilted>0</tilted></_>
    <_>
      <rects>
        <_>
          1 10 6 5 -1.</_>
        <_>
          3 10 2 5 2.</_></rects>
      <tilted>0</tilted></_>
    <_>
      <rects>
        <_>
          1 10 8 10 -1.</_>
        <_>
          1 10 4 5 2.</_>
        <_>
          5 15 4 5 2.</_></rects>
      <tilted>0</tilted></_>
    <_>
      <rects>
        <_>
          1 10 5 2 -1.</_>
        <_>
          1 11 5 1 2.</_></rects>
      <tilted>0</tilted></_>
    <_>
      <rects>
        <_>
          1 10 10 2 -1.</_>
        <_>
          1 10 5 1 2.</_>
        <_>
          6 11 5 1 2.</_></rects>
      <tilted>0</tilted></_>
    <_>
      <rects>
        <_>
          1 10 10 8 -1.</_>
        <_>
          6 10 5 8 2.</_></rects>
      <tilted>0</tilted></_>
    <_>
      <rects>
        <_>
          1 11 1 2 -1.</_>
        <_>
          1 12 1 1 2.</_></rects>
      <tilted>0</tilted></_>
    <_>
      <rects>
        <_>
          1 11 2 2 -1.</_>
        <_>
          1 11 1 1 2.</_>
        <_>
          2 12 1 1 2.</_></rects>
      <tilted>0</tilted></_>
    <_>
      <rects>
        <_>
          1 11 2 4 -1.</_>
        <_>
          1 11 1 2 2.</_>
        <_>
          2 13 1 2 2.</_></rects>
      <tilted>0</tilted></_>
    <_>
      <rects>
        <_>
          1 11 2 6 -1.</_>
        <_>
          1 11 1 3 2.</_>
        <_>
          2 14 1 3 2.</_></rects>
      <tilted>0</tilted></_>
    <_>
      <rects>
        <_>
          1 11 2 2 -1.</_>
        <_>
          1 12 2 1 2.</_></rects>
      <tilted>0</tilted></_>
    <_>
      <rects>
        <_>
          1 13 10 6 -1.</_>
        <_>
          6 13 5 6 2.</_></rects>
      <tilted>0</tilted></_>
    <_>
      <rects>
        <_>
          1 14 6 2 -1.</_>
        <_>
          1 14 3 1 2.</_>
        <_>
          4 15 3 1 2.</_></rects>
      <tilted>0</tilted></_>
    <_>
      <rects>
        <_>
          1 14 6 4 -1.</_>
        <_>
          1 14 3 2 2.</_>
        <_>
          4 16 3 2 2.</_></rects>
      <tilted>0</tilted></_>
    <_>
      <rects>
        <_>
          1 14 9 6 -1.</_>
        <_>
          1 17 9 3 2.</_></rects>
      <tilted>0</tilted></_>
    <_>
      <rects>
        <_>
          1 15 2 4 -1.</_>
        <_>
          1 15 1 2 2.</_>
        <_>
          2 17 1 2 2.</_></rects>
      <tilted>0</tilted></_>
    <_>
      <rects>
        <_>
          1 15 6 2 -1.</_>
        <_>
          1 15 3 1 2.</_>
        <_>
          4 16 3 1 2.</_></rects>
      <tilted>0</tilted></_>
    <_>
      <rects>
        <_>
          1 16 8 4 -1.</_>
        <_>
          1 16 4 2 2.</_>
        <_>
          5 18 4 2 2.</_></rects>
      <tilted>0</tilted></_>
    <_>
      <rects>
        <_>
          1 16 10 4 -1.</_>
        <_>
          1 16 5 2 2.</_>
        <_>
          6 18 5 2 2.</_></rects>
      <tilted>0</tilted></_>
    <_>
      <rects>
        <_>
          1 16 10 3 -1.</_>
        <_>
          6 16 5 3 2.</_></rects>
      <tilted>0</tilted></_>
    <_>
      <rects>
        <_>
          1 16 9 2 -1.</_>
        <_>
          1 17 9 1 2.</_></rects>
      <tilted>0</tilted></_>
    <_>
      <rects>
        <_>
          1 16 10 4 -1.</_>
        <_>
          1 18 10 2 2.</_></rects>
      <tilted>0</tilted></_>
    <_>
      <rects>
        <_>
          1 17 1 2 -1.</_>
        <_>
          1 18 1 1 2.</_></rects>
      <tilted>0</tilted></_>
    <_>
      <rects>
        <_>
          1 17 10 2 -1.</_>
        <_>
          6 17 5 2 2.</_></rects>
      <tilted>0</tilted></_>
    <_>
      <rects>
        <_>
          1 18 2 2 -1.</_>
        <_>
          2 18 1 2 2.</_></rects>
      <tilted>0</tilted></_>
    <_>
      <rects>
        <_>
          1 18 8 2 -1.</_>
        <_>
          1 18 4 1 2.</_>
        <_>
          5 19 4 1 2.</_></rects>
      <tilted>0</tilted></_>
    <_>
      <rects>
        <_>
          1 18 10 2 -1.</_>
        <_>
          1 18 5 1 2.</_>
        <_>
          6 19 5 1 2.</_></rects>
      <tilted>0</tilted></_>
    <_>
      <rects>
        <_>
          1 18 9 2 -1.</_>
        <_>
          1 19 9 1 2.</_></rects>
      <tilted>0</tilted></_>
    <_>
      <rects>
        <_>
          1 18 10 2 -1.</_>
        <_>
          1 19 10 1 2.</_></rects>
      <tilted>0</tilted></_>
    <_>
      <rects>
        <_>
          1 18 11 2 -1.</_>
        <_>
          1 19 11 1 2.</_></rects>
      <tilted>0</tilted></_>
    <_>
      <rects>
        <_>
          1 19 2 1 -1.</_>
        <_>
          2 19 1 1 2.</_></rects>
      <tilted>0</tilted></_>
    <_>
      <rects>
        <_>
          2 0 2 3 -1.</_>
        <_>
          3 0 1 3 2.</_></rects>
      <tilted>0</tilted></_>
    <_>
      <rects>
        <_>
          2 0 2 4 -1.</_>
        <_>
          3 0 1 4 2.</_></rects>
      <tilted>0</tilted></_>
    <_>
      <rects>
        <_>
          2 0 4 2 -1.</_>
        <_>
          2 0 2 1 2.</_>
        <_>
          4 1 2 1 2.</_></rects>
      <tilted>0</tilted></_>
    <_>
      <rects>
        <_>
          2 0 4 4 -1.</_>
        <_>
          2 0 2 2 2.</_>
        <_>
          4 2 2 2 2.</_></rects>
      <tilted>0</tilted></_>
    <_>
      <rects>
        <_>
          2 0 4 2 -1.</_>
        <_>
          2 1 4 1 2.</_></rects>
      <tilted>0</tilted></_>
    <_>
      <rects>
        <_>
          2 0 8 4 -1.</_>
        <_>
          2 0 4 2 2.</_>
        <_>
          6 2 4 2 2.</_></rects>
      <tilted>0</tilted></_>
    <_>
      <rects>
        <_>
          2 0 8 8 -1.</_>
        <_>
          2 0 4 4 2.</_>
        <_>
          6 4 4 4 2.</_></rects>
      <tilted>0</tilted></_>
    <_>
      <rects>
        <_>
          2 0 8 18 -1.</_>
        <_>
          2 0 4 9 2.</_>
        <_>
          6 9 4 9 2.</_></rects>
      <tilted>0</tilted></_>
    <_>
      <rects>
        <_>
          2 0 10 4 -1.</_>
        <_>
          2 0 5 2 2.</_>
        <_>
          7 2 5 2 2.</_></rects>
      <tilted>0</tilted></_>
    <_>
      <rects>
        <_>
          2 0 10 5 -1.</_>
        <_>
          7 0 5 5 2.</_></rects>
      <tilted>0</tilted></_>
    <_>
      <rects>
        <_>
          2 0 10 6 -1.</_>
        <_>
          7 0 5 6 2.</_></rects>
      <tilted>0</tilted></_>
    <_>
      <rects>
        <_>
          2 0 10 20 -1.</_>
        <_>
          7 0 5 20 2.</_></rects>
      <tilted>0</tilted></_>
    <_>
      <rects>
        <_>
          2 0 6 2 -1.</_>
        <_>
          2 1 6 1 2.</_></rects>
      <tilted>0</tilted></_>
    <_>
      <rects>
        <_>
          2 1 3 11 -1.</_>
        <_>
          3 1 1 11 2.</_></rects>
      <tilted>0</tilted></_>
    <_>
      <rects>
        <_>
          2 1 4 2 -1.</_>
        <_>
          2 1 2 1 2.</_>
        <_>
          4 2 2 1 2.</_></rects>
      <tilted>0</tilted></_>
    <_>
      <rects>
        <_>
          2 1 3 2 -1.</_>
        <_>
          2 2 3 1 2.</_></rects>
      <tilted>0</tilted></_>
    <_>
      <rects>
        <_>
          2 1 6 2 -1.</_>
        <_>
          2 1 3 1 2.</_>
        <_>
          5 2 3 1 2.</_></rects>
      <tilted>0</tilted></_>
    <_>
      <rects>
        <_>
          2 1 9 6 -1.</_>
        <_>
          2 3 9 2 2.</_></rects>
      <tilted>0</tilted></_>
    <_>
      <rects>
        <_>
          2 2 2 4 -1.</_>
        <_>
          2 4 2 2 2.</_></rects>
      <tilted>0</tilted></_>
    <_>
      <rects>
        <_>
          2 2 4 8 -1.</_>
        <_>
          4 2 2 8 2.</_></rects>
      <tilted>0</tilted></_>
    <_>
      <rects>
        <_>
          2 2 3 2 -1.</_>
        <_>
          2 3 3 1 2.</_></rects>
      <tilted>0</tilted></_>
    <_>
      <rects>
        <_>
          2 2 6 14 -1.</_>
        <_>
          2 2 3 7 2.</_>
        <_>
          5 9 3 7 2.</_></rects>
      <tilted>0</tilted></_>
    <_>
      <rects>
        <_>
          2 2 8 5 -1.</_>
        <_>
          6 2 4 5 2.</_></rects>
      <tilted>0</tilted></_>
    <_>
      <rects>
        <_>
          2 2 6 4 -1.</_>
        <_>
          2 4 6 2 2.</_></rects>
      <tilted>0</tilted></_>
    <_>
      <rects>
        <_>
          2 2 7 6 -1.</_>
        <_>
          2 5 7 3 2.</_></rects>
      <tilted>0</tilted></_>
    <_>
      <rects>
        <_>
          2 2 10 12 -1.</_>
        <_>
          2 8 10 6 2.</_></rects>
      <tilted>0</tilted></_>
    <_>
      <rects>
        <_>
          2 3 6 4 -1.</_>
        <_>
          5 3 3 4 2.</_></rects>
      <tilted>0</tilted></_>
    <_>
      <rects>
        <_>
          2 3 8 2 -1.</_>
        <_>
          2 4 8 1 2.</_></rects>
      <tilted>0</tilted></_>
    <_>
      <rects>
        <_>
          2 4 1 2 -1.</_>
        <_>
          2 5 1 1 2.</_></rects>
      <tilted>0</tilted></_>
    <_>
      <rects>
        <_>
          2 4 2 6 -1.</_>
        <_>
          2 4 1 3 2.</_>
        <_>
          3 7 1 3 2.</_></rects>
      <tilted>0</tilted></_>
    <_>
      <rects>
        <_>
          2 4 1 8 -1.</_>
        <_>
          2 8 1 4 2.</_></rects>
      <tilted>0</tilted></_>
    <_>
      <rects>
        <_>
          2 4 5 2 -1.</_>
        <_>
          2 5 5 1 2.</_></rects>
      <tilted>0</tilted></_>
    <_>
      <rects>
        <_>
          2 5 2 2 -1.</_>
        <_>
          2 5 1 1 2.</_>
        <_>
          3 6 1 1 2.</_></rects>
      <tilted>0</tilted></_>
    <_>
      <rects>
        <_>
          2 5 8 4 -1.</_>
        <_>
          2 5 4 2 2.</_>
        <_>
          6 7 4 2 2.</_></rects>
      <tilted>0</tilted></_>
    <_>
      <rects>
        <_>
          2 6 2 8 -1.</_>
        <_>
          2 6 1 4 2.</_>
        <_>
          3 10 1 4 2.</_></rects>
      <tilted>0</tilted></_>
    <_>
      <rects>
        <_>
          2 6 9 1 -1.</_>
        <_>
          5 6 3 1 2.</_></rects>
      <tilted>0</tilted></_>
    <_>
      <rects>
        <_>
          2 6 6 14 -1.</_>
        <_>
          2 6 3 7 2.</_>
        <_>
          5 13 3 7 2.</_></rects>
      <tilted>0</tilted></_>
    <_>
      <rects>
        <_>
          2 6 10 2 -1.</_>
        <_>
          7 6 5 2 2.</_></rects>
      <tilted>0</tilted></_>
    <_>
      <rects>
        <_>
          2 7 2 1 -1.</_>
        <_>
          3 7 1 1 2.</_></rects>
      <tilted>0</tilted></_>
    <_>
      <rects>
        <_>
          2 7 2 4 -1.</_>
        <_>
          3 7 1 4 2.</_></rects>
      <tilted>0</tilted></_>
    <_>
      <rects>
        <_>
          2 7 6 2 -1.</_>
        <_>
          5 7 3 2 2.</_></rects>
      <tilted>0</tilted></_>
    <_>
      <rects>
        <_>
          2 7 4 8 -1.</_>
        <_>
          2 11 4 4 2.</_></rects>
      <tilted>0</tilted></_>
    <_>
      <rects>
        <_>
          2 7 6 2 -1.</_>
        <_>
          2 8 6 1 2.</_></rects>
      <tilted>0</tilted></_>
    <_>
      <rects>
        <_>
          2 7 10 4 -1.</_>
        <_>
          2 9 10 2 2.</_></rects>
      <tilted>0</tilted></_>
    <_>
      <rects>
        <_>
          2 8 2 2 -1.</_>
        <_>
          3 8 1 2 2.</_></rects>
      <tilted>0</tilted></_>
    <_>
      <rects>
        <_>
          2 8 10 12 -1.</_>
        <_>
          2 8 5 6 2.</_>
        <_>
          7 14 5 6 2.</_></rects>
      <tilted>0</tilted></_>
    <_>
      <rects>
        <_>
          2 8 8 2 -1.</_>
        <_>
          2 9 8 1 2.</_></rects>
      <tilted>0</tilted></_>
    <_>
      <rects>
        <_>
          2 9 4 10 -1.</_>
        <_>
          2 9 2 5 2.</_>
        <_>
          4 14 2 5 2.</_></rects>
      <tilted>0</tilted></_>
    <_>
      <rects>
        <_>
          2 9 10 2 -1.</_>
        <_>
          2 9 5 1 2.</_>
        <_>
          7 10 5 1 2.</_></rects>
      <tilted>0</tilted></_>
    <_>
      <rects>
        <_>
          2 9 10 4 -1.</_>
        <_>
          2 9 5 2 2.</_>
        <_>
          7 11 5 2 2.</_></rects>
      <tilted>0</tilted></_>
    <_>
      <rects>
        <_>
          2 10 2 4 -1.</_>
        <_>
          2 10 1 2 2.</_>
        <_>
          3 12 1 2 2.</_></rects>
      <tilted>0</tilted></_>
    <_>
      <rects>
        <_>
          2 10 2 2 -1.</_>
        <_>
          2 11 2 1 2.</_></rects>
      <tilted>0</tilted></_>
    <_>
      <rects>
        <_>
          2 10 4 2 -1.</_>
        <_>
          2 10 2 1 2.</_>
        <_>
          4 11 2 1 2.</_></rects>
      <tilted>0</tilted></_>
    <_>
      <rects>
        <_>
          2 10 2 4 -1.</_>
        <_>
          2 12 2 2 2.</_></rects>
      <tilted>0</tilted></_>
    <_>
      <rects>
        <_>
          2 10 6 1 -1.</_>
        <_>
          5 10 3 1 2.</_></rects>
      <tilted>0</tilted></_>
    <_>
      <rects>
        <_>
          2 10 5 3 -1.</_>
        <_>
          2 11 5 1 2.</_></rects>
      <tilted>0</tilted></_>
    <_>
      <rects>
        <_>
          2 11 2 2 -1.</_>
        <_>
          2 11 1 1 2.</_>
        <_>
          3 12 1 1 2.</_></rects>
      <tilted>0</tilted></_>
    <_>
      <rects>
        <_>
          2 11 2 3 -1.</_>
        <_>
          2 12 2 1 2.</_></rects>
      <tilted>0</tilted></_>
    <_>
      <rects>
        <_>
          2 12 2 2 -1.</_>
        <_>
          2 12 1 1 2.</_>
        <_>
          3 13 1 1 2.</_></rects>
      <tilted>0</tilted></_>
    <_>
      <rects>
        <_>
          2 12 4 2 -1.</_>
        <_>
          2 12 2 1 2.</_>
        <_>
          4 13 2 1 2.</_></rects>
      <tilted>0</tilted></_>
    <_>
      <rects>
        <_>
          2 12 4 4 -1.</_>
        <_>
          2 12 2 2 2.</_>
        <_>
          4 14 2 2 2.</_></rects>
      <tilted>0</tilted></_>
    <_>
      <rects>
        <_>
          2 12 6 3 -1.</_>
        <_>
          5 12 3 3 2.</_></rects>
      <tilted>0</tilted></_>
    <_>
      <rects>
        <_>
          2 12 10 7 -1.</_>
        <_>
          7 12 5 7 2.</_></rects>
      <tilted>0</tilted></_>
    <_>
      <rects>
        <_>
          2 13 2 2 -1.</_>
        <_>
          2 13 1 1 2.</_>
        <_>
          3 14 1 1 2.</_></rects>
      <tilted>0</tilted></_>
    <_>
      <rects>
        <_>
          2 14 2 3 -1.</_>
        <_>
          3 14 1 3 2.</_></rects>
      <tilted>0</tilted></_>
    <_>
      <rects>
        <_>
          2 15 2 2 -1.</_>
        <_>
          2 15 1 1 2.</_>
        <_>
          3 16 1 1 2.</_></rects>
      <tilted>0</tilted></_>
    <_>
      <rects>
        <_>
          2 15 6 4 -1.</_>
        <_>
          2 15 3 2 2.</_>
        <_>
          5 17 3 2 2.</_></rects>
      <tilted>0</tilted></_>
    <_>
      <rects>
        <_>
          2 15 7 2 -1.</_>
        <_>
          2 16 7 1 2.</_></rects>
      <tilted>0</tilted></_>
    <_>
      <rects>
        <_>
          2 16 3 1 -1.</_>
        <_>
          3 16 1 1 2.</_></rects>
      <tilted>0</tilted></_>
    <_>
      <rects>
        <_>
          2 16 8 2 -1.</_>
        <_>
          6 16 4 2 2.</_></rects>
      <tilted>0</tilted></_>
    <_>
      <rects>
        <_>
          2 16 10 4 -1.</_>
        <_>
          2 16 5 2 2.</_>
        <_>
          7 18 5 2 2.</_></rects>
      <tilted>0</tilted></_>
    <_>
      <rects>
        <_>
          2 17 2 1 -1.</_>
        <_>
          3 17 1 1 2.</_></rects>
      <tilted>0</tilted></_>
    <_>
      <rects>
        <_>
          2 17 1 2 -1.</_>
        <_>
          2 18 1 1 2.</_></rects>
      <tilted>0</tilted></_>
    <_>
      <rects>
        <_>
          2 17 1 3 -1.</_>
        <_>
          2 18 1 1 2.</_></rects>
      <tilted>0</tilted></_>
    <_>
      <rects>
        <_>
          2 17 8 2 -1.</_>
        <_>
          2 17 4 1 2.</_>
        <_>
          6 18 4 1 2.</_></rects>
      <tilted>0</tilted></_>
    <_>
      <rects>
        <_>
          2 17 10 3 -1.</_>
        <_>
          7 17 5 3 2.</_></rects>
      <tilted>0</tilted></_>
    <_>
      <rects>
        <_>
          2 17 10 2 -1.</_>
        <_>
          2 18 10 1 2.</_></rects>
      <tilted>0</tilted></_>
    <_>
      <rects>
        <_>
          2 18 1 2 -1.</_>
        <_>
          2 19 1 1 2.</_></rects>
      <tilted>0</tilted></_>
    <_>
      <rects>
        <_>
          2 18 2 2 -1.</_>
        <_>
          2 18 1 1 2.</_>
        <_>
          3 19 1 1 2.</_></rects>
      <tilted>0</tilted></_>
    <_>
      <rects>
        <_>
          2 18 6 2 -1.</_>
        <_>
          2 18 3 1 2.</_>
        <_>
          5 19 3 1 2.</_></rects>
      <tilted>0</tilted></_>
    <_>
      <rects>
        <_>
          2 18 6 2 -1.</_>
        <_>
          5 18 3 2 2.</_></rects>
      <tilted>0</tilted></_>
    <_>
      <rects>
        <_>
          2 18 8 2 -1.</_>
        <_>
          2 18 4 1 2.</_>
        <_>
          6 19 4 1 2.</_></rects>
      <tilted>0</tilted></_>
    <_>
      <rects>
        <_>
          2 18 10 2 -1.</_>
        <_>
          2 18 5 1 2.</_>
        <_>
          7 19 5 1 2.</_></rects>
      <tilted>0</tilted></_>
    <_>
      <rects>
        <_>
          2 19 8 1 -1.</_>
        <_>
          6 19 4 1 2.</_></rects>
      <tilted>0</tilted></_>
    <_>
      <rects>
        <_>
          3 0 2 1 -1.</_>
        <_>
          4 0 1 1 2.</_></rects>
      <tilted>0</tilted></_>
    <_>
      <rects>
        <_>
          3 0 2 2 -1.</_>
        <_>
          3 0 1 1 2.</_>
        <_>
          4 1 1 1 2.</_></rects>
      <tilted>0</tilted></_>
    <_>
      <rects>
        <_>
          3 0 2 4 -1.</_>
        <_>
          4 0 1 4 2.</_></rects>
      <tilted>0</tilted></_>
    <_>
      <rects>
        <_>
          3 0 1 20 -1.</_>
        <_>
          3 10 1 10 2.</_></rects>
      <tilted>0</tilted></_>
    <_>
      <rects>
        <_>
          3 0 2 3 -1.</_>
        <_>
          3 1 2 1 2.</_></rects>
      <tilted>0</tilted></_>
    <_>
      <rects>
        <_>
          3 0 4 2 -1.</_>
        <_>
          3 0 2 1 2.</_>
        <_>
          5 1 2 1 2.</_></rects>
      <tilted>0</tilted></_>
    <_>
      <rects>
        <_>
          3 0 9 1 -1.</_>
        <_>
          6 0 3 1 2.</_></rects>
      <tilted>0</tilted></_>
    <_>
      <rects>
        <_>
          3 0 9 2 -1.</_>
        <_>
          6 0 3 2 2.</_></rects>
      <tilted>0</tilted></_>
    <_>
      <rects>
        <_>
          3 0 4 2 -1.</_>
        <_>
          3 1 4 1 2.</_></rects>
      <tilted>0</tilted></_>
    <_>
      <rects>
        <_>
          3 0 6 2 -1.</_>
        <_>
          3 1 6 1 2.</_></rects>
      <tilted>0</tilted></_>
    <_>
      <rects>
        <_>
          3 0 8 2 -1.</_>
        <_>
          3 1 8 1 2.</_></rects>
      <tilted>0</tilted></_>
    <_>
      <rects>
        <_>
          3 1 6 2 -1.</_>
        <_>
          3 1 3 1 2.</_>
        <_>
          6 2 3 1 2.</_></rects>
      <tilted>0</tilted></_>
    <_>
      <rects>
        <_>
          3 1 6 2 -1.</_>
        <_>
          3 2 6 1 2.</_></rects>
      <tilted>0</tilted></_>
    <_>
      <rects>
        <_>
          3 1 9 2 -1.</_>
        <_>
          3 2 9 1 2.</_></rects>
      <tilted>0</tilted></_>
    <_>
      <rects>
        <_>
          3 2 1 4 -1.</_>
        <_>
          3 4 1 2 2.</_></rects>
      <tilted>0</tilted></_>
    <_>
      <rects>
        <_>
          3 2 4 2 -1.</_>
        <_>
          3 2 2 1 2.</_>
        <_>
          5 3 2 1 2.</_></rects>
      <tilted>0</tilted></_>
    <_>
      <rects>
        <_>
          3 2 6 8 -1.</_>
        <_>
          3 2 3 4 2.</_>
        <_>
          6 6 3 4 2.</_></rects>
      <tilted>0</tilted></_>
    <_>
      <rects>
        <_>
          3 2 6 8 -1.</_>
        <_>
          3 6 6 4 2.</_></rects>
      <tilted>0</tilted></_>
    <_>
      <rects>
        <_>
          3 3 3 15 -1.</_>
        <_>
          3 8 3 5 2.</_></rects>
      <tilted>0</tilted></_>
    <_>
      <rects>
        <_>
          3 3 8 6 -1.</_>
        <_>
          3 3 4 3 2.</_>
        <_>
          7 6 4 3 2.</_></rects>
      <tilted>0</tilted></_>
    <_>
      <rects>
        <_>
          3 4 2 14 -1.</_>
        <_>
          3 4 1 7 2.</_>
        <_>
          4 11 1 7 2.</_></rects>
      <tilted>0</tilted></_>
    <_>
      <rects>
        <_>
          3 4 8 14 -1.</_>
        <_>
          3 4 4 7 2.</_>
        <_>
          7 11 4 7 2.</_></rects>
      <tilted>0</tilted></_>
    <_>
      <rects>
        <_>
          3 5 4 8 -1.</_>
        <_>
          3 5 2 4 2.</_>
        <_>
          5 9 2 4 2.</_></rects>
      <tilted>0</tilted></_>
    <_>
      <rects>
        <_>
          3 5 6 14 -1.</_>
        <_>
          3 5 3 7 2.</_>
        <_>
          6 12 3 7 2.</_></rects>
      <tilted>0</tilted></_>
    <_>
      <rects>
        <_>
          3 5 8 12 -1.</_>
        <_>
          3 5 4 6 2.</_>
        <_>
          7 11 4 6 2.</_></rects>
      <tilted>0</tilted></_>
    <_>
      <rects>
        <_>
          3 6 2 1 -1.</_>
        <_>
          4 6 1 1 2.</_></rects>
      <tilted>0</tilted></_>
    <_>
      <rects>
        <_>
          3 6 4 3 -1.</_>
        <_>
          5 6 2 3 2.</_></rects>
      <tilted>0</tilted></_>
    <_>
      <rects>
        <_>
          3 6 3 6 -1.</_>
        <_>
          3 8 3 2 2.</_></rects>
      <tilted>0</tilted></_>
    <_>
      <rects>
        <_>
          3 6 8 12 -1.</_>
        <_>
          3 6 4 6 2.</_>
        <_>
          7 12 4 6 2.</_></rects>
      <tilted>0</tilted></_>
    <_>
      <rects>
        <_>
          3 6 5 8 -1.</_>
        <_>
          3 10 5 4 2.</_></rects>
      <tilted>0</tilted></_>
    <_>
      <rects>
        <_>
          3 6 6 2 -1.</_>
        <_>
          3 7 6 1 2.</_></rects>
      <tilted>0</tilted></_>
    <_>
      <rects>
        <_>
          3 7 2 2 -1.</_>
        <_>
          3 7 1 1 2.</_>
        <_>
          4 8 1 1 2.</_></rects>
      <tilted>0</tilted></_>
    <_>
      <rects>
        <_>
          3 7 6 1 -1.</_>
        <_>
          6 7 3 1 2.</_></rects>
      <tilted>0</tilted></_>
    <_>
      <rects>
        <_>
          3 7 6 8 -1.</_>
        <_>
          3 11 6 4 2.</_></rects>
      <tilted>0</tilted></_>
    <_>
      <rects>
        <_>
          3 8 2 2 -1.</_>
        <_>
          4 8 1 2 2.</_></rects>
      <tilted>0</tilted></_>
    <_>
      <rects>
        <_>
          3 8 2 3 -1.</_>
        <_>
          4 8 1 3 2.</_></rects>
      <tilted>0</tilted></_>
    <_>
      <rects>
        <_>
          3 8 4 1 -1.</_>
        <_>
          5 8 2 1 2.</_></rects>
      <tilted>0</tilted></_>
    <_>
      <rects>
        <_>
          3 8 9 4 -1.</_>
        <_>
          3 10 9 2 2.</_></rects>
      <tilted>0</tilted></_>
    <_>
      <rects>
        <_>
          3 8 9 6 -1.</_>
        <_>
          3 10 9 2 2.</_></rects>
      <tilted>0</tilted></_>
    <_>
      <rects>
        <_>
          3 9 2 6 -1.</_>
        <_>
          3 12 2 3 2.</_></rects>
      <tilted>0</tilted></_>
    <_>
      <rects>
        <_>
          3 9 4 5 -1.</_>
        <_>
          5 9 2 5 2.</_></rects>
      <tilted>0</tilted></_>
    <_>
      <rects>
        <_>
          3 11 2 2 -1.</_>
        <_>
          3 11 1 1 2.</_>
        <_>
          4 12 1 1 2.</_></rects>
      <tilted>0</tilted></_>
    <_>
      <rects>
        <_>
          3 11 2 8 -1.</_>
        <_>
          3 11 1 4 2.</_>
        <_>
          4 15 1 4 2.</_></rects>
      <tilted>0</tilted></_>
    <_>
      <rects>
        <_>
          3 11 2 2 -1.</_>
        <_>
          3 12 2 1 2.</_></rects>
      <tilted>0</tilted></_>
    <_>
      <rects>
        <_>
          3 12 2 2 -1.</_>
        <_>
          3 12 1 1 2.</_>
        <_>
          4 13 1 1 2.</_></rects>
      <tilted>0</tilted></_>
    <_>
      <rects>
        <_>
          3 12 4 2 -1.</_>
        <_>
          3 12 2 1 2.</_>
        <_>
          5 13 2 1 2.</_></rects>
      <tilted>0</tilted></_>
    <_>
      <rects>
        <_>
          3 12 4 6 -1.</_>
        <_>
          3 12 2 3 2.</_>
        <_>
          5 15 2 3 2.</_></rects>
      <tilted>0</tilted></_>
    <_>
      <rects>
        <_>
          3 12 3 2 -1.</_>
        <_>
          3 13 3 1 2.</_></rects>
      <tilted>0</tilted></_>
    <_>
      <rects>
        <_>
          3 12 7 8 -1.</_>
        <_>
          3 16 7 4 2.</_></rects>
      <tilted>0</tilted></_>
    <_>
      <rects>
        <_>
          3 13 1 2 -1.</_>
        <_>
          3 14 1 1 2.</_></rects>
      <tilted>0</tilted></_>
    <_>
      <rects>
        <_>
          3 14 8 2 -1.</_>
        <_>
          3 14 4 1 2.</_>
        <_>
          7 15 4 1 2.</_></rects>
      <tilted>0</tilted></_>
    <_>
      <rects>
        <_>
          3 15 6 2 -1.</_>
        <_>
          3 15 3 1 2.</_>
        <_>
          6 16 3 1 2.</_></rects>
      <tilted>0</tilted></_>
    <_>
      <rects>
        <_>
          3 15 9 2 -1.</_>
        <_>
          3 16 9 1 2.</_></rects>
      <tilted>0</tilted></_>
    <_>
      <rects>
        <_>
          3 18 8 2 -1.</_>
        <_>
          3 18 4 1 2.</_>
        <_>
          7 19 4 1 2.</_></rects>
      <tilted>0</tilted></_>
    <_>
      <rects>
        <_>
          3 19 3 1 -1.</_>
        <_>
          4 19 1 1 2.</_></rects>
      <tilted>0</tilted></_>
    <_>
      <rects>
        <_>
          4 0 2 3 -1.</_>
        <_>
          5 0 1 3 2.</_></rects>
      <tilted>0</tilted></_>
    <_>
      <rects>
        <_>
          4 0 2 6 -1.</_>
        <_>
          4 0 1 3 2.</_>
        <_>
          5 3 1 3 2.</_></rects>
      <tilted>0</tilted></_>
    <_>
      <rects>
        <_>
          4 0 2 9 -1.</_>
        <_>
          5 0 1 9 2.</_></rects>
      <tilted>0</tilted></_>
    <_>
      <rects>
        <_>
          4 0 4 2 -1.</_>
        <_>
          4 0 2 1 2.</_>
        <_>
          6 1 2 1 2.</_></rects>
      <tilted>0</tilted></_>
    <_>
      <rects>
        <_>
          4 0 4 8 -1.</_>
        <_>
          6 0 2 8 2.</_></rects>
      <tilted>0</tilted></_>
    <_>
      <rects>
        <_>
          4 0 4 11 -1.</_>
        <_>
          6 0 2 11 2.</_></rects>
      <tilted>0</tilted></_>
    <_>
      <rects>
        <_>
          4 0 4 12 -1.</_>
        <_>
          6 0 2 12 2.</_></rects>
      <tilted>0</tilted></_>
    <_>
      <rects>
        <_>
          4 0 6 2 -1.</_>
        <_>
          4 0 3 1 2.</_>
        <_>
          7 1 3 1 2.</_></rects>
      <tilted>0</tilted></_>
    <_>
      <rects>
        <_>
          4 0 6 4 -1.</_>
        <_>
          4 0 3 2 2.</_>
        <_>
          7 2 3 2 2.</_></rects>
      <tilted>0</tilted></_>
    <_>
      <rects>
        <_>
          4 0 6 9 -1.</_>
        <_>
          7 0 3 9 2.</_></rects>
      <tilted>0</tilted></_>
    <_>
      <rects>
        <_>
          4 0 4 3 -1.</_>
        <_>
          4 1 4 1 2.</_></rects>
      <tilted>0</tilted></_>
    <_>
      <rects>
        <_>
          4 0 8 2 -1.</_>
        <_>
          8 0 4 2 2.</_></rects>
      <tilted>0</tilted></_>
    <_>
      <rects>
        <_>
          4 0 8 10 -1.</_>
        <_>
          8 0 4 10 2.</_></rects>
      <tilted>0</tilted></_>
    <_>
      <rects>
        <_>
          4 0 8 20 -1.</_>
        <_>
          4 0 4 10 2.</_>
        <_>
          8 10 4 10 2.</_></rects>
      <tilted>0</tilted></_>
    <_>
      <rects>
        <_>
          4 1 1 2 -1.</_>
        <_>
          4 2 1 1 2.</_></rects>
      <tilted>0</tilted></_>
    <_>
      <rects>
        <_>
          4 1 2 2 -1.</_>
        <_>
          4 1 1 1 2.</_>
        <_>
          5 2 1 1 2.</_></rects>
      <tilted>0</tilted></_>
    <_>
      <rects>
        <_>
          4 1 2 5 -1.</_>
        <_>
          5 1 1 5 2.</_></rects>
      <tilted>0</tilted></_>
    <_>
      <rects>
        <_>
          4 1 2 18 -1.</_>
        <_>
          5 1 1 18 2.</_></rects>
      <tilted>0</tilted></_>
    <_>
      <rects>
        <_>
          4 1 2 19 -1.</_>
        <_>
          5 1 1 19 2.</_></rects>
      <tilted>0</tilted></_>
    <_>
      <rects>
        <_>
          4 1 4 6 -1.</_>
        <_>
          4 1 2 3 2.</_>
        <_>
          6 4 2 3 2.</_></rects>
      <tilted>0</tilted></_>
    <_>
      <rects>
        <_>
          4 1 3 2 -1.</_>
        <_>
          4 2 3 1 2.</_></rects>
      <tilted>0</tilted></_>
    <_>
      <rects>
        <_>
          4 1 6 2 -1.</_>
        <_>
          4 1 3 1 2.</_>
        <_>
          7 2 3 1 2.</_></rects>
      <tilted>0</tilted></_>
    <_>
      <rects>
        <_>
          4 2 1 6 -1.</_>
        <_>
          4 4 1 2 2.</_></rects>
      <tilted>0</tilted></_>
    <_>
      <rects>
        <_>
          4 2 1 14 -1.</_>
        <_>
          4 9 1 7 2.</_></rects>
      <tilted>0</tilted></_>
    <_>
      <rects>
        <_>
          4 2 4 2 -1.</_>
        <_>
          4 2 2 1 2.</_>
        <_>
          6 3 2 1 2.</_></rects>
      <tilted>0</tilted></_>
    <_>
      <rects>
        <_>
          4 2 4 6 -1.</_>
        <_>
          4 2 2 3 2.</_>
        <_>
          6 5 2 3 2.</_></rects>
      <tilted>0</tilted></_>
    <_>
      <rects>
        <_>
          4 2 6 8 -1.</_>
        <_>
          4 2 3 4 2.</_>
        <_>
          7 6 3 4 2.</_></rects>
      <tilted>0</tilted></_>
    <_>
      <rects>
        <_>
          4 2 4 2 -1.</_>
        <_>
          4 3 4 1 2.</_></rects>
      <tilted>0</tilted></_>
    <_>
      <rects>
        <_>
          4 3 1 4 -1.</_>
        <_>
          4 5 1 2 2.</_></rects>
      <tilted>0</tilted></_>
    <_>
      <rects>
        <_>
          4 3 3 4 -1.</_>
        <_>
          5 3 1 4 2.</_></rects>
      <tilted>0</tilted></_>
    <_>
      <rects>
        <_>
          4 3 4 2 -1.</_>
        <_>
          4 3 2 1 2.</_>
        <_>
          6 4 2 1 2.</_></rects>
      <tilted>0</tilted></_>
    <_>
      <rects>
        <_>
          4 3 3 4 -1.</_>
        <_>
          4 5 3 2 2.</_></rects>
      <tilted>0</tilted></_>
    <_>
      <rects>
        <_>
          4 3 5 2 -1.</_>
        <_>
          4 4 5 1 2.</_></rects>
      <tilted>0</tilted></_>
    <_>
      <rects>
        <_>
          4 4 4 8 -1.</_>
        <_>
          6 4 2 8 2.</_></rects>
      <tilted>0</tilted></_>
    <_>
      <rects>
        <_>
          4 4 8 2 -1.</_>
        <_>
          4 4 4 1 2.</_>
        <_>
          8 5 4 1 2.</_></rects>
      <tilted>0</tilted></_>
    <_>
      <rects>
        <_>
          4 4 5 2 -1.</_>
        <_>
          4 5 5 1 2.</_></rects>
      <tilted>0</tilted></_>
    <_>
      <rects>
        <_>
          4 5 2 4 -1.</_>
        <_>
          5 5 1 4 2.</_></rects>
      <tilted>0</tilted></_>
    <_>
      <rects>
        <_>
          4 5 4 14 -1.</_>
        <_>
          4 5 2 7 2.</_>
        <_>
          6 12 2 7 2.</_></rects>
      <tilted>0</tilted></_>
    <_>
      <rects>
        <_>
          4 6 4 12 -1.</_>
        <_>
          4 6 2 6 2.</_>
        <_>
          6 12 2 6 2.</_></rects>
      <tilted>0</tilted></_>
    <_>
      <rects>
        <_>
          4 6 3 2 -1.</_>
        <_>
          4 7 3 1 2.</_></rects>
      <tilted>0</tilted></_>
    <_>
      <rects>
        <_>
          4 6 5 14 -1.</_>
        <_>
          4 13 5 7 2.</_></rects>
      <tilted>0</tilted></_>
    <_>
      <rects>
        <_>
          4 7 2 2 -1.</_>
        <_>
          5 7 1 2 2.</_></rects>
      <tilted>0</tilted></_>
    <_>
      <rects>
        <_>
          4 7 2 4 -1.</_>
        <_>
          4 7 1 2 2.</_>
        <_>
          5 9 1 2 2.</_></rects>
      <tilted>0</tilted></_>
    <_>
      <rects>
        <_>
          4 7 4 1 -1.</_>
        <_>
          6 7 2 1 2.</_></rects>
      <tilted>0</tilted></_>
    <_>
      <rects>
        <_>
          4 8 1 3 -1.</_>
        <_>
          4 9 1 1 2.</_></rects>
      <tilted>0</tilted></_>
    <_>
      <rects>
        <_>
          4 9 3 6 -1.</_>
        <_>
          5 9 1 6 2.</_></rects>
      <tilted>0</tilted></_>
    <_>
      <rects>
        <_>
          4 10 1 6 -1.</_>
        <_>
          4 12 1 2 2.</_></rects>
      <tilted>0</tilted></_>
    <_>
      <rects>
        <_>
          4 10 2 4 -1.</_>
        <_>
          4 10 1 2 2.</_>
        <_>
          5 12 1 2 2.</_></rects>
      <tilted>0</tilted></_>
    <_>
      <rects>
        <_>
          4 10 2 10 -1.</_>
        <_>
          4 10 1 5 2.</_>
        <_>
          5 15 1 5 2.</_></rects>
      <tilted>0</tilted></_>
    <_>
      <rects>
        <_>
          4 10 3 2 -1.</_>
        <_>
          4 11 3 1 2.</_></rects>
      <tilted>0</tilted></_>
    <_>
      <rects>
        <_>
          4 10 7 10 -1.</_>
        <_>
          4 15 7 5 2.</_></rects>
      <tilted>0</tilted></_>
    <_>
      <rects>
        <_>
          4 11 2 2 -1.</_>
        <_>
          4 11 1 1 2.</_>
        <_>
          5 12 1 1 2.</_></rects>
      <tilted>0</tilted></_>
    <_>
      <rects>
        <_>
          4 11 2 9 -1.</_>
        <_>
          5 11 1 9 2.</_></rects>
      <tilted>0</tilted></_>
    <_>
      <rects>
        <_>
          4 11 4 2 -1.</_>
        <_>
          4 11 2 1 2.</_>
        <_>
          6 12 2 1 2.</_></rects>
      <tilted>0</tilted></_>
    <_>
      <rects>
        <_>
          4 11 4 4 -1.</_>
        <_>
          6 11 2 4 2.</_></rects>
      <tilted>0</tilted></_>
    <_>
      <rects>
        <_>
          4 11 8 6 -1.</_>
        <_>
          8 11 4 6 2.</_></rects>
      <tilted>0</tilted></_>
    <_>
      <rects>
        <_>
          4 12 2 2 -1.</_>
        <_>
          4 12 1 1 2.</_>
        <_>
          5 13 1 1 2.</_></rects>
      <tilted>0</tilted></_>
    <_>
      <rects>
        <_>
          4 12 1 4 -1.</_>
        <_>
          4 14 1 2 2.</_></rects>
      <tilted>0</tilted></_>
    <_>
      <rects>
        <_>
          4 12 2 3 -1.</_>
        <_>
          5 12 1 3 2.</_></rects>
      <tilted>0</tilted></_>
    <_>
      <rects>
        <_>
          4 12 4 2 -1.</_>
        <_>
          4 12 2 1 2.</_>
        <_>
          6 13 2 1 2.</_></rects>
      <tilted>0</tilted></_>
    <_>
      <rects>
        <_>
          4 12 4 2 -1.</_>
        <_>
          6 12 2 2 2.</_></rects>
      <tilted>0</tilted></_>
    <_>
      <rects>
        <_>
          4 14 8 2 -1.</_>
        <_>
          4 14 4 1 2.</_>
        <_>
          8 15 4 1 2.</_></rects>
      <tilted>0</tilted></_>
    <_>
      <rects>
        <_>
          4 14 4 6 -1.</_>
        <_>
          4 17 4 3 2.</_></rects>
      <tilted>0</tilted></_>
    <_>
      <rects>
        <_>
          4 16 5 4 -1.</_>
        <_>
          4 18 5 2 2.</_></rects>
      <tilted>0</tilted></_>
    <_>
      <rects>
        <_>
          4 17 2 2 -1.</_>
        <_>
          4 17 1 1 2.</_>
        <_>
          5 18 1 1 2.</_></rects>
      <tilted>0</tilted></_>
    <_>
      <rects>
        <_>
          4 17 6 2 -1.</_>
        <_>
          7 17 3 2 2.</_></rects>
      <tilted>0</tilted></_>
    <_>
      <rects>
        <_>
          4 17 7 2 -1.</_>
        <_>
          4 18 7 1 2.</_></rects>
      <tilted>0</tilted></_>
    <_>
      <rects>
        <_>
          4 18 2 2 -1.</_>
        <_>
          4 19 2 1 2.</_></rects>
      <tilted>0</tilted></_>
    <_>
      <rects>
        <_>
          4 18 6 2 -1.</_>
        <_>
          4 18 3 1 2.</_>
        <_>
          7 19 3 1 2.</_></rects>
      <tilted>0</tilted></_>
    <_>
      <rects>
        <_>
          4 19 2 1 -1.</_>
        <_>
          5 19 1 1 2.</_></rects>
      <tilted>0</tilted></_>
    <_>
      <rects>
        <_>
          4 19 3 1 -1.</_>
        <_>
          5 19 1 1 2.</_></rects>
      <tilted>0</tilted></_>
    <_>
      <rects>
        <_>
          5 0 1 2 -1.</_>
        <_>
          5 1 1 1 2.</_></rects>
      <tilted>0</tilted></_>
    <_>
      <rects>
        <_>
          5 0 2 6 -1.</_>
        <_>
          5 0 1 3 2.</_>
        <_>
          6 3 1 3 2.</_></rects>
      <tilted>0</tilted></_>
    <_>
      <rects>
        <_>
          5 0 2 18 -1.</_>
        <_>
          6 0 1 18 2.</_></rects>
      <tilted>0</tilted></_>
    <_>
      <rects>
        <_>
          5 0 2 2 -1.</_>
        <_>
          5 1 2 1 2.</_></rects>
      <tilted>0</tilted></_>
    <_>
      <rects>
        <_>
          5 0 4 2 -1.</_>
        <_>
          5 0 2 1 2.</_>
        <_>
          7 1 2 1 2.</_></rects>
      <tilted>0</tilted></_>
    <_>
      <rects>
        <_>
          5 0 4 2 -1.</_>
        <_>
          5 1 4 1 2.</_></rects>
      <tilted>0</tilted></_>
    <_>
      <rects>
        <_>
          5 1 2 6 -1.</_>
        <_>
          6 1 1 6 2.</_></rects>
      <tilted>0</tilted></_>
    <_>
      <rects>
        <_>
          5 1 4 2 -1.</_>
        <_>
          5 1 2 1 2.</_>
        <_>
          7 2 2 1 2.</_></rects>
      <tilted>0</tilted></_>
    <_>
      <rects>
        <_>
          5 1 6 2 -1.</_>
        <_>
          5 1 3 1 2.</_>
        <_>
          8 2 3 1 2.</_></rects>
      <tilted>0</tilted></_>
    <_>
      <rects>
        <_>
          5 1 6 16 -1.</_>
        <_>
          5 9 6 8 2.</_></rects>
      <tilted>0</tilted></_>
    <_>
      <rects>
        <_>
          5 1 6 18 -1.</_>
        <_>
          5 10 6 9 2.</_></rects>
      <tilted>0</tilted></_>
    <_>
      <rects>
        <_>
          5 2 2 2 -1.</_>
        <_>
          5 2 1 1 2.</_>
        <_>
          6 3 1 1 2.</_></rects>
      <tilted>0</tilted></_>
    <_>
      <rects>
        <_>
          5 2 4 9 -1.</_>
        <_>
          5 5 4 3 2.</_></rects>
      <tilted>0</tilted></_>
    <_>
      <rects>
        <_>
          5 3 2 6 -1.</_>
        <_>
          6 3 1 6 2.</_></rects>
      <tilted>0</tilted></_>
    <_>
      <rects>
        <_>
          5 3 2 16 -1.</_>
        <_>
          6 3 1 16 2.</_></rects>
      <tilted>0</tilted></_>
    <_>
      <rects>
        <_>
          5 3 6 8 -1.</_>
        <_>
          5 3 3 4 2.</_>
        <_>
          8 7 3 4 2.</_></rects>
      <tilted>0</tilted></_>
    <_>
      <rects>
        <_>
          5 4 1 2 -1.</_>
        <_>
          5 5 1 1 2.</_></rects>
      <tilted>0</tilted></_>
    <_>
      <rects>
        <_>
          5 4 2 8 -1.</_>
        <_>
          6 4 1 8 2.</_></rects>
      <tilted>0</tilted></_>
    <_>
      <rects>
        <_>
          5 5 4 6 -1.</_>
        <_>
          5 5 2 3 2.</_>
        <_>
          7 8 2 3 2.</_></rects>
      <tilted>0</tilted></_>
    <_>
      <rects>
        <_>
          5 6 2 2 -1.</_>
        <_>
          5 7 2 1 2.</_></rects>
      <tilted>0</tilted></_>
    <_>
      <rects>
        <_>
          5 6 6 14 -1.</_>
        <_>
          5 6 3 7 2.</_>
        <_>
          8 13 3 7 2.</_></rects>
      <tilted>0</tilted></_>
    <_>
      <rects>
        <_>
          5 6 4 10 -1.</_>
        <_>
          5 11 4 5 2.</_></rects>
      <tilted>0</tilted></_>
    <_>
      <rects>
        <_>
          5 7 2 4 -1.</_>
        <_>
          6 7 1 4 2.</_></rects>
      <tilted>0</tilted></_>
    <_>
      <rects>
        <_>
          5 7 4 3 -1.</_>
        <_>
          7 7 2 3 2.</_></rects>
      <tilted>0</tilted></_>
    <_>
      <rects>
        <_>
          5 8 2 4 -1.</_>
        <_>
          5 8 1 2 2.</_>
        <_>
          6 10 1 2 2.</_></rects>
      <tilted>0</tilted></_>
    <_>
      <rects>
        <_>
          5 8 2 8 -1.</_>
        <_>
          5 12 2 4 2.</_></rects>
      <tilted>0</tilted></_>
    <_>
      <rects>
        <_>
          5 9 3 2 -1.</_>
        <_>
          6 9 1 2 2.</_></rects>
      <tilted>0</tilted></_>
    <_>
      <rects>
        <_>
          5 11 2 6 -1.</_>
        <_>
          5 11 1 3 2.</_>
        <_>
          6 14 1 3 2.</_></rects>
      <tilted>0</tilted></_>
    <_>
      <rects>
        <_>
          5 11 6 4 -1.</_>
        <_>
          5 11 3 2 2.</_>
        <_>
          8 13 3 2 2.</_></rects>
      <tilted>0</tilted></_>
    <_>
      <rects>
        <_>
          5 12 2 2 -1.</_>
        <_>
          5 12 1 1 2.</_>
        <_>
          6 13 1 1 2.</_></rects>
      <tilted>0</tilted></_>
    <_>
      <rects>
        <_>
          5 12 1 4 -1.</_>
        <_>
          5 14 1 2 2.</_></rects>
      <tilted>0</tilted></_>
    <_>
      <rects>
        <_>
          5 12 7 2 -1.</_>
        <_>
          5 13 7 1 2.</_></rects>
      <tilted>0</tilted></_>
    <_>
      <rects>
        <_>
          5 13 2 2 -1.</_>
        <_>
          5 13 1 1 2.</_>
        <_>
          6 14 1 1 2.</_></rects>
      <tilted>0</tilted></_>
    <_>
      <rects>
        <_>
          5 13 2 6 -1.</_>
        <_>
          6 13 1 6 2.</_></rects>
      <tilted>0</tilted></_>
    <_>
      <rects>
        <_>
          5 14 7 6 -1.</_>
        <_>
          5 17 7 3 2.</_></rects>
      <tilted>0</tilted></_>
    <_>
      <rects>
        <_>
          5 16 2 4 -1.</_>
        <_>
          5 18 2 2 2.</_></rects>
      <tilted>0</tilted></_>
    <_>
      <rects>
        <_>
          5 16 5 2 -1.</_>
        <_>
          5 17 5 1 2.</_></rects>
      <tilted>0</tilted></_>
    <_>
      <rects>
        <_>
          5 17 5 2 -1.</_>
        <_>
          5 18 5 1 2.</_></rects>
      <tilted>0</tilted></_>
    <_>
      <rects>
        <_>
          5 18 1 2 -1.</_>
        <_>
          5 19 1 1 2.</_></rects>
      <tilted>0</tilted></_>
    <_>
      <rects>
        <_>
          5 19 3 1 -1.</_>
        <_>
          6 19 1 1 2.</_></rects>
      <tilted>0</tilted></_>
    <_>
      <rects>
        <_>
          6 0 3 1 -1.</_>
        <_>
          7 0 1 1 2.</_></rects>
      <tilted>0</tilted></_>
    <_>
      <rects>
        <_>
          6 0 2 3 -1.</_>
        <_>
          7 0 1 3 2.</_></rects>
      <tilted>0</tilted></_>
    <_>
      <rects>
        <_>
          6 0 2 5 -1.</_>
        <_>
          7 0 1 5 2.</_></rects>
      <tilted>0</tilted></_>
    <_>
      <rects>
        <_>
          6 0 2 6 -1.</_>
        <_>
          6 2 2 2 2.</_></rects>
      <tilted>0</tilted></_>
    <_>
      <rects>
        <_>
          6 0 6 2 -1.</_>
        <_>
          9 0 3 2 2.</_></rects>
      <tilted>0</tilted></_>
    <_>
      <rects>
        <_>
          6 1 2 3 -1.</_>
        <_>
          7 1 1 3 2.</_></rects>
      <tilted>0</tilted></_>
    <_>
      <rects>
        <_>
          6 1 6 14 -1.</_>
        <_>
          6 1 3 7 2.</_>
        <_>
          9 8 3 7 2.</_></rects>
      <tilted>0</tilted></_>
    <_>
      <rects>
        <_>
          6 2 2 18 -1.</_>
        <_>
          6 2 1 9 2.</_>
        <_>
          7 11 1 9 2.</_></rects>
      <tilted>0</tilted></_>
    <_>
      <rects>
        <_>
          6 2 4 6 -1.</_>
        <_>
          8 2 2 6 2.</_></rects>
      <tilted>0</tilted></_>
    <_>
      <rects>
        <_>
          6 3 2 2 -1.</_>
        <_>
          6 3 1 1 2.</_>
        <_>
          7 4 1 1 2.</_></rects>
      <tilted>0</tilted></_>
    <_>
      <rects>
        <_>
          6 3 2 6 -1.</_>
        <_>
          7 3 1 6 2.</_></rects>
      <tilted>0</tilted></_>
    <_>
      <rects>
        <_>
          6 3 6 9 -1.</_>
        <_>
          9 3 3 9 2.</_></rects>
      <tilted>0</tilted></_>
    <_>
      <rects>
        <_>
          6 3 4 9 -1.</_>
        <_>
          6 6 4 3 2.</_></rects>
      <tilted>0</tilted></_>
    <_>
      <rects>
        <_>
          6 4 2 9 -1.</_>
        <_>
          7 4 1 9 2.</_></rects>
      <tilted>0</tilted></_>
    <_>
      <rects>
        <_>
          6 4 6 2 -1.</_>
        <_>
          6 4 3 1 2.</_>
        <_>
          9 5 3 1 2.</_></rects>
      <tilted>0</tilted></_>
    <_>
      <rects>
        <_>
          6 4 6 6 -1.</_>
        <_>
          6 4 3 3 2.</_>
        <_>
          9 7 3 3 2.</_></rects>
      <tilted>0</tilted></_>
    <_>
      <rects>
        <_>
          6 4 6 14 -1.</_>
        <_>
          6 4 3 7 2.</_>
        <_>
          9 11 3 7 2.</_></rects>
      <tilted>0</tilted></_>
    <_>
      <rects>
        <_>
          6 4 6 16 -1.</_>
        <_>
          6 4 3 8 2.</_>
        <_>
          9 12 3 8 2.</_></rects>
      <tilted>0</tilted></_>
    <_>
      <rects>
        <_>
          6 5 1 4 -1.</_>
        <_>
          6 7 1 2 2.</_></rects>
      <tilted>0</tilted></_>
    <_>
      <rects>
        <_>
          6 5 2 4 -1.</_>
        <_>
          6 5 1 2 2.</_>
        <_>
          7 7 1 2 2.</_></rects>
      <tilted>0</tilted></_>
    <_>
      <rects>
        <_>
          6 5 2 2 -1.</_>
        <_>
          6 6 2 1 2.</_></rects>
      <tilted>0</tilted></_>
    <_>
      <rects>
        <_>
          6 5 6 11 -1.</_>
        <_>
          9 5 3 11 2.</_></rects>
      <tilted>0</tilted></_>
    <_>
      <rects>
        <_>
          6 5 6 6 -1.</_>
        <_>
          6 8 6 3 2.</_></rects>
      <tilted>0</tilted></_>
    <_>
      <rects>
        <_>
          6 6 2 2 -1.</_>
        <_>
          6 6 1 1 2.</_>
        <_>
          7 7 1 1 2.</_></rects>
      <tilted>0</tilted></_>
    <_>
      <rects>
        <_>
          6 6 1 4 -1.</_>
        <_>
          6 8 1 2 2.</_></rects>
      <tilted>0</tilted></_>
    <_>
      <rects>
        <_>
          6 6 6 14 -1.</_>
        <_>
          8 6 2 14 2.</_></rects>
      <tilted>0</tilted></_>
    <_>
      <rects>
        <_>
          6 6 6 6 -1.</_>
        <_>
          6 9 6 3 2.</_></rects>
      <tilted>0</tilted></_>
    <_>
      <rects>
        <_>
          6 8 4 6 -1.</_>
        <_>
          6 8 2 3 2.</_>
        <_>
          8 11 2 3 2.</_></rects>
      <tilted>0</tilted></_>
    <_>
      <rects>
        <_>
          6 9 3 2 -1.</_>
        <_>
          6 10 3 1 2.</_></rects>
      <tilted>0</tilted></_>
    <_>
      <rects>
        <_>
          6 10 1 4 -1.</_>
        <_>
          6 12 1 2 2.</_></rects>
      <tilted>0</tilted></_>
    <_>
      <rects>
        <_>
          6 10 4 4 -1.</_>
        <_>
          6 10 2 2 2.</_>
        <_>
          8 12 2 2 2.</_></rects>
      <tilted>0</tilted></_>
    <_>
      <rects>
        <_>
          6 10 6 1 -1.</_>
        <_>
          9 10 3 1 2.</_></rects>
      <tilted>0</tilted></_>
    <_>
      <rects>
        <_>
          6 10 5 2 -1.</_>
        <_>
          6 11 5 1 2.</_></rects>
      <tilted>0</tilted></_>
    <_>
      <rects>
        <_>
          6 11 1 2 -1.</_>
        <_>
          6 12 1 1 2.</_></rects>
      <tilted>0</tilted></_>
    <_>
      <rects>
        <_>
          6 11 2 4 -1.</_>
        <_>
          7 11 1 4 2.</_></rects>
      <tilted>0</tilted></_>
    <_>
      <rects>
        <_>
          6 11 4 4 -1.</_>
        <_>
          8 11 2 4 2.</_></rects>
      <tilted>0</tilted></_>
    <_>
      <rects>
        <_>
          6 12 2 1 -1.</_>
        <_>
          7 12 1 1 2.</_></rects>
      <tilted>0</tilted></_>
    <_>
      <rects>
        <_>
          6 12 1 2 -1.</_>
        <_>
          6 13 1 1 2.</_></rects>
      <tilted>0</tilted></_>
    <_>
      <rects>
        <_>
          6 12 2 2 -1.</_>
        <_>
          6 12 1 1 2.</_>
        <_>
          7 13 1 1 2.</_></rects>
      <tilted>0</tilted></_>
    <_>
      <rects>
        <_>
          6 12 2 2 -1.</_>
        <_>
          7 12 1 2 2.</_></rects>
      <tilted>0</tilted></_>
    <_>
      <rects>
        <_>
          6 12 4 4 -1.</_>
        <_>
          6 12 2 2 2.</_>
        <_>
          8 14 2 2 2.</_></rects>
      <tilted>0</tilted></_>
    <_>
      <rects>
        <_>
          6 13 2 2 -1.</_>
        <_>
          7 13 1 2 2.</_></rects>
      <tilted>0</tilted></_>
    <_>
      <rects>
        <_>
          6 13 2 4 -1.</_>
        <_>
          7 13 1 4 2.</_></rects>
      <tilted>0</tilted></_>
    <_>
      <rects>
        <_>
          6 13 4 6 -1.</_>
        <_>
          6 13 2 3 2.</_>
        <_>
          8 16 2 3 2.</_></rects>
      <tilted>0</tilted></_>
    <_>
      <rects>
        <_>
          6 13 6 2 -1.</_>
        <_>
          9 13 3 2 2.</_></rects>
      <tilted>0</tilted></_>
    <_>
      <rects>
        <_>
          6 14 2 3 -1.</_>
        <_>
          7 14 1 3 2.</_></rects>
      <tilted>0</tilted></_>
    <_>
      <rects>
        <_>
          6 15 2 2 -1.</_>
        <_>
          7 15 1 2 2.</_></rects>
      <tilted>0</tilted></_>
    <_>
      <rects>
        <_>
          6 15 5 2 -1.</_>
        <_>
          6 16 5 1 2.</_></rects>
      <tilted>0</tilted></_>
    <_>
      <rects>
        <_>
          6 18 1 2 -1.</_>
        <_>
          6 19 1 1 2.</_></rects>
      <tilted>0</tilted></_>
    <_>
      <rects>
        <_>
          6 18 2 2 -1.</_>
        <_>
          6 19 2 1 2.</_></rects>
      <tilted>0</tilted></_>
    <_>
      <rects>
        <_>
          7 0 1 2 -1.</_>
        <_>
          7 1 1 1 2.</_></rects>
      <tilted>0</tilted></_>
    <_>
      <rects>
        <_>
          7 0 3 1 -1.</_>
        <_>
          8 0 1 1 2.</_></rects>
      <tilted>0</tilted></_>
    <_>
      <rects>
        <_>
          7 0 2 3 -1.</_>
        <_>
          8 0 1 3 2.</_></rects>
      <tilted>0</tilted></_>
    <_>
      <rects>
        <_>
          7 0 2 5 -1.</_>
        <_>
          8 0 1 5 2.</_></rects>
      <tilted>0</tilted></_>
    <_>
      <rects>
        <_>
          7 0 1 10 -1.</_>
        <_>
          7 5 1 5 2.</_></rects>
      <tilted>0</tilted></_>
    <_>
      <rects>
        <_>
          7 0 4 2 -1.</_>
        <_>
          7 0 2 1 2.</_>
        <_>
          9 1 2 1 2.</_></rects>
      <tilted>0</tilted></_>
    <_>
      <rects>
        <_>
          7 1 2 16 -1.</_>
        <_>
          7 1 1 8 2.</_>
        <_>
          8 9 1 8 2.</_></rects>
      <tilted>0</tilted></_>
    <_>
      <rects>
        <_>
          7 2 2 2 -1.</_>
        <_>
          7 2 1 1 2.</_>
        <_>
          8 3 1 1 2.</_></rects>
      <tilted>0</tilted></_>
    <_>
      <rects>
        <_>
          7 2 4 10 -1.</_>
        <_>
          7 2 2 5 2.</_>
        <_>
          9 7 2 5 2.</_></rects>
      <tilted>0</tilted></_>
    <_>
      <rects>
        <_>
          7 2 5 6 -1.</_>
        <_>
          7 5 5 3 2.</_></rects>
      <tilted>0</tilted></_>
    <_>
      <rects>
        <_>
          7 3 2 3 -1.</_>
        <_>
          8 3 1 3 2.</_></rects>
      <tilted>0</tilted></_>
    <_>
      <rects>
        <_>
          7 3 4 2 -1.</_>
        <_>
          7 4 4 1 2.</_></rects>
      <tilted>0</tilted></_>
    <_>
      <rects>
        <_>
          7 4 2 1 -1.</_>
        <_>
          8 4 1 1 2.</_></rects>
      <tilted>0</tilted></_>
    <_>
      <rects>
        <_>
          7 4 1 2 -1.</_>
        <_>
          7 5 1 1 2.</_></rects>
      <tilted>0</tilted></_>
    <_>
      <rects>
        <_>
          7 4 4 2 -1.</_>
        <_>
          7 5 4 1 2.</_></rects>
      <tilted>0</tilted></_>
    <_>
      <rects>
        <_>
          7 5 2 1 -1.</_>
        <_>
          8 5 1 1 2.</_></rects>
      <tilted>0</tilted></_>
    <_>
      <rects>
        <_>
          7 5 1 2 -1.</_>
        <_>
          7 6 1 1 2.</_></rects>
      <tilted>0</tilted></_>
    <_>
      <rects>
        <_>
          7 5 5 2 -1.</_>
        <_>
          7 6 5 1 2.</_></rects>
      <tilted>0</tilted></_>
    <_>
      <rects>
        <_>
          7 6 4 12 -1.</_>
        <_>
          7 6 2 6 2.</_>
        <_>
          9 12 2 6 2.</_></rects>
      <tilted>0</tilted></_>
    <_>
      <rects>
        <_>
          7 6 4 8 -1.</_>
        <_>
          7 10 4 4 2.</_></rects>
      <tilted>0</tilted></_>
    <_>
      <rects>
        <_>
          7 7 2 2 -1.</_>
        <_>
          8 7 1 2 2.</_></rects>
      <tilted>0</tilted></_>
    <_>
      <rects>
        <_>
          7 7 2 12 -1.</_>
        <_>
          7 7 1 6 2.</_>
        <_>
          8 13 1 6 2.</_></rects>
      <tilted>0</tilted></_>
    <_>
      <rects>
        <_>
          7 7 4 1 -1.</_>
        <_>
          9 7 2 1 2.</_></rects>
      <tilted>0</tilted></_>
    <_>
      <rects>
        <_>
          7 7 2 2 -1.</_>
        <_>
          7 8 2 1 2.</_></rects>
      <tilted>0</tilted></_>
    <_>
      <rects>
        <_>
          7 8 2 8 -1.</_>
        <_>
          7 8 1 4 2.</_>
        <_>
          8 12 1 4 2.</_></rects>
      <tilted>0</tilted></_>
    <_>
      <rects>
        <_>
          7 8 4 2 -1.</_>
        <_>
          7 8 2 1 2.</_>
        <_>
          9 9 2 1 2.</_></rects>
      <tilted>0</tilted></_>
    <_>
      <rects>
        <_>
          7 8 3 3 -1.</_>
        <_>
          7 9 3 1 2.</_></rects>
      <tilted>0</tilted></_>
    <_>
      <rects>
        <_>
          7 9 3 2 -1.</_>
        <_>
          7 10 3 1 2.</_></rects>
      <tilted>0</tilted></_>
    <_>
      <rects>
        <_>
          7 10 4 2 -1.</_>
        <_>
          7 11 4 1 2.</_></rects>
      <tilted>0</tilted></_>
    <_>
      <rects>
        <_>
          7 11 2 2 -1.</_>
        <_>
          7 11 1 1 2.</_>
        <_>
          8 12 1 1 2.</_></rects>
      <tilted>0</tilted></_>
    <_>
      <rects>
        <_>
          7 11 2 6 -1.</_>
        <_>
          7 11 1 3 2.</_>
        <_>
          8 14 1 3 2.</_></rects>
      <tilted>0</tilted></_>
    <_>
      <rects>
        <_>
          7 11 5 6 -1.</_>
        <_>
          7 14 5 3 2.</_></rects>
      <tilted>0</tilted></_>
    <_>
      <rects>
        <_>
          7 12 2 2 -1.</_>
        <_>
          7 12 1 1 2.</_>
        <_>
          8 13 1 1 2.</_></rects>
      <tilted>0</tilted></_>
    <_>
      <rects>
        <_>
          7 12 2 4 -1.</_>
        <_>
          7 12 1 2 2.</_>
        <_>
          8 14 1 2 2.</_></rects>
      <tilted>0</tilted></_>
    <_>
      <rects>
        <_>
          7 13 2 2 -1.</_>
        <_>
          7 13 1 1 2.</_>
        <_>
          8 14 1 1 2.</_></rects>
      <tilted>0</tilted></_>
    <_>
      <rects>
        <_>
          7 14 2 4 -1.</_>
        <_>
          8 14 1 4 2.</_></rects>
      <tilted>0</tilted></_>
    <_>
      <rects>
        <_>
          7 14 4 1 -1.</_>
        <_>
          9 14 2 1 2.</_></rects>
      <tilted>0</tilted></_>
    <_>
      <rects>
        <_>
          7 16 2 2 -1.</_>
        <_>
          7 16 1 1 2.</_>
        <_>
          8 17 1 1 2.</_></rects>
      <tilted>0</tilted></_>
    <_>
      <rects>
        <_>
          7 17 2 1 -1.</_>
        <_>
          8 17 1 1 2.</_></rects>
      <tilted>0</tilted></_>
    <_>
      <rects>
        <_>
          8 0 3 1 -1.</_>
        <_>
          9 0 1 1 2.</_></rects>
      <tilted>0</tilted></_>
    <_>
      <rects>
        <_>
          8 0 2 2 -1.</_>
        <_>
          8 0 1 1 2.</_>
        <_>
          9 1 1 1 2.</_></rects>
      <tilted>0</tilted></_>
    <_>
      <rects>
        <_>
          8 0 2 4 -1.</_>
        <_>
          8 0 1 2 2.</_>
        <_>
          9 2 1 2 2.</_></rects>
      <tilted>0</tilted></_>
    <_>
      <rects>
        <_>
          8 0 2 4 -1.</_>
        <_>
          9 0 1 4 2.</_></rects>
      <tilted>0</tilted></_>
    <_>
      <rects>
        <_>
          8 0 2 12 -1.</_>
        <_>
          8 0 1 6 2.</_>
        <_>
          9 6 1 6 2.</_></rects>
      <tilted>0</tilted></_>
    <_>
      <rects>
        <_>
          8 0 2 9 -1.</_>
        <_>
          9 0 1 9 2.</_></rects>
      <tilted>0</tilted></_>
    <_>
      <rects>
        <_>
          8 0 2 4 -1.</_>
        <_>
          8 2 2 2 2.</_></rects>
      <tilted>0</tilted></_>
    <_>
      <rects>
        <_>
          8 0 4 14 -1.</_>
        <_>
          8 0 2 7 2.</_>
        <_>
          10 7 2 7 2.</_></rects>
      <tilted>0</tilted></_>
    <_>
      <rects>
        <_>
          8 0 3 2 -1.</_>
        <_>
          8 1 3 1 2.</_></rects>
      <tilted>0</tilted></_>
    <_>
      <rects>
        <_>
          8 1 2 2 -1.</_>
        <_>
          8 1 1 1 2.</_>
        <_>
          9 2 1 1 2.</_></rects>
      <tilted>0</tilted></_>
    <_>
      <rects>
        <_>
          8 1 2 3 -1.</_>
        <_>
          9 1 1 3 2.</_></rects>
      <tilted>0</tilted></_>
    <_>
      <rects>
        <_>
          8 1 2 2 -1.</_>
        <_>
          8 2 2 1 2.</_></rects>
      <tilted>0</tilted></_>
    <_>
      <rects>
        <_>
          8 1 4 6 -1.</_>
        <_>
          8 1 2 3 2.</_>
        <_>
          10 4 2 3 2.</_></rects>
      <tilted>0</tilted></_>
    <_>
      <rects>
        <_>
          8 1 4 4 -1.</_>
        <_>
          10 1 2 4 2.</_></rects>
      <tilted>0</tilted></_>
    <_>
      <rects>
        <_>
          8 2 2 10 -1.</_>
        <_>
          8 2 1 5 2.</_>
        <_>
          9 7 1 5 2.</_></rects>
      <tilted>0</tilted></_>
    <_>
      <rects>
        <_>
          8 2 2 12 -1.</_>
        <_>
          9 2 1 12 2.</_></rects>
      <tilted>0</tilted></_>
    <_>
      <rects>
        <_>
          8 2 3 4 -1.</_>
        <_>
          8 4 3 2 2.</_></rects>
      <tilted>0</tilted></_>
    <_>
      <rects>
        <_>
          8 3 1 2 -1.</_>
        <_>
          8 4 1 1 2.</_></rects>
      <tilted>0</tilted></_>
    <_>
      <rects>
        <_>
          8 3 1 3 -1.</_>
        <_>
          8 4 1 1 2.</_></rects>
      <tilted>0</tilted></_>
    <_>
      <rects>
        <_>
          8 3 2 12 -1.</_>
        <_>
          8 3 1 6 2.</_>
        <_>
          9 9 1 6 2.</_></rects>
      <tilted>0</tilted></_>
    <_>
      <rects>
        <_>
          8 3 3 2 -1.</_>
        <_>
          8 4 3 1 2.</_></rects>
      <tilted>0</tilted></_>
    <_>
      <rects>
        <_>
          8 4 1 2 -1.</_>
        <_>
          8 5 1 1 2.</_></rects>
      <tilted>0</tilted></_>
    <_>
      <rects>
        <_>
          8 4 2 2 -1.</_>
        <_>
          8 4 1 1 2.</_>
        <_>
          9 5 1 1 2.</_></rects>
      <tilted>0</tilted></_>
    <_>
      <rects>
        <_>
          8 4 2 3 -1.</_>
        <_>
          9 4 1 3 2.</_></rects>
      <tilted>0</tilted></_>
    <_>
      <rects>
        <_>
          8 4 4 2 -1.</_>
        <_>
          8 4 2 1 2.</_>
        <_>
          10 5 2 1 2.</_></rects>
      <tilted>0</tilted></_>
    <_>
      <rects>
        <_>
          8 4 3 12 -1.</_>
        <_>
          8 10 3 6 2.</_></rects>
      <tilted>0</tilted></_>
    <_>
      <rects>
        <_>
          8 5 4 2 -1.</_>
        <_>
          10 5 2 2 2.</_></rects>
      <tilted>0</tilted></_>
    <_>
      <rects>
        <_>
          8 5 4 2 -1.</_>
        <_>
          8 6 4 1 2.</_></rects>
      <tilted>0</tilted></_>
    <_>
      <rects>
        <_>
          8 6 4 2 -1.</_>
        <_>
          8 6 2 1 2.</_>
        <_>
          10 7 2 1 2.</_></rects>
      <tilted>0</tilted></_>
    <_>
      <rects>
        <_>
          8 6 4 2 -1.</_>
        <_>
          8 7 4 1 2.</_></rects>
      <tilted>0</tilted></_>
    <_>
      <rects>
        <_>
          8 7 2 1 -1.</_>
        <_>
          9 7 1 1 2.</_></rects>
      <tilted>0</tilted></_>
    <_>
      <rects>
        <_>
          8 7 2 8 -1.</_>
        <_>
          8 7 1 4 2.</_>
        <_>
          9 11 1 4 2.</_></rects>
      <tilted>0</tilted></_>
    <_>
      <rects>
        <_>
          8 7 4 12 -1.</_>
        <_>
          8 7 2 6 2.</_>
        <_>
          10 13 2 6 2.</_></rects>
      <tilted>0</tilted></_>
    <_>
      <rects>
        <_>
          8 7 4 2 -1.</_>
        <_>
          8 8 4 1 2.</_></rects>
      <tilted>0</tilted></_>
    <_>
      <rects>
        <_>
          8 8 4 3 -1.</_>
        <_>
          10 8 2 3 2.</_></rects>
      <tilted>0</tilted></_>
    <_>
      <rects>
        <_>
          8 8 4 12 -1.</_>
        <_>
          8 8 2 6 2.</_>
        <_>
          10 14 2 6 2.</_></rects>
      <tilted>0</tilted></_>
    <_>
      <rects>
        <_>
          8 9 2 4 -1.</_>
        <_>
          8 9 1 2 2.</_>
        <_>
          9 11 1 2 2.</_></rects>
      <tilted>0</tilted></_>
    <_>
      <rects>
        <_>
          8 9 4 2 -1.</_>
        <_>
          8 10 4 1 2.</_></rects>
      <tilted>0</tilted></_>
    <_>
      <rects>
        <_>
          8 10 2 2 -1.</_>
        <_>
          8 10 1 1 2.</_>
        <_>
          9 11 1 1 2.</_></rects>
      <tilted>0</tilted></_>
    <_>
      <rects>
        <_>
          8 10 2 4 -1.</_>
        <_>
          8 10 1 2 2.</_>
        <_>
          9 12 1 2 2.</_></rects>
      <tilted>0</tilted></_>
    <_>
      <rects>
        <_>
          8 10 4 8 -1.</_>
        <_>
          8 10 2 4 2.</_>
        <_>
          10 14 2 4 2.</_></rects>
      <tilted>0</tilted></_>
    <_>
      <rects>
        <_>
          8 10 3 2 -1.</_>
        <_>
          8 11 3 1 2.</_></rects>
      <tilted>0</tilted></_>
    <_>
      <rects>
        <_>
          8 11 1 2 -1.</_>
        <_>
          8 12 1 1 2.</_></rects>
      <tilted>0</tilted></_>
    <_>
      <rects>
        <_>
          8 11 2 2 -1.</_>
        <_>
          8 11 1 1 2.</_>
        <_>
          9 12 1 1 2.</_></rects>
      <tilted>0</tilted></_>
    <_>
      <rects>
        <_>
          8 11 4 2 -1.</_>
        <_>
          8 12 4 1 2.</_></rects>
      <tilted>0</tilted></_>
    <_>
      <rects>
        <_>
          8 12 2 2 -1.</_>
        <_>
          8 12 1 1 2.</_>
        <_>
          9 13 1 1 2.</_></rects>
      <tilted>0</tilted></_>
    <_>
      <rects>
        <_>
          8 12 3 6 -1.</_>
        <_>
          8 15 3 3 2.</_></rects>
      <tilted>0</tilted></_>
    <_>
      <rects>
        <_>
          8 14 1 4 -1.</_>
        <_>
          8 16 1 2 2.</_></rects>
      <tilted>0</tilted></_>
    <_>
      <rects>
        <_>
          8 15 4 5 -1.</_>
        <_>
          10 15 2 5 2.</_></rects>
      <tilted>0</tilted></_>
    <_>
      <rects>
        <_>
          8 16 4 1 -1.</_>
        <_>
          10 16 2 1 2.</_></rects>
      <tilted>0</tilted></_>
    <_>
      <rects>
        <_>
          8 16 4 2 -1.</_>
        <_>
          8 17 4 1 2.</_></rects>
      <tilted>0</tilted></_>
    <_>
      <rects>
        <_>
          8 17 2 2 -1.</_>
        <_>
          8 17 1 1 2.</_>
        <_>
          9 18 1 1 2.</_></rects>
      <tilted>0</tilted></_>
    <_>
      <rects>
        <_>
          8 17 4 2 -1.</_>
        <_>
          8 18 4 1 2.</_></rects>
      <tilted>0</tilted></_>
    <_>
      <rects>
        <_>
          8 18 2 1 -1.</_>
        <_>
          9 18 1 1 2.</_></rects>
      <tilted>0</tilted></_>
    <_>
      <rects>
        <_>
          8 18 3 2 -1.</_>
        <_>
          8 19 3 1 2.</_></rects>
      <tilted>0</tilted></_>
    <_>
      <rects>
        <_>
          9 0 2 2 -1.</_>
        <_>
          9 0 1 1 2.</_>
        <_>
          10 1 1 1 2.</_></rects>
      <tilted>0</tilted></_>
    <_>
      <rects>
        <_>
          9 0 2 5 -1.</_>
        <_>
          10 0 1 5 2.</_></rects>
      <tilted>0</tilted></_>
    <_>
      <rects>
        <_>
          9 0 2 2 -1.</_>
        <_>
          9 1 2 1 2.</_></rects>
      <tilted>0</tilted></_>
    <_>
      <rects>
        <_>
          9 1 2 2 -1.</_>
        <_>
          9 1 1 1 2.</_>
        <_>
          10 2 1 1 2.</_></rects>
      <tilted>0</tilted></_>
    <_>
      <rects>
        <_>
          9 1 2 7 -1.</_>
        <_>
          10 1 1 7 2.</_></rects>
      <tilted>0</tilted></_>
    <_>
      <rects>
        <_>
          9 2 2 2 -1.</_>
        <_>
          9 2 1 1 2.</_>
        <_>
          10 3 1 1 2.</_></rects>
      <tilted>0</tilted></_>
    <_>
      <rects>
        <_>
          9 2 2 3 -1.</_>
        <_>
          10 2 1 3 2.</_></rects>
      <tilted>0</tilted></_>
    <_>
      <rects>
        <_>
          9 2 2 14 -1.</_>
        <_>
          9 2 1 7 2.</_>
        <_>
          10 9 1 7 2.</_></rects>
      <tilted>0</tilted></_>
    <_>
      <rects>
        <_>
          9 3 2 1 -1.</_>
        <_>
          10 3 1 1 2.</_></rects>
      <tilted>0</tilted></_>
    <_>
      <rects>
        <_>
          9 3 2 2 -1.</_>
        <_>
          9 3 1 1 2.</_>
        <_>
          10 4 1 1 2.</_></rects>
      <tilted>0</tilted></_>
    <_>
      <rects>
        <_>
          9 3 2 11 -1.</_>
        <_>
          10 3 1 11 2.</_></rects>
      <tilted>0</tilted></_>
    <_>
      <rects>
        <_>
          9 3 2 2 -1.</_>
        <_>
          9 4 2 1 2.</_></rects>
      <tilted>0</tilted></_>
    <_>
      <rects>
        <_>
          9 4 1 3 -1.</_>
        <_>
          9 5 1 1 2.</_></rects>
      <tilted>0</tilted></_>
    <_>
      <rects>
        <_>
          9 4 2 8 -1.</_>
        <_>
          9 8 2 4 2.</_></rects>
      <tilted>0</tilted></_>
    <_>
      <rects>
        <_>
          9 4 3 2 -1.</_>
        <_>
          9 5 3 1 2.</_></rects>
      <tilted>0</tilted></_>
    <_>
      <rects>
        <_>
          9 5 2 4 -1.</_>
        <_>
          10 5 1 4 2.</_></rects>
      <tilted>0</tilted></_>
    <_>
      <rects>
        <_>
          9 5 3 2 -1.</_>
        <_>
          9 6 3 1 2.</_></rects>
      <tilted>0</tilted></_>
    <_>
      <rects>
        <_>
          9 6 2 1 -1.</_>
        <_>
          10 6 1 1 2.</_></rects>
      <tilted>0</tilted></_>
    <_>
      <rects>
        <_>
          9 6 2 8 -1.</_>
        <_>
          9 6 1 4 2.</_>
        <_>
          10 10 1 4 2.</_></rects>
      <tilted>0</tilted></_>
    <_>
      <rects>
        <_>
          9 6 2 6 -1.</_>
        <_>
          9 9 2 3 2.</_></rects>
      <tilted>0</tilted></_>
    <_>
      <rects>
        <_>
          9 6 3 2 -1.</_>
        <_>
          9 7 3 1 2.</_></rects>
      <tilted>0</tilted></_>
    <_>
      <rects>
        <_>
          9 7 3 2 -1.</_>
        <_>
          9 8 3 1 2.</_></rects>
      <tilted>0</tilted></_>
    <_>
      <rects>
        <_>
          9 8 2 6 -1.</_>
        <_>
          9 8 1 3 2.</_>
        <_>
          10 11 1 3 2.</_></rects>
      <tilted>0</tilted></_>
    <_>
      <rects>
        <_>
          9 8 3 2 -1.</_>
        <_>
          9 9 3 1 2.</_></rects>
      <tilted>0</tilted></_>
    <_>
      <rects>
        <_>
          9 9 2 4 -1.</_>
        <_>
          9 9 1 2 2.</_>
        <_>
          10 11 1 2 2.</_></rects>
      <tilted>0</tilted></_>
    <_>
      <rects>
        <_>
          9 10 3 2 -1.</_>
        <_>
          9 11 3 1 2.</_></rects>
      <tilted>0</tilted></_>
    <_>
      <rects>
        <_>
          9 11 2 4 -1.</_>
        <_>
          9 11 1 2 2.</_>
        <_>
          10 13 1 2 2.</_></rects>
      <tilted>0</tilted></_>
    <_>
      <rects>
        <_>
          9 11 3 2 -1.</_>
        <_>
          9 12 3 1 2.</_></rects>
      <tilted>0</tilted></_>
    <_>
      <rects>
        <_>
          9 12 1 2 -1.</_>
        <_>
          9 13 1 1 2.</_></rects>
      <tilted>0</tilted></_>
    <_>
      <rects>
        <_>
          9 12 2 2 -1.</_>
        <_>
          9 12 1 1 2.</_>
        <_>
          10 13 1 1 2.</_></rects>
      <tilted>0</tilted></_>
    <_>
      <rects>
        <_>
          9 12 3 2 -1.</_>
        <_>
          9 13 3 1 2.</_></rects>
      <tilted>0</tilted></_>
    <_>
      <rects>
        <_>
          9 13 3 2 -1.</_>
        <_>
          9 14 3 1 2.</_></rects>
      <tilted>0</tilted></_>
    <_>
      <rects>
        <_>
          9 14 2 4 -1.</_>
        <_>
          9 16 2 2 2.</_></rects>
      <tilted>0</tilted></_>
    <_>
      <rects>
        <_>
          9 15 1 4 -1.</_>
        <_>
          9 17 1 2 2.</_></rects>
      <tilted>0</tilted></_>
    <_>
      <rects>
        <_>
          9 17 2 2 -1.</_>
        <_>
          9 17 1 1 2.</_>
        <_>
          10 18 1 1 2.</_></rects>
      <tilted>0</tilted></_>
    <_>
      <rects>
        <_>
          9 19 2 1 -1.</_>
        <_>
          10 19 1 1 2.</_></rects>
      <tilted>0</tilted></_>
    <_>
      <rects>
        <_>
          10 0 2 1 -1.</_>
        <_>
          11 0 1 1 2.</_></rects>
      <tilted>0</tilted></_>
    <_>
      <rects>
        <_>
          10 0 1 4 -1.</_>
        <_>
          10 2 1 2 2.</_></rects>
      <tilted>0</tilted></_>
    <_>
      <rects>
        <_>
          10 0 2 13 -1.</_>
        <_>
          11 0 1 13 2.</_></rects>
      <tilted>0</tilted></_>
    <_>
      <rects>
        <_>
          10 0 2 18 -1.</_>
        <_>
          11 0 1 18 2.</_></rects>
      <tilted>0</tilted></_>
    <_>
      <rects>
        <_>
          10 1 2 5 -1.</_>
        <_>
          11 1 1 5 2.</_></rects>
      <tilted>0</tilted></_>
    <_>
      <rects>
        <_>
          10 1 2 14 -1.</_>
        <_>
          10 1 1 7 2.</_>
        <_>
          11 8 1 7 2.</_></rects>
      <tilted>0</tilted></_>
    <_>
      <rects>
        <_>
          10 1 2 18 -1.</_>
        <_>
          10 1 1 9 2.</_>
        <_>
          11 10 1 9 2.</_></rects>
      <tilted>0</tilted></_>
    <_>
      <rects>
        <_>
          10 1 2 10 -1.</_>
        <_>
          11 1 1 10 2.</_></rects>
      <tilted>0</tilted></_>
    <_>
      <rects>
        <_>
          10 2 1 6 -1.</_>
        <_>
          10 4 1 2 2.</_></rects>
      <tilted>0</tilted></_>
    <_>
      <rects>
        <_>
          10 2 2 3 -1.</_>
        <_>
          11 2 1 3 2.</_></rects>
      <tilted>0</tilted></_>
    <_>
      <rects>
        <_>
          10 2 2 6 -1.</_>
        <_>
          11 2 1 6 2.</_></rects>
      <tilted>0</tilted></_>
    <_>
      <rects>
        <_>
          10 2 2 12 -1.</_>
        <_>
          11 2 1 12 2.</_></rects>
      <tilted>0</tilted></_>
    <_>
      <rects>
        <_>
          10 3 2 3 -1.</_>
        <_>
          11 3 1 3 2.</_></rects>
      <tilted>0</tilted></_>
    <_>
      <rects>
        <_>
          10 3 1 15 -1.</_>
        <_>
          10 8 1 5 2.</_></rects>
      <tilted>0</tilted></_>
    <_>
      <rects>
        <_>
          10 3 2 16 -1.</_>
        <_>
          11 3 1 16 2.</_></rects>
      <tilted>0</tilted></_>
    <_>
      <rects>
        <_>
          10 3 2 2 -1.</_>
        <_>
          10 4 2 1 2.</_></rects>
      <tilted>0</tilted></_>
    <_>
      <rects>
        <_>
          10 4 2 2 -1.</_>
        <_>
          11 4 1 2 2.</_></rects>
      <tilted>0</tilted></_>
    <_>
      <rects>
        <_>
          10 5 2 2 -1.</_>
        <_>
          10 6 2 1 2.</_></rects>
      <tilted>0</tilted></_>
    <_>
      <rects>
        <_>
          10 6 2 3 -1.</_>
        <_>
          11 6 1 3 2.</_></rects>
      <tilted>0</tilted></_>
    <_>
      <rects>
        <_>
          10 6 2 11 -1.</_>
        <_>
          11 6 1 11 2.</_></rects>
      <tilted>0</tilted></_>
    <_>
      <rects>
        <_>
          10 6 2 2 -1.</_>
        <_>
          10 7 2 1 2.</_></rects>
      <tilted>0</tilted></_>
    <_>
      <rects>
        <_>
          10 8 2 10 -1.</_>
        <_>
          10 8 1 5 2.</_>
        <_>
          11 13 1 5 2.</_></rects>
      <tilted>0</tilted></_>
    <_>
      <rects>
        <_>
          10 8 2 12 -1.</_>
        <_>
          10 8 1 6 2.</_>
        <_>
          11 14 1 6 2.</_></rects>
      <tilted>0</tilted></_>
    <_>
      <rects>
        <_>
          10 9 2 10 -1.</_>
        <_>
          10 9 1 5 2.</_>
        <_>
          11 14 1 5 2.</_></rects>
      <tilted>0</tilted></_>
    <_>
      <rects>
        <_>
          10 11 2 2 -1.</_>
        <_>
          10 12 2 1 2.</_></rects>
      <tilted>0</tilted></_>
    <_>
      <rects>
        <_>
          10 13 2 2 -1.</_>
        <_>
          10 14 2 1 2.</_></rects>
      <tilted>0</tilted></_>
    <_>
      <rects>
        <_>
          10 14 2 4 -1.</_>
        <_>
          10 14 1 2 2.</_>
        <_>
          11 16 1 2 2.</_></rects>
      <tilted>0</tilted></_>
    <_>
      <rects>
        <_>
          10 14 2 2 -1.</_>
        <_>
          10 15 2 1 2.</_></rects>
      <tilted>0</tilted></_>
    <_>
      <rects>
        <_>
          10 15 2 3 -1.</_>
        <_>
          10 16 2 1 2.</_></rects>
      <tilted>0</tilted></_>
    <_>
      <rects>
        <_>
          10 16 2 2 -1.</_>
        <_>
          10 16 1 1 2.</_>
        <_>
          11 17 1 1 2.</_></rects>
      <tilted>0</tilted></_>
    <_>
      <rects>
        <_>
          10 16 2 4 -1.</_>
        <_>
          10 16 1 2 2.</_>
        <_>
          11 18 1 2 2.</_></rects>
      <tilted>0</tilted></_>
    <_>
      <rects>
        <_>
          10 18 1 2 -1.</_>
        <_>
          10 19 1 1 2.</_></rects>
      <tilted>0</tilted></_>
    <_>
      <rects>
        <_>
          11 0 1 2 -1.</_>
        <_>
          11 1 1 1 2.</_></rects>
      <tilted>0</tilted></_>
    <_>
      <rects>
        <_>
          11 0 1 3 -1.</_>
        <_>
          11 1 1 1 2.</_></rects>
      <tilted>0</tilted></_>
    <_>
      <rects>
        <_>
          11 0 1 4 -1.</_>
        <_>
          11 2 1 2 2.</_></rects>
      <tilted>0</tilted></_>
    <_>
      <rects>
        <_>
          11 0 1 9 -1.</_>
        <_>
          11 3 1 3 2.</_></rects>
      <tilted>0</tilted></_>
    <_>
      <rects>
        <_>
          11 0 1 12 -1.</_>
        <_>
          11 4 1 4 2.</_></rects>
      <tilted>0</tilted></_>
    <_>
      <rects>
        <_>
          11 1 1 2 -1.</_>
        <_>
          11 2 1 1 2.</_></rects>
      <tilted>0</tilted></_>
    <_>
      <rects>
        <_>
          11 2 1 2 -1.</_>
        <_>
          11 3 1 1 2.</_></rects>
      <tilted>0</tilted></_>
    <_>
      <rects>
        <_>
          11 2 1 6 -1.</_>
        <_>
          11 4 1 2 2.</_></rects>
      <tilted>0</tilted></_>
    <_>
      <rects>
        <_>
          11 3 1 2 -1.</_>
        <_>
          11 4 1 1 2.</_></rects>
      <tilted>0</tilted></_>
    <_>
      <rects>
        <_>
          11 3 1 8 -1.</_>
        <_>
          11 7 1 4 2.</_></rects>
      <tilted>0</tilted></_>
    <_>
      <rects>
        <_>
          11 4 1 6 -1.</_>
        <_>
          11 6 1 2 2.</_></rects>
      <tilted>0</tilted></_>
    <_>
      <rects>
        <_>
          11 5 1 2 -1.</_>
        <_>
          11 6 1 1 2.</_></rects>
      <tilted>0</tilted></_>
    <_>
      <rects>
        <_>
          11 8 1 2 -1.</_>
        <_>
          11 9 1 1 2.</_></rects>
      <tilted>0</tilted></_>
    <_>
      <rects>
        <_>
          11 9 1 2 -1.</_>
        <_>
          11 10 1 1 2.</_></rects>
      <tilted>0</tilted></_>
    <_>
      <rects>
        <_>
          11 9 1 3 -1.</_>
        <_>
          11 10 1 1 2.</_></rects>
      <tilted>0</tilted></_>
    <_>
      <rects>
        <_>
          11 10 1 2 -1.</_>
        <_>
          11 11 1 1 2.</_></rects>
      <tilted>0</tilted></_>
    <_>
      <rects>
        <_>
          11 11 1 2 -1.</_>
        <_>
          11 12 1 1 2.</_></rects>
      <tilted>0</tilted></_>
    <_>
      <rects>
        <_>
          11 12 1 2 -1.</_>
        <_>
          11 13 1 1 2.</_></rects>
      <tilted>0</tilted></_>
    <_>
      <rects>
        <_>
          11 13 1 2 -1.</_>
        <_>
          11 14 1 1 2.</_></rects>
      <tilted>0</tilted></_>
    <_>
      <rects>
        <_>
          11 13 1 6 -1.</_>
        <_>
          11 16 1 3 2.</_></rects>
      <tilted>0</tilted></_>
    <_>
      <rects>
        <_>
          11 14 1 2 -1.</_>
        <_>
          11 15 1 1 2.</_></rects>
      <tilted>0</tilted></_>
    <_>
      <rects>
        <_>
          11 14 1 3 -1.</_>
        <_>
          11 15 1 1 2.</_></rects>
      <tilted>0</tilted></_>
    <_>
      <rects>
        <_>
          11 15 1 2 -1.</_>
        <_>
          11 16 1 1 2.</_></rects>
      <tilted>0</tilted></_>
    <_>
      <rects>
        <_>
          11 16 1 2 -1.</_>
        <_>
          11 17 1 1 2.</_></rects>
      <tilted>0</tilted></_>
    <_>
      <rects>
        <_>
          11 17 1 2 -1.</_>
        <_>
          11 18 1 1 2.</_></rects>
      <tilted>0</tilted></_>
    <_>
      <rects>
        <_>
          11 18 1 2 -1.</_>
        <_>
          11 19 1 1 2.</_></rects>
      <tilted>0</tilted></_></features></cascade>
</opencv_storage>
