<?xml version="1.0"?>
<opencv_storage>
<stage3>
  <maxWeakCount>66</maxWeakCount>
  <stageThreshold>-6.1557501554489136e-01</stageThreshold>
  <weakClassifiers>
    <_>
      <internalNodes>
        0 -1 4600 -1.1860210448503494e-02</internalNodes>
      <leafValues>
        4.8117153346538544e-02 -6.1514681577682495e-01</leafValues></_>
    <_>
      <internalNodes>
        0 -1 420 1.9740145653486252e-02</internalNodes>
      <leafValues>
        -2.7899408340454102e-01 3.9782321453094482e-01</leafValues></_>
    <_>
      <internalNodes>
        0 -1 17375 -2.9520587995648384e-03</internalNodes>
      <leafValues>
        3.2483431696891785e-01 -2.2696885466575623e-01</leafValues></_>
    <_>
      <internalNodes>
        0 -1 8699 5.5945608764886856e-03</internalNodes>
      <leafValues>
        -1.4305189251899719e-01 4.1163563728332520e-01</leafValues></_>
    <_>
      <internalNodes>
        0 -1 27835 -3.2744333148002625e-02</internalNodes>
      <leafValues>
        7.3994880914688110e-01 -7.2906114161014557e-02</leafValues></_>
    <_>
      <internalNodes>
        0 -1 15762 -1.0611416772007942e-02</internalNodes>
      <leafValues>
        3.9559426903724670e-01 -1.7196689546108246e-01</leafValues></_>
    <_>
      <internalNodes>
        0 -1 12420 1.0171322152018547e-02</internalNodes>
      <leafValues>
        -1.5134641528129578e-01 4.6108543872833252e-01</leafValues></_>
    <_>
      <internalNodes>
        0 -1 19193 7.0623815059661865e-02</internalNodes>
      <leafValues>
        -2.7676725387573242e-01 2.1688488125801086e-01</leafValues></_>
    <_>
      <internalNodes>
        0 -1 28488 9.0728839859366417e-04</internalNodes>
      <leafValues>
        1.5023438632488251e-01 -4.1738373041152954e-01</leafValues></_>
    <_>
      <internalNodes>
        0 -1 14755 -5.6299614906311035e-01</internalNodes>
      <leafValues>
        -6.1571675539016724e-01 9.4065949320793152e-02</leafValues></_>
    <_>
      <internalNodes>
        0 -1 5774 1.5052327886223793e-02</internalNodes>
      <leafValues>
        -1.8704989552497864e-01 3.4826403856277466e-01</leafValues></_>
    <_>
      <internalNodes>
        0 -1 24251 -5.6509892456233501e-03</internalNodes>
      <leafValues>
        -7.4254477024078369e-01 9.0452864766120911e-02</leafValues></_>
    <_>
      <internalNodes>
        0 -1 23216 1.3507463037967682e-02</internalNodes>
      <leafValues>
        -1.2425713241100311e-01 4.8218497633934021e-01</leafValues></_>
    <_>
      <internalNodes>
        0 -1 490 2.0109567791223526e-02</internalNodes>
      <leafValues>
        -1.0173131525516510e-01 4.8102444410324097e-01</leafValues></_>
    <_>
      <internalNodes>
        0 -1 4378 -1.3816752471029758e-03</internalNodes>
      <leafValues>
        -3.6195749044418335e-01 1.3915044069290161e-01</leafValues></_>
    <_>
      <internalNodes>
        0 -1 17864 -7.2224304080009460e-02</internalNodes>
      <leafValues>
        1.0765574872493744e-01 -4.7510185837745667e-01</leafValues></_>
    <_>
      <internalNodes>
        0 -1 27638 -2.0846370607614517e-03</internalNodes>
      <leafValues>
        -2.8729069232940674e-01 1.6563931107521057e-01</leafValues></_>
    <_>
      <internalNodes>
        0 -1 4728 -2.4097528308629990e-02</internalNodes>
      <leafValues>
        6.0803443193435669e-01 -1.0369600355625153e-01</leafValues></_>
    <_>
      <internalNodes>
        0 -1 26909 -2.0378686487674713e-02</internalNodes>
      <leafValues>
        3.9930877089500427e-01 -1.1588773876428604e-01</leafValues></_>
    <_>
      <internalNodes>
        0 -1 4235 2.8516973834484816e-03</internalNodes>
      <leafValues>
        1.3579580187797546e-01 -3.8368865847587585e-01</leafValues></_>
    <_>
      <internalNodes>
        0 -1 23035 5.4457895457744598e-03</internalNodes>
      <leafValues>
        -1.7767810821533203e-01 2.6080924272537231e-01</leafValues></_>
    <_>
      <internalNodes>
        0 -1 8575 -8.4139600396156311e-02</internalNodes>
      <leafValues>
        4.7232365608215332e-01 -8.9335113763809204e-02</leafValues></_>
    <_>
      <internalNodes>
        0 -1 4634 -1.2783591635525227e-02</internalNodes>
      <leafValues>
        3.4460052847862244e-01 -1.3437749445438385e-01</leafValues></_>
    <_>
      <internalNodes>
        0 -1 23083 -1.3557930942624807e-03</internalNodes>
      <leafValues>
        4.4242832064628601e-01 -1.0667984932661057e-01</leafValues></_>
    <_>
      <internalNodes>
        0 -1 28362 -3.2035291660577059e-03</internalNodes>
      <leafValues>
        -6.6052389144897461e-01 6.0896344482898712e-02</leafValues></_>
    <_>
      <internalNodes>
        0 -1 12237 -2.8783116489648819e-02</internalNodes>
      <leafValues>
        3.6684283614158630e-01 -1.1147356033325195e-01</leafValues></_>
    <_>
      <internalNodes>
        0 -1 18734 -7.1189180016517639e-04</internalNodes>
      <leafValues>
        -2.9516628384590149e-01 1.5044158697128296e-01</leafValues></_>
    <_>
      <internalNodes>
        0 -1 4907 -2.5115620344877243e-02</internalNodes>
      <leafValues>
        3.0408316850662231e-01 -1.2279456853866577e-01</leafValues></_>
    <_>
      <internalNodes>
        0 -1 16065 -1.5056370757520199e-03</internalNodes>
      <leafValues>
        3.0386513471603394e-01 -1.4311484992504120e-01</leafValues></_>
    <_>
      <internalNodes>
        0 -1 1771 -6.6938339732587337e-03</internalNodes>
      <leafValues>
        -7.3834294080734253e-01 6.4768128097057343e-02</leafValues></_>
    <_>
      <internalNodes>
        0 -1 18724 1.1591617017984390e-02</internalNodes>
      <leafValues>
        -9.7880274057388306e-02 4.9448925256729126e-01</leafValues></_>
    <_>
      <internalNodes>
        0 -1 21207 -4.0660420199856162e-04</internalNodes>
      <leafValues>
        -2.2423826158046722e-01 2.0283557474613190e-01</leafValues></_>
    <_>
      <internalNodes>
        0 -1 15846 7.7128000557422638e-03</internalNodes>
      <leafValues>
        -7.4551433324813843e-02 5.0451600551605225e-01</leafValues></_>
    <_>
      <internalNodes>
        0 -1 4225 1.4644765760749578e-03</internalNodes>
      <leafValues>
        1.0267268866300583e-01 -4.5348682999610901e-01</leafValues></_>
    <_>
      <internalNodes>
        0 -1 27343 5.0832610577344894e-03</internalNodes>
      <leafValues>
        -1.2088964134454727e-01 3.6741024255752563e-01</leafValues></_>
    <_>
      <internalNodes>
        0 -1 21901 -1.9414417445659637e-02</internalNodes>
      <leafValues>
        -6.1586838960647583e-01 7.1256428956985474e-02</leafValues></_>
    <_>
      <internalNodes>
        0 -1 27379 -5.1055680960416794e-03</internalNodes>
      <leafValues>
        -5.5730140209197998e-01 5.5799268186092377e-02</leafValues></_>
    <_>
      <internalNodes>
        0 -1 11825 -2.6204297319054604e-03</internalNodes>
      <leafValues>
        4.2448672652244568e-01 -9.6843957901000977e-02</leafValues></_>
    <_>
      <internalNodes>
        0 -1 15265 -4.0469560772180557e-03</internalNodes>
      <leafValues>
        3.7180674076080322e-01 -1.0074459761381149e-01</leafValues></_>
    <_>
      <internalNodes>
        0 -1 28485 6.2567484565079212e-04</internalNodes>
      <leafValues>
        1.1788786202669144e-01 -3.4048029780387878e-01</leafValues></_>
    <_>
      <internalNodes>
        0 -1 26387 -1.6701216809451580e-03</internalNodes>
      <leafValues>
        3.3508020639419556e-01 -1.2110462784767151e-01</leafValues></_>
    <_>
      <internalNodes>
        0 -1 18178 2.3627206683158875e-02</internalNodes>
      <leafValues>
        1.0224846750497818e-01 -3.7501710653305054e-01</leafValues></_>
    <_>
      <internalNodes>
        0 -1 15770 -2.0708180963993073e-03</internalNodes>
      <leafValues>
        -6.8112343549728394e-02 6.5107822418212891e-01</leafValues></_>
    <_>
      <internalNodes>
        0 -1 24677 -3.4247793257236481e-02</internalNodes>
      <leafValues>
        1.1934694647789001e-01 -3.9329391717910767e-01</leafValues></_>
    <_>
      <internalNodes>
        0 -1 8369 6.7924819886684418e-02</internalNodes>
      <leafValues>
        -7.0628590881824493e-02 5.4747146368026733e-01</leafValues></_>
    <_>
      <internalNodes>
        0 -1 3732 3.1835194677114487e-03</internalNodes>
      <leafValues>
        7.6253280043601990e-02 -5.3616482019424438e-01</leafValues></_>
    <_>
      <internalNodes>
        0 -1 28332 -4.2018098756670952e-03</internalNodes>
      <leafValues>
        -7.2439081966876984e-02 5.0803768634796143e-01</leafValues></_>
    <_>
      <internalNodes>
        0 -1 24651 -4.9355113878846169e-04</internalNodes>
      <leafValues>
        2.0739792287349701e-01 -1.8142405152320862e-01</leafValues></_>
    <_>
      <internalNodes>
        0 -1 7826 -5.4691489785909653e-03</internalNodes>
      <leafValues>
        4.5303377509117126e-01 -7.7504053711891174e-02</leafValues></_>
    <_>
      <internalNodes>
        0 -1 27733 3.6536764353513718e-02</internalNodes>
      <leafValues>
        -6.7969486117362976e-02 5.1784825325012207e-01</leafValues></_>
    <_>
      <internalNodes>
        0 -1 28469 -2.1393510978668928e-03</internalNodes>
      <leafValues>
        -5.4791826009750366e-01 6.7994005978107452e-02</leafValues></_>
    <_>
      <internalNodes>
        0 -1 8534 -1.8147656694054604e-02</internalNodes>
      <leafValues>
        1.3923990726470947e-01 -2.6492136716842651e-01</leafValues></_>
    <_>
      <internalNodes>
        0 -1 387 2.9239293932914734e-01</internalNodes>
      <leafValues>
        -1.6847725212574005e-01 2.5693738460540771e-01</leafValues></_>
    <_>
      <internalNodes>
        0 -1 1358 -5.1532197743654251e-02</internalNodes>
      <leafValues>
        8.5892625153064728e-02 -4.2381927371025085e-01</leafValues></_>
    <_>
      <internalNodes>
        0 -1 27536 -1.5058856224641204e-03</internalNodes>
      <leafValues>
        3.4101188182830811e-01 -9.8234318196773529e-02</leafValues></_>
    <_>
      <internalNodes>
        0 -1 28493 -5.4380861110985279e-03</internalNodes>
      <leafValues>
        -6.7853862047195435e-01 5.6594848632812500e-02</leafValues></_>
    <_>
      <internalNodes>
        0 -1 25296 -4.1010577231645584e-02</internalNodes>
      <leafValues>
        2.5493615865707397e-01 -1.3887085020542145e-01</leafValues></_>
    <_>
      <internalNodes>
        0 -1 9065 8.1789437681436539e-03</internalNodes>
      <leafValues>
        -6.3524499535560608e-02 5.3968131542205811e-01</leafValues></_>
    <_>
      <internalNodes>
        0 -1 4578 -1.2119440361857414e-02</internalNodes>
      <leafValues>
        -4.6454340219497681e-02 6.8921267986297607e-01</leafValues></_>
    <_>
      <internalNodes>
        0 -1 21251 -1.9724376499652863e-02</internalNodes>
      <leafValues>
        -7.7415966987609863e-01 4.9085531383752823e-02</leafValues></_>
    <_>
      <internalNodes>
        0 -1 19109 6.5533081069588661e-03</internalNodes>
      <leafValues>
        -1.1481757462024689e-01 3.2376337051391602e-01</leafValues></_>
    <_>
      <internalNodes>
        0 -1 28331 4.8904828727245331e-03</internalNodes>
      <leafValues>
        5.5666994303464890e-02 -7.1542179584503174e-01</leafValues></_>
    <_>
      <internalNodes>
        0 -1 10005 -8.7000690400600433e-03</internalNodes>
      <leafValues>
        3.4507474303245544e-01 -1.0172419995069504e-01</leafValues></_>
    <_>
      <internalNodes>
        0 -1 8517 -4.9444682896137238e-02</internalNodes>
      <leafValues>
        4.4142314791679382e-01 -7.8163713216781616e-02</leafValues></_>
    <_>
      <internalNodes>
        0 -1 26439 6.7804516293108463e-03</internalNodes>
      <leafValues>
        7.1870192885398865e-02 -5.7728070020675659e-01</leafValues></_>
    <_>
      <internalNodes>
        0 -1 15633 1.3684154488146305e-02</internalNodes>
      <leafValues>
        4.4437769800424576e-02 -6.2420296669006348e-01</leafValues></_></weakClassifiers></stage3>
</opencv_storage>
