<?xml version="1.0"?>
<opencv_storage>
<stage4>
  <maxWeakCount>93</maxWeakCount>
  <stageThreshold>-5.2922105789184570e-01</stageThreshold>
  <weakClassifiers>
    <_>
      <internalNodes>
        0 -1 20053 -1.5498988796025515e-03</internalNodes>
      <leafValues>
        -4.3203372508287430e-02 -5.4496538639068604e-01</leafValues></_>
    <_>
      <internalNodes>
        0 -1 18228 -2.5730746984481812e-01</internalNodes>
      <leafValues>
        8.0972552299499512e-01 -1.0155413299798965e-01</leafValues></_>
    <_>
      <internalNodes>
        0 -1 14023 1.1827005445957184e-01</internalNodes>
      <leafValues>
        -1.1617682129144669e-01 4.4878199696540833e-01</leafValues></_>
    <_>
      <internalNodes>
        0 -1 25587 6.8737519904971123e-03</internalNodes>
      <leafValues>
        -1.9704566895961761e-01 2.3030102252960205e-01</leafValues></_>
    <_>
      <internalNodes>
        0 -1 5885 -5.2075052261352539e-01</internalNodes>
      <leafValues>
        -9.0569168329238892e-01 5.2713524550199509e-02</leafValues></_>
    <_>
      <internalNodes>
        0 -1 12731 1.5154056251049042e-02</internalNodes>
      <leafValues>
        -1.7516282200813293e-01 2.4649769067764282e-01</leafValues></_>
    <_>
      <internalNodes>
        0 -1 8619 -2.5781076401472092e-02</internalNodes>
      <leafValues>
        2.9143336415290833e-01 -1.2927229702472687e-01</leafValues></_>
    <_>
      <internalNodes>
        0 -1 26450 -3.2034302130341530e-03</internalNodes>
      <leafValues>
        4.2376345396041870e-01 -8.6711354553699493e-02</leafValues></_>
    <_>
      <internalNodes>
        0 -1 3941 -3.0869761481881142e-02</internalNodes>
      <leafValues>
        -3.9916864037513733e-01 1.2106529623270035e-01</leafValues></_>
    <_>
      <internalNodes>
        0 -1 26320 6.2592877075076103e-03</internalNodes>
      <leafValues>
        -9.3242518603801727e-02 4.7027775645256042e-01</leafValues></_>
    <_>
      <internalNodes>
        0 -1 26245 -4.9987975507974625e-03</internalNodes>
      <leafValues>
        3.1134560704231262e-01 -1.1856578290462494e-01</leafValues></_>
    <_>
      <internalNodes>
        0 -1 271 -6.6726401448249817e-02</internalNodes>
      <leafValues>
        5.0728607177734375e-01 -5.0201836973428726e-02</leafValues></_>
    <_>
      <internalNodes>
        0 -1 64 -3.6878220736980438e-02</internalNodes>
      <leafValues>
        3.9729329943656921e-01 -8.9658118784427643e-02</leafValues></_>
    <_>
      <internalNodes>
        0 -1 508 1.7307791858911514e-02</internalNodes>
      <leafValues>
        -1.5323291718959808e-01 3.1570857763290405e-01</leafValues></_>
    <_>
      <internalNodes>
        0 -1 25206 -8.5792317986488342e-03</internalNodes>
      <leafValues>
        -1.0332188755273819e-01 3.1402310729026794e-01</leafValues></_>
    <_>
      <internalNodes>
        0 -1 10960 3.3007901161909103e-02</internalNodes>
      <leafValues>
        -1.7811110615730286e-01 2.0453092455863953e-01</leafValues></_>
    <_>
      <internalNodes>
        0 -1 28222 -7.7921813353896141e-03</internalNodes>
      <leafValues>
        -8.6950433254241943e-01 4.5011192560195923e-02</leafValues></_>
    <_>
      <internalNodes>
        0 -1 7464 -5.2889989456161857e-04</internalNodes>
      <leafValues>
        1.5972404181957245e-01 -1.8735827505588531e-01</leafValues></_>
    <_>
      <internalNodes>
        0 -1 10836 1.8301224336028099e-03</internalNodes>
      <leafValues>
        -1.6745860874652863e-01 2.1213106811046600e-01</leafValues></_>
    <_>
      <internalNodes>
        0 -1 17487 3.0002733692526817e-03</internalNodes>
      <leafValues>
        -1.0387308895587921e-01 3.0986332893371582e-01</leafValues></_>
    <_>
      <internalNodes>
        0 -1 9412 3.5550000611692667e-03</internalNodes>
      <leafValues>
        -2.0354862511157990e-01 1.5909969806671143e-01</leafValues></_>
    <_>
      <internalNodes>
        0 -1 3901 1.0506005492061377e-03</internalNodes>
      <leafValues>
        7.7283591032028198e-02 -3.8888651132583618e-01</leafValues></_>
    <_>
      <internalNodes>
        0 -1 1665 4.3765679001808167e-03</internalNodes>
      <leafValues>
        4.8435851931571960e-02 -5.7952600717544556e-01</leafValues></_>
    <_>
      <internalNodes>
        0 -1 23579 -2.4216601625084877e-02</internalNodes>
      <leafValues>
        -9.6106904745101929e-01 2.5971638038754463e-02</leafValues></_>
    <_>
      <internalNodes>
        0 -1 4466 9.9610094912350178e-04</internalNodes>
      <leafValues>
        8.2385137677192688e-02 -3.2182708382606506e-01</leafValues></_>
    <_>
      <internalNodes>
        0 -1 1664 -1.0628278832882643e-03</internalNodes>
      <leafValues>
        2.0293883979320526e-01 -1.4175769686698914e-01</leafValues></_>
    <_>
      <internalNodes>
        0 -1 28303 -2.1111520472913980e-03</internalNodes>
      <leafValues>
        -2.6718875393271446e-02 9.6287381649017334e-01</leafValues></_>
    <_>
      <internalNodes>
        0 -1 4227 -7.0098764263093472e-04</internalNodes>
      <leafValues>
        -2.1140169352293015e-02 8.8730472326278687e-01</leafValues></_>
    <_>
      <internalNodes>
        0 -1 26196 1.1955840513110161e-02</internalNodes>
      <leafValues>
        -1.0357014089822769e-01 2.6466628909111023e-01</leafValues></_>
    <_>
      <internalNodes>
        0 -1 27738 -1.9332941621541977e-02</internalNodes>
      <leafValues>
        2.6514413952827454e-01 -1.2733305990695953e-01</leafValues></_>
    <_>
      <internalNodes>
        0 -1 25242 3.2189786434173584e-02</internalNodes>
      <leafValues>
        4.5512419193983078e-02 -6.7936444282531738e-01</leafValues></_>
    <_>
      <internalNodes>
        0 -1 15097 -1.6129729337990284e-03</internalNodes>
      <leafValues>
        3.1903013586997986e-01 -1.0304520279169083e-01</leafValues></_>
    <_>
      <internalNodes>
        0 -1 27880 2.1125385537743568e-03</internalNodes>
      <leafValues>
        -1.4006319642066956e-01 2.3351880908012390e-01</leafValues></_>
    <_>
      <internalNodes>
        0 -1 19192 4.2060601711273193e-01</internalNodes>
      <leafValues>
        -3.1365621834993362e-02 8.0854499340057373e-01</leafValues></_>
    <_>
      <internalNodes>
        0 -1 5303 -2.2427871823310852e-01</internalNodes>
      <leafValues>
        2.9878693819046021e-01 -9.4694279134273529e-02</leafValues></_>
    <_>
      <internalNodes>
        0 -1 493 -1.7724964767694473e-02</internalNodes>
      <leafValues>
        3.5492601990699768e-01 -1.0287976264953613e-01</leafValues></_>
    <_>
      <internalNodes>
        0 -1 20138 8.8796066120266914e-03</internalNodes>
      <leafValues>
        -2.5808086991310120e-01 1.1916176229715347e-01</leafValues></_>
    <_>
      <internalNodes>
        0 -1 27783 2.2561907768249512e-02</internalNodes>
      <leafValues>
        -6.6131673753261566e-02 4.1528263688087463e-01</leafValues></_>
    <_>
      <internalNodes>
        0 -1 28485 -1.8424042500555515e-03</internalNodes>
      <leafValues>
        -4.7410821914672852e-01 6.0026962310075760e-02</leafValues></_>
    <_>
      <internalNodes>
        0 -1 18706 -1.7510214820504189e-02</internalNodes>
      <leafValues>
        2.7724725008010864e-01 -1.2973596155643463e-01</leafValues></_>
    <_>
      <internalNodes>
        0 -1 26880 -5.3470482816919684e-04</internalNodes>
      <leafValues>
        2.2636000812053680e-01 -1.3299666345119476e-01</leafValues></_>
    <_>
      <internalNodes>
        0 -1 8918 5.4935443401336670e-01</internalNodes>
      <leafValues>
        -5.4118689149618149e-02 5.2781188488006592e-01</leafValues></_>
    <_>
      <internalNodes>
        0 -1 303 -3.1253382563591003e-01</internalNodes>
      <leafValues>
        4.8481714725494385e-01 -6.5748818218708038e-02</leafValues></_>
    <_>
      <internalNodes>
        0 -1 8517 5.9453144669532776e-02</internalNodes>
      <leafValues>
        -6.0268681496381760e-02 4.3838021159172058e-01</leafValues></_>
    <_>
      <internalNodes>
        0 -1 4466 -2.2078794427216053e-03</internalNodes>
      <leafValues>
        -2.7567309141159058e-01 1.3763181865215302e-01</leafValues></_>
    <_>
      <internalNodes>
        0 -1 25316 1.1837886646389961e-02</internalNodes>
      <leafValues>
        -7.4165627360343933e-02 3.9678192138671875e-01</leafValues></_>
    <_>
      <internalNodes>
        0 -1 26649 6.0753608122467995e-03</internalNodes>
      <leafValues>
        6.2518700957298279e-02 -4.8071640729904175e-01</leafValues></_>
    <_>
      <internalNodes>
        0 -1 22295 2.2933694999665022e-03</internalNodes>
      <leafValues>
        -1.1516527831554413e-01 2.5074571371078491e-01</leafValues></_>
    <_>
      <internalNodes>
        0 -1 15239 -6.8945775274187326e-04</internalNodes>
      <leafValues>
        2.1998235583305359e-01 -1.2230408936738968e-01</leafValues></_>
    <_>
      <internalNodes>
        0 -1 1309 2.6915790513157845e-02</internalNodes>
      <leafValues>
        -4.6111457049846649e-02 5.4504233598709106e-01</leafValues></_>
    <_>
      <internalNodes>
        0 -1 25616 7.2187662590295076e-04</internalNodes>
      <leafValues>
        -1.5530072152614594e-01 1.7919103801250458e-01</leafValues></_>
    <_>
      <internalNodes>
        0 -1 17524 -5.5074812844395638e-03</internalNodes>
      <leafValues>
        2.9339554905891418e-01 -1.0210338979959488e-01</leafValues></_>
    <_>
      <internalNodes>
        0 -1 27113 9.4301849603652954e-03</internalNodes>
      <leafValues>
        5.5191360414028168e-02 -6.1985272169113159e-01</leafValues></_>
    <_>
      <internalNodes>
        0 -1 22197 1.0754186660051346e-01</internalNodes>
      <leafValues>
        -6.9989070296287537e-02 4.3088257312774658e-01</leafValues></_>
    <_>
      <internalNodes>
        0 -1 4029 6.4594328403472900e-02</internalNodes>
      <leafValues>
        4.4616151601076126e-02 -7.1274846792221069e-01</leafValues></_>
    <_>
      <internalNodes>
        0 -1 15239 2.1205458324402571e-03</internalNodes>
      <leafValues>
        -1.0006768256425858e-01 3.0898964405059814e-01</leafValues></_>
    <_>
      <internalNodes>
        0 -1 16084 1.2276494817342609e-04</internalNodes>
      <leafValues>
        -1.7911298573017120e-01 1.5890437364578247e-01</leafValues></_>
    <_>
      <internalNodes>
        0 -1 8704 -2.3960307240486145e-02</internalNodes>
      <leafValues>
        4.4162100553512573e-01 -6.1799034476280212e-02</leafValues></_>
    <_>
      <internalNodes>
        0 -1 6374 4.7533646225929260e-01</internalNodes>
      <leafValues>
        -4.1201487183570862e-02 6.5330147743225098e-01</leafValues></_>
    <_>
      <internalNodes>
        0 -1 26681 -1.7479445785284042e-02</internalNodes>
      <leafValues>
        4.2902141809463501e-01 -7.1451552212238312e-02</leafValues></_>
    <_>
      <internalNodes>
        0 -1 28475 5.2704778499901295e-04</internalNodes>
      <leafValues>
        9.3051180243492126e-02 -3.1542259454727173e-01</leafValues></_>
    <_>
      <internalNodes>
        0 -1 12322 -7.7959157526493073e-02</internalNodes>
      <leafValues>
        3.9801013469696045e-01 -7.6330386102199554e-02</leafValues></_>
    <_>
      <internalNodes>
        0 -1 18264 2.5453851558268070e-03</internalNodes>
      <leafValues>
        -9.2161521315574646e-02 3.3007806539535522e-01</leafValues></_>
    <_>
      <internalNodes>
        0 -1 10443 2.5086030364036560e-02</internalNodes>
      <leafValues>
        -8.3661042153835297e-02 3.0847477912902832e-01</leafValues></_>
    <_>
      <internalNodes>
        0 -1 8593 -4.9879830330610275e-03</internalNodes>
      <leafValues>
        -4.7735682129859924e-01 6.7278429865837097e-02</leafValues></_>
    <_>
      <internalNodes>
        0 -1 24853 -9.9212983623147011e-03</internalNodes>
      <leafValues>
        -6.4382147789001465e-01 3.3959884196519852e-02</leafValues></_>
    <_>
      <internalNodes>
        0 -1 24873 9.6331955865025520e-04</internalNodes>
      <leafValues>
        -1.1051247268915176e-01 2.6890465617179871e-01</leafValues></_>
    <_>
      <internalNodes>
        0 -1 2224 -3.0082527548074722e-02</internalNodes>
      <leafValues>
        -4.9104332923889160e-01 5.4812919348478317e-02</leafValues></_>
    <_>
      <internalNodes>
        0 -1 14363 -6.2054344452917576e-03</internalNodes>
      <leafValues>
        -8.0315572023391724e-01 2.6560332626104355e-02</leafValues></_>
    <_>
      <internalNodes>
        0 -1 20832 2.9578777030110359e-03</internalNodes>
      <leafValues>
        -7.8178338706493378e-02 3.9656022191047668e-01</leafValues></_>
    <_>
      <internalNodes>
        0 -1 25005 6.1980553437024355e-04</internalNodes>
      <leafValues>
        -1.1823436617851257e-01 2.1888199448585510e-01</leafValues></_>
    <_>
      <internalNodes>
        0 -1 4023 -1.4116333797574043e-02</internalNodes>
      <leafValues>
        -6.3603591918945313e-01 4.0581129491329193e-02</leafValues></_>
    <_>
      <internalNodes>
        0 -1 18012 -2.5121115148067474e-02</internalNodes>
      <leafValues>
        -6.3177782297134399e-01 3.8420248776674271e-02</leafValues></_>
    <_>
      <internalNodes>
        0 -1 8414 -9.5367210451513529e-04</internalNodes>
      <leafValues>
        1.2863035500049591e-01 -1.9853052496910095e-01</leafValues></_>
    <_>
      <internalNodes>
        0 -1 20482 -8.5788734257221222e-02</internalNodes>
      <leafValues>
        -7.8173059225082397e-01 3.4809719771146774e-02</leafValues></_>
    <_>
      <internalNodes>
        0 -1 23561 -1.5348140150308609e-03</internalNodes>
      <leafValues>
        -3.9131134748458862e-02 7.8491121530532837e-01</leafValues></_>
    <_>
      <internalNodes>
        0 -1 27050 -9.4540398567914963e-03</internalNodes>
      <leafValues>
        8.2318514585494995e-02 -3.5968074202537537e-01</leafValues></_>
    <_>
      <internalNodes>
        0 -1 28393 -2.3112267255783081e-02</internalNodes>
      <leafValues>
        -9.7577571868896484e-02 2.8759193420410156e-01</leafValues></_>
    <_>
      <internalNodes>
        0 -1 23455 2.6207065675407648e-03</internalNodes>
      <leafValues>
        -1.0582167655229568e-01 2.8154483437538147e-01</leafValues></_>
    <_>
      <internalNodes>
        0 -1 26690 5.7227192446589470e-03</internalNodes>
      <leafValues>
        -3.8278091698884964e-02 6.2765437364578247e-01</leafValues></_>
    <_>
      <internalNodes>
        0 -1 20834 9.0326480567455292e-03</internalNodes>
      <leafValues>
        7.0000685751438141e-02 -4.0944895148277283e-01</leafValues></_>
    <_>
      <internalNodes>
        0 -1 24534 -2.1521106362342834e-02</internalNodes>
      <leafValues>
        3.5542705655097961e-01 -8.4816746413707733e-02</leafValues></_>
    <_>
      <internalNodes>
        0 -1 24943 1.5977895818650723e-03</internalNodes>
      <leafValues>
        -9.0328715741634369e-02 2.9436585307121277e-01</leafValues></_>
    <_>
      <internalNodes>
        0 -1 10583 -9.0948399156332016e-03</internalNodes>
      <leafValues>
        3.7472891807556152e-01 -7.3570102453231812e-02</leafValues></_>
    <_>
      <internalNodes>
        0 -1 12398 -6.9370837882161140e-03</internalNodes>
      <leafValues>
        1.4175163209438324e-01 -2.1229206025600433e-01</leafValues></_>
    <_>
      <internalNodes>
        0 -1 4526 8.7102791294455528e-03</internalNodes>
      <leafValues>
        -9.3332953751087189e-02 3.0577465891838074e-01</leafValues></_>
    <_>
      <internalNodes>
        0 -1 426 1.9551213085651398e-01</internalNodes>
      <leafValues>
        -9.6474461257457733e-02 2.9836368560791016e-01</leafValues></_>
    <_>
      <internalNodes>
        0 -1 5389 -1.0161779355257750e-03</internalNodes>
      <leafValues>
        2.0027089118957520e-01 -1.7764487862586975e-01</leafValues></_>
    <_>
      <internalNodes>
        0 -1 25790 -6.2191588804125786e-03</internalNodes>
      <leafValues>
        -4.5322343707084656e-01 6.5631762146949768e-02</leafValues></_>
    <_>
      <internalNodes>
        0 -1 7847 -5.5920833256095648e-04</internalNodes>
      <leafValues>
        1.7563948035240173e-01 -1.6275937855243683e-01</leafValues></_>
    <_>
      <internalNodes>
        0 -1 8539 1.5428686747327447e-03</internalNodes>
      <leafValues>
        6.0551319271326065e-02 -4.6610566973686218e-01</leafValues></_>
    <_>
      <internalNodes>
        0 -1 8889 2.2744596004486084e-01</internalNodes>
      <leafValues>
        -5.2013803273439407e-02 6.4367568492889404e-01</leafValues></_>
    <_>
      <internalNodes>
        0 -1 25067 3.2721925526857376e-04</internalNodes>
      <leafValues>
        1.3236935436725616e-01 -2.1654412150382996e-01</leafValues></_></weakClassifiers></stage4>
</opencv_storage>
