<?xml version="1.0"?>
<opencv_storage>
<stage11>
  <maxWeakCount>44</maxWeakCount>
  <stageThreshold>-1.1693077087402344e+00</stageThreshold>
  <weakClassifiers>
    <_>
      <internalNodes>
        0 -1 27784 -5.4866887629032135e-02</internalNodes>
      <leafValues>
        4.6250000596046448e-01 -3.9896908402442932e-01</leafValues></_>
    <_>
      <internalNodes>
        0 -1 342 2.6880142092704773e-01</internalNodes>
      <leafValues>
        -1.8776760995388031e-01 3.4357896447181702e-01</leafValues></_>
    <_>
      <internalNodes>
        0 -1 26695 7.8486753627657890e-03</internalNodes>
      <leafValues>
        -5.7607028633356094e-02 5.0637668371200562e-01</leafValues></_>
    <_>
      <internalNodes>
        0 -1 18873 9.4390287995338440e-03</internalNodes>
      <leafValues>
        -1.7506721615791321e-01 2.7039423584938049e-01</leafValues></_>
    <_>
      <internalNodes>
        0 -1 21146 -3.8907311856746674e-02</internalNodes>
      <leafValues>
        4.2312026023864746e-01 -8.5260823369026184e-02</leafValues></_>
    <_>
      <internalNodes>
        0 -1 7608 -8.4837730973958969e-03</internalNodes>
      <leafValues>
        -5.4132843017578125e-01 6.8328827619552612e-02</leafValues></_>
    <_>
      <internalNodes>
        0 -1 8288 -4.2532666702754796e-04</internalNodes>
      <leafValues>
        -2.0924879610538483e-01 2.1964472532272339e-01</leafValues></_>
    <_>
      <internalNodes>
        0 -1 14315 -1.5992425614967942e-03</internalNodes>
      <leafValues>
        1.5513148903846741e-01 -2.3764576017856598e-01</leafValues></_>
    <_>
      <internalNodes>
        0 -1 4461 2.4901297874748707e-03</internalNodes>
      <leafValues>
        7.8625634312629700e-02 -6.6604214906692505e-01</leafValues></_>
    <_>
      <internalNodes>
        0 -1 2504 -1.4524200931191444e-02</internalNodes>
      <leafValues>
        1.6418272629380226e-02 -8.2033109664916992e-01</leafValues></_>
    <_>
      <internalNodes>
        0 -1 3906 3.9275130257010460e-03</internalNodes>
      <leafValues>
        7.5762644410133362e-02 -4.9003976583480835e-01</leafValues></_>
    <_>
      <internalNodes>
        0 -1 3031 -9.3011893332004547e-02</internalNodes>
      <leafValues>
        7.3380762338638306e-01 -5.6250367313623428e-02</leafValues></_>
    <_>
      <internalNodes>
        0 -1 28446 3.1672231853008270e-03</internalNodes>
      <leafValues>
        5.7845577597618103e-02 -6.8181407451629639e-01</leafValues></_>
    <_>
      <internalNodes>
        0 -1 25798 -1.4639516361057758e-02</internalNodes>
      <leafValues>
        2.9119038581848145e-01 -1.3448123633861542e-01</leafValues></_>
    <_>
      <internalNodes>
        0 -1 8834 5.1285088062286377e-02</internalNodes>
      <leafValues>
        -9.7088642418384552e-02 4.8781889677047729e-01</leafValues></_>
    <_>
      <internalNodes>
        0 -1 28475 5.4404203547164798e-04</internalNodes>
      <leafValues>
        1.1155422031879425e-01 -3.6557617783546448e-01</leafValues></_>
    <_>
      <internalNodes>
        0 -1 24204 8.3709992468357086e-03</internalNodes>
      <leafValues>
        4.1243083775043488e-02 -7.3979616165161133e-01</leafValues></_>
    <_>
      <internalNodes>
        0 -1 27839 4.5222491025924683e-02</internalNodes>
      <leafValues>
        -5.4744821041822433e-02 7.9513818025588989e-01</leafValues></_>
    <_>
      <internalNodes>
        0 -1 2411 8.3422921597957611e-03</internalNodes>
      <leafValues>
        5.6195393204689026e-02 -8.1983393430709839e-01</leafValues></_>
    <_>
      <internalNodes>
        0 -1 16068 2.2878691088408232e-03</internalNodes>
      <leafValues>
        -1.2012466788291931e-01 3.4252387285232544e-01</leafValues></_>
    <_>
      <internalNodes>
        0 -1 6298 -2.0953714847564697e-01</internalNodes>
      <leafValues>
        3.4278324246406555e-01 -9.1194815933704376e-02</leafValues></_>
    <_>
      <internalNodes>
        0 -1 24494 4.1752733290195465e-02</internalNodes>
      <leafValues>
        -1.7919145524501801e-01 2.2344475984573364e-01</leafValues></_>
    <_>
      <internalNodes>
        0 -1 24406 -5.1118154078722000e-03</internalNodes>
      <leafValues>
        3.1334164738655090e-01 -9.7560040652751923e-02</leafValues></_>
    <_>
      <internalNodes>
        0 -1 6088 9.4021968543529510e-03</internalNodes>
      <leafValues>
        -1.3016903400421143e-01 2.6682302355766296e-01</leafValues></_>
    <_>
      <internalNodes>
        0 -1 3710 -1.7309607937932014e-03</internalNodes>
      <leafValues>
        -3.8490083068609238e-02 9.2649894952774048e-01</leafValues></_>
    <_>
      <internalNodes>
        0 -1 207 -6.8289108574390411e-02</internalNodes>
      <leafValues>
        6.7951232194900513e-01 -3.9754103869199753e-02</leafValues></_>
    <_>
      <internalNodes>
        0 -1 12454 1.9209519028663635e-02</internalNodes>
      <leafValues>
        4.4792737811803818e-02 -7.7971541881561279e-01</leafValues></_>
    <_>
      <internalNodes>
        0 -1 4611 -3.7491475231945515e-03</internalNodes>
      <leafValues>
        4.3401467800140381e-01 -7.4092976748943329e-02</leafValues></_>
    <_>
      <internalNodes>
        0 -1 11483 -2.8630238957703114e-03</internalNodes>
      <leafValues>
        2.9808399081230164e-01 -1.0302837938070297e-01</leafValues></_>
    <_>
      <internalNodes>
        0 -1 4342 1.8846752122044563e-02</internalNodes>
      <leafValues>
        6.0311768203973770e-02 -6.3049679994583130e-01</leafValues></_>
    <_>
      <internalNodes>
        0 -1 3468 2.9442515224218369e-02</internalNodes>
      <leafValues>
        3.4544166177511215e-02 -7.6659452915191650e-01</leafValues></_>
    <_>
      <internalNodes>
        0 -1 27281 1.0338140651583672e-02</internalNodes>
      <leafValues>
        -7.9128220677375793e-02 4.2278507351875305e-01</leafValues></_>
    <_>
      <internalNodes>
        0 -1 15751 -1.0135265067219734e-02</internalNodes>
      <leafValues>
        5.8293616771697998e-01 -5.1853056997060776e-02</leafValues></_>
    <_>
      <internalNodes>
        0 -1 15265 -3.9772782474756241e-03</internalNodes>
      <leafValues>
        2.9945033788681030e-01 -9.5460705459117889e-02</leafValues></_>
    <_>
      <internalNodes>
        0 -1 1771 1.3654449023306370e-02</internalNodes>
      <leafValues>
        3.5038888454437256e-02 -8.4267210960388184e-01</leafValues></_>
    <_>
      <internalNodes>
        0 -1 1879 2.2489655762910843e-02</internalNodes>
      <leafValues>
        2.8121752664446831e-02 -7.6227903366088867e-01</leafValues></_>
    <_>
      <internalNodes>
        0 -1 26158 5.2683893591165543e-03</internalNodes>
      <leafValues>
        -1.2545067071914673e-01 2.3663569986820221e-01</leafValues></_>
    <_>
      <internalNodes>
        0 -1 373 -1.2686826288700104e-01</internalNodes>
      <leafValues>
        -2.2265462577342987e-01 1.5050816535949707e-01</leafValues></_>
    <_>
      <internalNodes>
        0 -1 26005 -2.2077038884162903e-02</internalNodes>
      <leafValues>
        8.5829623043537140e-02 -4.3495091795921326e-01</leafValues></_>
    <_>
      <internalNodes>
        0 -1 23313 -5.3337041754275560e-04</internalNodes>
      <leafValues>
        1.1299699544906616e-01 -2.6543179154396057e-01</leafValues></_>
    <_>
      <internalNodes>
        0 -1 12891 -2.2220853716135025e-02</internalNodes>
      <leafValues>
        6.3829272985458374e-01 -4.7422390431165695e-02</leafValues></_>
    <_>
      <internalNodes>
        0 -1 17830 -9.0449396520853043e-03</internalNodes>
      <leafValues>
        -5.8661139011383057e-01 5.4977003484964371e-02</leafValues></_>
    <_>
      <internalNodes>
        0 -1 8630 4.8654275014996529e-03</internalNodes>
      <leafValues>
        -8.1948049366474152e-02 3.8802704215049744e-01</leafValues></_>
    <_>
      <internalNodes>
        0 -1 28470 -3.9087003096938133e-04</internalNodes>
      <leafValues>
        -3.1575471162796021e-02 9.6056622266769409e-01</leafValues></_></weakClassifiers></stage11>
</opencv_storage>
