<?xml version="1.0"?>
<opencv_storage>
<stage12>
  <maxWeakCount>33</maxWeakCount>
  <stageThreshold>-1.0228427648544312e+00</stageThreshold>
  <weakClassifiers>
    <_>
      <internalNodes>
        0 -1 18081 -4.7190804034471512e-02</internalNodes>
      <leafValues>
        -2.2424955666065216e-01 -7.9551124572753906e-01</leafValues></_>
    <_>
      <internalNodes>
        0 -1 8620 -1.7301782965660095e-02</internalNodes>
      <leafValues>
        1.6033397614955902e-01 -2.7148807048797607e-01</leafValues></_>
    <_>
      <internalNodes>
        0 -1 20007 -1.5353793278336525e-03</internalNodes>
      <leafValues>
        2.8893712162971497e-01 -1.6011852025985718e-01</leafValues></_>
    <_>
      <internalNodes>
        0 -1 4331 -2.9673263430595398e-01</internalNodes>
      <leafValues>
        4.4024983048439026e-01 -9.9951386451721191e-02</leafValues></_>
    <_>
      <internalNodes>
        0 -1 8518 1.4413511753082275e-01</internalNodes>
      <leafValues>
        -8.4755651652812958e-02 5.0460034608840942e-01</leafValues></_>
    <_>
      <internalNodes>
        0 -1 25837 -3.0626012012362480e-03</internalNodes>
      <leafValues>
        -4.0995657444000244e-01 1.0013630241155624e-01</leafValues></_>
    <_>
      <internalNodes>
        0 -1 15508 9.1484212316572666e-04</internalNodes>
      <leafValues>
        -1.5237973630428314e-01 2.2850970923900604e-01</leafValues></_>
    <_>
      <internalNodes>
        0 -1 436 8.1574963405728340e-03</internalNodes>
      <leafValues>
        -2.4250572919845581e-01 1.5417408943176270e-01</leafValues></_>
    <_>
      <internalNodes>
        0 -1 27256 -9.7017027437686920e-03</internalNodes>
      <leafValues>
        -9.0690332651138306e-01 4.5187566429376602e-02</leafValues></_>
    <_>
      <internalNodes>
        0 -1 10840 1.9729837775230408e-02</internalNodes>
      <leafValues>
        -9.6507728099822998e-02 3.8343119621276855e-01</leafValues></_>
    <_>
      <internalNodes>
        0 -1 24943 1.5977579168975353e-03</internalNodes>
      <leafValues>
        -9.5570571720600128e-02 3.1347441673278809e-01</leafValues></_>
    <_>
      <internalNodes>
        0 -1 2088 5.9098843485116959e-03</internalNodes>
      <leafValues>
        -1.7619523406028748e-01 1.8916437029838562e-01</leafValues></_>
    <_>
      <internalNodes>
        0 -1 28485 2.0564850419759750e-03</internalNodes>
      <leafValues>
        6.7921794950962067e-02 -5.3729403018951416e-01</leafValues></_>
    <_>
      <internalNodes>
        0 -1 14253 1.1006306111812592e-01</internalNodes>
      <leafValues>
        -1.0851414501667023e-01 3.6634039878845215e-01</leafValues></_>
    <_>
      <internalNodes>
        0 -1 8609 6.4991777762770653e-03</internalNodes>
      <leafValues>
        -1.4721775054931641e-01 2.8378880023956299e-01</leafValues></_>
    <_>
      <internalNodes>
        0 -1 12644 5.5182278156280518e-02</internalNodes>
      <leafValues>
        -7.1062415838241577e-02 5.1148563623428345e-01</leafValues></_>
    <_>
      <internalNodes>
        0 -1 1232 3.1091490760445595e-02</internalNodes>
      <leafValues>
        -1.7868661880493164e-01 1.9615791738033295e-01</leafValues></_>
    <_>
      <internalNodes>
        0 -1 26288 7.7013522386550903e-02</internalNodes>
      <leafValues>
        -5.7710483670234680e-02 5.8586984872817993e-01</leafValues></_>
    <_>
      <internalNodes>
        0 -1 8613 -1.2778510339558125e-02</internalNodes>
      <leafValues>
        2.6791787147521973e-01 -1.3380433619022369e-01</leafValues></_>
    <_>
      <internalNodes>
        0 -1 2014 3.7133279442787170e-01</internalNodes>
      <leafValues>
        -7.8540571033954620e-02 4.7301378846168518e-01</leafValues></_>
    <_>
      <internalNodes>
        0 -1 25721 -8.9786592870950699e-03</internalNodes>
      <leafValues>
        -7.1058833599090576e-01 5.0026554614305496e-02</leafValues></_>
    <_>
      <internalNodes>
        0 -1 3703 -4.1327979415655136e-03</internalNodes>
      <leafValues>
        -7.8103178739547729e-01 3.0691560357809067e-02</leafValues></_>
    <_>
      <internalNodes>
        0 -1 24943 -8.2335626939311624e-04</internalNodes>
      <leafValues>
        2.0109567046165466e-01 -1.5560281276702881e-01</leafValues></_>
    <_>
      <internalNodes>
        0 -1 28446 -3.6277058534324169e-03</internalNodes>
      <leafValues>
        -7.6563793420791626e-01 4.4617470353841782e-02</leafValues></_>
    <_>
      <internalNodes>
        0 -1 3732 3.8133580237627029e-03</internalNodes>
      <leafValues>
        3.7232927978038788e-02 -6.0851013660430908e-01</leafValues></_>
    <_>
      <internalNodes>
        0 -1 2015 3.6473613232374191e-02</internalNodes>
      <leafValues>
        3.3697605133056641e-02 -7.7925711870193481e-01</leafValues></_>
    <_>
      <internalNodes>
        0 -1 26157 1.4688222436234355e-03</internalNodes>
      <leafValues>
        -1.3388083875179291e-01 2.2602982819080353e-01</leafValues></_>
    <_>
      <internalNodes>
        0 -1 17956 -3.8487398624420166e-01</internalNodes>
      <leafValues>
        6.4113283157348633e-01 -4.2629800736904144e-02</leafValues></_>
    <_>
      <internalNodes>
        0 -1 9541 7.0378512144088745e-02</internalNodes>
      <leafValues>
        -8.0913051962852478e-02 3.4484320878982544e-01</leafValues></_>
    <_>
      <internalNodes>
        0 -1 5409 -3.2263001776300371e-04</internalNodes>
      <leafValues>
        1.7574261128902435e-01 -1.8127524852752686e-01</leafValues></_>
    <_>
      <internalNodes>
        0 -1 48 2.0768940448760986e-02</internalNodes>
      <leafValues>
        -1.1032421141862869e-01 2.6707363128662109e-01</leafValues></_>
    <_>
      <internalNodes>
        0 -1 1331 -3.7325672805309296e-02</internalNodes>
      <leafValues>
        5.1185441017150879e-01 -6.3068002462387085e-02</leafValues></_>
    <_>
      <internalNodes>
        0 -1 15790 1.5650287270545959e-02</internalNodes>
      <leafValues>
        5.5204998701810837e-02 -6.5734112262725830e-01</leafValues></_></weakClassifiers></stage12>
</opencv_storage>
