<?xml version="1.0"?>
<opencv_storage>
<stage1>
  <maxWeakCount>12</maxWeakCount>
  <stageThreshold>-1.2427282333374023e+00</stageThreshold>
  <weakClassifiers>
    <_>
      <internalNodes>
        0 -1 3995 -4.0127329528331757e-02</internalNodes>
      <leafValues>
        2.5677829980850220e-01 -5.8452141284942627e-01</leafValues></_>
    <_>
      <internalNodes>
        0 -1 18758 -1.3566328585147858e-01</internalNodes>
      <leafValues>
        -8.6371093988418579e-01 2.1011751890182495e-01</leafValues></_>
    <_>
      <internalNodes>
        0 -1 12699 4.5482302084565163e-03</internalNodes>
      <leafValues>
        -4.6834963560104370e-01 3.7241724133491516e-01</leafValues></_>
    <_>
      <internalNodes>
        0 -1 7008 1.8083579838275909e-02</internalNodes>
      <leafValues>
        -2.9124513268470764e-01 5.2270513772964478e-01</leafValues></_>
    <_>
      <internalNodes>
        0 -1 16659 4.7827730886638165e-03</internalNodes>
      <leafValues>
        -3.3383163809776306e-01 4.0601196885108948e-01</leafValues></_>
    <_>
      <internalNodes>
        0 -1 12173 -1.3781476020812988e-01</internalNodes>
      <leafValues>
        6.3896930217742920e-01 -2.2172506153583527e-01</leafValues></_>
    <_>
      <internalNodes>
        0 -1 10683 8.6602084338665009e-02</internalNodes>
      <leafValues>
        -1.5607248246669769e-01 7.9048019647598267e-01</leafValues></_>
    <_>
      <internalNodes>
        0 -1 25175 -1.9350844621658325e-01</internalNodes>
      <leafValues>
        -1. 1.5759678184986115e-01</leafValues></_>
    <_>
      <internalNodes>
        0 -1 25562 -2.9301751405000687e-02</internalNodes>
      <leafValues>
        6.1280936002731323e-01 -2.4011640250682831e-01</leafValues></_>
    <_>
      <internalNodes>
        0 -1 12546 -3.6205854266881943e-02</internalNodes>
      <leafValues>
        5.4675561189651489e-01 -2.2198016941547394e-01</leafValues></_>
    <_>
      <internalNodes>
        0 -1 15762 -1.0233781300485134e-02</internalNodes>
      <leafValues>
        6.2345838546752930e-01 -2.1554245054721832e-01</leafValues></_>
    <_>
      <internalNodes>
        0 -1 8585 -2.5972845032811165e-03</internalNodes>
      <leafValues>
        3.0899152159690857e-01 -3.7469157576560974e-01</leafValues></_></weakClassifiers></stage1>
</opencv_storage>
