<?xml version="1.0"?>
<opencv_storage>
<stage6>
  <maxWeakCount>25</maxWeakCount>
  <stageThreshold>-1.2227559089660645e+00</stageThreshold>
  <weakClassifiers>
    <_>
      <internalNodes>
        0 -1 4544 -6.5701171755790710e-02</internalNodes>
      <leafValues>
        6.2420383095741272e-02 -5.6958174705505371e-01</leafValues></_>
    <_>
      <internalNodes>
        0 -1 420 1.9034562632441521e-02</internalNodes>
      <leafValues>
        -2.7692776918411255e-01 3.3480018377304077e-01</leafValues></_>
    <_>
      <internalNodes>
        0 -1 9124 -7.9711219295859337e-03</internalNodes>
      <leafValues>
        5.0896328687667847e-01 -1.4034374058246613e-01</leafValues></_>
    <_>
      <internalNodes>
        0 -1 27827 -2.1545216441154480e-02</internalNodes>
      <leafValues>
        7.0457589626312256e-01 -9.0471163392066956e-02</leafValues></_>
    <_>
      <internalNodes>
        0 -1 28480 -1.1430485174059868e-03</internalNodes>
      <leafValues>
        -5.1263701915740967e-01 1.4393275976181030e-01</leafValues></_>
    <_>
      <internalNodes>
        0 -1 28480 1.0476902825757861e-03</internalNodes>
      <leafValues>
        1.6088168323040009e-01 -5.5258858203887939e-01</leafValues></_>
    <_>
      <internalNodes>
        0 -1 20101 3.8832663558423519e-03</internalNodes>
      <leafValues>
        -2.2458289563655853e-01 3.1270304322242737e-01</leafValues></_>
    <_>
      <internalNodes>
        0 -1 21227 -5.5624609813094139e-03</internalNodes>
      <leafValues>
        -1.2526471912860870e-01 5.7559496164321899e-01</leafValues></_>
    <_>
      <internalNodes>
        0 -1 4378 -2.1403054706752300e-03</internalNodes>
      <leafValues>
        -4.7473809123039246e-01 1.2308438867330551e-01</leafValues></_>
    <_>
      <internalNodes>
        0 -1 703 -1.3709958642721176e-02</internalNodes>
      <leafValues>
        4.4398185610771179e-01 -1.1650580912828445e-01</leafValues></_>
    <_>
      <internalNodes>
        0 -1 7393 -4.0678610093891621e-03</internalNodes>
      <leafValues>
        -5.6657910346984863e-01 9.2859052121639252e-02</leafValues></_>
    <_>
      <internalNodes>
        0 -1 24948 1.1176944244652987e-03</internalNodes>
      <leafValues>
        -1.9321703910827637e-01 2.9252469539642334e-01</leafValues></_>
    <_>
      <internalNodes>
        0 -1 4363 5.7563255541026592e-04</internalNodes>
      <leafValues>
        1.4193312823772430e-01 -3.4980827569961548e-01</leafValues></_>
    <_>
      <internalNodes>
        0 -1 16124 4.4050641357898712e-02</internalNodes>
      <leafValues>
        6.0845796018838882e-02 -8.9006668329238892e-01</leafValues></_>
    <_>
      <internalNodes>
        0 -1 4634 1.1510796844959259e-02</internalNodes>
      <leafValues>
        -1.5676890313625336e-01 3.5518321394920349e-01</leafValues></_>
    <_>
      <internalNodes>
        0 -1 8613 -1.2055121362209320e-02</internalNodes>
      <leafValues>
        3.9356315135955811e-01 -1.6565179824829102e-01</leafValues></_>
    <_>
      <internalNodes>
        0 -1 4077 8.2324666436761618e-04</internalNodes>
      <leafValues>
        1.3499698042869568e-01 -4.3004533648490906e-01</leafValues></_>
    <_>
      <internalNodes>
        0 -1 24579 -9.2522658407688141e-02</internalNodes>
      <leafValues>
        -6.1386412382125854e-01 8.2547731697559357e-02</leafValues></_>
    <_>
      <internalNodes>
        0 -1 442 1.3658717274665833e-01</internalNodes>
      <leafValues>
        -1.9591550529003143e-01 2.7102151513099670e-01</leafValues></_>
    <_>
      <internalNodes>
        0 -1 2038 -8.4558585658669472e-03</internalNodes>
      <leafValues>
        4.6156877279281616e-01 -1.2038232386112213e-01</leafValues></_>
    <_>
      <internalNodes>
        0 -1 20556 -4.4264227151870728e-02</internalNodes>
      <leafValues>
        3.8206416368484497e-01 -1.3250558078289032e-01</leafValues></_>
    <_>
      <internalNodes>
        0 -1 15633 1.3684425503015518e-02</internalNodes>
      <leafValues>
        8.1079669296741486e-02 -6.7671847343444824e-01</leafValues></_>
    <_>
      <internalNodes>
        0 -1 27051 -3.3321736846119165e-03</internalNodes>
      <leafValues>
        -6.8640768527984619e-01 6.3866890966892242e-02</leafValues></_>
    <_>
      <internalNodes>
        0 -1 21306 -1.9199613481760025e-02</internalNodes>
      <leafValues>
        5.2259314060211182e-01 -1.0512369871139526e-01</leafValues></_>
    <_>
      <internalNodes>
        0 -1 4104 -3.1100236810743809e-03</internalNodes>
      <leafValues>
        -3.3707278966903687e-01 1.4689299464225769e-01</leafValues></_></weakClassifiers></stage6>
</opencv_storage>
