<?xml version="1.0"?>
<opencv_storage>
<stage8>
  <maxWeakCount>31</maxWeakCount>
  <stageThreshold>-1.2696199417114258e+00</stageThreshold>
  <weakClassifiers>
    <_>
      <internalNodes>
        0 -1 16943 2.4499259889125824e-03</internalNodes>
      <leafValues>
        -5.8683729171752930e-01 -5.7654075324535370e-02</leafValues></_>
    <_>
      <internalNodes>
        0 -1 4604 -6.5662376582622528e-03</internalNodes>
      <leafValues>
        1.7702034115791321e-01 -4.5362409949302673e-01</leafValues></_>
    <_>
      <internalNodes>
        0 -1 8919 8.6867632344365120e-03</internalNodes>
      <leafValues>
        -2.8768944740295410e-01 3.0340486764907837e-01</leafValues></_>
    <_>
      <internalNodes>
        0 -1 15653 -3.5145101137459278e-03</internalNodes>
      <leafValues>
        3.6416143178939819e-01 -1.4584656059741974e-01</leafValues></_>
    <_>
      <internalNodes>
        0 -1 4606 -5.9656828641891479e-02</internalNodes>
      <leafValues>
        -8.2533222436904907e-01 6.9021113216876984e-02</leafValues></_>
    <_>
      <internalNodes>
        0 -1 26788 6.9743138737976551e-03</internalNodes>
      <leafValues>
        -7.0474199950695038e-02 7.4281346797943115e-01</leafValues></_>
    <_>
      <internalNodes>
        0 -1 6834 2.1456229686737061e-01</internalNodes>
      <leafValues>
        -7.9316779971122742e-02 5.6754589080810547e-01</leafValues></_>
    <_>
      <internalNodes>
        0 -1 4440 -2.1757903695106506e-01</internalNodes>
      <leafValues>
        4.6031218767166138e-01 -1.1171341687440872e-01</leafValues></_>
    <_>
      <internalNodes>
        0 -1 27927 7.7617284841835499e-03</internalNodes>
      <leafValues>
        -1.0223650187253952e-01 5.1781493425369263e-01</leafValues></_>
    <_>
      <internalNodes>
        0 -1 9188 1.4981789514422417e-02</internalNodes>
      <leafValues>
        -9.6068359911441803e-02 4.6261855959892273e-01</leafValues></_>
    <_>
      <internalNodes>
        0 -1 27939 -6.6122189164161682e-03</internalNodes>
      <leafValues>
        3.1062060594558716e-01 -1.5177498757839203e-01</leafValues></_>
    <_>
      <internalNodes>
        0 -1 25005 1.0023335926234722e-03</internalNodes>
      <leafValues>
        -1.4420025050640106e-01 3.2917332649230957e-01</leafValues></_>
    <_>
      <internalNodes>
        0 -1 28475 1.0280376300215721e-03</internalNodes>
      <leafValues>
        9.6247918903827667e-02 -4.5578357577323914e-01</leafValues></_>
    <_>
      <internalNodes>
        0 -1 28475 -1.3802757021039724e-03</internalNodes>
      <leafValues>
        -4.8481914401054382e-01 8.0912046134471893e-02</leafValues></_>
    <_>
      <internalNodes>
        0 -1 17524 2.7146823704242706e-03</internalNodes>
      <leafValues>
        -1.7850564420223236e-01 2.5471401214599609e-01</leafValues></_>
    <_>
      <internalNodes>
        0 -1 17524 -3.2334639690816402e-03</internalNodes>
      <leafValues>
        3.1282064318656921e-01 -1.6266487538814545e-01</leafValues></_>
    <_>
      <internalNodes>
        0 -1 17894 -5.3834639489650726e-02</internalNodes>
      <leafValues>
        -7.9597228765487671e-01 4.9800217151641846e-02</leafValues></_>
    <_>
      <internalNodes>
        0 -1 9407 2.1063270978629589e-03</internalNodes>
      <leafValues>
        -1.6092491149902344e-01 2.4112412333488464e-01</leafValues></_>
    <_>
      <internalNodes>
        0 -1 11969 3.9068218320608139e-03</internalNodes>
      <leafValues>
        -7.1085914969444275e-02 5.5287927389144897e-01</leafValues></_>
    <_>
      <internalNodes>
        0 -1 26450 -2.8879377059638500e-03</internalNodes>
      <leafValues>
        3.9795038104057312e-01 -8.7649568915367126e-02</leafValues></_>
    <_>
      <internalNodes>
        0 -1 24564 3.1404610723257065e-02</internalNodes>
      <leafValues>
        -7.2090968489646912e-02 5.5416578054428101e-01</leafValues></_>
    <_>
      <internalNodes>
        0 -1 11250 1.5564298629760742e-01</internalNodes>
      <leafValues>
        -8.7848559021949768e-02 3.8274022936820984e-01</leafValues></_>
    <_>
      <internalNodes>
        0 -1 8620 -1.6285430639982224e-02</internalNodes>
      <leafValues>
        2.4996316432952881e-01 -2.0940612256526947e-01</leafValues></_>
    <_>
      <internalNodes>
        0 -1 1277 1.3300597667694092e-01</internalNodes>
      <leafValues>
        3.6837585270404816e-02 -9.5502954721450806e-01</leafValues></_>
    <_>
      <internalNodes>
        0 -1 3487 6.2101227231323719e-03</internalNodes>
      <leafValues>
        7.3838390409946442e-02 -4.7778871655464172e-01</leafValues></_>
    <_>
      <internalNodes>
        0 -1 56 9.8305651918053627e-03</internalNodes>
      <leafValues>
        -1.6020506620407104e-01 2.3881684243679047e-01</leafValues></_>
    <_>
      <internalNodes>
        0 -1 2028 -7.3618453461676836e-04</internalNodes>
      <leafValues>
        2.8584998846054077e-01 -1.8811382353305817e-01</leafValues></_>
    <_>
      <internalNodes>
        0 -1 23880 7.8395260497927666e-03</internalNodes>
      <leafValues>
        -1.6351130604743958e-01 2.3496361076831818e-01</leafValues></_>
    <_>
      <internalNodes>
        0 -1 27525 -1.0304873809218407e-02</internalNodes>
      <leafValues>
        -8.9418476819992065e-01 4.6010915189981461e-02</leafValues></_>
    <_>
      <internalNodes>
        0 -1 27426 -6.4624677179381251e-04</internalNodes>
      <leafValues>
        2.0365168154239655e-01 -2.3199410736560822e-01</leafValues></_>
    <_>
      <internalNodes>
        0 -1 14752 2.2793025709688663e-03</internalNodes>
      <leafValues>
        -2.3950737714767456e-01 1.7419292032718658e-01</leafValues></_></weakClassifiers></stage8>
</opencv_storage>
