<?xml version="1.0"?>
<opencv_storage>
<stage9>
  <maxWeakCount>100</maxWeakCount>
  <stageThreshold>-1.0564799308776855e+00</stageThreshold>
  <weakClassifiers>
    <_>
      <internalNodes>
        0 -1 834 -2.9155468940734863e-01</internalNodes>
      <leafValues>
        2.4286608428430580e-17 -4.1713014245033264e-01</leafValues></_>
    <_>
      <internalNodes>
        0 -1 995 1.5260626375675201e-01</internalNodes>
      <leafValues>
        -8.1642366945743561e-02 4.7574150562286377e-01</leafValues></_>
    <_>
      <internalNodes>
        0 -1 159 -2.5633758306503296e-01</internalNodes>
      <leafValues>
        3.9947163313627243e-02 -6.2631630897521973e-01</leafValues></_>
    <_>
      <internalNodes>
        0 -1 1594 2.4672903120517731e-02</internalNodes>
      <leafValues>
        8.1807121634483337e-02 -3.3305761218070984e-01</leafValues></_>
    <_>
      <internalNodes>
        0 -1 1323 -5.2659008651971817e-02</internalNodes>
      <leafValues>
        -3.8024377822875977e-01 5.3099580109119415e-02</leafValues></_>
    <_>
      <internalNodes>
        0 -1 1238 -3.6709657870233059e-03</internalNodes>
      <leafValues>
        1.9935905933380127e-01 -9.6203960478305817e-02</leafValues></_>
    <_>
      <internalNodes>
        0 -1 714 3.4825819730758667e-01</internalNodes>
      <leafValues>
        1.0793013498187065e-02 -5.5324572324752808e-01</leafValues></_>
    <_>
      <internalNodes>
        0 -1 1833 -3.1596003100275993e-03</internalNodes>
      <leafValues>
        -1.5319060534238815e-02 7.0888471603393555e-01</leafValues></_>
    <_>
      <internalNodes>
        0 -1 626 6.7504383623600006e-02</internalNodes>
      <leafValues>
        -6.7234739661216736e-02 2.3614080250263214e-01</leafValues></_>
    <_>
      <internalNodes>
        0 -1 623 2.6631096377968788e-02</internalNodes>
      <leafValues>
        -1.1054570227861404e-01 1.8830741941928864e-01</leafValues></_>
    <_>
      <internalNodes>
        0 -1 1768 2.3322809487581253e-02</internalNodes>
      <leafValues>
        -7.3254458606243134e-02 1.6747623682022095e-01</leafValues></_>
    <_>
      <internalNodes>
        0 -1 1654 -2.0547123253345490e-01</internalNodes>
      <leafValues>
        2.4562352895736694e-01 -5.2399098873138428e-02</leafValues></_>
    <_>
      <internalNodes>
        0 -1 495 -5.4350523278117180e-03</internalNodes>
      <leafValues>
        -2.2441413253545761e-02 6.8282175064086914e-01</leafValues></_>
    <_>
      <internalNodes>
        0 -1 229 9.2050373554229736e-02</internalNodes>
      <leafValues>
        -7.6738998293876648e-02 1.8469323217868805e-01</leafValues></_>
    <_>
      <internalNodes>
        0 -1 451 -1.3326182961463928e-01</internalNodes>
      <leafValues>
        5.2218639850616455e-01 -2.6440048590302467e-02</leafValues></_>
    <_>
      <internalNodes>
        0 -1 323 -5.8885920792818069e-02</internalNodes>
      <leafValues>
        -6.1308479309082031e-01 2.3908324539661407e-02</leafValues></_>
    <_>
      <internalNodes>
        0 -1 1440 -4.7226943075656891e-02</internalNodes>
      <leafValues>
        -3.0976969003677368e-01 4.1477669030427933e-02</leafValues></_>
    <_>
      <internalNodes>
        0 -1 1572 2.3933216929435730e-02</internalNodes>
      <leafValues>
        -6.5622828900814056e-02 2.5745600461959839e-01</leafValues></_>
    <_>
      <internalNodes>
        0 -1 985 -1.6335098445415497e-01</internalNodes>
      <leafValues>
        -7.3380208015441895e-01 2.1798001602292061e-02</leafValues></_>
    <_>
      <internalNodes>
        0 -1 35 -1.1973162181675434e-03</internalNodes>
      <leafValues>
        -2.9417783021926880e-02 4.9760448932647705e-01</leafValues></_>
    <_>
      <internalNodes>
        0 -1 537 -9.2927804216742516e-03</internalNodes>
      <leafValues>
        -2.1382810175418854e-01 4.8876728862524033e-02</leafValues></_>
    <_>
      <internalNodes>
        0 -1 1372 -1.3441178202629089e-01</internalNodes>
      <leafValues>
        2.7981024980545044e-01 -4.5769803225994110e-02</leafValues></_>
    <_>
      <internalNodes>
        0 -1 1472 -2.1995229646563530e-02</internalNodes>
      <leafValues>
        1.7775413393974304e-01 -6.5312966704368591e-02</leafValues></_>
    <_>
      <internalNodes>
        0 -1 1108 -2.8749704360961914e-01</internalNodes>
      <leafValues>
        -1.7041920125484467e-01 6.8891301751136780e-02</leafValues></_>
    <_>
      <internalNodes>
        0 -1 1798 -5.3199052810668945e-01</internalNodes>
      <leafValues>
        4.3503931164741516e-01 -3.5105437040328979e-02</leafValues></_>
    <_>
      <internalNodes>
        0 -1 1421 8.7596856057643890e-02</internalNodes>
      <leafValues>
        -5.0643328577280045e-02 2.4871970713138580e-01</leafValues></_>
    <_>
      <internalNodes>
        0 -1 941 -6.6027208231389523e-03</internalNodes>
      <leafValues>
        1.3128218054771423e-01 -8.9836828410625458e-02</leafValues></_>
    <_>
      <internalNodes>
        0 -1 493 1.8386589363217354e-02</internalNodes>
      <leafValues>
        4.7125156968832016e-02 -3.2038554549217224e-01</leafValues></_>
    <_>
      <internalNodes>
        0 -1 215 -1.7538698390126228e-02</internalNodes>
      <leafValues>
        9.1468440368771553e-03 -8.7311345338821411e-01</leafValues></_>
    <_>
      <internalNodes>
        0 -1 599 1.4018484950065613e-01</internalNodes>
      <leafValues>
        1.0185698047280312e-02 -8.6554926633834839e-01</leafValues></_>
    <_>
      <internalNodes>
        0 -1 580 1.4441783726215363e-01</internalNodes>
      <leafValues>
        -3.9840210229158401e-02 3.2996696233749390e-01</leafValues></_>
    <_>
      <internalNodes>
        0 -1 1196 -5.2630402147769928e-02</internalNodes>
      <leafValues>
        4.1695627570152283e-01 -3.4940257668495178e-02</leafValues></_>
    <_>
      <internalNodes>
        0 -1 744 5.8782521635293961e-02</internalNodes>
      <leafValues>
        1.5256443992257118e-02 -8.2092607021331787e-01</leafValues></_>
    <_>
      <internalNodes>
        0 -1 1666 1.7225880175828934e-02</internalNodes>
      <leafValues>
        -7.6701998710632324e-02 1.5815168619155884e-01</leafValues></_>
    <_>
      <internalNodes>
        0 -1 1385 5.3760562092065811e-02</internalNodes>
      <leafValues>
        3.8847498595714569e-02 -3.2292613387107849e-01</leafValues></_>
    <_>
      <internalNodes>
        0 -1 29 -3.2593429088592529e-01</internalNodes>
      <leafValues>
        4.0395990014076233e-01 -3.0931740999221802e-02</leafValues></_>
    <_>
      <internalNodes>
        0 -1 388 1.7345073819160461e-01</internalNodes>
      <leafValues>
        -3.7856593728065491e-02 2.8412553668022156e-01</leafValues></_>
    <_>
      <internalNodes>
        0 -1 1092 -1.2664870917797089e-01</internalNodes>
      <leafValues>
        -4.1340675950050354e-01 2.8831331059336662e-02</leafValues></_>
    <_>
      <internalNodes>
        0 -1 216 6.7020460963249207e-02</internalNodes>
      <leafValues>
        1.2666015885770321e-02 -8.4621977806091309e-01</leafValues></_>
    <_>
      <internalNodes>
        0 -1 479 -4.1164803504943848e-01</internalNodes>
      <leafValues>
        -6.2857323884963989e-01 1.2945080175995827e-02</leafValues></_>
    <_>
      <internalNodes>
        0 -1 1597 -5.7793281972408295e-02</internalNodes>
      <leafValues>
        4.7691014409065247e-01 -2.7558414265513420e-02</leafValues></_>
    <_>
      <internalNodes>
        0 -1 943 -5.0708316266536713e-02</internalNodes>
      <leafValues>
        -1.7385751008987427e-01 6.5807715058326721e-02</leafValues></_>
    <_>
      <internalNodes>
        0 -1 994 -1.6223123669624329e-01</internalNodes>
      <leafValues>
        -7.4620544910430908e-02 1.8950669467449188e-01</leafValues></_>
    <_>
      <internalNodes>
        0 -1 1033 -7.1472781896591187e-01</internalNodes>
      <leafValues>
        7.5182497501373291e-02 -1.9377571344375610e-01</leafValues></_>
    <_>
      <internalNodes>
        0 -1 251 -1.0248046368360519e-01</internalNodes>
      <leafValues>
        2.0194067060947418e-01 -6.2708921730518341e-02</leafValues></_>
    <_>
      <internalNodes>
        0 -1 1020 -7.1228608489036560e-02</internalNodes>
      <leafValues>
        2.2052684426307678e-01 -5.4491072893142700e-02</leafValues></_>
    <_>
      <internalNodes>
        0 -1 1199 -1.0405904054641724e-01</internalNodes>
      <leafValues>
        -7.5362809002399445e-02 1.7923007905483246e-01</leafValues></_>
    <_>
      <internalNodes>
        0 -1 1695 -4.6265192329883575e-02</internalNodes>
      <leafValues>
        2.9526675119996071e-02 -3.6717662215232849e-01</leafValues></_>
    <_>
      <internalNodes>
        0 -1 1675 2.0032429695129395e-01</internalNodes>
      <leafValues>
        2.0577410236001015e-02 -5.6308484077453613e-01</leafValues></_>
    <_>
      <internalNodes>
        0 -1 1331 -6.5619675442576408e-03</internalNodes>
      <leafValues>
        7.6621778309345245e-02 -1.3571025431156158e-01</leafValues></_>
    <_>
      <internalNodes>
        0 -1 1625 -1.0793024674057961e-02</internalNodes>
      <leafValues>
        -1.6095654666423798e-01 9.2497862875461578e-02</leafValues></_>
    <_>
      <internalNodes>
        0 -1 1626 -3.4902550280094147e-02</internalNodes>
      <leafValues>
        1.3476139307022095e-01 -1.0403231531381607e-01</leafValues></_>
    <_>
      <internalNodes>
        0 -1 510 1.5156829357147217e-01</internalNodes>
      <leafValues>
        7.0152498781681061e-02 -1.9080819189548492e-01</leafValues></_>
    <_>
      <internalNodes>
        0 -1 587 3.9267711341381073e-02</internalNodes>
      <leafValues>
        -6.2682881951332092e-02 1.9691112637519836e-01</leafValues></_>
    <_>
      <internalNodes>
        0 -1 1371 -2.6370045542716980e-01</internalNodes>
      <leafValues>
        7.8623783588409424e-01 -1.4138239435851574e-02</leafValues></_>
    <_>
      <internalNodes>
        0 -1 1697 -1.0802426934242249e-01</internalNodes>
      <leafValues>
        -4.0733757615089417e-01 3.2247543334960938e-02</leafValues></_>
    <_>
      <internalNodes>
        0 -1 1210 1.1868582665920258e-01</internalNodes>
      <leafValues>
        -3.3120136708021164e-02 3.8933527469635010e-01</leafValues></_>
    <_>
      <internalNodes>
        0 -1 1104 2.1021054685115814e-01</internalNodes>
      <leafValues>
        2.5977050885558128e-02 -4.3948614597320557e-01</leafValues></_>
    <_>
      <internalNodes>
        0 -1 375 1.9985187798738480e-02</internalNodes>
      <leafValues>
        4.3181031942367554e-02 -2.3082607984542847e-01</leafValues></_>
    <_>
      <internalNodes>
        0 -1 146 -4.5839615166187286e-02</internalNodes>
      <leafValues>
        -2.6795288920402527e-01 4.1969053447246552e-02</leafValues></_>
    <_>
      <internalNodes>
        0 -1 662 -2.6481199264526367e-01</internalNodes>
      <leafValues>
        -6.7989951372146606e-01 1.3925304636359215e-02</leafValues></_>
    <_>
      <internalNodes>
        0 -1 1051 5.2336192131042480e-01</internalNodes>
      <leafValues>
        6.1901900917291641e-03 -1.</leafValues></_>
    <_>
      <internalNodes>
        0 -1 371 2.0655146241188049e-01</internalNodes>
      <leafValues>
        -6.3993953168392181e-02 1.4858956634998322e-01</leafValues></_>
    <_>
      <internalNodes>
        0 -1 1552 -1.7946225404739380e-01</internalNodes>
      <leafValues>
        7.7934157848358154e-01 -1.3393878936767578e-02</leafValues></_>
    <_>
      <internalNodes>
        0 -1 1781 -1.2204089760780334e-01</internalNodes>
      <leafValues>
        8.5527271032333374e-01 -7.8935502097010612e-03</leafValues></_>
    <_>
      <internalNodes>
        0 -1 0 3.6308318376541138e-02</internalNodes>
      <leafValues>
        -4.0378898382186890e-02 2.1173967421054840e-01</leafValues></_>
    <_>
      <internalNodes>
        0 -1 1810 2.6730429381132126e-02</internalNodes>
      <leafValues>
        3.8554809987545013e-02 -2.5077971816062927e-01</leafValues></_>
    <_>
      <internalNodes>
        0 -1 0 -4.9359826371073723e-03</internalNodes>
      <leafValues>
        1.2690111994743347e-01 -7.7280536293983459e-02</leafValues></_>
    <_>
      <internalNodes>
        0 -1 986 -2.9669725894927979e-01</internalNodes>
      <leafValues>
        -5.4852828383445740e-02 1.7397634685039520e-01</leafValues></_>
    <_>
      <internalNodes>
        0 -1 172 6.6297411918640137e-02</internalNodes>
      <leafValues>
        -7.6684832572937012e-02 1.7026670277118683e-01</leafValues></_>
    <_>
      <internalNodes>
        0 -1 1334 8.0362528562545776e-02</internalNodes>
      <leafValues>
        2.2305397316813469e-02 -5.0718867778778076e-01</leafValues></_>
    <_>
      <internalNodes>
        0 -1 1708 1.7265382409095764e-01</internalNodes>
      <leafValues>
        -3.7283074110746384e-02 2.8757333755493164e-01</leafValues></_>
    <_>
      <internalNodes>
        0 -1 634 -3.7620669603347778e-01</internalNodes>
      <leafValues>
        -6.4220088720321655e-01 1.8849482759833336e-02</leafValues></_>
    <_>
      <internalNodes>
        0 -1 1546 -2.0223574712872505e-02</internalNodes>
      <leafValues>
        1.3958871364593506e-01 -7.1749024093151093e-02</leafValues></_>
    <_>
      <internalNodes>
        0 -1 462 -7.2977431118488312e-02</internalNodes>
      <leafValues>
        -5.2361655235290527e-01 2.0343234762549400e-02</leafValues></_>
    <_>
      <internalNodes>
        0 -1 1646 -1.2589405477046967e-01</internalNodes>
      <leafValues>
        -2.8269109129905701e-01 2.9313815757632256e-02</leafValues></_>
    <_>
      <internalNodes>
        0 -1 1014 -1.2157583236694336e-01</internalNodes>
      <leafValues>
        -5.6555134057998657e-01 1.7445133998990059e-02</leafValues></_>
    <_>
      <internalNodes>
        0 -1 623 1.3942846655845642e-01</internalNodes>
      <leafValues>
        -3.4609448164701462e-02 3.5791751742362976e-01</leafValues></_>
    <_>
      <internalNodes>
        0 -1 942 1.7163705825805664e-01</internalNodes>
      <leafValues>
        9.7124921157956123e-03 -1.</leafValues></_>
    <_>
      <internalNodes>
        0 -1 679 5.4714120924472809e-02</internalNodes>
      <leafValues>
        -3.6992121487855911e-02 2.8190141916275024e-01</leafValues></_>
    <_>
      <internalNodes>
        0 -1 591 -1.5018533915281296e-02</internalNodes>
      <leafValues>
        1.5435126423835754e-01 -6.6445186734199524e-02</leafValues></_>
    <_>
      <internalNodes>
        0 -1 1060 -3.0729836225509644e-01</internalNodes>
      <leafValues>
        1.3371515274047852e-01 -8.4255710244178772e-02</leafValues></_>
    <_>
      <internalNodes>
        0 -1 971 4.4444337254390121e-04</internalNodes>
      <leafValues>
        8.2896947860717773e-03 -1.</leafValues></_>
    <_>
      <internalNodes>
        0 -1 68 -9.4644039869308472e-02</internalNodes>
      <leafValues>
        -2.6733029633760452e-02 4.6254402399063110e-01</leafValues></_>
    <_>
      <internalNodes>
        0 -1 592 -1.9876439124345779e-02</internalNodes>
      <leafValues>
        2.5980144739151001e-02 -4.4021898508071899e-01</leafValues></_>
    <_>
      <internalNodes>
        0 -1 383 -4.1445299983024597e-02</internalNodes>
      <leafValues>
        1.7992772161960602e-01 -5.2181027829647064e-02</leafValues></_>
    <_>
      <internalNodes>
        0 -1 1086 5.1630325615406036e-02</internalNodes>
      <leafValues>
        -4.9069490283727646e-02 1.9396686553955078e-01</leafValues></_>
    <_>
      <internalNodes>
        0 -1 1082 -4.4794060289859772e-02</internalNodes>
      <leafValues>
        -2.3160697519779205e-01 4.7464463859796524e-02</leafValues></_>
    <_>
      <internalNodes>
        0 -1 1427 8.0571758747100830e-01</internalNodes>
      <leafValues>
        -2.2745711728930473e-02 5.1793181896209717e-01</leafValues></_>
    <_>
      <internalNodes>
        0 -1 1291 2.4585206992924213e-03</internalNodes>
      <leafValues>
        -9.2628106474876404e-02 1.0818480700254440e-01</leafValues></_>
    <_>
      <internalNodes>
        0 -1 1368 3.0308037996292114e-02</internalNodes>
      <leafValues>
        -5.2612986415624619e-02 2.0482559502124786e-01</leafValues></_>
    <_>
      <internalNodes>
        0 -1 1347 6.8925037980079651e-02</internalNodes>
      <leafValues>
        8.3543360233306885e-03 -1.</leafValues></_>
    <_>
      <internalNodes>
        0 -1 1795 9.4763271510601044e-02</internalNodes>
      <leafValues>
        1.0079483501613140e-02 -7.8828650712966919e-01</leafValues></_>
    <_>
      <internalNodes>
        0 -1 827 6.6935874521732330e-02</internalNodes>
      <leafValues>
        -3.3048793673515320e-02 2.9813233017921448e-01</leafValues></_>
    <_>
      <internalNodes>
        0 -1 1732 6.5040297806262970e-02</internalNodes>
      <leafValues>
        2.3476896807551384e-02 -4.6120873093605042e-01</leafValues></_>
    <_>
      <internalNodes>
        0 -1 1295 -1.3896727561950684e-01</internalNodes>
      <leafValues>
        -6.0478687286376953e-01 1.4875004068017006e-02</leafValues></_>
    <_>
      <internalNodes>
        0 -1 438 1.6128529608249664e-01</internalNodes>
      <leafValues>
        1.4465925283730030e-02 -5.7596242427825928e-01</leafValues></_>
    <_>
      <internalNodes>
        0 -1 1567 -4.2857866734266281e-02</internalNodes>
      <leafValues>
        -3.0828791856765747e-01 2.6216212660074234e-02</leafValues></_>
    <_>
      <internalNodes>
        0 -1 640 -3.1568694114685059e-01</internalNodes>
      <leafValues>
        1.5787965059280396e-01 -6.4100839197635651e-02</leafValues></_>
    <_>
      <internalNodes>
        0 -1 184 7.4659913778305054e-01</internalNodes>
      <leafValues>
        1.5307607129216194e-02 -7.2988063097000122e-01</leafValues></_></weakClassifiers></stage9>
</opencv_storage>
