<?xml version="1.0"?>
<opencv_storage>
<stage3>
  <maxWeakCount>100</maxWeakCount>
  <stageThreshold>-8.0278372764587402e-01</stageThreshold>
  <weakClassifiers>
    <_>
      <internalNodes>
        0 -1 1798 -1.1455287039279938e-01</internalNodes>
      <leafValues>
        -4.5161288976669312e-01 3.5975611209869385e-01</leafValues></_>
    <_>
      <internalNodes>
        0 -1 1372 -1.0232001543045044e-01</internalNodes>
      <leafValues>
        5.4762125015258789e-01 -1.6360706090927124e-01</leafValues></_>
    <_>
      <internalNodes>
        0 -1 526 4.7166153788566589e-01</internalNodes>
      <leafValues>
        -1.2165093421936035e-01 4.3918880820274353e-01</leafValues></_>
    <_>
      <internalNodes>
        0 -1 525 -4.3363368511199951e-01</internalNodes>
      <leafValues>
        4.6383115649223328e-01 -9.1325350105762482e-02</leafValues></_>
    <_>
      <internalNodes>
        0 -1 1732 -5.2130311727523804e-02</internalNodes>
      <leafValues>
        -7.6125097274780273e-01 6.4397878944873810e-02</leafValues></_>
    <_>
      <internalNodes>
        0 -1 733 -1.3785241171717644e-02</internalNodes>
      <leafValues>
        -3.6214745044708252e-01 9.8124288022518158e-02</leafValues></_>
    <_>
      <internalNodes>
        0 -1 493 -1.6425162553787231e-02</internalNodes>
      <leafValues>
        -4.2173877358436584e-01 7.0897296071052551e-02</leafValues></_>
    <_>
      <internalNodes>
        0 -1 438 -2.4707455188035965e-02</internalNodes>
      <leafValues>
        -3.5944139957427979e-01 1.0376830399036407e-01</leafValues></_>
    <_>
      <internalNodes>
        0 -1 0 2.5588201358914375e-02</internalNodes>
      <leafValues>
        -9.6136614680290222e-02 3.7703439593315125e-01</leafValues></_>
    <_>
      <internalNodes>
        0 -1 314 -5.3978301584720612e-02</internalNodes>
      <leafValues>
        2.6700779795646667e-01 -1.2971436977386475e-01</leafValues></_>
    <_>
      <internalNodes>
        0 -1 126 -5.2025580406188965e-01</internalNodes>
      <leafValues>
        -2.5082546472549438e-01 1.3755443692207336e-01</leafValues></_>
    <_>
      <internalNodes>
        0 -1 122 5.8515451848506927e-02</internalNodes>
      <leafValues>
        -1.0712382942438126e-01 3.8191175460815430e-01</leafValues></_>
    <_>
      <internalNodes>
        0 -1 1196 2.0447337999939919e-02</internalNodes>
      <leafValues>
        -1.0107053816318512e-01 3.1222212314605713e-01</leafValues></_>
    <_>
      <internalNodes>
        0 -1 1201 -2.6399001479148865e-02</internalNodes>
      <leafValues>
        2.6338797807693481e-01 -1.2809501588344574e-01</leafValues></_>
    <_>
      <internalNodes>
        0 -1 626 -1.2227001786231995e-01</internalNodes>
      <leafValues>
        5.0584316253662109e-01 -4.8414859920740128e-02</leafValues></_>
    <_>
      <internalNodes>
        0 -1 1745 -1.4344608783721924e-01</internalNodes>
      <leafValues>
        5.5840301513671875e-01 -5.4959122091531754e-02</leafValues></_>
    <_>
      <internalNodes>
        0 -1 537 -1.9006000831723213e-02</internalNodes>
      <leafValues>
        -4.2884263396263123e-01 6.3621975481510162e-02</leafValues></_>
    <_>
      <internalNodes>
        0 -1 1834 1.5384925529360771e-02</internalNodes>
      <leafValues>
        5.9967596083879471e-02 -4.1616216301918030e-01</leafValues></_>
    <_>
      <internalNodes>
        0 -1 66 -2.2901043295860291e-01</internalNodes>
      <leafValues>
        6.4094752073287964e-01 -4.3101154267787933e-02</leafValues></_>
    <_>
      <internalNodes>
        0 -1 1681 1.6400626301765442e-01</internalNodes>
      <leafValues>
        -5.7304188609123230e-02 4.2081868648529053e-01</leafValues></_>
    <_>
      <internalNodes>
        0 -1 62 5.0508093833923340e-01</internalNodes>
      <leafValues>
        -6.7191287875175476e-02 3.7381172180175781e-01</leafValues></_>
    <_>
      <internalNodes>
        0 -1 1292 3.8342289626598358e-02</internalNodes>
      <leafValues>
        9.1200843453407288e-02 -3.2408490777015686e-01</leafValues></_>
    <_>
      <internalNodes>
        0 -1 449 3.5046212375164032e-02</internalNodes>
      <leafValues>
        7.2968348860740662e-02 -3.4746089577674866e-01</leafValues></_>
    <_>
      <internalNodes>
        0 -1 1209 -1.5943446755409241e-01</internalNodes>
      <leafValues>
        5.2019822597503662e-01 -4.7951985150575638e-02</leafValues></_>
    <_>
      <internalNodes>
        0 -1 1810 -3.0396845191717148e-02</internalNodes>
      <leafValues>
        -6.2369757890701294e-01 4.2122036218643188e-02</leafValues></_>
    <_>
      <internalNodes>
        0 -1 1521 2.1047268807888031e-01</internalNodes>
      <leafValues>
        -3.9650931954383850e-02 6.9466298818588257e-01</leafValues></_>
    <_>
      <internalNodes>
        0 -1 565 -2.4985939264297485e-01</internalNodes>
      <leafValues>
        -2.9124110937118530e-02 7.8139597177505493e-01</leafValues></_>
    <_>
      <internalNodes>
        0 -1 1721 -3.1060850247740746e-02</internalNodes>
      <leafValues>
        2.4447666108608246e-01 -8.4755860269069672e-02</leafValues></_>
    <_>
      <internalNodes>
        0 -1 1343 -6.0104347765445709e-02</internalNodes>
      <leafValues>
        -4.1757252812385559e-01 6.1440840363502502e-02</leafValues></_>
    <_>
      <internalNodes>
        0 -1 1829 1.1655579321086407e-02</internalNodes>
      <leafValues>
        7.4266798794269562e-02 -3.3245030045509338e-01</leafValues></_>
    <_>
      <internalNodes>
        0 -1 221 -3.6939032375812531e-02</internalNodes>
      <leafValues>
        2.5021457672119141e-01 -9.1322690248489380e-02</leafValues></_>
    <_>
      <internalNodes>
        0 -1 1336 -1.5492492914199829e-01</internalNodes>
      <leafValues>
        2.5864616036415100e-01 -9.1855563223361969e-02</leafValues></_>
    <_>
      <internalNodes>
        0 -1 669 7.8574556112289429e-01</internalNodes>
      <leafValues>
        -9.8655432462692261e-02 3.0255115032196045e-01</leafValues></_>
    <_>
      <internalNodes>
        0 -1 594 -2.9685420915484428e-02</internalNodes>
      <leafValues>
        3.9401718974113464e-01 -6.9498948752880096e-02</leafValues></_>
    <_>
      <internalNodes>
        0 -1 1533 -4.4727927446365356e-01</internalNodes>
      <leafValues>
        -3.5417398810386658e-01 7.3492556810379028e-02</leafValues></_>
    <_>
      <internalNodes>
        0 -1 863 8.4797948598861694e-02</internalNodes>
      <leafValues>
        -8.9739613234996796e-02 3.0153444409370422e-01</leafValues></_>
    <_>
      <internalNodes>
        0 -1 1071 1.9171139597892761e-01</internalNodes>
      <leafValues>
        -1.1613222956657410e-01 2.6196259260177612e-01</leafValues></_>
    <_>
      <internalNodes>
        0 -1 174 1.3207513093948364e-01</internalNodes>
      <leafValues>
        3.7776511162519455e-02 -7.2798782587051392e-01</leafValues></_>
    <_>
      <internalNodes>
        0 -1 71 -1.0661625862121582e-01</internalNodes>
      <leafValues>
        4.0500593185424805e-01 -7.1508787572383881e-02</leafValues></_>
    <_>
      <internalNodes>
        0 -1 1826 1.5673181042075157e-02</internalNodes>
      <leafValues>
        6.5470233559608459e-02 -3.7029987573623657e-01</leafValues></_>
    <_>
      <internalNodes>
        0 -1 968 3.0324164777994156e-02</internalNodes>
      <leafValues>
        8.4786362946033478e-02 -2.8990906476974487e-01</leafValues></_>
    <_>
      <internalNodes>
        0 -1 558 2.2339969873428345e-01</internalNodes>
      <leafValues>
        -9.0335525572299957e-02 2.9391780495643616e-01</leafValues></_>
    <_>
      <internalNodes>
        0 -1 1638 4.1420251131057739e-02</internalNodes>
      <leafValues>
        -5.7235497981309891e-02 3.8700395822525024e-01</leafValues></_>
    <_>
      <internalNodes>
        0 -1 1381 6.6208885982632637e-03</internalNodes>
      <leafValues>
        -1.6357728838920593e-01 1.7215284705162048e-01</leafValues></_>
    <_>
      <internalNodes>
        0 -1 378 -5.3394250571727753e-02</internalNodes>
      <leafValues>
        -8.8043308258056641e-01 2.4366401135921478e-02</leafValues></_>
    <_>
      <internalNodes>
        0 -1 1363 8.2161597907543182e-02</internalNodes>
      <leafValues>
        3.0231947079300880e-02 -6.4033931493759155e-01</leafValues></_>
    <_>
      <internalNodes>
        0 -1 1357 -1.1543074250221252e-01</internalNodes>
      <leafValues>
        -5.1211763173341751e-02 4.4856771826744080e-01</leafValues></_>
    <_>
      <internalNodes>
        0 -1 27 -2.3343919217586517e-01</internalNodes>
      <leafValues>
        3.9212912321090698e-01 -5.0744201987981796e-02</leafValues></_>
    <_>
      <internalNodes>
        0 -1 101 2.1764029562473297e-01</internalNodes>
      <leafValues>
        -1.5045405924320221e-01 1.4942774176597595e-01</leafValues></_>
    <_>
      <internalNodes>
        0 -1 294 1.1009944975376129e-01</internalNodes>
      <leafValues>
        5.0874657928943634e-02 -5.2872353792190552e-01</leafValues></_>
    <_>
      <internalNodes>
        0 -1 591 -4.1120294481515884e-02</internalNodes>
      <leafValues>
        3.6789649724960327e-01 -6.8508341908454895e-02</leafValues></_>
    <_>
      <internalNodes>
        0 -1 820 -2.2531621158123016e-01</internalNodes>
      <leafValues>
        -8.5064613819122314e-01 2.7470447123050690e-02</leafValues></_>
    <_>
      <internalNodes>
        0 -1 527 -8.4990613162517548e-02</internalNodes>
      <leafValues>
        -5.3505492210388184e-01 3.3476471900939941e-02</leafValues></_>
    <_>
      <internalNodes>
        0 -1 1751 5.5658444762229919e-02</internalNodes>
      <leafValues>
        3.9596229791641235e-02 -5.1238793134689331e-01</leafValues></_>
    <_>
      <internalNodes>
        0 -1 812 -7.4719831347465515e-02</internalNodes>
      <leafValues>
        3.0798831582069397e-01 -7.0640392601490021e-02</leafValues></_>
    <_>
      <internalNodes>
        0 -1 1719 -4.7933191061019897e-02</internalNodes>
      <leafValues>
        3.6645498126745224e-02 -6.0609185695648193e-01</leafValues></_>
    <_>
      <internalNodes>
        0 -1 1201 -8.7087184190750122e-02</internalNodes>
      <leafValues>
        5.1299208402633667e-01 -4.8470012843608856e-02</leafValues></_>
    <_>
      <internalNodes>
        0 -1 1521 -1.5247128903865814e-01</internalNodes>
      <leafValues>
        6.5590029954910278e-01 -3.0252680182456970e-02</leafValues></_>
    <_>
      <internalNodes>
        0 -1 1318 -3.2995149493217468e-02</internalNodes>
      <leafValues>
        -4.5902243256568909e-01 5.2412245422601700e-02</leafValues></_>
    <_>
      <internalNodes>
        0 -1 800 -3.8567438721656799e-01</internalNodes>
      <leafValues>
        -7.5169008970260620e-01 2.4376859888434410e-02</leafValues></_>
    <_>
      <internalNodes>
        0 -1 553 -3.8689857721328735e-01</internalNodes>
      <leafValues>
        -5.8264508843421936e-02 3.8699623942375183e-01</leafValues></_>
    <_>
      <internalNodes>
        0 -1 33 1.1415895819664001e-01</internalNodes>
      <leafValues>
        -4.7350879758596420e-02 4.2002367973327637e-01</leafValues></_>
    <_>
      <internalNodes>
        0 -1 143 1.3289707899093628e-01</internalNodes>
      <leafValues>
        2.3861868306994438e-02 -8.9574027061462402e-01</leafValues></_>
    <_>
      <internalNodes>
        0 -1 1430 2.1297909319400787e-02</internalNodes>
      <leafValues>
        -1.1025484651327133e-01 1.8501761555671692e-01</leafValues></_>
    <_>
      <internalNodes>
        0 -1 347 -1.3721427321434021e-01</internalNodes>
      <leafValues>
        -8.2947456836700439e-01 2.2831065580248833e-02</leafValues></_>
    <_>
      <internalNodes>
        0 -1 1829 -5.3261741995811462e-03</internalNodes>
      <leafValues>
        -1.9105146825313568e-01 9.5677606761455536e-02</leafValues></_>
    <_>
      <internalNodes>
        0 -1 1789 1.5927902422845364e-03</internalNodes>
      <leafValues>
        1.0858226567506790e-01 -2.1790361404418945e-01</leafValues></_>
    <_>
      <internalNodes>
        0 -1 1765 1.4386853575706482e-01</internalNodes>
      <leafValues>
        -5.5759381502866745e-02 5.1505774259567261e-01</leafValues></_>
    <_>
      <internalNodes>
        0 -1 1738 -3.8976624608039856e-02</internalNodes>
      <leafValues>
        -6.5911716222763062e-01 3.4582499414682388e-02</leafValues></_>
    <_>
      <internalNodes>
        0 -1 867 -8.3978027105331421e-02</internalNodes>
      <leafValues>
        2.8662225604057312e-01 -6.8175598978996277e-02</leafValues></_>
    <_>
      <internalNodes>
        0 -1 1718 4.4585309922695160e-02</internalNodes>
      <leafValues>
        3.3077470958232880e-02 -6.0930371284484863e-01</leafValues></_>
    <_>
      <internalNodes>
        0 -1 1318 6.2816709280014038e-02</internalNodes>
      <leafValues>
        1.8808672204613686e-02 -7.9559433460235596e-01</leafValues></_>
    <_>
      <internalNodes>
        0 -1 726 1.8146058917045593e-01</internalNodes>
      <leafValues>
        2.1828927099704742e-02 -7.1012443304061890e-01</leafValues></_>
    <_>
      <internalNodes>
        0 -1 278 -7.7792322635650635e-01</internalNodes>
      <leafValues>
        -8.8067954778671265e-01 1.6914200037717819e-02</leafValues></_>
    <_>
      <internalNodes>
        0 -1 721 -1.1982336640357971e-01</internalNodes>
      <leafValues>
        -4.2585167288780212e-01 3.6873549222946167e-02</leafValues></_>
    <_>
      <internalNodes>
        0 -1 1555 -1.8313466012477875e-01</internalNodes>
      <leafValues>
        6.2703377008438110e-01 -3.0493844300508499e-02</leafValues></_>
    <_>
      <internalNodes>
        0 -1 238 1.1313204467296600e-01</internalNodes>
      <leafValues>
        4.3865099549293518e-02 -4.2525035142898560e-01</leafValues></_>
    <_>
      <internalNodes>
        0 -1 454 1.2897422909736633e-01</internalNodes>
      <leafValues>
        -6.6595427691936493e-02 3.2228153944015503e-01</leafValues></_>
    <_>
      <internalNodes>
        0 -1 1175 3.0899721384048462e-01</internalNodes>
      <leafValues>
        3.4537285566329956e-02 -5.9144860506057739e-01</leafValues></_>
    <_>
      <internalNodes>
        0 -1 1766 -4.3235987424850464e-02</internalNodes>
      <leafValues>
        -3.9359906315803528e-01 4.2387239634990692e-02</leafValues></_>
    <_>
      <internalNodes>
        0 -1 521 8.5792347788810730e-02</internalNodes>
      <leafValues>
        4.3017245829105377e-02 -4.2644995450973511e-01</leafValues></_>
    <_>
      <internalNodes>
        0 -1 1608 -1.1672696471214294e-01</internalNodes>
      <leafValues>
        2.1064957976341248e-01 -8.4814250469207764e-02</leafValues></_>
    <_>
      <internalNodes>
        0 -1 338 -1.0320149362087250e-01</internalNodes>
      <leafValues>
        2.2416256368160248e-01 -8.8332310318946838e-02</leafValues></_>
    <_>
      <internalNodes>
        0 -1 495 -1.4579567313194275e-01</internalNodes>
      <leafValues>
        -1.5251237154006958e-01 1.4680171012878418e-01</leafValues></_>
    <_>
      <internalNodes>
        0 -1 1747 -8.1272706389427185e-02</internalNodes>
      <leafValues>
        2.5159913301467896e-01 -7.5080581009387970e-02</leafValues></_>
    <_>
      <internalNodes>
        0 -1 1598 2.9593091458082199e-03</internalNodes>
      <leafValues>
        9.1725096106529236e-02 -1.8887782096862793e-01</leafValues></_>
    <_>
      <internalNodes>
        0 -1 74 7.7961093187332153e-01</internalNodes>
      <leafValues>
        -2.2998316213488579e-02 8.2805567979812622e-01</leafValues></_>
    <_>
      <internalNodes>
        0 -1 1390 3.3945642411708832e-02</internalNodes>
      <leafValues>
        8.3691440522670746e-02 -2.2292086482048035e-01</leafValues></_>
    <_>
      <internalNodes>
        0 -1 1735 -4.0601021051406860e-01</internalNodes>
      <leafValues>
        8.1358388066291809e-02 -2.3970702290534973e-01</leafValues></_>
    <_>
      <internalNodes>
        0 -1 969 -1.2342266738414764e-02</internalNodes>
      <leafValues>
        -2.4761500954627991e-01 8.1164054572582245e-02</leafValues></_>
    <_>
      <internalNodes>
        0 -1 1251 -1.0537922382354736e-01</internalNodes>
      <leafValues>
        -5.0114046782255173e-02 3.7107157707214355e-01</leafValues></_>
    <_>
      <internalNodes>
        0 -1 970 -3.1775370240211487e-02</internalNodes>
      <leafValues>
        2.2599574178457260e-02 -7.9938608407974243e-01</leafValues></_>
    <_>
      <internalNodes>
        0 -1 1791 -2.3000638931989670e-02</internalNodes>
      <leafValues>
        -4.0219652652740479e-01 4.1102215647697449e-02</leafValues></_>
    <_>
      <internalNodes>
        0 -1 580 1.2022335827350616e-01</internalNodes>
      <leafValues>
        -5.0396338105201721e-02 3.5259470343589783e-01</leafValues></_>
    <_>
      <internalNodes>
        0 -1 555 8.1181973218917847e-02</internalNodes>
      <leafValues>
        3.4376338124275208e-02 -4.6537196636199951e-01</leafValues></_>
    <_>
      <internalNodes>
        0 -1 81 -1.0166809558868408e+00</internalNodes>
      <leafValues>
        1. -2.0336892455816269e-02</leafValues></_>
    <_>
      <internalNodes>
        0 -1 537 -3.2594881951808929e-02</internalNodes>
      <leafValues>
        -5.3480452299118042e-01 4.0520429611206055e-02</leafValues></_>
    <_>
      <internalNodes>
        0 -1 572 1.7206227779388428e-01</internalNodes>
      <leafValues>
        -2.9660051688551903e-02 6.8940025568008423e-01</leafValues></_>
    <_>
      <internalNodes>
        0 -1 569 -2.3848710115998983e-03</internalNodes>
      <leafValues>
        -1.2752823531627655e-01 1.4212597906589508e-01</leafValues></_>
    <_>
      <internalNodes>
        0 -1 1006 4.4804930686950684e-02</internalNodes>
      <leafValues>
        -5.6020483374595642e-02 3.1762507557868958e-01</leafValues></_></weakClassifiers></stage3>
</opencv_storage>
