<?xml version="1.0"?>
<opencv_storage>
<stage10>
  <maxWeakCount>21</maxWeakCount>
  <stageThreshold>-1.3411434888839722e+00</stageThreshold>
  <weakClassifiers>
    <_>
      <internalNodes>
        0 -1 27738 -1.6884129494428635e-02</internalNodes>
      <leafValues>
        6.8214803934097290e-02 -5.2941179275512695e-01</leafValues></_>
    <_>
      <internalNodes>
        0 -1 7502 1.0921192355453968e-02</internalNodes>
      <leafValues>
        -2.9087197780609131e-01 2.9603904485702515e-01</leafValues></_>
    <_>
      <internalNodes>
        0 -1 15757 1.0583872906863689e-02</internalNodes>
      <leafValues>
        -1.3341943919658661e-01 4.5232209563255310e-01</leafValues></_>
    <_>
      <internalNodes>
        0 -1 18810 -3.6606867797672749e-03</internalNodes>
      <leafValues>
        3.4273955225944519e-01 -1.7335385084152222e-01</leafValues></_>
    <_>
      <internalNodes>
        0 -1 18724 -1.1154656298458576e-02</internalNodes>
      <leafValues>
        3.9716544747352600e-01 -1.4081323146820068e-01</leafValues></_>
    <_>
      <internalNodes>
        0 -1 5989 -2.5591719150543213e-01</internalNodes>
      <leafValues>
        4.9661162495613098e-01 -1.1219514161348343e-01</leafValues></_>
    <_>
      <internalNodes>
        0 -1 27209 2.5371315423399210e-03</internalNodes>
      <leafValues>
        -1.7301741242408752e-01 3.0154433846473694e-01</leafValues></_>
    <_>
      <internalNodes>
        0 -1 16068 1.8645753152668476e-03</internalNodes>
      <leafValues>
        -1.0340782254934311e-01 4.3239158391952515e-01</leafValues></_>
    <_>
      <internalNodes>
        0 -1 16943 3.0441908165812492e-03</internalNodes>
      <leafValues>
        -2.1516551077365875e-01 2.3296695947647095e-01</leafValues></_>
    <_>
      <internalNodes>
        0 -1 2015 3.8592059165239334e-02</internalNodes>
      <leafValues>
        6.5620847046375275e-02 -9.2357265949249268e-01</leafValues></_>
    <_>
      <internalNodes>
        0 -1 15770 -2.2212476469576359e-03</internalNodes>
      <leafValues>
        -8.7642818689346313e-02 8.0667501688003540e-01</leafValues></_>
    <_>
      <internalNodes>
        0 -1 24277 -1.4663835754618049e-03</internalNodes>
      <leafValues>
        3.2560133934020996e-01 -1.3949476182460785e-01</leafValues></_>
    <_>
      <internalNodes>
        0 -1 18264 2.5440263561904430e-03</internalNodes>
      <leafValues>
        -1.0403225570917130e-01 4.3341854214668274e-01</leafValues></_>
    <_>
      <internalNodes>
        0 -1 16388 4.0504932403564453e-02</internalNodes>
      <leafValues>
        5.4821651428937912e-02 -9.0298908948898315e-01</leafValues></_>
    <_>
      <internalNodes>
        0 -1 3510 -8.4508601576089859e-03</internalNodes>
      <leafValues>
        -9.6705740690231323e-01 2.8428921476006508e-02</leafValues></_>
    <_>
      <internalNodes>
        0 -1 1117 3.3455393277108669e-03</internalNodes>
      <leafValues>
        -2.0054654777050018e-01 2.2859811782836914e-01</leafValues></_>
    <_>
      <internalNodes>
        0 -1 1669 -5.9618428349494934e-03</internalNodes>
      <leafValues>
        4.1427174210548401e-01 -1.1182252317667007e-01</leafValues></_>
    <_>
      <internalNodes>
        0 -1 4130 4.3058488517999649e-03</internalNodes>
      <leafValues>
        -3.0103066563606262e-01 1.8893249332904816e-01</leafValues></_>
    <_>
      <internalNodes>
        0 -1 6971 -8.6321886628866196e-03</internalNodes>
      <leafValues>
        3.7834098935127258e-01 -1.3677704334259033e-01</leafValues></_>
    <_>
      <internalNodes>
        0 -1 5026 8.1853242591023445e-03</internalNodes>
      <leafValues>
        -2.2854566574096680e-01 2.1128894388675690e-01</leafValues></_>
    <_>
      <internalNodes>
        0 -1 28475 1.2546384241431952e-03</internalNodes>
      <leafValues>
        7.3411084711551666e-02 -5.7186716794967651e-01</leafValues></_></weakClassifiers></stage10>
</opencv_storage>
