<?xml version="1.0"?>
<opencv_storage>
<stage9>
  <maxWeakCount>76</maxWeakCount>
  <stageThreshold>-7.0599067211151123e-01</stageThreshold>
  <weakClassifiers>
    <_>
      <internalNodes>
        0 -1 68437 -1.5956726856529713e-03</internalNodes>
      <leafValues>
        -3.8425269722938538e-01 5.0387597084045410e-01</leafValues></_>
    <_>
      <internalNodes>
        0 -1 82874 -9.5594115555286407e-03</internalNodes>
      <leafValues>
        2.0832949876785278e-01 -1.9151000678539276e-01</leafValues></_>
    <_>
      <internalNodes>
        0 -1 43400 -5.2764387801289558e-03</internalNodes>
      <leafValues>
        2.3774683475494385e-01 -1.7748875916004181e-01</leafValues></_>
    <_>
      <internalNodes>
        0 -1 56295 -4.1826837696135044e-03</internalNodes>
      <leafValues>
        -4.9039778113365173e-01 7.3339663445949554e-02</leafValues></_>
    <_>
      <internalNodes>
        0 -1 142827 2.6365101803094149e-04</internalNodes>
      <leafValues>
        1.3479873538017273e-01 -3.4487378597259521e-01</leafValues></_>
    <_>
      <internalNodes>
        0 -1 58808 2.5094041600823402e-02</internalNodes>
      <leafValues>
        -1.0567901283502579e-01 3.4576880931854248e-01</leafValues></_>
    <_>
      <internalNodes>
        0 -1 93358 -3.0846877023577690e-02</internalNodes>
      <leafValues>
        -4.8303660750389099e-01 6.1641048640012741e-02</leafValues></_>
    <_>
      <internalNodes>
        0 -1 16545 1.9642282277345657e-02</internalNodes>
      <leafValues>
        -1.1916209757328033e-01 3.2583993673324585e-01</leafValues></_>
    <_>
      <internalNodes>
        0 -1 13591 -1.3256888836622238e-02</internalNodes>
      <leafValues>
        -4.0375208854675293e-01 8.3920031785964966e-02</leafValues></_>
    <_>
      <internalNodes>
        0 -1 116806 -5.3102793172001839e-03</internalNodes>
      <leafValues>
        2.7561795711517334e-01 -1.1195323616266251e-01</leafValues></_>
    <_>
      <internalNodes>
        0 -1 5215 -1.0839170217514038e-01</internalNodes>
      <leafValues>
        5.2628003060817719e-02 -5.3764581680297852e-01</leafValues></_>
    <_>
      <internalNodes>
        0 -1 78965 -3.0706508550792933e-03</internalNodes>
      <leafValues>
        -4.1125288605690002e-01 6.7513518035411835e-02</leafValues></_>
    <_>
      <internalNodes>
        0 -1 22255 -1.5846306458115578e-02</internalNodes>
      <leafValues>
        -7.5840026140213013e-01 3.4978739917278290e-02</leafValues></_>
    <_>
      <internalNodes>
        0 -1 8158 -5.5592440068721771e-02</internalNodes>
      <leafValues>
        3.8909441232681274e-01 -9.3215517699718475e-02</leafValues></_>
    <_>
      <internalNodes>
        0 -1 142624 -1.3768567703664303e-02</internalNodes>
      <leafValues>
        -1.2168100476264954e-01 2.5562632083892822e-01</leafValues></_>
    <_>
      <internalNodes>
        0 -1 63357 4.9952685367316008e-04</internalNodes>
      <leafValues>
        -1.1691031605005264e-01 2.8715804219245911e-01</leafValues></_>
    <_>
      <internalNodes>
        0 -1 13496 -5.5572884157299995e-03</internalNodes>
      <leafValues>
        -4.5842745900154114e-01 6.8741291761398315e-02</leafValues></_>
    <_>
      <internalNodes>
        0 -1 12269 9.2105998191982508e-05</internalNodes>
      <leafValues>
        1.3387480378150940e-01 -2.3506881296634674e-01</leafValues></_>
    <_>
      <internalNodes>
        0 -1 124826 -1.3174603227525949e-03</internalNodes>
      <leafValues>
        -5.0512105226516724e-01 5.1289614289999008e-02</leafValues></_>
    <_>
      <internalNodes>
        0 -1 124775 8.4093684563413262e-04</internalNodes>
      <leafValues>
        -1.2101530283689499e-01 2.5287616252899170e-01</leafValues></_>
    <_>
      <internalNodes>
        0 -1 15626 8.4538385272026062e-03</internalNodes>
      <leafValues>
        -8.0486275255680084e-02 3.7135413289070129e-01</leafValues></_>
    <_>
      <internalNodes>
        0 -1 96615 -3.2209485652856529e-04</internalNodes>
      <leafValues>
        2.9430103302001953e-01 -1.0772517323493958e-01</leafValues></_>
    <_>
      <internalNodes>
        0 -1 131628 -5.8609737607184798e-05</internalNodes>
      <leafValues>
        -1.8128278851509094e-01 1.6626253724098206e-01</leafValues></_>
    <_>
      <internalNodes>
        0 -1 12692 -1.3736873865127563e-01</internalNodes>
      <leafValues>
        2.3374603688716888e-01 -1.4415249228477478e-01</leafValues></_>
    <_>
      <internalNodes>
        0 -1 92797 5.9222903102636337e-02</internalNodes>
      <leafValues>
        -1.1834076046943665e-01 3.0414307117462158e-01</leafValues></_>
    <_>
      <internalNodes>
        0 -1 103038 -3.6580651067197323e-03</internalNodes>
      <leafValues>
        7.7445425093173981e-02 -4.0138143301010132e-01</leafValues></_>
    <_>
      <internalNodes>
        0 -1 104700 2.7559360023587942e-04</internalNodes>
      <leafValues>
        -1.4775462448596954e-01 1.9158321619033813e-01</leafValues></_>
    <_>
      <internalNodes>
        0 -1 87506 1.6500279307365417e-02</internalNodes>
      <leafValues>
        8.5809133946895599e-02 -4.1710215806961060e-01</leafValues></_>
    <_>
      <internalNodes>
        0 -1 67204 1.2058000266551971e-01</internalNodes>
      <leafValues>
        -6.8652212619781494e-02 5.6561386585235596e-01</leafValues></_>
    <_>
      <internalNodes>
        0 -1 142553 5.4478377569466829e-04</internalNodes>
      <leafValues>
        9.3144640326499939e-02 -3.2396078109741211e-01</leafValues></_>
    <_>
      <internalNodes>
        0 -1 138969 3.9968099445104599e-03</internalNodes>
      <leafValues>
        -5.8700848370790482e-02 5.2360802888870239e-01</leafValues></_>
    <_>
      <internalNodes>
        0 -1 65158 -1.0643117129802704e-03</internalNodes>
      <leafValues>
        3.2800284028053284e-01 -9.2048987746238708e-02</leafValues></_>
    <_>
      <internalNodes>
        0 -1 44689 5.4169171489775181e-03</internalNodes>
      <leafValues>
        -9.0490408241748810e-02 3.3201196789741516e-01</leafValues></_>
    <_>
      <internalNodes>
        0 -1 67645 -5.0737487617880106e-04</internalNodes>
      <leafValues>
        -3.6784574389457703e-01 7.7097207307815552e-02</leafValues></_>
    <_>
      <internalNodes>
        0 -1 81060 -8.1320345634594560e-04</internalNodes>
      <leafValues>
        -3.0125039815902710e-01 9.1588802635669708e-02</leafValues></_>
    <_>
      <internalNodes>
        0 -1 8591 -1.9539000932127237e-03</internalNodes>
      <leafValues>
        2.0355565845966339e-01 -1.5205654501914978e-01</leafValues></_>
    <_>
      <internalNodes>
        0 -1 135199 -1.6869744285941124e-03</internalNodes>
      <leafValues>
        3.7790828943252563e-01 -7.8471213579177856e-02</leafValues></_>
    <_>
      <internalNodes>
        0 -1 88615 1.3306764885783195e-03</internalNodes>
      <leafValues>
        -1.2472027540206909e-01 2.3403970897197723e-01</leafValues></_>
    <_>
      <internalNodes>
        0 -1 68573 -2.6619756221771240e-01</internalNodes>
      <leafValues>
        -1.4831131696701050e-01 2.1481029689311981e-01</leafValues></_>
    <_>
      <internalNodes>
        0 -1 12240 -1.4473479241132736e-02</internalNodes>
      <leafValues>
        1.1013414710760117e-01 -3.4939837455749512e-01</leafValues></_>
    <_>
      <internalNodes>
        0 -1 3015 7.3582574259489775e-04</internalNodes>
      <leafValues>
        -1.9874650239944458e-01 1.8363110721111298e-01</leafValues></_>
    <_>
      <internalNodes>
        0 -1 142861 3.8901879452168941e-04</internalNodes>
      <leafValues>
        6.1661753803491592e-02 -4.8867061734199524e-01</leafValues></_>
    <_>
      <internalNodes>
        0 -1 10 -5.3861782362218946e-05</internalNodes>
      <leafValues>
        1.8322736024856567e-01 -1.6365732252597809e-01</leafValues></_>
    <_>
      <internalNodes>
        0 -1 79306 7.7077686786651611e-02</internalNodes>
      <leafValues>
        -8.2607828080654144e-02 4.0741074085235596e-01</leafValues></_>
    <_>
      <internalNodes>
        0 -1 15969 -2.6329711079597473e-02</internalNodes>
      <leafValues>
        7.0284950733184814e-01 -3.9130106568336487e-02</leafValues></_>
    <_>
      <internalNodes>
        0 -1 10174 -4.7054281458258629e-03</internalNodes>
      <leafValues>
        -6.8472880125045776e-01 4.7258481383323669e-02</leafValues></_>
    <_>
      <internalNodes>
        0 -1 125656 -4.2145447805523872e-03</internalNodes>
      <leafValues>
        -5.9456634521484375e-01 4.1293803602457047e-02</leafValues></_>
    <_>
      <internalNodes>
        0 -1 78810 2.5426648557186127e-02</internalNodes>
      <leafValues>
        -8.2784868776798248e-02 4.0462645888328552e-01</leafValues></_>
    <_>
      <internalNodes>
        0 -1 98261 -7.0986861828714609e-05</internalNodes>
      <leafValues>
        -2.0852737128734589e-01 1.7838570475578308e-01</leafValues></_>
    <_>
      <internalNodes>
        0 -1 96942 -2.2902586497366428e-03</internalNodes>
      <leafValues>
        3.6805474758148193e-01 -9.9402703344821930e-02</leafValues></_>
    <_>
      <internalNodes>
        0 -1 113793 -1.2860738206654787e-04</internalNodes>
      <leafValues>
        2.1790210902690887e-01 -1.4151649177074432e-01</leafValues></_>
    <_>
      <internalNodes>
        0 -1 131324 -1.0036628227680922e-03</internalNodes>
      <leafValues>
        -1.9327887892723083e-01 1.5630571544170380e-01</leafValues></_>
    <_>
      <internalNodes>
        0 -1 138313 -5.7247944641858339e-04</internalNodes>
      <leafValues>
        2.7286934852600098e-01 -1.3714529573917389e-01</leafValues></_>
    <_>
      <internalNodes>
        0 -1 142534 -3.9351778104901314e-03</internalNodes>
      <leafValues>
        -5.9034919738769531e-01 5.0807852298021317e-02</leafValues></_>
    <_>
      <internalNodes>
        0 -1 81543 -5.7906482834368944e-04</internalNodes>
      <leafValues>
        3.1446850299835205e-01 -1.0818913578987122e-01</leafValues></_>
    <_>
      <internalNodes>
        0 -1 4824 6.2389001250267029e-03</internalNodes>
      <leafValues>
        -9.1886617243289948e-02 3.1789031624794006e-01</leafValues></_>
    <_>
      <internalNodes>
        0 -1 67255 -3.6418616771697998e-02</internalNodes>
      <leafValues>
        1.6360953450202942e-01 -2.2247816622257233e-01</leafValues></_>
    <_>
      <internalNodes>
        0 -1 37755 4.1483109816908836e-03</internalNodes>
      <leafValues>
        -9.1953396797180176e-02 4.0631213784217834e-01</leafValues></_>
    <_>
      <internalNodes>
        0 -1 55351 1.7022346146404743e-03</internalNodes>
      <leafValues>
        8.8379889726638794e-02 -3.3409428596496582e-01</leafValues></_>
    <_>
      <internalNodes>
        0 -1 26772 -2.9748629778623581e-02</internalNodes>
      <leafValues>
        5.1740676164627075e-01 -6.3448265194892883e-02</leafValues></_>
    <_>
      <internalNodes>
        0 -1 12800 2.4207960814237595e-03</internalNodes>
      <leafValues>
        -1.8743816018104553e-01 2.3262792825698853e-01</leafValues></_>
    <_>
      <internalNodes>
        0 -1 94780 -2.8498237952589989e-03</internalNodes>
      <leafValues>
        2.9738354682922363e-01 -1.1563075333833694e-01</leafValues></_>
    <_>
      <internalNodes>
        0 -1 1663 5.1587671041488647e-02</internalNodes>
      <leafValues>
        -1.9680061936378479e-01 1.9388967752456665e-01</leafValues></_>
    <_>
      <internalNodes>
        0 -1 108733 -4.4254874810576439e-03</internalNodes>
      <leafValues>
        -4.4625169038772583e-01 7.2362028062343597e-02</leafValues></_>
    <_>
      <internalNodes>
        0 -1 63160 -4.5409426093101501e-03</internalNodes>
      <leafValues>
        2.5141656398773193e-01 -1.2630909681320190e-01</leafValues></_>
    <_>
      <internalNodes>
        0 -1 140057 5.5151716805994511e-03</internalNodes>
      <leafValues>
        -1.3805435597896576e-01 2.3578263819217682e-01</leafValues></_>
    <_>
      <internalNodes>
        0 -1 142134 1.1001586681231856e-03</internalNodes>
      <leafValues>
        7.1517869830131531e-02 -5.2641338109970093e-01</leafValues></_>
    <_>
      <internalNodes>
        0 -1 16061 8.2081053406000137e-03</internalNodes>
      <leafValues>
        -8.7557911872863770e-02 4.0050736069679260e-01</leafValues></_>
    <_>
      <internalNodes>
        0 -1 142583 -6.0347951948642731e-03</internalNodes>
      <leafValues>
        -5.3991902619600296e-02 5.1059317588806152e-01</leafValues></_>
    <_>
      <internalNodes>
        0 -1 37849 -8.0154901370406151e-03</internalNodes>
      <leafValues>
        3.6451196670532227e-01 -8.6083561182022095e-02</leafValues></_>
    <_>
      <internalNodes>
        0 -1 9603 -2.7504118625074625e-03</internalNodes>
      <leafValues>
        -5.0549018383026123e-01 5.7599045336246490e-02</leafValues></_>
    <_>
      <internalNodes>
        0 -1 21854 8.6433822289109230e-03</internalNodes>
      <leafValues>
        1.0400268435478210e-01 -3.0260828137397766e-01</leafValues></_>
    <_>
      <internalNodes>
        0 -1 24509 -6.5274755470454693e-03</internalNodes>
      <leafValues>
        2.2089445590972900e-01 -1.4561823010444641e-01</leafValues></_>
    <_>
      <internalNodes>
        0 -1 76626 -1.0526110418140888e-03</internalNodes>
      <leafValues>
        2.3274661600589752e-01 -1.3500003516674042e-01</leafValues></_>
    <_>
      <internalNodes>
        0 -1 119077 -8.5656181909143925e-04</internalNodes>
      <leafValues>
        -5.9541380405426025e-01 5.3634285926818848e-02</leafValues></_>
    <_>
      <internalNodes>
        0 -1 113489 -6.1660417122766376e-04</internalNodes>
      <leafValues>
        3.3725759387016296e-01 -9.0777039527893066e-02</leafValues></_></weakClassifiers></stage9>
</opencv_storage>
