<?xml version="1.0"?>
<opencv_storage>
<stage7>
  <maxWeakCount>81</maxWeakCount>
  <stageThreshold>-6.2957781553268433e-01</stageThreshold>
  <weakClassifiers>
    <_>
      <internalNodes>
        0 -1 30680 1.2211433611810207e-02</internalNodes>
      <leafValues>
        -5.1684588193893433e-01 -3.3918127417564392e-02</leafValues></_>
    <_>
      <internalNodes>
        0 -1 29727 -5.3668599575757980e-03</internalNodes>
      <leafValues>
        1.6632600128650665e-01 -3.3624410629272461e-01</leafValues></_>
    <_>
      <internalNodes>
        0 -1 131901 9.8123261705040932e-03</internalNodes>
      <leafValues>
        -9.6901439130306244e-02 4.0800559520721436e-01</leafValues></_>
    <_>
      <internalNodes>
        0 -1 7981 1.1855978518724442e-02</internalNodes>
      <leafValues>
        4.6250008046627045e-02 -7.3057180643081665e-01</leafValues></_>
    <_>
      <internalNodes>
        0 -1 102648 -2.2316206013783813e-04</internalNodes>
      <leafValues>
        1.7893289029598236e-01 -1.7365258932113647e-01</leafValues></_>
    <_>
      <internalNodes>
        0 -1 13542 -1.2005943572148681e-03</internalNodes>
      <leafValues>
        -3.9058607816696167e-01 1.1551915109157562e-01</leafValues></_>
    <_>
      <internalNodes>
        0 -1 142869 3.1064340146258473e-04</internalNodes>
      <leafValues>
        4.7385685145854950e-02 -4.1844969987869263e-01</leafValues></_>
    <_>
      <internalNodes>
        0 -1 53529 -1.4733499847352505e-03</internalNodes>
      <leafValues>
        2.2983202338218689e-01 -1.2326065450906754e-01</leafValues></_>
    <_>
      <internalNodes>
        0 -1 43256 -6.6716000437736511e-02</internalNodes>
      <leafValues>
        3.2798531651496887e-01 -1.0838466137647629e-01</leafValues></_>
    <_>
      <internalNodes>
        0 -1 140045 -3.5141188651323318e-02</internalNodes>
      <leafValues>
        6.6273599863052368e-02 -5.3357684612274170e-01</leafValues></_>
    <_>
      <internalNodes>
        0 -1 82930 5.0658930558711290e-04</internalNodes>
      <leafValues>
        -2.3524083197116852e-01 1.2295498698949814e-01</leafValues></_>
    <_>
      <internalNodes>
        0 -1 77520 -1.5092319808900356e-03</internalNodes>
      <leafValues>
        3.4005039930343628e-01 -8.7833352386951447e-02</leafValues></_>
    <_>
      <internalNodes>
        0 -1 651 2.6880332827568054e-01</internalNodes>
      <leafValues>
        -8.0246508121490479e-02 4.2625069618225098e-01</leafValues></_>
    <_>
      <internalNodes>
        0 -1 9546 2.1938923746347427e-03</internalNodes>
      <leafValues>
        -1.7658522725105286e-01 2.1298301219940186e-01</leafValues></_>
    <_>
      <internalNodes>
        0 -1 125670 -4.6793263754807413e-04</internalNodes>
      <leafValues>
        2.6351541280746460e-01 -1.1740518361330032e-01</leafValues></_>
    <_>
      <internalNodes>
        0 -1 125670 3.0575221171602607e-04</internalNodes>
      <leafValues>
        -1.1752281337976456e-01 3.1615170836448669e-01</leafValues></_>
    <_>
      <internalNodes>
        0 -1 142869 -8.1195926759392023e-04</internalNodes>
      <leafValues>
        -4.7669592499732971e-01 6.2109980732202530e-02</leafValues></_>
    <_>
      <internalNodes>
        0 -1 126562 -9.4247525557875633e-03</internalNodes>
      <leafValues>
        4.7646996378898621e-01 -7.3518432676792145e-02</leafValues></_>
    <_>
      <internalNodes>
        0 -1 7362 4.0318993851542473e-03</internalNodes>
      <leafValues>
        4.3111089617013931e-02 -7.5438410043716431e-01</leafValues></_>
    <_>
      <internalNodes>
        0 -1 53170 -3.2733683474361897e-03</internalNodes>
      <leafValues>
        -6.6689091920852661e-01 3.5523198544979095e-02</leafValues></_>
    <_>
      <internalNodes>
        0 -1 79734 1.3666497543454170e-03</internalNodes>
      <leafValues>
        -1.1058662831783295e-01 2.7140355110168457e-01</leafValues></_>
    <_>
      <internalNodes>
        0 -1 68444 -4.7360043972730637e-03</internalNodes>
      <leafValues>
        2.6125967502593994e-01 -1.4091777801513672e-01</leafValues></_>
    <_>
      <internalNodes>
        0 -1 80501 -2.3503698408603668e-02</internalNodes>
      <leafValues>
        -3.6970102787017822e-01 8.4918513894081116e-02</leafValues></_>
    <_>
      <internalNodes>
        0 -1 142527 -2.9549840837717056e-02</internalNodes>
      <leafValues>
        -4.8950794339179993e-01 5.4254516959190369e-02</leafValues></_>
    <_>
      <internalNodes>
        0 -1 125833 -3.7886941572651267e-04</internalNodes>
      <leafValues>
        1.4513753354549408e-01 -2.1622531116008759e-01</leafValues></_>
    <_>
      <internalNodes>
        0 -1 54527 -4.4716313481330872e-02</internalNodes>
      <leafValues>
        -6.5546911954879761e-01 3.9493497461080551e-02</leafValues></_>
    <_>
      <internalNodes>
        0 -1 133654 -1.7785078380256891e-03</internalNodes>
      <leafValues>
        -4.4994825124740601e-01 5.8516219258308411e-02</leafValues></_>
    <_>
      <internalNodes>
        0 -1 126595 -6.3568865880370140e-03</internalNodes>
      <leafValues>
        -7.1244192123413086e-01 3.6080222576856613e-02</leafValues></_>
    <_>
      <internalNodes>
        0 -1 45 6.6270688548684120e-03</internalNodes>
      <leafValues>
        -9.4029903411865234e-02 3.0447155237197876e-01</leafValues></_>
    <_>
      <internalNodes>
        0 -1 65643 1.7432143911719322e-02</internalNodes>
      <leafValues>
        8.5362643003463745e-02 -3.1944632530212402e-01</leafValues></_>
    <_>
      <internalNodes>
        0 -1 56870 3.1145673990249634e-01</internalNodes>
      <leafValues>
        -6.0610022395849228e-02 5.1989454030990601e-01</leafValues></_>
    <_>
      <internalNodes>
        0 -1 127744 -5.1910445094108582e-02</internalNodes>
      <leafValues>
        -3.1598755717277527e-01 9.8352178931236267e-02</leafValues></_>
    <_>
      <internalNodes>
        0 -1 77729 -8.4129086462780833e-04</internalNodes>
      <leafValues>
        3.9775040745735168e-01 -7.7903151512145996e-02</leafValues></_>
    <_>
      <internalNodes>
        0 -1 743 4.7977510839700699e-03</internalNodes>
      <leafValues>
        -1.1142762750387192e-01 2.8328529000282288e-01</leafValues></_>
    <_>
      <internalNodes>
        0 -1 123070 2.6342701166868210e-03</internalNodes>
      <leafValues>
        3.6881472915410995e-02 -8.1528067588806152e-01</leafValues></_>
    <_>
      <internalNodes>
        0 -1 120119 9.9237146787345409e-04</internalNodes>
      <leafValues>
        -1.1024238914251328e-01 2.6628237962722778e-01</leafValues></_>
    <_>
      <internalNodes>
        0 -1 116919 -7.0957750082015991e-02</internalNodes>
      <leafValues>
        3.1910037994384766e-01 -8.6514234542846680e-02</leafValues></_>
    <_>
      <internalNodes>
        0 -1 124084 -1.1096796952188015e-03</internalNodes>
      <leafValues>
        2.9922041296958923e-01 -9.1628290712833405e-02</leafValues></_>
    <_>
      <internalNodes>
        0 -1 33751 -2.1719846129417419e-01</internalNodes>
      <leafValues>
        -7.0457208156585693e-01 4.2865801602602005e-02</leafValues></_>
    <_>
      <internalNodes>
        0 -1 112928 5.6183324195444584e-03</internalNodes>
      <leafValues>
        2.9327861964702606e-02 -7.6262128353118896e-01</leafValues></_>
    <_>
      <internalNodes>
        0 -1 79885 4.1767410933971405e-02</internalNodes>
      <leafValues>
        -1.1787536740303040e-01 2.9878646135330200e-01</leafValues></_>
    <_>
      <internalNodes>
        0 -1 73380 -8.6595192551612854e-02</internalNodes>
      <leafValues>
        3.4753885865211487e-01 -9.4962880015373230e-02</leafValues></_>
    <_>
      <internalNodes>
        0 -1 130779 -2.9624332673847675e-03</internalNodes>
      <leafValues>
        -5.1515567302703857e-01 5.7692676782608032e-02</leafValues></_>
    <_>
      <internalNodes>
        0 -1 47173 1.3915984332561493e-01</internalNodes>
      <leafValues>
        2.4686291813850403e-02 -8.9060574769973755e-01</leafValues></_>
    <_>
      <internalNodes>
        0 -1 11768 1.1524939909577370e-03</internalNodes>
      <leafValues>
        4.1669528931379318e-02 -5.3757661581039429e-01</leafValues></_>
    <_>
      <internalNodes>
        0 -1 97098 2.0407343981787562e-04</internalNodes>
      <leafValues>
        -1.3351804018020630e-01 2.1319583058357239e-01</leafValues></_>
    <_>
      <internalNodes>
        0 -1 142850 3.3796008210629225e-04</internalNodes>
      <leafValues>
        6.1464067548513412e-02 -4.8945468664169312e-01</leafValues></_>
    <_>
      <internalNodes>
        0 -1 43537 1.3212514109909534e-02</internalNodes>
      <leafValues>
        -6.1735488474369049e-02 4.8138716816902161e-01</leafValues></_>
    <_>
      <internalNodes>
        0 -1 138809 -4.3355347588658333e-03</internalNodes>
      <leafValues>
        -6.3760638236999512e-01 4.5546784996986389e-02</leafValues></_>
    <_>
      <internalNodes>
        0 -1 15367 -1.1431326856836677e-03</internalNodes>
      <leafValues>
        -5.9079140424728394e-01 3.5937029868364334e-02</leafValues></_>
    <_>
      <internalNodes>
        0 -1 130654 3.9400195237249136e-04</internalNodes>
      <leafValues>
        -1.3360399007797241e-01 1.9487828016281128e-01</leafValues></_>
    <_>
      <internalNodes>
        0 -1 29500 2.3563865572214127e-02</internalNodes>
      <leafValues>
        -7.7743485569953918e-02 3.5845956206321716e-01</leafValues></_>
    <_>
      <internalNodes>
        0 -1 43306 -5.3365272469818592e-04</internalNodes>
      <leafValues>
        -4.1183418035507202e-01 7.4059113860130310e-02</leafValues></_>
    <_>
      <internalNodes>
        0 -1 75771 1.1806029942817986e-04</internalNodes>
      <leafValues>
        -2.3195111751556396e-01 1.1860468238592148e-01</leafValues></_>
    <_>
      <internalNodes>
        0 -1 95433 7.1231031324714422e-04</internalNodes>
      <leafValues>
        5.2481025457382202e-02 -4.8976555466651917e-01</leafValues></_>
    <_>
      <internalNodes>
        0 -1 85305 -2.8461702167987823e-03</internalNodes>
      <leafValues>
        2.7381816506385803e-01 -1.2632195651531219e-01</leafValues></_>
    <_>
      <internalNodes>
        0 -1 94775 1.0261025745421648e-03</internalNodes>
      <leafValues>
        -1.4830282330513000e-01 2.5103893876075745e-01</leafValues></_>
    <_>
      <internalNodes>
        0 -1 121631 8.3984332159161568e-03</internalNodes>
      <leafValues>
        -9.9892698228359222e-02 2.8187510371208191e-01</leafValues></_>
    <_>
      <internalNodes>
        0 -1 83245 -1.4361490029841661e-03</internalNodes>
      <leafValues>
        -7.3091053962707520e-01 3.9153899997472763e-02</leafValues></_>
    <_>
      <internalNodes>
        0 -1 41494 7.7929263934493065e-03</internalNodes>
      <leafValues>
        -5.8252446353435516e-02 5.3698140382766724e-01</leafValues></_>
    <_>
      <internalNodes>
        0 -1 51823 -2.4349126964807510e-02</internalNodes>
      <leafValues>
        2.8365281224250793e-01 -9.4482377171516418e-02</leafValues></_>
    <_>
      <internalNodes>
        0 -1 76968 -2.8197363018989563e-02</internalNodes>
      <leafValues>
        -6.6009062528610229e-01 4.5960180461406708e-02</leafValues></_>
    <_>
      <internalNodes>
        0 -1 87697 -3.7451944081112742e-04</internalNodes>
      <leafValues>
        2.7960973978042603e-01 -1.0646251589059830e-01</leafValues></_>
    <_>
      <internalNodes>
        0 -1 113503 1.5315413475036621e-04</internalNodes>
      <leafValues>
        -1.7066004872322083e-01 1.6533911228179932e-01</leafValues></_>
    <_>
      <internalNodes>
        0 -1 105165 -1.6948038339614868e-01</internalNodes>
      <leafValues>
        7.1547114849090576e-01 -4.5661892741918564e-02</leafValues></_>
    <_>
      <internalNodes>
        0 -1 120245 -2.7000294066965580e-03</internalNodes>
      <leafValues>
        -3.2736447453498840e-01 9.9434375762939453e-02</leafValues></_>
    <_>
      <internalNodes>
        0 -1 69898 -5.6846863590180874e-03</internalNodes>
      <leafValues>
        4.0424954891204834e-01 -7.0732384920120239e-02</leafValues></_>
    <_>
      <internalNodes>
        0 -1 7251 1.6239197924733162e-02</internalNodes>
      <leafValues>
        -5.0055071711540222e-02 5.3838151693344116e-01</leafValues></_>
    <_>
      <internalNodes>
        0 -1 142661 4.5369281433522701e-03</internalNodes>
      <leafValues>
        4.1667558252811432e-02 -7.4174952507019043e-01</leafValues></_>
    <_>
      <internalNodes>
        0 -1 142323 -1.1815220204880461e-05</internalNodes>
      <leafValues>
        -3.6824394017457962e-02 9.3772029876708984e-01</leafValues></_>
    <_>
      <internalNodes>
        0 -1 17077 2.0565690472722054e-02</internalNodes>
      <leafValues>
        -7.8269839286804199e-02 3.3806502819061279e-01</leafValues></_>
    <_>
      <internalNodes>
        0 -1 57339 -1.0055703110992908e-02</internalNodes>
      <leafValues>
        6.3205838203430176e-01 -4.3631054461002350e-02</leafValues></_>
    <_>
      <internalNodes>
        0 -1 98151 -3.0464041046798229e-03</internalNodes>
      <leafValues>
        3.8276410102844238e-01 -6.8943589925765991e-02</leafValues></_>
    <_>
      <internalNodes>
        0 -1 139279 6.2913121655583382e-03</internalNodes>
      <leafValues>
        -6.6037714481353760e-02 3.9299288392066956e-01</leafValues></_>
    <_>
      <internalNodes>
        0 -1 141214 -9.8543092608451843e-03</internalNodes>
      <leafValues>
        3.5095769166946411e-01 -7.5909048318862915e-02</leafValues></_>
    <_>
      <internalNodes>
        0 -1 138764 3.3670263364911079e-03</internalNodes>
      <leafValues>
        3.3227253705263138e-02 -7.9849731922149658e-01</leafValues></_>
    <_>
      <internalNodes>
        0 -1 136858 -1.0788788495119661e-04</internalNodes>
      <leafValues>
        -2.0242246985435486e-01 1.2653797864913940e-01</leafValues></_>
    <_>
      <internalNodes>
        0 -1 120240 4.5481035485863686e-03</internalNodes>
      <leafValues>
        3.6157187074422836e-02 -7.5467503070831299e-01</leafValues></_>
    <_>
      <internalNodes>
        0 -1 133224 -2.5192856788635254e-02</internalNodes>
      <leafValues>
        3.3595198392868042e-01 -8.8133640587329865e-02</leafValues></_>
    <_>
      <internalNodes>
        0 -1 67512 -2.0360842347145081e-02</internalNodes>
      <leafValues>
        6.2072432041168213e-01 -4.0412046015262604e-02</leafValues></_>
    <_>
      <internalNodes>
        0 -1 105465 2.1636928431689739e-04</internalNodes>
      <leafValues>
        -1.2084339559078217e-01 2.1626438200473785e-01</leafValues></_></weakClassifiers></stage7>
</opencv_storage>
