<?xml version="1.0"?>
<opencv_storage>
<stage0>
  <maxWeakCount>20</maxWeakCount>
  <stageThreshold>-3.7075862288475037e-01</stageThreshold>
  <weakClassifiers>
    <_>
      <internalNodes>
        0 -1 8531 -3.3458344638347626e-02</internalNodes>
      <leafValues>
        8.0968278646469116e-01 -1.2605042755603790e-01</leafValues></_>
    <_>
      <internalNodes>
        0 -1 18874 -4.8649035394191742e-02</internalNodes>
      <leafValues>
        -3.2829529047012329e-01 6.2656193971633911e-01</leafValues></_>
    <_>
      <internalNodes>
        0 -1 5007 1.5152668580412865e-02</internalNodes>
      <leafValues>
        -4.6410149335861206e-01 3.5545992851257324e-01</leafValues></_>
    <_>
      <internalNodes>
        0 -1 8193 -3.2816939055919647e-02</internalNodes>
      <leafValues>
        7.3532718420028687e-01 -2.2730408608913422e-01</leafValues></_>
    <_>
      <internalNodes>
        0 -1 1784 -2.5299869477748871e-02</internalNodes>
      <leafValues>
        6.2665891647338867e-01 -2.6105976104736328e-01</leafValues></_>
    <_>
      <internalNodes>
        0 -1 8518 6.7219853401184082e-02</internalNodes>
      <leafValues>
        -1.7115469276905060e-01 7.1568071842193604e-01</leafValues></_>
    <_>
      <internalNodes>
        0 -1 12172 -8.6954355239868164e-02</internalNodes>
      <leafValues>
        6.3040232658386230e-01 -2.4807283282279968e-01</leafValues></_>
    <_>
      <internalNodes>
        0 -1 19738 2.3339651525020599e-03</internalNodes>
      <leafValues>
        -3.0067828297615051e-01 4.9083554744720459e-01</leafValues></_>
    <_>
      <internalNodes>
        0 -1 8935 1.2794080190360546e-02</internalNodes>
      <leafValues>
        -2.1218246221542358e-01 5.6615203619003296e-01</leafValues></_>
    <_>
      <internalNodes>
        0 -1 22189 4.4964823871850967e-02</internalNodes>
      <leafValues>
        -2.4034512042999268e-01 6.1520600318908691e-01</leafValues></_>
    <_>
      <internalNodes>
        0 -1 25207 -3.5388566553592682e-02</internalNodes>
      <leafValues>
        -6.9121605157852173e-01 2.0492067933082581e-01</leafValues></_>
    <_>
      <internalNodes>
        0 -1 8619 -5.2544334903359413e-03</internalNodes>
      <leafValues>
        3.7059092521667480e-01 -3.6288008093833923e-01</leafValues></_>
    <_>
      <internalNodes>
        0 -1 22001 3.4664832055568695e-02</internalNodes>
      <leafValues>
        -1.9279430806636810e-01 6.1050945520401001e-01</leafValues></_>
    <_>
      <internalNodes>
        0 -1 25296 -3.4137830138206482e-02</internalNodes>
      <leafValues>
        5.4306530952453613e-01 -2.0054979622364044e-01</leafValues></_>
    <_>
      <internalNodes>
        0 -1 4516 -5.2008524537086487e-02</internalNodes>
      <leafValues>
        6.6565608978271484e-01 -1.6718098521232605e-01</leafValues></_>
    <_>
      <internalNodes>
        0 -1 2675 -1.8013693392276764e-01</internalNodes>
      <leafValues>
        -7.8943991661071777e-01 1.5822689235210419e-01</leafValues></_>
    <_>
      <internalNodes>
        0 -1 8840 4.6438276767730713e-02</internalNodes>
      <leafValues>
        -2.4772405624389648e-01 5.3931009769439697e-01</leafValues></_>
    <_>
      <internalNodes>
        0 -1 4426 3.0650720000267029e-02</internalNodes>
      <leafValues>
        -1.9432212412357330e-01 5.2076900005340576e-01</leafValues></_>
    <_>
      <internalNodes>
        0 -1 14602 4.4693000614643097e-02</internalNodes>
      <leafValues>
        1.4078378677368164e-01 -9.3415087461471558e-01</leafValues></_>
    <_>
      <internalNodes>
        0 -1 2434 -3.8788408041000366e-02</internalNodes>
      <leafValues>
        5.5348378419876099e-01 -2.4267327785491943e-01</leafValues></_></weakClassifiers></stage0>
</opencv_storage>
