<?xml version="1.0"?>
<opencv_storage>
<stage1>
  <maxWeakCount>24</maxWeakCount>
  <stageThreshold>-3.1866428256034851e-01</stageThreshold>
  <weakClassifiers>
    <_>
      <internalNodes>
        0 -1 20418 -1.8689375370740891e-02</internalNodes>
      <leafValues>
        7.7689242362976074e-01 6.1082024127244949e-02</leafValues></_>
    <_>
      <internalNodes>
        0 -1 1651 9.0602814452722669e-04</internalNodes>
      <leafValues>
        -4.8685050010681152e-01 3.7416750192642212e-01</leafValues></_>
    <_>
      <internalNodes>
        0 -1 7286 3.5881094634532928e-02</internalNodes>
      <leafValues>
        -2.4059128761291504e-01 6.4834749698638916e-01</leafValues></_>
    <_>
      <internalNodes>
        0 -1 10687 -4.7991242259740829e-02</internalNodes>
      <leafValues>
        5.6801038980484009e-01 -3.0795332789421082e-01</leafValues></_>
    <_>
      <internalNodes>
        0 -1 26703 -2.1626162528991699e-01</internalNodes>
      <leafValues>
        -9.8875528573989868e-01 2.0157642662525177e-01</leafValues></_>
    <_>
      <internalNodes>
        0 -1 12638 4.1128899902105331e-03</internalNodes>
      <leafValues>
        -3.7609434127807617e-01 3.8142782449722290e-01</leafValues></_>
    <_>
      <internalNodes>
        0 -1 10924 3.0330732464790344e-02</internalNodes>
      <leafValues>
        -2.5333911180496216e-01 6.0313349962234497e-01</leafValues></_>
    <_>
      <internalNodes>
        0 -1 12489 2.0586233586072922e-03</internalNodes>
      <leafValues>
        -3.0835762619972229e-01 3.9866298437118530e-01</leafValues></_>
    <_>
      <internalNodes>
        0 -1 23944 -2.8565637767314911e-02</internalNodes>
      <leafValues>
        8.3379817008972168e-01 -1.3877631723880768e-01</leafValues></_>
    <_>
      <internalNodes>
        0 -1 3153 2.5089732371270657e-03</internalNodes>
      <leafValues>
        -2.8971841931343079e-01 3.9465010166168213e-01</leafValues></_>
    <_>
      <internalNodes>
        0 -1 960 4.2093075811862946e-02</internalNodes>
      <leafValues>
        -1.2779228389263153e-01 8.1891888380050659e-01</leafValues></_>
    <_>
      <internalNodes>
        0 -1 19894 1.2056111358106136e-02</internalNodes>
      <leafValues>
        -1.8050630390644073e-01 5.4430419206619263e-01</leafValues></_>
    <_>
      <internalNodes>
        0 -1 2433 1.1278390884399414e-02</internalNodes>
      <leafValues>
        -2.3607975244522095e-01 3.9876684546470642e-01</leafValues></_>
    <_>
      <internalNodes>
        0 -1 26423 -1.6126750037074089e-02</internalNodes>
      <leafValues>
        6.4432519674301147e-01 -1.6073663532733917e-01</leafValues></_>
    <_>
      <internalNodes>
        0 -1 18735 -8.0600623041391373e-03</internalNodes>
      <leafValues>
        -1.5505725145339966e-01 6.9664514064788818e-01</leafValues></_>
    <_>
      <internalNodes>
        0 -1 207 3.0882470309734344e-02</internalNodes>
      <leafValues>
        -1.5072727203369141e-01 6.3210612535476685e-01</leafValues></_>
    <_>
      <internalNodes>
        0 -1 9558 -1.5887099504470825e-01</internalNodes>
      <leafValues>
        6.4161723852157593e-01 -1.3119956851005554e-01</leafValues></_>
    <_>
      <internalNodes>
        0 -1 25572 -6.0727369040250778e-02</internalNodes>
      <leafValues>
        6.7706441879272461e-01 -1.4562217891216278e-01</leafValues></_>
    <_>
      <internalNodes>
        0 -1 21815 7.3419801890850067e-02</internalNodes>
      <leafValues>
        -1.4707018435001373e-01 7.6863932609558105e-01</leafValues></_>
    <_>
      <internalNodes>
        0 -1 13534 8.3056446164846420e-03</internalNodes>
      <leafValues>
        -2.4722582101821899e-01 4.1304075717926025e-01</leafValues></_>
    <_>
      <internalNodes>
        0 -1 3247 -9.3805797398090363e-02</internalNodes>
      <leafValues>
        -8.7282764911651611e-01 1.2045217305421829e-01</leafValues></_>
    <_>
      <internalNodes>
        0 -1 14157 5.3086904808878899e-03</internalNodes>
      <leafValues>
        -2.4057884514331818e-01 4.6607744693756104e-01</leafValues></_>
    <_>
      <internalNodes>
        0 -1 3462 7.3570191860198975e-02</internalNodes>
      <leafValues>
        1.0783677548170090e-01 -9.3219548463821411e-01</leafValues></_>
    <_>
      <internalNodes>
        0 -1 14836 -6.5040687331929803e-04</internalNodes>
      <leafValues>
        3.5318917036056519e-01 -2.8756210207939148e-01</leafValues></_></weakClassifiers></stage1>
</opencv_storage>
